~o
<STREAMINFO> 1 39
<VECSIZE> 39<NULLD><MFCC_D_A_0><DIAGC>
~s "silst"
<NUMMIXES> 3
<MIXTURE> 1 2.243074e-01
<MEAN> 39
 -2.255723e+01 4.420568e+00 -5.010467e+00 3.570145e-01 3.847830e+00 -1.678985e+00 6.786658e-01 4.062420e+00 1.488381e-01 -2.767943e-02 1.426861e+00 1.192626e+00 5.906636e+01 2.456338e-01 -5.759357e-02 9.286109e-02 1.379493e-01 2.147964e-01 3.326350e-01 2.148434e-01 -1.219472e-02 2.175009e-01 1.137660e-01 5.727528e-02 -7.099907e-02 -5.004929e-01 3.709366e-01 3.229979e-02 2.463142e-01 -9.529343e-03 -1.796985e-01 8.905309e-02 -9.565206e-02 -1.911552e-01 -4.781913e-02 -4.898486e-02 -2.815200e-02 -7.044583e-02 -1.344301e-01
<VARIANCE> 39
 6.006123e+01 4.265004e+01 4.782697e+01 2.355055e+01 3.085911e+01 3.713966e+01 2.191417e+01 3.011337e+01 2.703394e+01 2.344438e+01 2.717709e+01 2.007263e+01 6.469505e+01 1.610435e+00 1.174792e+00 1.094823e+00 1.186349e+00 1.724672e+00 2.051540e+00 1.475611e+00 1.683430e+00 1.568499e+00 1.623084e+00 1.800390e+00 1.297801e+00 1.607540e+00 2.455214e-01 2.975297e-01 2.838492e-01 3.134505e-01 3.962778e-01 4.734373e-01 3.510064e-01 3.647363e-01 3.313238e-01 3.688942e-01 4.241017e-01 3.000019e-01 2.851840e-01
<GCONST> 1.081589e+02
<MIXTURE> 2 3.774393e-01
<MEAN> 39
 -1.285755e+01 3.264331e+00 4.325594e-01 2.414045e+00 1.221300e+00 1.436612e+00 5.375112e-01 4.650450e-01 8.601025e-02 -3.482393e-01 2.223969e-01 -6.652669e-01 5.071597e+01 1.766821e+00 -6.118213e-01 -1.685621e-01 -1.505476e+00 -1.722059e+00 -1.208508e+00 -1.462669e+00 -1.055328e+00 -1.019607e+00 -7.420328e-01 -5.783601e-01 -5.718794e-01 2.546935e+00 4.978117e-01 -2.303699e-01 -1.203725e-01 -5.394737e-01 -5.034320e-01 -3.615847e-01 -4.635758e-01 -1.603586e-01 -1.277827e-01 -1.432059e-01 -9.107321e-02 -1.826715e-01 9.688237e-01
<VARIANCE> 39
 1.387499e+01 1.432234e+01 1.791826e+01 1.538405e+01 1.695893e+01 2.053733e+01 1.715290e+01 1.746155e+01 1.689776e+01 1.808260e+01 1.648894e+01 1.529419e+01 2.679036e+01 4.073964e+00 4.151335e+00 4.017350e+00 4.497587e+00 4.160901e+00 4.673265e+00 4.573614e+00 4.102304e+00 3.691301e+00 3.049996e+00 3.359328e+00 2.654539e+00 3.774691e+00 4.150044e-01 3.876283e-01 4.024169e-01 5.506964e-01 5.875544e-01 5.899043e-01 5.425993e-01 4.568136e-01 5.582741e-01 4.564193e-01 4.509081e-01 3.935216e-01 4.332775e-01
<GCONST> 1.165217e+02
<MIXTURE> 3 3.982528e-01
<MEAN> 39
 -1.498507e+01 2.780041e+00 -1.340921e+00 2.351803e+00 1.592059e+00 1.349194e+00 1.261688e+00 1.802928e+00 9.410945e-01 -2.184024e-01 3.654633e-01 -6.565610e-01 5.227451e+01 3.244551e-01 -1.602871e-01 1.050406e-01 -1.631000e-01 -1.613927e-01 2.851983e-02 -3.000385e-01 -2.425741e-01 -2.360497e-01 -1.298307e-01 -4.706823e-02 -1.576835e-01 2.806564e-01 3.123851e-01 -7.306820e-02 6.105233e-02 -2.216446e-01 -3.009341e-01 -2.885712e-01 -3.089914e-01 -1.982882e-01 -1.791573e-01 -8.462834e-02 -2.846033e-02 -1.161863e-02 4.287055e-01
<VARIANCE> 39
 3.113308e+01 2.359844e+01 2.698033e+01 1.718852e+01 2.027812e+01 1.737850e+01 1.638806e+01 1.827632e+01 1.731028e+01 1.583241e+01 1.492555e+01 1.406972e+01 2.751607e+01 2.018562e+00 2.062987e+00 2.165274e+00 1.513047e+00 1.907970e+00 1.942448e+00 1.821859e+00 1.967634e+00 1.785033e+00 1.463107e+00 1.645384e+00 1.487531e+00 1.902777e+00 5.135997e-01 4.774589e-01 4.125198e-01 4.123853e-01 4.643377e-01 4.417506e-01 5.047417e-01 4.807257e-01 4.828377e-01 4.121223e-01 3.666732e-01 3.082935e-01 4.321285e-01
<GCONST> 1.071458e+02
~h "b"
<BEGINHMM>
<NUMSTATES> 5
<STATE> 2
<NUMMIXES> 3
<MIXTURE> 1 1.700133e-01
<MEAN> 39
 -1.243307e+01 -1.341343e-02 -7.784178e-01 2.033392e+00 1.580422e+00 1.080241e+00 -4.247260e-02 2.286956e+00 1.774928e+00 -6.334120e-01 1.231912e-01 1.679682e-01 5.107983e+01 -5.933621e-02 4.015874e-01 8.444957e-03 1.019825e-01 1.040039e-01 2.215432e-01 3.672683e-01 -1.977213e-02 2.181291e-01 5.212910e-01 3.459455e-01 7.543308e-02 -4.198640e-01 -3.815631e-03 -5.980577e-02 4.547600e-02 -7.450136e-02 -9.595280e-02 -8.708504e-02 -4.227024e-02 9.158025e-03 -1.443115e-01 -1.464510e-01 -7.247463e-02 -6.513553e-02 2.087649e-01
<VARIANCE> 39
 5.584140e+00 3.129412e+01 1.117736e+01 8.218648e+00 9.854378e+00 1.416507e+01 1.499109e+01 1.647612e+01 1.429010e+01 1.502640e+01 1.372436e+01 1.185244e+01 1.870530e+01 5.283281e-01 2.428545e+00 1.033370e+00 9.007933e-01 1.168557e+00 1.439947e+00 1.735635e+00 2.174242e+00 1.889701e+00 1.627181e+00 1.513186e+00 1.327625e+00 8.607660e-01 1.041616e-01 2.332678e-01 1.933240e-01 1.496095e-01 2.015005e-01 2.523676e-01 3.092494e-01 3.325375e-01 3.220857e-01 2.991757e-01 2.963065e-01 2.328898e-01 1.247643e-01
<GCONST> 8.928732e+01
<MIXTURE> 2 3.530330e-01
<MEAN> 39
 -4.352194e+00 8.208177e+00 2.032740e+00 1.546488e+00 -6.654629e-01 -1.249319e+00 -3.848201e+00 -4.677728e+00 -4.099039e+00 -3.196029e+00 -2.558469e+00 -3.324769e+00 5.472933e+01 -1.096977e+00 1.147672e+00 7.761571e-01 1.212501e+00 9.333818e-01 3.913805e-01 1.163465e+00 2.123861e-01 -2.285866e-01 -3.119106e-01 -3.931265e-01 -2.282869e-01 -1.620397e+00 -1.967928e-01 -9.372137e-01 -2.310691e-01 -5.092457e-01 -4.581536e-01 -1.528061e-01 -3.750364e-01 3.219955e-01 1.988195e-01 1.436288e-01 2.007924e-01 1.947059e-01 9.954531e-01
<VARIANCE> 39
 3.693251e+01 2.843769e+01 2.448186e+01 2.467374e+01 2.117252e+01 3.199652e+01 3.432810e+01 3.530643e+01 3.380088e+01 2.379528e+01 2.345052e+01 2.119188e+01 1.879589e+01 2.082662e+00 5.001268e+00 2.901279e+00 3.413292e+00 2.765686e+00 3.226668e+00 3.593777e+00 3.052743e+00 3.232090e+00 2.789802e+00 2.629146e+00 2.138691e+00 3.332852e+00 3.286754e-01 6.662840e-01 4.935267e-01 5.144138e-01 5.408186e-01 5.907690e-01 7.253458e-01 6.280410e-01 6.425423e-01 5.295815e-01 4.838417e-01 4.316559e-01 5.221618e-01
<GCONST> 1.207273e+02
<MIXTURE> 3 4.769532e-01
<MEAN> 39
 -1.510661e+01 -5.699696e+00 -2.064467e-01 -8.445421e-01 -8.558172e-01 -1.500562e+00 1.656870e-01 4.233861e+00 -9.231067e-02 -2.925098e+00 5.679781e-01 5.735792e-02 5.850993e+01 5.971048e-03 -1.173370e-01 -3.274431e-02 -1.187196e-02 2.534225e-02 1.110461e-03 -7.154515e-02 -1.839001e-02 5.169179e-03 -1.311518e-01 -1.369631e-01 -3.517248e-02 -9.922504e-03 7.625572e-02 8.734844e-02 -8.278112e-03 3.068773e-02 3.514331e-03 9.210339e-03 -6.792885e-02 -8.107883e-02 5.335249e-04 3.581955e-02 5.182082e-03 4.939708e-03 -5.851649e-03
<VARIANCE> 39
 2.053870e+01 4.961618e+01 1.446022e+01 1.494311e+01 1.682553e+01 2.498392e+01 2.281479e+01 2.411797e+01 2.164302e+01 2.024942e+01 2.107032e+01 1.629818e+01 4.584692e+01 4.470297e-01 8.445023e-01 6.372813e-01 8.025766e-01 9.776308e-01 1.305928e+00 1.308314e+00 1.477452e+00 1.535494e+00 1.441107e+00 1.412130e+00 1.308518e+00 6.730893e-01 6.436453e-02 1.743700e-01 1.444169e-01 1.663691e-01 2.185131e-01 2.750357e-01 3.192909e-01 3.269723e-01 3.373462e-01 3.202491e-01 2.965119e-01 2.840292e-01 1.372414e-01
<GCONST> 9.237383e+01
<STATE> 3
<NUMMIXES> 3
<MIXTURE> 1 2.842904e-01
<MEAN> 39
 -5.203038e+00 1.149239e+01 6.247528e+00 5.744143e+00 2.407777e+00 7.368577e-01 -2.233343e+00 -4.808103e+00 -5.594791e+00 -5.351038e+00 -3.794487e+00 -3.781922e+00 5.197836e+01 -1.408660e+00 -1.191585e+00 -2.131035e-01 3.099211e-01 1.683746e-01 2.834747e-01 2.523738e-01 8.805613e-01 5.657210e-01 2.467948e-01 1.826930e-01 2.013520e-01 2.617830e-01 4.368004e-01 -1.297994e+00 -8.615164e-01 -1.084726e+00 -1.054080e+00 -3.646023e-01 -8.680242e-01 1.158834e-01 3.130015e-01 4.811510e-01 6.269619e-01 3.534976e-01 1.570213e+00
<VARIANCE> 39
 1.173075e+01 7.402143e+00 8.884995e+00 1.308856e+01 1.132146e+01 1.572520e+01 1.831182e+01 1.706228e+01 1.903960e+01 1.527709e+01 1.276028e+01 1.136175e+01 7.203099e+00 1.124664e+00 2.351371e+00 1.789871e+00 2.031874e+00 1.786001e+00 1.824011e+00 2.927419e+00 2.010275e+00 2.054537e+00 1.930772e+00 1.769615e+00 1.569323e+00 2.155203e+00 2.535254e-01 5.635036e-01 5.224365e-01 5.509669e-01 4.608332e-01 6.021908e-01 6.407719e-01 5.984483e-01 5.884867e-01 5.056642e-01 4.342816e-01 3.563714e-01 3.638880e-01
<GCONST> 1.033115e+02
<MIXTURE> 2 3.363882e-01
<MEAN> 39
 -8.073599e+00 5.386502e+00 1.272575e+00 1.633442e+00 -1.068246e+00 -1.158527e+00 -3.142246e+00 -2.851549e+00 -2.768204e+00 -2.312471e+00 -1.946757e+00 -2.967476e+00 5.473675e+01 2.061778e-01 -2.394028e+00 -7.367177e-01 -1.296402e+00 -2.075089e+00 -1.200781e+00 -1.694581e+00 2.508374e-01 9.189713e-02 3.055903e-01 5.717681e-01 5.487784e-01 3.480657e+00 6.640453e-01 -5.554767e-01 -9.588393e-02 -8.151816e-01 -7.473219e-01 -3.617137e-01 -5.315619e-01 -1.315826e-01 -1.554237e-01 1.374966e-01 7.820693e-02 6.390311e-02 1.240805e+00
<VARIANCE> 39
 2.943483e+01 2.373034e+01 1.917807e+01 2.127228e+01 1.780978e+01 2.691837e+01 3.430738e+01 3.481283e+01 3.246727e+01 2.320704e+01 2.259069e+01 2.097324e+01 2.817861e+01 3.797526e+00 3.611872e+00 4.572890e+00 4.350412e+00 4.502774e+00 4.156818e+00 4.332740e+00 4.437361e+00 4.494915e+00 3.727587e+00 3.048630e+00 2.886364e+00 3.329830e+00 4.525241e-01 6.275786e-01 9.756905e-01 7.223608e-01 7.041781e-01 8.060039e-01 8.347586e-01 8.774350e-01 9.077810e-01 6.193617e-01 6.687637e-01 6.064876e-01 4.020470e-01
<GCONST> 1.264345e+02
<MIXTURE> 3 3.793217e-01
<MEAN> 39
 -9.021227e+00 7.353137e+00 3.396047e+00 4.283258e+00 2.084315e+00 1.377733e+00 -3.070462e-01 -1.697502e+00 -2.226953e+00 -2.376505e+00 -1.544658e+00 -2.166851e+00 5.077216e+01 -2.904058e-02 -2.232066e+00 -1.464356e+00 -1.263267e+00 -1.585938e+00 -6.350189e-01 -1.331341e+00 1.310111e-01 2.911056e-01 4.878889e-01 7.687919e-01 4.436348e-01 2.720891e+00 8.333291e-01 -8.281450e-01 -5.259846e-01 -1.030163e+00 -1.074306e+00 -4.239002e-01 -9.774072e-01 -2.357704e-01 -1.570427e-02 2.252367e-01 2.288030e-01 -9.408455e-03 1.687362e+00
<VARIANCE> 39
 1.857033e+01 1.430785e+01 1.135274e+01 1.145553e+01 1.091899e+01 1.455158e+01 2.035548e+01 2.336156e+01 2.478226e+01 1.908498e+01 1.384109e+01 1.218387e+01 1.190893e+01 2.174875e+00 2.929882e+00 2.521347e+00 3.018024e+00 2.828458e+00 2.706411e+00 3.493132e+00 2.877941e+00 2.793730e+00 2.827024e+00 2.387478e+00 2.013230e+00 3.225502e+00 2.768503e-01 4.903392e-01 6.529303e-01 5.913944e-01 4.993922e-01 7.791650e-01 6.648310e-01 6.489660e-01 6.977374e-01 6.103736e-01 5.697416e-01 4.640874e-01 2.777863e-01
<GCONST> 1.119587e+02
<STATE> 4
<NUMMIXES> 3
<MIXTURE> 1 2.396481e-01
<MEAN> 39
 1.355444e+00 -4.748695e+00 -7.297419e+00 -1.120860e+01 -9.873778e+00 2.433527e+00 -9.819375e+00 -5.312118e+00 4.530908e-01 5.072475e+00 3.250383e+00 -4.477424e+00 7.114737e+01 2.060215e+00 -2.683792e+00 -1.313098e+00 -3.194704e+00 -1.442221e+00 1.128710e+00 -6.397678e-01 4.621751e-01 1.579475e+00 1.431998e+00 -5.493506e-01 -1.619613e+00 3.996468e+00 -7.761900e-01 6.878791e-01 7.921363e-01 1.102254e+00 1.012112e+00 -4.028488e-02 8.563068e-01 5.458336e-01 -8.561917e-03 -7.993357e-01 -8.946916e-01 -1.088405e-01 -1.293366e+00
<VARIANCE> 39
 1.222702e+01 2.029725e+01 1.639583e+01 4.165358e+01 2.705952e+01 6.031989e+01 5.058593e+01 3.514956e+01 2.453666e+01 3.461774e+01 3.928147e+01 3.755525e+01 1.760244e+01 2.594535e+00 3.325145e+00 2.944726e+00 4.646596e+00 3.740637e+00 5.280942e+00 6.281612e+00 5.112818e+00 3.563630e+00 4.025961e+00 4.831192e+00 4.016236e+00 2.956957e+00 2.971884e-01 3.229583e-01 2.286393e-01 5.331109e-01 4.188550e-01 6.240434e-01 5.066944e-01 7.155033e-01 5.300887e-01 5.052305e-01 5.574037e-01 6.276033e-01 2.264523e-01
<GCONST> 1.227872e+02
<MIXTURE> 2 4.436584e-01
<MEAN> 39
 -9.704553e+00 -1.153873e+00 8.790394e-01 1.023066e+00 -5.118883e+00 -5.016319e+00 -6.768281e+00 -1.013932e+00 -2.922253e+00 -3.222238e+00 -1.062327e+00 -1.021173e+00 6.383031e+01 1.299359e+00 -2.434086e+00 -8.727145e-02 -2.298729e+00 -3.117177e+00 -1.806668e+00 -2.338889e+00 -1.423679e-01 -8.951154e-01 4.972998e-01 8.754355e-01 6.864170e-01 4.504249e+00 7.375112e-01 6.372390e-01 2.240320e-01 -5.352978e-01 -7.769349e-02 1.869408e-01 3.600696e-02 -3.945314e-01 -2.759180e-01 2.035112e-01 -4.859072e-02 -1.814293e-01 -2.088478e-01
<VARIANCE> 39
 2.633420e+01 3.030006e+01 3.074016e+01 2.853768e+01 3.417715e+01 4.413076e+01 3.493470e+01 3.088272e+01 2.975943e+01 2.566714e+01 2.282413e+01 2.074354e+01 2.965823e+01 4.136361e+00 4.035397e+00 9.030796e+00 4.601860e+00 6.165377e+00 5.128056e+00 5.426679e+00 5.256489e+00 5.903409e+00 3.994750e+00 4.298239e+00 3.345311e+00 3.027762e+00 5.277692e-01 5.910352e-01 7.484851e-01 6.352910e-01 6.845244e-01 9.449840e-01 8.564065e-01 7.721717e-01 7.844937e-01 6.802017e-01 5.878822e-01 5.731365e-01 4.585704e-01
<GCONST> 1.306540e+02
<MIXTURE> 3 3.166936e-01
<MEAN> 39
 -5.095827e+00 5.094248e-02 -5.286839e+00 -3.773123e+00 -5.452309e+00 -2.585289e+00 -8.199448e+00 -4.120810e+00 -2.049032e+00 -8.185200e-03 1.596816e+00 -3.323476e-01 6.431320e+01 2.614550e+00 -2.731266e+00 -2.475469e+00 -3.406942e+00 -2.535303e+00 -3.782189e-01 -2.431731e+00 -1.956751e-01 1.136682e+00 1.290877e+00 6.913034e-01 -1.154018e-01 4.795010e+00 2.326687e-01 1.681612e-01 4.039878e-01 4.326640e-02 2.704887e-01 2.905949e-01 3.994104e-01 2.888381e-01 2.128225e-01 -1.804326e-01 -4.480305e-01 -4.038810e-01 -2.495377e-01
<VARIANCE> 39
 3.753811e+01 2.805683e+01 2.207467e+01 2.981573e+01 2.854895e+01 4.107143e+01 3.533402e+01 3.191058e+01 2.741590e+01 2.330118e+01 2.481712e+01 2.175672e+01 2.712915e+01 3.502565e+00 4.248317e+00 3.456899e+00 6.117583e+00 4.274517e+00 6.491217e+00 7.471615e+00 6.548459e+00 4.405009e+00 4.282948e+00 5.150263e+00 4.383405e+00 3.604602e+00 4.208660e-01 5.286757e-01 3.703658e-01 4.501520e-01 5.261921e-01 6.756154e-01 7.148824e-01 6.084037e-01 5.998103e-01 5.480148e-01 4.770705e-01 4.996749e-01 4.934944e-01
<GCONST> 1.271604e+02
<TRANSP> 5
 0.000000e+00 1.000000e+00 0.000000e+00 0.000000e+00 0.000000e+00
 0.000000e+00 8.380987e-01 1.619013e-01 0.000000e+00 0.000000e+00
 0.000000e+00 0.000000e+00 5.827603e-01 4.172397e-01 0.000000e+00
 0.000000e+00 0.000000e+00 0.000000e+00 4.506640e-01 5.493360e-01
 0.000000e+00 0.000000e+00 0.000000e+00 0.000000e+00 0.000000e+00
<ENDHMM>
~h "d"
<BEGINHMM>
<NUMSTATES> 5
<STATE> 2
<NUMMIXES> 3
<MIXTURE> 1 1.253265e-01
<MEAN> 39
 -7.388879e+00 3.562222e+00 7.138632e+00 -3.785729e-02 -5.453598e+00 -3.109414e+00 -8.274277e+00 1.525676e+00 -3.432957e+00 -2.440830e+00 1.140836e+00 -4.553834e-01 6.227493e+01 -3.125733e-02 1.880985e+00 1.219603e-01 2.021242e+00 1.859281e+00 8.644722e-02 1.747853e+00 -1.059399e+00 3.419712e-01 -1.842969e-01 -1.123363e+00 -5.892366e-02 -3.129529e+00 -1.597277e-01 -2.671325e-01 -5.013704e-01 -2.041217e-01 -5.142804e-02 1.996485e-01 2.436460e-01 4.383256e-02 5.150456e-03 -7.937552e-02 -5.969370e-02 -2.178177e-01 1.986495e-01
<VARIANCE> 39
 6.759296e+01 4.467265e+01 5.960599e+01 3.178195e+01 5.505890e+01 5.120274e+01 6.591090e+01 5.044086e+01 5.818425e+01 2.663541e+01 2.262668e+01 2.469568e+01 4.366602e+01 4.724281e+00 4.793504e+00 3.691313e+00 3.644833e+00 3.794520e+00 3.734188e+00 4.442287e+00 4.442132e+00 4.211896e+00 3.162540e+00 3.094925e+00 2.421572e+00 3.155444e+00 3.948547e-01 5.017787e-01 4.827499e-01 5.078372e-01 6.408318e-01 6.339410e-01 7.935512e-01 6.533840e-01 7.335662e-01 4.495907e-01 4.483984e-01 3.859164e-01 5.365900e-01
<GCONST> 1.297752e+02
<MIXTURE> 2 3.823067e-01
<MEAN> 39
 -2.729603e+00 5.774340e+00 3.367436e+00 8.915324e-01 -6.930076e+00 -6.437973e+00 -5.527637e+00 -5.986197e+00 -6.478076e+00 -5.050841e+00 -5.942226e+00 -2.871440e+00 5.958912e+01 -1.486360e+00 2.485319e-01 5.014108e-01 6.873877e-01 1.285386e+00 9.157145e-01 2.263856e-01 8.838636e-01 4.685987e-01 -1.968329e-01 5.917228e-01 -5.977970e-01 -7.199338e-01 -4.396539e-01 -8.355039e-01 -2.836881e-01 -6.156726e-01 -2.125442e-01 -4.593643e-02 -1.706807e-01 4.293857e-01 2.486280e-01 2.582700e-01 4.131452e-01 2.508644e-01 9.364669e-01
<VARIANCE> 39
 2.886741e+01 4.108313e+01 3.213164e+01 4.766493e+01 4.673552e+01 5.049363e+01 4.048707e+01 5.065095e+01 4.840397e+01 3.976199e+01 3.980425e+01 3.343383e+01 3.198896e+01 3.847204e+00 5.564411e+00 3.862536e+00 5.617274e+00 4.713905e+00 4.410241e+00 4.481378e+00 5.458008e+00 4.468590e+00 3.510181e+00 3.891641e+00 3.684900e+00 4.002570e+00 4.846134e-01 7.466463e-01 5.075067e-01 7.549172e-01 9.107787e-01 8.105062e-01 8.773782e-01 9.120433e-01 9.146500e-01 7.075856e-01 6.838388e-01 6.087421e-01 6.639051e-01
<GCONST> 1.346548e+02
<MIXTURE> 3 4.923671e-01
<MEAN> 39
 -2.282392e+00 8.417498e+00 7.134917e+00 4.827111e+00 -4.756861e+00 -7.300200e+00 -6.570836e+00 -1.785251e+00 -3.432001e+00 -5.883659e+00 -4.440162e+00 -1.982222e+00 5.699482e+01 -1.019192e+00 2.045705e+00 -1.087105e-01 1.191250e+00 2.309988e+00 1.156639e+00 1.642721e+00 -4.175297e-01 2.076434e-01 -4.952870e-02 -7.660896e-01 -8.934010e-01 -2.785856e+00 -4.241713e-01 -1.112215e+00 -4.056917e-01 -8.437862e-01 -3.713280e-01 4.000637e-01 -2.108022e-01 1.723243e-01 -1.416939e-01 3.546178e-01 5.910797e-01 1.097820e-01 1.017477e+00
<VARIANCE> 39
 1.115865e+01 2.294800e+01 2.186745e+01 2.680068e+01 2.907250e+01 3.266690e+01 2.823844e+01 2.837671e+01 3.224430e+01 2.204523e+01 2.263619e+01 2.144517e+01 1.624338e+01 1.206921e+00 3.880969e+00 3.183671e+00 4.048895e+00 3.146148e+00 3.937560e+00 4.010757e+00 4.086022e+00 4.096021e+00 2.814349e+00 2.674205e+00 2.912118e+00 2.258665e+00 2.207845e-01 5.148525e-01 3.921602e-01 5.099087e-01 5.705215e-01 5.377204e-01 6.401473e-01 6.668811e-01 6.550473e-01 4.718033e-01 4.934829e-01 4.334582e-01 4.402318e-01
<GCONST> 1.180498e+02
<STATE> 3
<NUMMIXES> 3
<MIXTURE> 1 2.182174e-01
<MEAN> 39
 -9.091972e+00 7.582334e+00 3.985571e+00 4.365088e+00 9.392418e-01 -1.087816e-01 -1.564220e+00 -9.483085e-01 -1.744626e+00 -2.254323e+00 -1.387586e+00 -1.896631e+00 5.163364e+01 -8.961176e-01 -5.927835e-01 -6.063559e-01 -5.130604e-02 6.136811e-01 8.485771e-01 7.378307e-01 3.135011e-01 4.085346e-01 3.362943e-01 1.944718e-01 2.241962e-02 -6.180077e-01 -2.910693e-02 -4.360451e-01 -1.355412e-01 -3.787161e-01 -4.489354e-01 -2.623131e-01 -2.999554e-01 2.486479e-02 -1.516134e-01 -5.215409e-02 8.930179e-02 1.253370e-01 7.956578e-01
<VARIANCE> 39
 2.039902e+01 1.707013e+01 1.822473e+01 1.291908e+01 1.455415e+01 2.022269e+01 2.099319e+01 1.938270e+01 1.995314e+01 1.783212e+01 1.673185e+01 1.384483e+01 1.601911e+01 1.883599e+00 1.442370e+00 1.744942e+00 1.503985e+00 1.755444e+00 2.108734e+00 2.050079e+00 1.983270e+00 2.093255e+00 1.790868e+00 1.676095e+00 1.564830e+00 1.344792e+00 2.845705e-01 3.645926e-01 3.195654e-01 3.533774e-01 3.506310e-01 4.159268e-01 4.229544e-01 4.281510e-01 4.296255e-01 3.617223e-01 3.258364e-01 2.913358e-01 3.921730e-01
<GCONST> 1.028026e+02
<MIXTURE> 2 3.678237e-01
<MEAN> 39
 -6.250747e+00 3.514683e+00 5.080579e+00 1.837183e+00 -3.525444e+00 -3.116492e+00 -5.355256e+00 -3.467570e+00 -5.768267e+00 -5.124125e+00 -3.978539e+00 -3.405298e+00 6.039139e+01 -1.831090e+00 -1.640735e+00 -2.253978e-01 -9.650282e-01 -2.009305e-01 2.206143e-01 -4.133402e-01 8.790558e-01 4.622331e-01 4.907523e-01 1.263662e+00 3.937363e-01 1.727968e+00 3.063803e-01 -4.968287e-01 -2.725777e-01 -6.155058e-01 -8.414738e-01 -4.523167e-01 -4.468033e-01 1.821792e-01 1.492803e-01 2.526596e-01 2.796212e-01 3.162411e-01 9.063450e-01
<VARIANCE> 39
 3.535910e+01 4.417841e+01 3.866772e+01 4.378519e+01 4.620179e+01 5.000656e+01 4.370934e+01 4.191567e+01 3.732180e+01 2.573935e+01 2.651093e+01 2.292361e+01 3.603185e+01 4.484181e+00 4.660475e+00 3.958153e+00 5.367043e+00 5.355937e+00 5.126716e+00 5.078136e+00 5.469175e+00 5.703551e+00 3.560756e+00 3.708488e+00 3.035311e+00 3.914041e+00 5.992698e-01 7.445362e-01 6.847067e-01 8.500635e-01 1.029042e+00 1.034153e+00 1.085050e+00 9.848058e-01 8.292816e-01 6.501566e-01 7.991260e-01 7.005666e-01 6.500590e-01
<GCONST> 1.352662e+02
<MIXTURE> 3 4.139589e-01
<MEAN> 39
 -6.257318e+00 9.721535e+00 6.031993e+00 5.239218e+00 -2.465694e-01 -2.701756e+00 -3.479630e+00 -2.919087e+00 -3.792485e+00 -4.688048e+00 -3.941034e+00 -3.478612e+00 5.256421e+01 -2.037521e+00 -1.901450e+00 -9.249347e-01 -1.079050e+00 5.943536e-01 1.194205e+00 5.742217e-01 2.482325e-01 -8.069034e-02 6.822631e-01 9.012495e-01 2.271201e-01 1.029661e+00 -1.177644e-01 -1.070966e+00 -2.292681e-01 -8.293974e-01 -1.084195e+00 -5.066789e-01 -6.258247e-01 1.898518e-01 -9.095517e-02 2.049874e-01 5.351018e-01 5.043130e-01 1.684558e+00
<VARIANCE> 39
 1.695637e+01 1.324420e+01 1.379007e+01 1.383532e+01 1.675974e+01 2.357896e+01 2.128180e+01 1.849168e+01 1.963933e+01 1.616648e+01 1.465540e+01 1.292235e+01 1.166291e+01 2.407189e+00 4.643931e+00 2.987296e+00 4.155151e+00 3.908191e+00 4.097865e+00 3.851841e+00 3.200613e+00 3.804738e+00 2.577570e+00 2.512465e+00 2.208976e+00 5.171615e+00 5.389027e-01 7.855115e-01 6.190696e-01 6.924641e-01 6.145309e-01 7.346183e-01 6.923187e-01 7.320817e-01 6.613250e-01 4.854625e-01 4.820556e-01 4.218086e-01 4.224613e-01
<GCONST> 1.168437e+02
<STATE> 4
<NUMMIXES> 3
<MIXTURE> 1 1.767890e-01
<MEAN> 39
 -4.480698e+00 -1.963429e+00 2.576752e+00 -3.033944e+00 -9.461982e+00 -5.788218e+00 -1.095977e+01 1.491857e+00 -1.689023e+00 -1.672624e+00 9.481174e-01 -1.475951e+00 6.714149e+01 3.737473e-02 9.503371e-01 -1.520163e-01 7.972770e-01 7.166258e-01 3.213848e-01 7.136061e-01 1.040012e-03 3.463070e-01 1.630733e-01 -2.350374e-01 -1.073655e-01 -1.145742e+00 -3.687600e-01 4.328367e-01 -8.032846e-02 2.802141e-01 5.580275e-01 3.398629e-01 6.021535e-01 -2.507856e-01 -1.860821e-01 -1.167212e-01 -1.710783e-01 -6.801315e-02 -5.631666e-01
<VARIANCE> 39
 4.731948e+01 4.233032e+01 8.314375e+01 5.038555e+01 5.761297e+01 7.991548e+01 7.862057e+01 7.458749e+01 8.065342e+01 4.582502e+01 4.882623e+01 4.781133e+01 4.719688e+01 3.259106e+00 3.778412e+00 3.712829e+00 3.319646e+00 4.516035e+00 3.896252e+00 5.127891e+00 4.522545e+00 4.775977e+00 3.399330e+00 3.355803e+00 3.128034e+00 3.674947e+00 6.278567e-01 7.059666e-01 6.232729e-01 6.517224e-01 7.949995e-01 8.240290e-01 9.781667e-01 9.105706e-01 9.669337e-01 7.146061e-01 7.054261e-01 7.181827e-01 6.338254e-01
<GCONST> 1.382708e+02
<MIXTURE> 2 3.887340e-01
<MEAN> 39
 -1.243351e+01 -1.395565e+00 3.012665e+00 -2.673052e+00 -5.921033e+00 -4.512702e+00 -6.028660e+00 -1.110279e+00 -4.528794e+00 -2.531694e+00 5.235079e-01 -2.282365e-01 6.656358e+01 9.001458e-01 -1.421065e+00 1.189459e-01 -1.475079e+00 -2.353548e+00 -1.754774e+00 -1.971113e+00 4.092173e-01 -2.169891e-02 2.262425e-01 7.767405e-01 6.698076e-01 3.007034e+00 1.056471e+00 3.864251e-01 4.856822e-02 2.393960e-01 -2.331372e-01 -1.800516e-01 -2.010659e-01 -1.104929e-03 1.117868e-01 -7.949413e-02 -2.684681e-01 -1.518905e-01 -4.163376e-01
<VARIANCE> 39
 6.118173e+01 3.926643e+01 4.854545e+01 5.898274e+01 5.722955e+01 6.608753e+01 4.972752e+01 4.355535e+01 3.848860e+01 2.870744e+01 2.762470e+01 2.292983e+01 3.200400e+01 7.309232e+00 4.238281e+00 4.578012e+00 4.750617e+00 5.127142e+00 5.948811e+00 5.757382e+00 5.535051e+00 5.787079e+00 3.692843e+00 4.176043e+00 3.301351e+00 4.566204e+00 1.105021e+00 6.995521e-01 8.209370e-01 9.843426e-01 1.233999e+00 1.293504e+00 1.083979e+00 9.438670e-01 8.227288e-01 6.676874e-01 7.404544e-01 6.265913e-01 7.129795e-01
<GCONST> 1.391755e+02
<MIXTURE> 3 4.344783e-01
<MEAN> 39
 -1.351750e+01 1.946467e+00 -8.305907e-04 8.929760e-01 -1.678421e+00 -8.618678e-01 -1.651695e+00 6.343513e-01 -1.625242e+00 -1.911299e+00 -5.264187e-02 -6.542088e-01 5.916126e+01 -7.328445e-01 -5.593207e-01 -5.597187e-01 -2.847011e-01 5.557790e-03 2.262575e-01 1.566599e-01 1.713435e-01 1.229240e-01 1.364435e-01 2.776908e-01 1.159548e-01 4.578935e-01 2.980033e-01 -8.819395e-02 9.646162e-02 -1.751200e-01 -3.016844e-01 -2.729505e-01 -3.277376e-01 -4.788438e-02 -7.239789e-02 -6.460191e-02 -1.914451e-02 2.462196e-02 3.592061e-01
<VARIANCE> 39
 7.649883e+01 6.326747e+01 4.761549e+01 3.281503e+01 3.732389e+01 3.843407e+01 3.859309e+01 3.826899e+01 3.117056e+01 2.481762e+01 2.313449e+01 2.156567e+01 5.383181e+01 5.190897e+00 3.161409e+00 3.068275e+00 2.587236e+00 2.992567e+00 3.112808e+00 3.236984e+00 2.950195e+00 2.833127e+00 2.290522e+00 2.172701e+00 1.929876e+00 3.680376e+00 6.508675e-01 7.525242e-01 4.934918e-01 5.270382e-01 5.600808e-01 5.686829e-01 6.308563e-01 5.516557e-01 4.937930e-01 4.581560e-01 4.042520e-01 3.966039e-01 7.268132e-01
<GCONST> 1.250000e+02
<TRANSP> 5
 0.000000e+00 1.000000e+00 0.000000e+00 0.000000e+00 0.000000e+00
 0.000000e+00 3.434718e-01 6.565283e-01 0.000000e+00 0.000000e+00
 0.000000e+00 0.000000e+00 4.379044e-01 5.620956e-01 0.000000e+00
 0.000000e+00 0.000000e+00 0.000000e+00 7.142438e-01 2.857562e-01
 0.000000e+00 0.000000e+00 0.000000e+00 0.000000e+00 0.000000e+00
<ENDHMM>
~h "f"
<BEGINHMM>
<NUMSTATES> 5
<STATE> 2
<NUMMIXES> 3
<MIXTURE> 1 2.217951e-01
<MEAN> 39
 -3.991532e+00 2.797709e+00 -1.806760e+00 -5.460521e-01 -3.547333e+00 -1.356511e+00 -4.800078e+00 -1.411587e+00 -1.566386e+00 -2.282493e+00 -3.128987e+00 -3.205055e+00 6.371749e+01 -3.965455e+00 1.957740e+00 1.158163e+00 2.651620e+00 2.070193e+00 8.871631e-01 1.913539e+00 9.587885e-01 -2.089658e-02 1.366263e-01 3.392015e-01 7.145305e-01 -2.316301e+00 -7.425768e-01 -7.775953e-01 -1.583402e-01 -3.002249e-01 -2.113909e-01 -1.190566e-03 -2.801022e-02 3.358556e-01 1.243108e-01 7.330611e-02 2.442216e-01 1.762876e-01 2.023036e-01
<VARIANCE> 39
 2.555424e+01 2.362888e+01 3.823495e+01 3.877421e+01 3.115233e+01 8.216936e+01 4.319406e+01 4.935861e+01 4.121637e+01 3.452521e+01 3.362145e+01 2.316163e+01 2.014733e+01 2.561219e+00 3.273436e+00 3.520779e+00 3.722542e+00 3.598362e+00 6.101482e+00 4.878386e+00 4.878519e+00 3.734448e+00 3.791449e+00 3.324816e+00 3.051263e+00 1.845232e+00 3.373575e-01 3.208969e-01 3.562956e-01 4.511817e-01 4.617933e-01 4.877003e-01 5.573310e-01 5.765966e-01 5.397871e-01 5.074801e-01 3.946736e-01 3.937730e-01 1.719103e-01
<GCONST> 1.227594e+02
<MIXTURE> 2 4.477762e-01
<MEAN> 39
 -1.673190e+01 3.737985e-01 -5.629656e-01 4.048627e+00 -7.501284e-01 9.644739e-02 -1.541322e+00 2.779840e+00 1.317774e-01 -7.703536e-01 -5.571354e-01 -5.250892e-01 5.981243e+01 -2.155013e+00 -9.258682e-01 -9.888383e-01 1.470857e-01 1.007784e-01 5.037898e-01 3.225957e-01 7.577420e-01 7.437319e-01 6.196440e-01 5.066959e-01 4.224414e-01 -5.269651e-01 8.335236e-01 -6.156738e-02 -3.538543e-02 -4.782825e-01 -4.426568e-01 -2.474105e-01 -3.748513e-01 -4.228954e-01 -3.055302e-01 -2.681931e-02 -1.781158e-02 -7.661841e-02 2.559624e-01
<VARIANCE> 39
 2.463232e+01 2.953905e+01 2.243433e+01 2.421316e+01 2.352952e+01 3.044366e+01 2.708287e+01 2.456686e+01 2.273767e+01 2.248298e+01 1.941658e+01 1.887466e+01 2.995301e+01 3.129359e+00 2.285030e+00 2.644426e+00 2.408085e+00 2.433486e+00 2.760988e+00 2.727456e+00 2.895391e+00 3.160920e+00 2.560639e+00 2.281401e+00 1.985831e+00 1.777551e+00 4.192593e-01 6.159205e-01 5.110106e-01 5.677719e-01 5.908155e-01 5.563723e-01 5.916040e-01 6.214764e-01 6.539656e-01 5.300666e-01 4.568177e-01 4.508733e-01 4.659263e-01
<GCONST> 1.170387e+02
<MIXTURE> 3 3.304286e-01
<MEAN> 39
 -1.219623e+01 3.562196e+00 1.926987e+00 4.656823e+00 -8.969254e-01 -8.518609e-01 -2.486683e+00 6.898757e-01 -2.270086e+00 -2.648140e+00 -2.068207e+00 -1.589142e+00 6.002428e+01 -3.452057e+00 -2.094110e-01 -3.482182e-01 1.265268e+00 1.324669e+00 9.514333e-01 1.101789e+00 1.128521e+00 8.131793e-01 4.846210e-01 4.852570e-01 4.917156e-01 -1.313994e+00 3.365189e-01 -7.038793e-01 -4.198603e-01 -7.510987e-01 -6.093949e-01 -1.114546e-01 -3.624396e-01 -1.021299e-01 6.776189e-02 1.941139e-01 1.588319e-01 2.877934e-02 4.434038e-01
<VARIANCE> 39
 2.700099e+01 2.409586e+01 3.000819e+01 2.536129e+01 2.819947e+01 4.282584e+01 3.054812e+01 3.067188e+01 2.860541e+01 2.447411e+01 2.393473e+01 2.010030e+01 2.875031e+01 3.993612e+00 3.073898e+00 3.985425e+00 3.197462e+00 3.685404e+00 4.111115e+00 3.613096e+00 4.680648e+00 4.889484e+00 3.221086e+00 3.091666e+00 2.655143e+00 1.778953e+00 3.754836e-01 4.887570e-01 3.955642e-01 5.016697e-01 5.403413e-01 5.943965e-01 6.220238e-01 5.623854e-01 5.287716e-01 5.408888e-01 4.444082e-01 4.674653e-01 3.297614e-01
<GCONST> 1.214202e+02
<STATE> 3
<NUMMIXES> 3
<MIXTURE> 1 1.496567e-01
<MEAN> 39
 -1.369308e+01 1.039358e+00 -8.322722e-01 3.380704e+00 1.210640e+00 2.106686e+00 -1.695063e-01 1.724789e+00 2.534640e-01 -1.119532e+00 -6.540197e-01 -3.874377e-01 5.160183e+01 -9.475437e-02 5.342734e-01 1.539785e-01 2.732441e-01 2.684430e-01 3.827987e-01 2.870794e-01 4.133724e-02 1.957265e-01 4.114535e-01 2.758475e-01 3.803504e-02 -4.889715e-01 -1.848906e-02 -1.748883e-01 -1.737809e-03 -7.028908e-02 -8.313174e-02 -1.013825e-01 -3.610570e-02 1.190884e-01 6.531537e-02 6.236954e-02 1.139432e-01 5.640683e-02 2.587765e-01
<VARIANCE> 39
 1.403964e+01 1.884253e+01 8.938643e+00 1.027898e+01 1.247436e+01 1.678550e+01 1.887152e+01 1.540259e+01 1.652989e+01 1.592208e+01 1.343251e+01 1.173936e+01 2.215763e+01 3.590007e-01 1.406932e+00 8.164090e-01 9.514260e-01 1.079941e+00 1.430043e+00 1.576365e+00 1.571719e+00 1.588553e+00 1.548967e+00 1.426422e+00 1.264805e+00 6.885687e-01 7.529745e-02 1.989999e-01 1.592064e-01 1.665982e-01 2.028265e-01 2.589099e-01 2.970532e-01 2.830864e-01 3.218406e-01 2.905695e-01 2.624606e-01 2.299911e-01 1.192930e-01
<GCONST> 8.749120e+01
<MIXTURE> 2 4.748111e-01
<MEAN> 39
 -1.881630e+01 -8.100188e-01 -2.578519e+00 3.542344e+00 -1.227279e+00 1.206215e+00 -2.097189e+00 2.735545e+00 3.370827e-01 5.346359e-01 8.216773e-01 2.953356e-01 5.885963e+01 -2.336227e-01 -6.709059e-01 -4.909330e-01 -2.483701e-01 -1.167256e-01 -2.873681e-02 -1.371762e-01 -4.270336e-02 -1.296013e-02 1.327651e-01 1.592959e-01 1.110231e-01 1.582965e-01 8.340654e-01 3.171052e-02 1.517325e-02 -3.381829e-01 -1.981239e-01 -2.863932e-01 -2.540300e-01 -2.643870e-01 -1.645737e-01 -2.048420e-01 -1.727018e-01 -1.428015e-01 2.933696e-01
<VARIANCE> 39
 2.095064e+01 3.048501e+01 1.829042e+01 2.053715e+01 2.009973e+01 2.639310e+01 2.207732e+01 1.927130e+01 1.857406e+01 1.987770e+01 1.652152e+01 1.597546e+01 2.584205e+01 1.588029e+00 1.573214e+00 1.351099e+00 1.490158e+00 1.558284e+00 1.713899e+00 1.698534e+00 1.823468e+00 1.832000e+00 1.844451e+00 1.684569e+00 1.502873e+00 1.626969e+00 5.015732e-01 3.938363e-01 3.471312e-01 3.986883e-01 4.025073e-01 4.516116e-01 4.194355e-01 4.249575e-01 4.297349e-01 4.032440e-01 3.829995e-01 3.339482e-01 3.178960e-01
<GCONST> 1.055084e+02
<MIXTURE> 3 3.755320e-01
<MEAN> 39
 -1.688408e+01 -3.407721e+00 -1.339596e+00 1.007367e+00 -1.579612e+00 -4.988661e-01 -6.917108e-01 3.492709e+00 1.421090e-01 -1.229092e+00 1.100815e+00 6.978108e-01 5.775727e+01 -1.403570e-02 1.802687e-02 -5.298057e-02 5.659203e-02 -9.868890e-03 1.291859e-01 -3.875420e-02 -8.496282e-02 -1.079753e-01 -4.345694e-02 -7.010857e-02 -3.812972e-02 -1.598604e-01 1.254063e-01 3.146634e-02 3.958835e-02 2.367572e-02 5.467545e-02 1.965718e-02 -3.558742e-03 -3.380598e-02 -4.005684e-03 -1.315807e-02 -4.914332e-02 -3.787613e-02 4.186330e-02
<VARIANCE> 39
 2.023716e+01 3.549216e+01 1.349990e+01 1.733087e+01 1.664089e+01 2.264207e+01 2.286959e+01 1.909875e+01 1.941857e+01 2.140720e+01 1.631044e+01 1.539929e+01 3.880033e+01 3.262333e-01 5.193490e-01 5.785754e-01 7.357011e-01 9.451359e-01 1.206436e+00 1.191940e+00 1.338121e+00 1.422428e+00 1.417278e+00 1.335852e+00 1.247140e+00 3.956454e-01 8.632050e-02 1.174839e-01 1.259280e-01 1.554160e-01 1.915000e-01 2.392136e-01 2.437073e-01 2.776011e-01 2.900659e-01 2.942255e-01 2.702996e-01 2.564097e-01 7.616918e-02
<GCONST> 8.718125e+01
<STATE> 4
<NUMMIXES> 3
<MIXTURE> 1 2.597674e-01
<MEAN> 39
 -7.284803e+00 -4.157551e-01 1.142975e+00 -1.438245e+00 -8.796710e+00 -4.249462e+00 -7.487460e+00 -1.947417e+00 -2.362659e+00 -1.737187e+00 1.812101e-01 -6.034750e-01 6.502443e+01 3.778386e-01 6.338184e-02 1.316915e-01 1.715757e-03 7.148091e-02 3.872815e-02 -8.423886e-02 1.619360e-02 1.195166e-01 2.387041e-02 2.432561e-02 -5.739351e-02 1.846963e-01 -1.939835e-01 1.071964e-01 -1.014630e-02 2.033277e-01 2.957571e-01 2.458733e-01 3.029554e-01 9.055240e-02 5.342672e-02 -4.307300e-03 -1.694005e-02 -2.201125e-02 -2.783983e-01
<VARIANCE> 39
 9.438528e+01 5.234925e+01 9.121297e+01 6.845521e+01 8.199335e+01 6.334779e+01 6.927145e+01 5.612782e+01 5.770347e+01 4.209750e+01 3.664544e+01 3.484446e+01 4.216777e+01 5.773096e+00 4.280350e+00 3.986466e+00 4.293830e+00 5.519169e+00 4.206066e+00 5.526679e+00 3.440419e+00 4.059303e+00 3.220312e+00 2.935189e+00 2.760058e+00 5.889676e+00 8.406573e-01 8.327190e-01 6.430380e-01 6.916278e-01 8.870479e-01 7.488416e-01 8.819155e-01 6.195351e-01 7.633598e-01 6.492577e-01 6.116720e-01 5.271671e-01 7.226644e-01
<GCONST> 1.386660e+02
<MIXTURE> 2 3.605001e-01
<MEAN> 39
 -1.508429e+01 -3.381293e+00 -4.225485e+00 1.263590e+00 -1.952779e+00 -5.727228e-01 -3.651213e+00 7.956957e-01 -3.414572e-01 1.896019e-01 3.000810e-01 -3.818807e-01 6.078632e+01 5.015896e+00 4.148071e-01 -5.159085e-01 -2.478590e+00 -1.962311e+00 -1.783584e+00 -1.781797e+00 -1.600146e+00 -1.068578e+00 -1.146682e+00 -1.082448e+00 -9.018642e-01 1.588798e+00 8.865060e-01 2.126707e-01 3.626455e-02 -5.284541e-01 -4.544120e-01 -2.578483e-01 -3.301733e-01 -1.103859e-01 -1.469484e-01 -1.561361e-01 -1.742022e-01 -1.541197e-01 4.905680e-01
<VARIANCE> 39
 2.547959e+01 2.526393e+01 2.766875e+01 2.084759e+01 2.325552e+01 3.401878e+01 2.371156e+01 2.197415e+01 2.063425e+01 2.260354e+01 1.990932e+01 1.714638e+01 1.695071e+01 2.605392e+00 4.197979e+00 4.008305e+00 3.939778e+00 4.280489e+00 5.113986e+00 4.120933e+00 3.445464e+00 4.048120e+00 2.805475e+00 3.075563e+00 2.407779e+00 2.448692e+00 5.112271e-01 5.431564e-01 4.895696e-01 5.565904e-01 5.675638e-01 7.999374e-01 5.552520e-01 6.133270e-01 6.668711e-01 5.281336e-01 5.476926e-01 4.802065e-01 2.163929e-01
<GCONST> 1.201000e+02
<MIXTURE> 3 3.797323e-01
<MEAN> 39
 -1.775229e+01 -7.637923e-01 -3.072808e+00 3.225013e+00 -8.688531e-01 1.744814e+00 -1.644014e+00 2.711877e+00 1.021000e-01 3.216550e-01 6.787786e-01 3.472936e-01 5.860389e+01 1.898810e+00 -9.344247e-01 -5.816795e-01 -1.162607e+00 -9.717903e-01 -9.452223e-01 -1.116336e+00 -5.128838e-01 -2.762195e-03 -7.985674e-03 8.951458e-02 -1.842333e-01 1.353049e+00 1.199625e+00 4.692893e-02 1.244399e-01 -4.889811e-01 -5.742085e-01 -4.085018e-01 -6.544476e-01 -3.107850e-01 -1.021919e-01 -2.078856e-01 -9.262764e-02 -2.488358e-01 5.853885e-01
<VARIANCE> 39
 2.451875e+01 3.166077e+01 2.471531e+01 1.884935e+01 2.186687e+01 2.867829e+01 2.383755e+01 1.887070e+01 1.753002e+01 2.021066e+01 1.658552e+01 1.607714e+01 3.096224e+01 5.367225e+00 2.518992e+00 3.391090e+00 2.329855e+00 3.177791e+00 3.146611e+00 3.961137e+00 2.333008e+00 2.367708e+00 2.185844e+00 1.943831e+00 1.897126e+00 3.336980e+00 5.740701e-01 6.185740e-01 5.123220e-01 4.852465e-01 5.575777e-01 6.368943e-01 6.402559e-01 5.362825e-01 5.628048e-01 4.993258e-01 5.012499e-01 4.241690e-01 4.486670e-01
<GCONST> 1.171152e+02
<TRANSP> 5
 0.000000e+00 1.000000e+00 0.000000e+00 0.000000e+00 0.000000e+00
 0.000000e+00 6.533906e-01 3.466094e-01 0.000000e+00 0.000000e+00
 0.000000e+00 0.000000e+00 8.346560e-01 1.653440e-01 0.000000e+00
 0.000000e+00 0.000000e+00 0.000000e+00 7.043283e-01 2.956718e-01
 0.000000e+00 0.000000e+00 0.000000e+00 0.000000e+00 0.000000e+00
<ENDHMM>
~h "g"
<BEGINHMM>
<NUMSTATES> 5
<STATE> 2
<NUMMIXES> 3
<MIXTURE> 1 1.835513e-01
<MEAN> 39
 -2.383123e+00 5.739491e+00 1.110109e+01 7.112246e-01 -1.061990e+01 -3.631596e+00 -5.102254e+00 -3.150065e+00 -1.341762e+01 1.946803e+00 5.248756e-01 -6.405894e+00 6.260561e+01 3.823109e-02 3.084939e+00 -4.003713e-01 2.149197e+00 2.544146e+00 -5.915097e-01 2.352835e+00 -1.712477e+00 2.088195e+00 -8.007029e-01 -1.906528e+00 2.280777e-01 -3.957216e+00 -3.989204e-01 -5.633860e-01 -7.691143e-01 -2.131691e-01 4.672657e-01 1.093031e-01 -3.817989e-01 4.890054e-01 9.624826e-01 -5.385016e-01 9.579249e-02 3.796140e-01 3.418967e-01
<VARIANCE> 39
 1.524971e+01 2.501039e+01 6.122657e+01 3.668095e+01 6.690989e+01 5.944579e+01 4.937671e+01 6.550859e+01 3.998393e+01 3.290492e+01 4.522124e+01 2.497441e+01 1.848203e+01 1.120241e+00 2.200314e+00 3.603489e+00 2.461492e+00 3.280399e+00 3.909451e+00 4.153328e+00 4.631529e+00 3.787751e+00 3.727961e+00 3.369474e+00 2.401646e+00 1.229110e+00 1.807357e-01 4.374234e-01 4.243324e-01 4.201136e-01 8.247649e-01 5.561420e-01 7.163289e-01 7.694854e-01 8.603582e-01 6.918765e-01 6.243924e-01 4.091962e-01 4.039865e-01
<GCONST> 1.239473e+02
<MIXTURE> 2 3.896207e-01
<MEAN> 39
 -4.271446e+00 7.775272e+00 3.150854e+00 1.562902e+00 -4.965288e+00 -7.338351e+00 -5.303908e+00 -4.248412e+00 -5.255038e+00 -3.639396e+00 -4.981887e+00 -3.515720e+00 5.644132e+01 -7.933114e-01 7.198819e-01 2.877583e-01 6.405887e-01 9.722492e-01 1.334497e+00 5.734982e-01 1.885767e-01 2.920422e-01 -3.480967e-01 3.265683e-01 -4.831846e-01 -1.504313e+00 -2.355673e-01 -1.112425e+00 -5.033010e-01 -5.135745e-01 -2.095386e-02 -8.622002e-02 -2.571355e-01 1.524099e-01 -1.028546e-01 4.792160e-01 2.245028e-01 2.615118e-01 1.097572e+00
<VARIANCE> 39
 3.609483e+01 2.658269e+01 3.068253e+01 4.104770e+01 5.063654e+01 5.363283e+01 4.145028e+01 5.131073e+01 3.653851e+01 3.101666e+01 4.484610e+01 2.683384e+01 2.165322e+01 3.041428e+00 5.197788e+00 4.642436e+00 4.562921e+00 6.496495e+00 6.373219e+00 5.178747e+00 5.172375e+00 3.934903e+00 4.197144e+00 3.767133e+00 2.943022e+00 3.420644e+00 4.601143e-01 8.512163e-01 7.953470e-01 6.897184e-01 1.008645e+00 1.050708e+00 7.794408e-01 9.592724e-01 7.292855e-01 8.305029e-01 6.503450e-01 5.518866e-01 6.181634e-01
<GCONST> 1.339395e+02
<MIXTURE> 3 4.268281e-01
<MEAN> 39
 -2.075865e+00 1.096063e+01 7.079145e+00 3.364262e+00 -5.947299e+00 -6.720655e+00 -4.265044e+00 -5.196725e+00 -6.886459e+00 -2.859801e+00 -3.169798e+00 -4.599385e+00 5.588186e+01 -1.012071e+00 1.343513e+00 -2.794614e-01 9.682657e-01 2.225417e+00 1.032271e+00 6.436881e-01 -1.314026e-01 1.469274e+00 -8.244722e-01 -7.089963e-01 3.163271e-03 -2.218542e+00 -4.362462e-01 -1.446872e+00 -5.344322e-01 -5.576405e-01 1.714091e-02 3.160071e-01 -4.314539e-01 4.948053e-01 -5.623678e-02 3.115081e-01 3.801521e-01 2.956113e-01 1.139388e+00
<VARIANCE> 39
 1.056583e+01 1.274054e+01 2.237848e+01 2.110319e+01 3.187072e+01 3.494870e+01 3.049155e+01 2.894613e+01 2.722842e+01 2.219738e+01 2.703346e+01 1.847490e+01 1.131647e+01 1.107653e+00 3.419775e+00 3.628141e+00 3.309937e+00 4.641582e+00 4.982430e+00 4.793314e+00 4.998526e+00 3.640185e+00 4.046667e+00 3.408145e+00 2.956426e+00 1.748348e+00 2.158351e-01 6.214348e-01 5.079623e-01 4.504951e-01 6.722616e-01 5.944650e-01 7.071630e-01 7.862825e-01 7.509419e-01 5.930547e-01 4.728933e-01 4.489778e-01 4.193701e-01
<GCONST> 1.190577e+02
<STATE> 3
<NUMMIXES> 3
<MIXTURE> 1 2.131246e-01
<MEAN> 39
 -9.931519e+00 7.282018e+00 3.038260e+00 3.569011e+00 6.123070e-01 -4.447967e-01 -8.538387e-01 -5.814840e-01 -1.477326e+00 -1.140013e+00 -4.645196e-01 -1.622739e+00 5.134909e+01 -5.716332e-01 -6.316986e-01 -5.514537e-01 -2.997082e-02 5.402644e-01 7.162139e-01 4.820741e-01 3.043693e-01 4.008437e-01 1.997848e-01 4.829083e-02 1.112820e-01 -4.215595e-01 1.222885e-02 -6.673458e-01 -2.813213e-01 -3.076177e-01 -2.866651e-01 -2.383174e-01 -4.022923e-01 -1.401536e-03 -2.788671e-01 1.412834e-01 -5.434426e-02 4.388502e-02 8.948380e-01
<VARIANCE> 39
 2.302774e+01 2.094374e+01 2.388420e+01 1.334040e+01 1.659434e+01 2.199150e+01 2.500964e+01 2.191048e+01 2.129923e+01 1.812256e+01 1.626273e+01 1.537554e+01 1.441962e+01 1.562235e+00 1.832132e+00 1.664191e+00 1.200012e+00 2.175084e+00 2.436097e+00 2.453171e+00 2.070499e+00 1.843693e+00 1.810710e+00 1.636173e+00 1.392624e+00 1.337477e+00 2.777455e-01 4.490283e-01 5.394123e-01 3.900057e-01 6.444291e-01 6.101282e-01 6.701716e-01 5.248708e-01 4.635760e-01 4.661755e-01 4.253011e-01 3.312004e-01 5.081908e-01
<GCONST> 1.075398e+02
<MIXTURE> 2 3.785320e-01
<MEAN> 39
 -8.271619e+00 2.382862e+00 1.126666e+00 3.308053e+00 1.122376e+00 -1.862221e+00 -3.428236e+00 -1.876119e+00 -5.049262e+00 -1.740378e+00 -3.218892e+00 -2.628279e+00 5.671778e+01 -9.773353e-01 -2.892523e+00 -1.837859e+00 -1.137740e+00 2.735548e-01 -2.693703e-01 -1.072639e+00 3.735592e-01 -2.488769e-01 1.425272e+00 5.086927e-01 7.841759e-01 2.545952e+00 5.892698e-01 9.476739e-02 2.257535e-01 -6.202499e-01 -1.153824e+00 -7.744903e-01 -5.774730e-01 -2.489097e-01 -2.687760e-01 2.381059e-01 3.091428e-01 2.734516e-02 9.505455e-01
<VARIANCE> 39
 2.982458e+01 3.082790e+01 4.780673e+01 3.431292e+01 4.769263e+01 4.838129e+01 5.014247e+01 3.919881e+01 3.544296e+01 2.540007e+01 2.916440e+01 1.958811e+01 3.093569e+01 3.429466e+00 4.700121e+00 6.814886e+00 4.080598e+00 7.624188e+00 5.885533e+00 5.425434e+00 5.395539e+00 4.289784e+00 3.913071e+00 3.597914e+00 2.837631e+00 3.048043e+00 5.171702e-01 7.214936e-01 5.680636e-01 8.966494e-01 1.073336e+00 1.101741e+00 1.005915e+00 1.012547e+00 7.357594e-01 7.440908e-01 8.649296e-01 5.958937e-01 4.474051e-01
<GCONST> 1.338138e+02
<MIXTURE> 3 4.083432e-01
<MEAN> 39
 -5.782842e+00 1.022234e+01 6.085613e+00 4.779428e+00 -1.039744e+00 -3.027685e+00 -3.640832e+00 -4.173830e+00 -4.943212e+00 -4.033012e+00 -3.222130e+00 -3.577519e+00 5.271498e+01 -1.779261e+00 -3.225067e+00 -1.956157e+00 -5.534560e-01 1.560000e+00 1.096275e+00 4.781055e-02 8.255070e-01 1.269719e-01 1.057297e+00 1.355049e-01 7.418951e-01 1.476617e+00 1.594248e-01 -1.113006e+00 -4.761397e-01 -7.853265e-01 -7.923368e-01 -6.187446e-01 -6.279409e-01 1.806208e-01 -4.479406e-01 6.875565e-01 3.824030e-01 2.562886e-01 1.608755e+00
<VARIANCE> 39
 1.328369e+01 1.316152e+01 1.642757e+01 1.487744e+01 1.966506e+01 2.424151e+01 2.153795e+01 1.737439e+01 1.835350e+01 1.445024e+01 1.595613e+01 1.306474e+01 1.142131e+01 1.899969e+00 4.126038e+00 4.915809e+00 3.437432e+00 5.674583e+00 4.356966e+00 4.205389e+00 3.969921e+00 3.552151e+00 3.800892e+00 2.691933e+00 2.561248e+00 2.775881e+00 5.612028e-01 7.198816e-01 1.040340e+00 6.197386e-01 9.203048e-01 9.453726e-01 7.659779e-01 9.284636e-01 6.221093e-01 6.851436e-01 6.956855e-01 4.372224e-01 3.085851e-01
<GCONST> 1.192071e+02
<STATE> 4
<NUMMIXES> 3
<MIXTURE> 1 2.612996e-01
<MEAN> 39
 -4.212839e+00 -1.106789e-01 6.030484e+00 -4.123591e+00 -1.210296e+01 -6.288946e+00 -1.160206e+01 -2.465241e+00 -1.044530e+01 2.305488e+00 5.010535e+00 -2.681440e+00 6.909703e+01 2.094452e+00 -4.252525e-01 9.079430e-01 -1.604551e+00 -3.094858e+00 -9.642056e-01 -1.401853e+00 1.053568e+00 5.204626e-01 -3.154879e-01 2.069062e+00 -1.057884e+00 2.543682e+00 -1.016792e-01 -8.076440e-02 -4.757130e-01 2.463953e-01 8.692696e-01 4.868295e-01 7.958164e-01 5.072997e-01 1.016457e+00 -5.604258e-01 -6.860109e-01 -2.377443e-01 -5.755410e-01
<VARIANCE> 39
 2.524356e+01 1.939633e+01 9.070692e+01 3.325658e+01 7.860614e+01 4.209083e+01 5.376105e+01 6.305914e+01 3.065203e+01 3.858213e+01 5.953513e+01 2.768305e+01 2.287472e+01 1.586333e+00 2.931641e+00 3.477923e+00 4.544231e+00 4.787766e+00 4.396156e+00 7.613236e+00 5.288202e+00 6.261183e+00 5.288888e+00 4.995169e+00 5.109909e+00 1.507472e+00 2.996782e-01 4.366685e-01 7.048370e-01 3.422454e-01 8.307900e-01 5.413034e-01 8.140432e-01 7.634639e-01 5.492639e-01 7.578908e-01 8.357099e-01 5.670017e-01 2.403242e-01
<GCONST> 1.301386e+02
<MIXTURE> 2 4.363204e-01
<MEAN> 39
 -1.240252e+01 -4.803781e+00 -2.502604e+00 -1.057595e+00 -2.319527e-01 -2.480107e+00 -5.361811e+00 -1.183812e+00 -4.396133e+00 2.578197e+00 -2.742321e+00 7.731526e-02 6.425776e+01 7.906843e-01 -9.557655e-01 -2.340934e-01 -2.052581e+00 -2.282338e+00 -1.740014e+00 -1.621263e+00 -6.945307e-01 -9.829318e-01 1.435342e+00 5.273862e-01 2.865815e-01 3.143395e+00 1.165969e+00 1.194342e+00 7.928144e-01 -1.759154e-01 -9.654956e-01 -6.182607e-01 -1.438779e-01 -2.493538e-01 -1.561632e-01 -4.362343e-01 1.894467e-01 -4.335311e-01 -1.915723e-01
<VARIANCE> 39
 3.531959e+01 4.119424e+01 9.003781e+01 3.831905e+01 7.220064e+01 6.007561e+01 4.944605e+01 5.378041e+01 3.292617e+01 3.167688e+01 2.943104e+01 2.375685e+01 2.372325e+01 4.006232e+00 5.228927e+00 5.577118e+00 3.772280e+00 5.783069e+00 5.198221e+00 4.068000e+00 4.750221e+00 3.200095e+00 3.749048e+00 3.485183e+00 2.700023e+00 2.553092e+00 4.442178e-01 7.751687e-01 9.800490e-01 9.893090e-01 1.100231e+00 1.257353e+00 1.090636e+00 1.068992e+00 9.043391e-01 8.334500e-01 9.336453e-01 7.097005e-01 3.306684e-01
<GCONST> 1.357300e+02
<MIXTURE> 3 3.023800e-01
<MEAN> 39
 -6.653806e+00 1.228034e+00 -2.038543e+00 -9.879253e-01 -2.262498e+00 -5.198941e+00 -7.008841e+00 -4.377045e+00 -6.955149e+00 1.037244e+00 -3.916217e-01 -7.908889e-01 6.262617e+01 7.990249e-01 -5.894226e-01 -3.674315e-01 -8.868151e-01 -1.521935e+00 -1.220439e+00 -1.111536e+00 -1.473469e-01 -5.838913e-02 3.399481e-01 1.353639e+00 4.469388e-01 2.108373e+00 3.396306e-01 1.905205e-01 4.433422e-01 7.307766e-02 -4.801210e-01 -3.956555e-02 6.959731e-02 2.762283e-01 3.153994e-01 -4.861580e-01 9.287673e-02 -2.116594e-01 3.825540e-02
<VARIANCE> 39
 3.973812e+01 4.430978e+01 9.302315e+01 5.649422e+01 9.426541e+01 7.737672e+01 4.595361e+01 5.790777e+01 3.497496e+01 4.472932e+01 4.021758e+01 2.777351e+01 3.256807e+01 6.635167e+00 4.884801e+00 4.591046e+00 4.994317e+00 7.753305e+00 6.133038e+00 6.838690e+00 5.553585e+00 4.624438e+00 4.543109e+00 4.506689e+00 3.288058e+00 3.455646e+00 5.438805e-01 8.963515e-01 1.045298e+00 8.297964e-01 1.319548e+00 1.157073e+00 1.065431e+00 9.892872e-01 7.428507e-01 1.059516e+00 7.297155e-01 7.215598e-01 4.855765e-01
<GCONST> 1.414584e+02
<TRANSP> 5
 0.000000e+00 1.000000e+00 0.000000e+00 0.000000e+00 0.000000e+00
 0.000000e+00 5.540682e-01 4.459319e-01 0.000000e+00 0.000000e+00
 0.000000e+00 0.000000e+00 5.687633e-01 4.312368e-01 0.000000e+00
 0.000000e+00 0.000000e+00 0.000000e+00 6.213280e-01 3.786721e-01
 0.000000e+00 0.000000e+00 0.000000e+00 0.000000e+00 0.000000e+00
<ENDHMM>
~h "k"
<BEGINHMM>
<NUMSTATES> 5
<STATE> 2
<NUMMIXES> 3
<MIXTURE> 1 2.397913e-01
<MEAN> 39
 -3.788499e+00 6.925445e-01 6.867455e+00 -1.117217e+00 -1.432488e+01 -1.093145e+01 -3.785160e-01 -1.153244e+00 -1.205985e+01 1.768845e+00 -1.833078e+00 -3.918658e+00 6.495677e+01 -1.019093e+00 3.044009e+00 1.492978e-01 2.265172e+00 2.551854e+00 1.265232e+00 6.123855e-01 -3.778775e-01 1.165282e+00 2.682109e-01 8.657351e-02 4.182168e-01 -4.567188e+00 -5.317827e-01 -5.330030e-01 -9.640392e-01 -2.305188e-01 1.044571e+00 6.921671e-01 -2.310996e-01 4.086511e-01 1.314973e+00 -6.006867e-01 9.189378e-04 3.199195e-01 -2.243847e-01
<VARIANCE> 39
 1.504777e+01 2.828863e+01 4.936133e+01 5.199371e+01 4.214217e+01 6.148826e+01 6.629151e+01 1.121562e+02 3.750607e+01 4.567497e+01 6.986378e+01 2.952803e+01 2.060955e+01 1.199886e+00 1.916143e+00 3.342912e+00 2.741395e+00 3.578945e+00 4.668533e+00 5.533327e+00 5.337107e+00 4.442180e+00 3.653351e+00 4.285823e+00 2.772490e+00 1.809214e+00 1.808137e-01 4.552658e-01 4.491162e-01 5.972648e-01 6.589488e-01 7.303742e-01 7.572339e-01 1.305609e+00 6.689882e-01 8.143318e-01 9.549092e-01 5.147073e-01 3.916875e-01
<GCONST> 1.287520e+02
<MIXTURE> 2 4.543629e-01
<MEAN> 39
 -8.988097e+00 5.250836e+00 2.116544e+00 3.560318e+00 -4.954192e-01 -3.660416e+00 -2.191049e+00 3.627616e-01 -1.729756e+00 -7.153424e-01 -5.582937e-01 -1.180228e+00 5.334954e+01 -1.567631e+00 -1.794534e-01 -6.808588e-01 2.009346e-01 1.206798e+00 1.641893e+00 1.290569e+00 9.202304e-02 1.192975e+00 9.633723e-02 2.149147e-01 3.652656e-01 -2.401065e+00 -8.400668e-02 -1.233986e+00 -5.499696e-01 -7.089943e-01 -5.661248e-01 -1.423437e-01 -4.481550e-01 1.379501e-01 -2.249810e-01 1.709723e-01 3.984214e-02 4.929706e-03 1.542140e+00
<VARIANCE> 39
 2.149174e+01 2.067675e+01 2.777012e+01 2.708967e+01 4.000571e+01 3.692401e+01 4.203279e+01 4.152913e+01 3.587009e+01 2.654474e+01 2.567332e+01 2.127952e+01 1.539986e+01 4.060533e+00 3.495870e+00 4.551548e+00 3.285358e+00 5.942109e+00 4.918682e+00 5.256497e+00 5.755537e+00 4.789190e+00 3.785153e+00 3.527675e+00 2.620918e+00 2.545667e+00 4.221700e-01 6.974200e-01 6.743963e-01 5.565634e-01 7.921855e-01 8.170730e-01 8.111210e-01 7.646785e-01 7.136038e-01 6.820635e-01 5.863092e-01 4.760352e-01 5.556432e-01
<GCONST> 1.275555e+02
<MIXTURE> 3 3.058466e-01
<MEAN> 39
 -5.088144e+00 5.855359e+00 4.190455e+00 2.395384e+00 -5.322612e+00 -6.453202e+00 -3.119170e+00 -1.146722e+00 -5.890063e+00 -8.593459e-01 -1.866965e+00 -2.583435e+00 5.775274e+01 -2.021979e+00 1.180882e+00 -7.381088e-01 1.409938e+00 2.812785e+00 1.391973e+00 1.117560e+00 4.401444e-01 1.933471e+00 -1.020042e-01 3.176803e-01 6.786206e-01 -3.710005e+00 -4.083197e-01 -1.227842e+00 -6.439762e-01 -6.718400e-01 -1.028208e-01 2.707329e-01 -1.332524e-01 2.157198e-01 3.956021e-01 7.151359e-03 1.342348e-01 8.984199e-02 8.759297e-01
<VARIANCE> 39
 1.838906e+01 2.283710e+01 4.428811e+01 3.253917e+01 4.176001e+01 5.106605e+01 5.356777e+01 6.843835e+01 3.696168e+01 3.567755e+01 3.898340e+01 2.662679e+01 1.876278e+01 1.545324e+00 3.598153e+00 4.798674e+00 3.994457e+00 4.407339e+00 6.120873e+00 6.046341e+00 6.662162e+00 5.034213e+00 4.113314e+00 5.222101e+00 3.072327e+00 2.614565e+00 2.700073e-01 4.717481e-01 4.422331e-01 4.349259e-01 6.267335e-01 6.773656e-01 8.276654e-01 8.630775e-01 6.838197e-01 7.227659e-01 5.930465e-01 5.088364e-01 4.439668e-01
<GCONST> 1.287333e+02
<STATE> 3
<NUMMIXES> 3
<MIXTURE> 1 2.317311e-01
<MEAN> 39
 -1.304942e+01 -2.366096e+00 -3.890012e-01 2.213109e-02 -1.493487e+00 -1.527390e+00 3.085063e-01 2.935864e+00 -8.678290e-01 -1.040187e+00 5.859699e-01 -3.259921e-01 5.729487e+01 -5.717366e-01 -1.853804e-01 -3.134778e-01 -3.521193e-03 3.530504e-01 3.157733e-01 8.287369e-02 -1.083250e-02 3.576942e-01 1.864061e-01 1.465913e-01 1.941715e-01 -3.290757e-01 1.273744e-01 4.822184e-02 3.937904e-02 -5.310138e-02 -9.740300e-02 -6.416617e-02 -1.178760e-01 -4.102757e-02 -1.115376e-01 -2.976114e-02 -2.955349e-02 -6.189389e-02 2.141993e-01
<VARIANCE> 39
 3.034518e+01 5.128133e+01 2.584741e+01 2.471981e+01 2.770460e+01 3.385552e+01 3.810238e+01 3.296182e+01 2.907973e+01 2.415784e+01 2.260206e+01 1.832462e+01 3.854435e+01 2.085339e+00 1.998543e+00 1.730763e+00 1.574236e+00 2.096276e+00 2.295590e+00 2.511987e+00 2.527911e+00 2.640404e+00 2.051775e+00 1.958850e+00 1.678074e+00 1.843511e+00 2.253508e-01 3.220862e-01 2.632315e-01 3.476812e-01 3.996743e-01 4.539364e-01 5.477939e-01 4.664871e-01 4.831159e-01 4.001796e-01 3.882208e-01 3.231891e-01 3.248213e-01
<GCONST> 1.121106e+02
<MIXTURE> 2 4.111789e-01
<MEAN> 39
 -1.133633e+01 3.285870e+00 4.474458e-01 2.746687e+00 1.149213e-01 -1.452459e+00 -9.723886e-01 3.818531e-01 -7.297029e-01 5.936863e-02 -6.735680e-02 -7.555484e-01 5.128116e+01 -1.214755e+00 -3.172335e+00 -2.343543e+00 -1.040471e+00 4.241013e-01 2.873338e-01 -5.478482e-01 6.759174e-01 4.085333e-02 8.135372e-01 1.398938e-01 5.886616e-01 2.086557e+00 1.345259e-01 -4.503558e-01 -2.008767e-01 -5.822275e-01 -5.808858e-01 -5.622855e-01 -4.921672e-01 1.571355e-03 -4.647228e-01 2.332436e-01 -1.682633e-02 2.442952e-02 1.609089e+00
<VARIANCE> 39
 1.016262e+01 1.708095e+01 2.135611e+01 2.266746e+01 2.906121e+01 2.739225e+01 2.809992e+01 2.501955e+01 2.449359e+01 2.014966e+01 2.065592e+01 1.579442e+01 1.324445e+01 3.238635e+00 3.415266e+00 6.171815e+00 4.779862e+00 7.037374e+00 5.621614e+00 5.340741e+00 5.311492e+00 5.202291e+00 3.954257e+00 3.470146e+00 2.849385e+00 3.885164e+00 5.449947e-01 6.728525e-01 8.875918e-01 6.645048e-01 8.790468e-01 8.791773e-01 8.426870e-01 8.127155e-01 7.030184e-01 6.198963e-01 6.532237e-01 4.582432e-01 4.569560e-01
<GCONST> 1.253201e+02
<MIXTURE> 3 3.570891e-01
<MEAN> 39
 -1.181298e+01 3.592055e+00 5.881023e-01 2.438982e+00 8.752055e-02 -1.880069e-01 2.735727e-01 8.125015e-01 -6.265199e-02 2.010907e-02 2.333950e-01 -5.816450e-01 5.008753e+01 -9.917158e-01 -1.743140e+00 -1.112694e+00 -4.876093e-01 3.044275e-01 4.474071e-01 4.700683e-02 3.543546e-01 2.445035e-01 4.466911e-01 7.707668e-02 3.434855e-01 7.217985e-01 1.654359e-01 -5.848291e-01 -2.048320e-01 -3.818127e-01 -4.157876e-01 -5.884280e-01 -4.955788e-01 6.491434e-02 -3.817878e-01 1.723394e-01 -4.497388e-02 3.946061e-02 1.381811e+00
<VARIANCE> 39
 7.247537e+00 1.047041e+01 1.299014e+01 1.328505e+01 1.595606e+01 1.598632e+01 1.764775e+01 1.740253e+01 1.747863e+01 1.536416e+01 1.513517e+01 1.237442e+01 9.268580e+00 1.592829e+00 3.893539e+00 3.510183e+00 2.436852e+00 3.767526e+00 3.890003e+00 3.898370e+00 3.443998e+00 3.419115e+00 2.699785e+00 2.338252e+00 2.066185e+00 4.744461e+00 3.373335e-01 5.351024e-01 6.655610e-01 4.375437e-01 6.246756e-01 6.116213e-01 6.683922e-01 6.182758e-01 5.679894e-01 4.881476e-01 4.602833e-01 3.663697e-01 4.051853e-01
<GCONST> 1.113284e+02
<STATE> 4
<NUMMIXES> 3
<MIXTURE> 1 1.724679e-01
<MEAN> 39
 -1.453704e+01 -6.394498e+00 -7.164795e+00 -7.782939e-01 -1.473369e+00 -8.697744e+00 -5.761827e+00 4.187910e+00 2.680185e-01 4.062872e+00 1.894315e-01 2.249111e+00 6.593763e+01 -1.166934e+00 6.053723e-01 3.071384e-01 -3.031760e-01 -3.068419e-01 -4.013930e-01 4.730463e-01 6.279725e-01 6.943848e-01 1.930240e-01 2.691687e-01 1.502164e-01 1.236981e+00 3.638980e-01 1.078106e+00 7.924863e-01 2.256987e-01 1.429942e-01 9.437716e-01 6.201922e-01 -4.917422e-01 -2.504595e-01 -6.586878e-01 -2.103781e-01 -5.087971e-01 -1.037246e+00
<VARIANCE> 39
 4.205656e+01 2.830646e+01 5.445236e+01 3.635713e+01 5.534837e+01 4.985287e+01 5.087030e+01 5.399728e+01 4.141306e+01 3.636430e+01 3.227271e+01 2.952888e+01 1.758388e+01 4.616735e+00 3.878896e+00 3.240825e+00 3.098225e+00 3.814560e+00 4.786038e+00 4.098569e+00 3.810553e+00 3.039486e+00 3.085934e+00 3.298038e+00 2.757949e+00 3.780789e+00 6.150728e-01 6.012938e-01 7.505894e-01 7.277438e-01 1.032954e+00 9.293289e-01 9.069875e-01 1.123043e+00 8.798950e-01 7.721727e-01 8.495276e-01 7.298556e-01 3.621624e-01
<GCONST> 1.323539e+02
<MIXTURE> 2 4.072849e-01
<MEAN> 39
 -1.376698e+01 -2.832191e+00 -2.725729e+00 -2.648011e+00 -1.618287e+00 -4.420924e-01 -6.886042e-01 8.423284e-01 -2.251891e+00 1.448609e+00 -7.220473e-01 -4.617509e-01 6.204932e+01 2.146863e+00 9.468958e-01 7.331507e-01 -5.541682e-01 -1.333530e+00 -2.339606e-01 -5.011950e-01 -1.200999e+00 -1.072099e+00 -1.394905e+00 -8.061043e-01 -9.607160e-01 9.627097e-01 8.417844e-01 6.881867e-02 -3.025872e-02 -1.898672e-01 -3.919625e-01 -2.845432e-01 -5.138922e-01 -1.816142e-01 -1.068343e-01 -2.497872e-01 -1.230276e-02 -1.971795e-01 3.342302e-01
<VARIANCE> 39
 3.215637e+01 4.283155e+01 7.270893e+01 3.885898e+01 6.094527e+01 5.808010e+01 4.734467e+01 4.620504e+01 3.523849e+01 3.404717e+01 3.626422e+01 2.323993e+01 2.600202e+01 3.795658e+00 3.184999e+00 3.238245e+00 4.197594e+00 5.401364e+00 6.268199e+00 5.275385e+00 5.410030e+00 4.093216e+00 3.652897e+00 4.310331e+00 2.854210e+00 2.431270e+00 4.840375e-01 6.549403e-01 7.104102e-01 6.812360e-01 8.019632e-01 8.336383e-01 7.645149e-01 8.764628e-01 7.934601e-01 7.587340e-01 7.456107e-01 5.213618e-01 4.095087e-01
<GCONST> 1.328543e+02
<MIXTURE> 3 4.202465e-01
<MEAN> 39
 -1.349586e+01 -6.128471e+00 -6.716945e+00 -2.425607e+00 2.532277e-01 -8.667752e-01 -3.929577e+00 1.792498e+00 -2.077639e+00 2.955498e+00 7.322094e-01 3.453776e-01 6.215196e+01 -7.318395e-01 -1.024653e+00 -9.130724e-01 -9.248991e-01 -3.119957e-01 -1.850464e-01 -2.794093e-01 2.926714e-01 7.422976e-02 5.899796e-01 2.543798e-01 3.027470e-01 1.992593e+00 3.881553e-01 9.013970e-01 7.512328e-01 2.367291e-01 -3.806925e-01 -2.561484e-01 1.615541e-01 -1.914133e-01 -4.799181e-02 -3.879888e-01 -1.314832e-01 -1.832689e-01 -2.883907e-01
<VARIANCE> 39
 3.937612e+01 4.174726e+01 7.537069e+01 5.348095e+01 5.892627e+01 5.332590e+01 4.528812e+01 4.138047e+01 3.883530e+01 3.312785e+01 2.902784e+01 2.129357e+01 2.520200e+01 3.434138e+00 4.091204e+00 5.518842e+00 4.364582e+00 4.687645e+00 4.745563e+00 4.408722e+00 3.933498e+00 3.626364e+00 3.437192e+00 2.754519e+00 2.313561e+00 4.351834e+00 6.442999e-01 7.439858e-01 8.094621e-01 9.016934e-01 9.510495e-01 7.611523e-01 8.007262e-01 8.430839e-01 8.194040e-01 7.024614e-01 6.697921e-01 4.954257e-01 4.696395e-01
<GCONST> 1.332332e+02
<TRANSP> 5
 0.000000e+00 1.000000e+00 0.000000e+00 0.000000e+00 0.000000e+00
 0.000000e+00 5.547682e-01 4.452318e-01 0.000000e+00 0.000000e+00
 0.000000e+00 0.000000e+00 6.136842e-01 3.863159e-01 0.000000e+00
 0.000000e+00 0.000000e+00 0.000000e+00 7.744541e-01 2.255459e-01
 0.000000e+00 0.000000e+00 0.000000e+00 0.000000e+00 0.000000e+00
<ENDHMM>
~h "l"
<BEGINHMM>
<NUMSTATES> 5
<STATE> 2
<NUMMIXES> 3
<MIXTURE> 1 1.981589e-01
<MEAN> 39
 -1.022684e+00 -5.150868e+00 -7.205999e+00 -1.222312e+01 -4.053114e+00 3.122931e+00 -1.327519e+01 -1.706240e+00 3.500684e+00 2.597668e+00 -2.341764e+00 -9.976290e+00 7.384548e+01 6.341982e-01 7.938867e-01 -9.467602e-01 -1.974639e+00 6.854955e-01 2.458778e+00 5.436189e-01 -1.994824e+00 -1.559419e+00 4.351394e-01 2.726193e+00 1.704401e-01 -5.849783e-01 2.887560e-02 3.404833e-01 3.599189e-01 5.410801e-02 -5.398046e-01 -2.630486e-01 5.387522e-01 3.809610e-01 -7.641669e-01 -8.947220e-01 3.981362e-01 1.012073e+00 -2.561656e-01
<VARIANCE> 39
 1.109105e+01 2.409820e+01 3.036494e+01 3.747434e+01 2.896405e+01 7.962024e+01 8.333399e+01 5.932759e+01 3.352181e+01 3.620507e+01 6.845419e+01 2.774043e+01 1.507981e+01 3.199888e-01 1.119803e+00 1.018535e+00 1.656440e+00 2.223607e+00 2.502783e+00 2.624305e+00 2.679352e+00 3.146984e+00 3.469807e+00 2.962692e+00 4.269234e+00 3.523924e-01 6.277784e-02 1.312274e-01 1.980713e-01 2.370904e-01 2.839306e-01 4.183130e-01 4.775295e-01 5.771009e-01 5.645924e-01 5.464596e-01 8.811761e-01 3.530515e-01 5.254504e-02
<GCONST> 1.083977e+02
<MIXTURE> 2 3.431859e-01
<MEAN> 39
 -2.085141e+00 5.689701e+00 -4.961223e+00 -1.001605e+01 -4.810321e+00 -1.094922e+00 -7.551764e+00 -8.999999e+00 -5.831932e+00 -3.575577e+00 -4.426405e-01 -8.168698e-01 6.439326e+01 1.560578e+00 7.304798e-01 -5.137216e-01 -1.810320e+00 -1.317697e-01 6.725143e-01 -8.160638e-01 -9.589291e-01 -6.835510e-01 -3.827288e-01 4.093436e-01 7.048064e-02 4.639907e-01 -3.638701e-01 -4.485502e-01 6.844296e-02 3.328692e-01 4.420976e-02 -1.104890e-01 7.067887e-02 6.030260e-01 3.821048e-01 1.589746e-01 -1.274218e-02 -1.563217e-01 1.073713e-01
<VARIANCE> 39
 3.198492e+01 3.948764e+01 4.231676e+01 8.274949e+01 5.134735e+01 6.795004e+01 6.310982e+01 6.154179e+01 5.050992e+01 4.128331e+01 4.537088e+01 2.957941e+01 2.675086e+01 5.186306e+00 4.027906e+00 3.361474e+00 6.757979e+00 5.881586e+00 5.107531e+00 6.567198e+00 5.722233e+00 5.124047e+00 4.667081e+00 4.320350e+00 3.283443e+00 3.656659e+00 6.057467e-01 6.933926e-01 5.072778e-01 1.012576e+00 9.070137e-01 7.693110e-01 9.702755e-01 1.010817e+00 1.063761e+00 7.912426e-01 7.715392e-01 6.010112e-01 3.913805e-01
<GCONST> 1.380553e+02
<MIXTURE> 3 4.586564e-01
<MEAN> 39
 1.619331e+00 -9.783546e-01 -8.601809e+00 -1.733412e+01 -5.979669e+00 6.411924e+00 -7.893137e+00 -4.939677e+00 -3.945169e+00 -3.119484e+00 3.717846e+00 -1.997344e+00 7.022414e+01 3.501666e-01 1.563608e+00 2.766521e-02 -9.581421e-01 -5.634183e-01 3.655404e-01 7.437508e-01 4.423426e-01 -8.930459e-01 -1.720660e+00 4.242378e-01 1.337931e+00 -9.377658e-01 -1.526840e-01 2.090709e-01 2.518084e-01 5.399454e-01 -3.713287e-02 -5.129728e-01 -8.614019e-02 1.855030e-01 2.419793e-01 -3.134409e-02 -5.909471e-01 -1.424395e-01 -2.011350e-01
<VARIANCE> 39
 1.245380e+01 3.078693e+01 3.088274e+01 4.967738e+01 4.492678e+01 7.595121e+01 8.389151e+01 6.123110e+01 3.946233e+01 4.114135e+01 5.565753e+01 4.709995e+01 1.646234e+01 3.298135e-01 1.287526e+00 8.822075e-01 1.770693e+00 1.858636e+00 2.536084e+00 2.584002e+00 2.577063e+00 3.086970e+00 3.103956e+00 3.457089e+00 3.061578e+00 4.594283e-01 9.024293e-02 1.908956e-01 1.870933e-01 3.830936e-01 3.797648e-01 4.091570e-01 4.503117e-01 5.533373e-01 4.835436e-01 5.155414e-01 5.361104e-01 5.391589e-01 1.006526e-01
<GCONST> 1.117090e+02
<STATE> 3
<NUMMIXES> 3
<MIXTURE> 1 2.281207e-01
<MEAN> 39
 1.103435e+00 4.892758e+00 -5.855752e+00 -1.637716e+01 -6.538950e+00 6.122429e+00 -9.794064e+00 -6.487928e+00 -5.271523e+00 -6.602639e+00 4.460038e+00 3.261319e-01 6.707430e+01 -3.725207e-01 -1.958813e-01 2.338606e-01 1.207944e+00 1.010157e+00 -4.662555e-01 -6.601321e-01 -2.011276e-01 4.271252e-01 1.096812e+00 1.472998e-02 -7.856245e-01 1.570856e-01 -7.943334e-01 -3.271946e-01 3.063852e-01 1.186144e+00 2.197450e-01 -6.150452e-01 3.318000e-01 6.170466e-01 5.390774e-01 4.701824e-01 -5.520275e-01 -4.144142e-01 -1.675344e-01
<VARIANCE> 39
 1.298091e+01 2.877273e+01 3.105921e+01 4.941680e+01 4.764899e+01 6.126613e+01 7.082902e+01 6.958413e+01 4.050603e+01 4.628603e+01 4.892722e+01 3.448142e+01 1.700407e+01 3.143831e+00 7.985713e+00 2.782640e+00 8.222017e+00 4.916165e+00 4.542233e+00 8.598951e+00 4.740293e+00 5.869205e+00 5.408174e+00 4.363619e+00 3.675826e+00 5.946773e+00 4.098731e-01 4.993878e-01 3.447423e-01 6.442387e-01 8.850816e-01 6.538808e-01 9.636852e-01 9.652241e-01 8.884448e-01 7.988150e-01 7.747812e-01 6.425840e-01 3.174116e-01
<GCONST> 1.345031e+02
<MIXTURE> 2 3.674023e-01
<MEAN> 39
 7.895946e-01 7.956904e+00 -6.778038e+00 -1.610099e+01 -5.121484e+00 -1.038051e+00 -5.580360e+00 -7.650331e+00 -8.750264e+00 -5.056527e+00 -6.055459e-01 3.994169e-01 6.354402e+01 -1.213887e-01 -2.012969e-01 -3.270078e-03 2.502589e-01 2.272968e-01 -1.526256e-01 -3.728675e-01 -9.658873e-03 2.196549e-01 2.849995e-01 1.286478e-01 -2.032614e-01 1.250805e-01 -1.373542e-01 -5.040706e-01 -8.802520e-03 2.504721e-01 2.045716e-02 -1.151323e-02 -2.984160e-01 1.470069e-01 5.330308e-01 2.269795e-01 -8.638429e-02 -2.540878e-01 2.817517e-01
<VARIANCE> 39
 1.884760e+01 2.949525e+01 3.721774e+01 8.390536e+01 4.319334e+01 4.919542e+01 5.378263e+01 5.267407e+01 4.243507e+01 3.723619e+01 3.074781e+01 3.023370e+01 2.094831e+01 5.036739e-01 2.031158e+00 1.512345e+00 2.689414e+00 1.902544e+00 1.958063e+00 2.460734e+00 2.558439e+00 2.901097e+00 2.700515e+00 1.854315e+00 1.937470e+00 1.214859e+00 1.337115e-01 3.281876e-01 2.632256e-01 6.357832e-01 4.073394e-01 5.024607e-01 4.835266e-01 6.106780e-01 6.201189e-01 4.788463e-01 5.262589e-01 4.144154e-01 1.808893e-01
<GCONST> 1.148428e+02
<MIXTURE> 3 4.044760e-01
<MEAN> 39
 2.492049e+00 7.013125e+00 -5.286826e+00 -1.741330e+01 -1.060435e+01 7.470673e+00 -6.880727e+00 -2.140668e+00 -3.440333e+00 -9.194030e+00 2.773710e+00 5.309567e-01 6.535476e+01 -1.262192e-01 5.049496e-01 1.861261e-01 2.318987e-01 1.718879e-01 -4.276763e-01 1.044020e-01 6.420756e-03 -1.408994e-01 -5.049876e-02 -1.147586e-01 -1.450604e-01 -3.996786e-01 -1.924834e-01 -4.362448e-01 7.367479e-04 3.749057e-01 4.334504e-01 -1.085783e-01 -1.813531e-01 -2.370323e-01 1.543364e-02 6.086947e-01 1.088782e-01 -2.060856e-01 1.916980e-01
<VARIANCE> 39
 9.846815e+00 2.936629e+01 2.513934e+01 4.043597e+01 4.035864e+01 4.165919e+01 6.260440e+01 6.129535e+01 4.199248e+01 3.287495e+01 3.548300e+01 3.501635e+01 1.802443e+01 3.393494e-01 2.332071e+00 9.716704e-01 1.968984e+00 1.925155e+00 2.126071e+00 2.367076e+00 2.344734e+00 2.085812e+00 2.464802e+00 2.272925e+00 1.884380e+00 1.083955e+00 8.476327e-02 3.264394e-01 1.756273e-01 3.959749e-01 3.282249e-01 4.304574e-01 5.233085e-01 4.330371e-01 5.198747e-01 4.861718e-01 4.241913e-01 4.706192e-01 1.718272e-01
<GCONST> 1.094629e+02
<STATE> 4
<NUMMIXES> 3
<MIXTURE> 1 2.484319e-01
<MEAN> 39
 -1.287167e+00 7.389637e+00 -3.296785e+00 -1.048222e+01 -5.937640e+00 1.009718e+00 -5.863544e+00 -2.987882e+00 -4.652639e+00 -6.093228e+00 -3.387843e-01 2.993090e-01 6.277217e+01 -2.225113e+00 1.109979e+00 1.644886e+00 4.039778e+00 1.541404e+00 -1.158859e+00 1.734687e+00 -1.808548e-01 -8.047938e-01 6.191850e-01 -3.545594e-01 -2.580630e-01 -1.949121e+00 -4.864649e-01 -5.289909e-01 -3.704031e-02 1.386797e-01 1.153297e-01 1.443049e-01 4.282132e-02 1.200662e-01 2.449364e-01 3.449717e-01 1.073178e-01 -1.803584e-01 9.611358e-02
<VARIANCE> 39
 2.296917e+01 3.677972e+01 3.472461e+01 6.373421e+01 4.111746e+01 7.064212e+01 6.704749e+01 6.547089e+01 4.831855e+01 3.183304e+01 3.476180e+01 2.923834e+01 3.454868e+01 3.387213e+00 3.612079e+00 2.859850e+00 6.280859e+00 7.668979e+00 4.338815e+00 5.086554e+00 5.135689e+00 4.566280e+00 3.697533e+00 3.235227e+00 3.266305e+00 2.697083e+00 3.636405e-01 5.577394e-01 3.493204e-01 8.339899e-01 5.823044e-01 6.770472e-01 8.467693e-01 9.778101e-01 9.021995e-01 5.712767e-01 5.500793e-01 4.733785e-01 3.656915e-01
<GCONST> 1.316581e+02
<MIXTURE> 2 5.114769e-01
<MEAN> 39
 -3.513608e-01 -1.354312e+00 -8.287621e+00 -1.279119e+01 -3.005765e+00 9.873883e-01 -1.357666e+01 -5.635056e+00 4.173801e-01 1.563115e+00 1.151130e+00 -7.110557e+00 7.061642e+01 -5.685341e-01 -2.209466e+00 5.277957e-01 1.236649e+00 -4.023311e-01 -1.622422e+00 -1.348254e+00 2.458171e+00 2.931050e+00 4.571484e-01 -2.324258e+00 -1.071702e+00 1.379899e+00 -1.300612e-01 3.365088e-01 6.047567e-01 3.757036e-01 -6.358848e-01 -3.722818e-01 7.316526e-01 4.885842e-01 -5.375498e-01 -9.390858e-01 -2.605451e-01 7.407708e-01 -3.540597e-01
<VARIANCE> 39
 1.540625e+01 2.979081e+01 3.057571e+01 4.718561e+01 3.181465e+01 7.420451e+01 6.971311e+01 7.335420e+01 5.726611e+01 3.720974e+01 7.277364e+01 4.070037e+01 2.042164e+01 5.614325e-01 1.957176e+00 2.014246e+00 2.733702e+00 3.275145e+00 3.870103e+00 5.295895e+00 4.573981e+00 3.934410e+00 6.337804e+00 4.013907e+00 4.349185e+00 9.725109e-01 1.776835e-01 3.145602e-01 3.061271e-01 4.266876e-01 5.613697e-01 5.698596e-01 7.988225e-01 8.264711e-01 1.147264e+00 5.987077e-01 1.105755e+00 6.654446e-01 1.805001e-01
<GCONST> 1.247675e+02
<MIXTURE> 3 2.400917e-01
<MEAN> 39
 -2.134369e+00 3.634268e-01 -3.736961e+00 -7.493142e+00 -4.617585e+00 -3.568535e+00 -1.242907e+01 -2.958328e+00 1.147764e-01 -2.157858e+00 -2.786901e+00 -3.711868e+00 6.750587e+01 -6.175355e-01 -1.020209e+00 1.403074e+00 1.585154e+00 -1.538959e+00 -1.630078e+00 3.001642e-01 1.911696e+00 2.283225e-01 -7.434899e-01 -4.128328e-01 6.522017e-01 5.211913e-01 -1.072841e-01 2.466582e-01 3.638383e-01 -1.160774e-01 -4.892313e-01 2.818800e-01 7.333484e-01 -1.682555e-01 -8.049140e-01 -2.117061e-01 5.265200e-01 2.350734e-01 -1.830870e-01
<VARIANCE> 39
 2.328794e+01 4.343816e+01 4.594152e+01 7.053826e+01 4.763247e+01 8.832547e+01 9.463706e+01 1.050514e+02 8.090868e+01 4.669992e+01 5.641786e+01 3.532473e+01 4.563018e+01 1.307401e+00 2.981021e+00 4.122048e+00 5.677106e+00 6.202159e+00 4.851300e+00 5.837370e+00 5.714645e+00 4.986779e+00 5.209260e+00 3.607970e+00 4.294061e+00 3.032856e+00 3.279527e-01 4.842594e-01 5.787916e-01 8.173810e-01 8.403618e-01 7.586677e-01 1.280348e+00 1.289304e+00 1.733898e+00 7.742878e-01 1.010165e+00 5.823061e-01 4.730005e-01
<GCONST> 1.388936e+02
<TRANSP> 5
 0.000000e+00 1.000000e+00 0.000000e+00 0.000000e+00 0.000000e+00
 0.000000e+00 6.062498e-01 3.937502e-01 0.000000e+00 0.000000e+00
 0.000000e+00 0.000000e+00 7.274995e-01 2.725005e-01 0.000000e+00
 0.000000e+00 0.000000e+00 0.000000e+00 5.426651e-01 4.573349e-01
 0.000000e+00 0.000000e+00 0.000000e+00 0.000000e+00 0.000000e+00
<ENDHMM>
~h "m"
<BEGINHMM>
<NUMSTATES> 5
<STATE> 2
<NUMMIXES> 3
<MIXTURE> 1 2.119544e-01
<MEAN> 39
 2.959978e+00 -7.039770e+00 -4.340796e+00 -4.799002e+00 -4.981580e+00 2.042317e+00 -9.386452e+00 -1.707714e+00 7.438831e-01 -5.574257e-01 -4.401380e-01 -8.948088e+00 6.990695e+01 4.013366e-01 1.905937e+00 1.687621e+00 1.712497e+00 9.917467e-01 -8.028954e-02 7.540874e-02 -2.993378e+00 -3.283004e+00 8.110790e-02 2.145136e+00 7.661507e-01 -2.007746e+00 -3.723753e-01 4.773989e-01 5.806851e-01 4.580599e-01 1.429946e-01 -3.709718e-01 1.624379e-01 -1.952482e-01 -7.208784e-01 -5.019375e-01 -2.801748e-02 4.943834e-01 -2.177458e-01
<VARIANCE> 39
 9.486329e+00 1.859623e+01 3.430056e+01 3.502441e+01 1.955814e+01 7.017813e+01 3.784850e+01 4.630195e+01 3.918202e+01 2.595612e+01 4.541324e+01 2.724253e+01 1.793180e+01 7.201229e-01 1.871035e+00 2.886477e+00 2.963424e+00 3.056912e+00 3.917149e+00 3.773655e+00 4.688735e+00 4.683645e+00 4.772194e+00 3.740607e+00 3.326338e+00 1.004283e+00 9.015936e-02 1.621471e-01 2.668738e-01 3.256594e-01 3.446291e-01 4.164934e-01 4.552839e-01 4.838824e-01 5.400239e-01 4.705966e-01 5.608345e-01 4.308971e-01 1.187105e-01
<GCONST> 1.139556e+02
<MIXTURE> 2 3.705545e-01
<MEAN> 39
 -1.222561e+00 4.630138e+00 2.005773e+00 6.281623e-01 -5.122890e+00 -6.119287e+00 -5.832968e+00 -9.286266e+00 -9.912502e+00 -3.736128e+00 -3.032640e+00 -3.582419e+00 6.091053e+01 8.984100e-01 6.097921e-01 7.195435e-01 9.446073e-01 -9.965183e-02 -4.349741e-01 -4.595607e-01 -1.476931e+00 -1.362741e+00 1.687499e-02 3.118081e-01 -4.386371e-01 -3.360936e-02 -3.417638e-01 -5.007921e-01 -1.635649e-01 -4.363904e-01 -1.559369e-01 2.027375e-01 -5.982124e-02 6.282853e-01 5.356117e-01 6.249296e-04 4.263885e-03 4.177397e-02 4.482099e-01
<VARIANCE> 39
 2.425540e+01 2.682417e+01 3.734976e+01 5.294900e+01 4.010156e+01 5.211007e+01 4.775019e+01 4.801335e+01 3.873468e+01 3.140458e+01 4.337810e+01 3.357858e+01 2.163371e+01 3.590222e+00 3.397192e+00 3.368761e+00 3.643015e+00 4.215081e+00 4.035084e+00 4.810113e+00 4.767499e+00 4.650742e+00 3.566030e+00 3.314830e+00 2.977670e+00 3.703338e+00 4.312243e-01 3.830156e-01 4.771602e-01 5.781994e-01 6.250833e-01 6.751084e-01 7.177266e-01 7.835708e-01 7.955629e-01 5.699082e-01 5.994071e-01 5.173441e-01 3.108441e-01
<GCONST> 1.283137e+02
<MIXTURE> 3 4.174915e-01
<MEAN> 39
 2.287595e+00 -2.791421e-01 1.484585e+00 -6.625434e-01 -2.841591e+00 -9.434479e-01 -8.288539e+00 -7.895446e+00 -9.721633e+00 -3.909838e+00 2.107544e+00 -4.588079e+00 6.508226e+01 -2.522466e-01 1.829195e+00 1.761402e+00 1.836918e+00 1.219187e+00 -3.637853e-01 1.946394e-01 -2.555246e+00 -2.625243e+00 -3.837007e-01 6.984721e-01 6.254085e-01 -1.521384e+00 -2.486181e-01 -1.930085e-01 -1.173104e-01 -2.491039e-01 -2.978078e-01 -6.913646e-02 2.797469e-02 5.990796e-01 4.886100e-01 1.581959e-03 -4.311656e-01 -8.695213e-02 3.333107e-01
<VARIANCE> 39
 1.113064e+01 2.191054e+01 5.287822e+01 4.986059e+01 3.022142e+01 6.725749e+01 4.004314e+01 5.313173e+01 4.532199e+01 3.925375e+01 4.756194e+01 3.751126e+01 1.552008e+01 5.161852e-01 1.594738e+00 3.242107e+00 2.302656e+00 2.496475e+00 3.523274e+00 3.548983e+00 3.734628e+00 4.724794e+00 4.109714e+00 3.620960e+00 3.055292e+00 6.216202e-01 8.532561e-02 1.924392e-01 4.163880e-01 3.544263e-01 3.453189e-01 3.962870e-01 4.862671e-01 6.115265e-01 6.005771e-01 5.326480e-01 5.710214e-01 4.655864e-01 9.393757e-02
<GCONST> 1.154582e+02
<STATE> 3
<NUMMIXES> 3
<MIXTURE> 1 1.928972e-01
<MEAN> 39
 6.470128e-01 1.187135e+00 1.086638e+01 1.559295e+00 -2.832037e+00 5.875335e-01 -7.833334e+00 -3.064320e+00 -1.302052e+01 -5.726404e+00 3.445210e+00 -7.514843e+00 6.603403e+01 -6.091823e-02 1.351522e-01 6.668098e-02 9.393975e-02 7.215834e-02 -1.981665e-02 -4.846882e-02 4.237321e-02 3.037585e-02 -1.901302e-01 -1.289763e-01 1.146380e-02 4.227959e-02 -1.274526e-01 -8.336815e-02 -3.728323e-01 -2.067361e-01 -2.473941e-01 -1.668208e-02 2.021840e-02 2.715771e-01 5.029156e-01 1.021882e-01 -1.152008e-01 1.531675e-01 1.845552e-01
<VARIANCE> 39
 5.772641e+00 1.781163e+01 1.726475e+01 2.339905e+01 2.137999e+01 5.338637e+01 3.973055e+01 3.836992e+01 3.055421e+01 2.958730e+01 2.964773e+01 2.700596e+01 1.188969e+01 1.512577e-01 1.022804e+00 7.365195e-01 6.878917e-01 9.172654e-01 1.021133e+00 1.575278e+00 1.420999e+00 1.733811e+00 1.109123e+00 1.707804e+00 1.344227e+00 5.823723e-01 6.589592e-02 1.364107e-01 2.274007e-01 1.629385e-01 2.882863e-01 1.964327e-01 3.302394e-01 3.452180e-01 3.270727e-01 2.503039e-01 2.679016e-01 2.274050e-01 1.086663e-01
<GCONST> 9.121712e+01
<MIXTURE> 2 4.161199e-01
<MEAN> 39
 7.634908e-01 4.033954e+00 1.539534e+00 7.129822e-01 -5.663548e+00 -6.985092e+00 -7.626363e+00 -1.238103e+01 -1.075609e+01 -1.955642e+00 -3.253333e+00 -4.100293e+00 6.148025e+01 -5.701402e-02 -1.593467e-01 3.988524e-02 -1.453054e-01 -2.070006e-01 1.143189e-02 -5.849511e-02 3.488787e-01 3.382058e-01 -1.587424e-01 -2.106545e-01 -1.351193e-01 2.798823e-01 -3.070779e-01 -6.758711e-01 -3.605654e-01 -6.775360e-01 -1.455550e-01 2.576996e-01 1.443608e-01 1.090511e+00 7.843415e-01 -2.685303e-01 -2.135800e-01 4.797199e-02 5.110494e-01
<VARIANCE> 39
 1.962654e+01 2.428892e+01 2.600808e+01 5.588334e+01 3.294423e+01 4.908369e+01 4.384843e+01 4.737982e+01 3.335463e+01 3.413733e+01 5.194724e+01 4.197489e+01 1.518561e+01 1.116207e+00 3.063582e+00 1.963437e+00 2.298935e+00 2.377033e+00 2.346358e+00 2.651691e+00 3.172182e+00 3.094150e+00 2.108537e+00 2.335553e+00 2.257387e+00 2.206904e+00 2.954341e-01 3.544314e-01 4.997474e-01 6.137326e-01 6.224548e-01 5.952154e-01 6.665266e-01 7.643834e-01 8.855686e-01 6.690292e-01 7.194552e-01 6.681852e-01 2.521508e-01
<GCONST> 1.207735e+02
<MIXTURE> 3 3.909835e-01
<MEAN> 39
 1.333910e+00 2.146908e+00 4.100404e+00 1.756286e+00 -2.091082e+00 -1.075745e+00 -7.007359e+00 -1.067548e+01 -1.283154e+01 -5.608905e+00 2.169273e+00 -2.798815e+00 6.353015e+01 -1.404947e-01 1.476437e-01 2.280543e-01 4.941463e-02 -9.920079e-02 6.601635e-02 1.414912e-01 1.626574e-02 -1.638476e-01 -9.538261e-02 -2.458807e-01 -1.288575e-01 1.647673e-02 -2.071993e-02 -3.287251e-01 -5.022971e-01 -5.210350e-01 -4.274646e-01 -4.260623e-02 -1.330788e-02 8.056347e-01 8.867616e-01 2.408109e-01 -3.306852e-01 -2.278311e-01 3.482051e-01
<VARIANCE> 39
 1.218083e+01 2.623090e+01 3.215686e+01 3.800719e+01 3.148293e+01 8.074646e+01 5.504425e+01 4.476900e+01 4.652496e+01 4.534080e+01 5.617801e+01 4.005654e+01 1.906127e+01 1.810711e-01 8.941090e-01 1.403507e+00 1.331929e+00 1.271709e+00 1.788378e+00 1.908323e+00 2.148292e+00 2.811330e+00 2.117878e+00 2.270932e+00 2.110989e+00 4.441006e-01 7.162725e-02 2.158066e-01 3.316250e-01 2.860573e-01 3.620277e-01 3.881102e-01 4.996499e-01 5.992252e-01 6.999950e-01 5.523804e-01 6.413672e-01 4.639775e-01 1.191082e-01
<GCONST> 1.081172e+02
<STATE> 4
<NUMMIXES> 3
<MIXTURE> 1 2.529831e-01
<MEAN> 39
 -3.128290e+00 6.612357e+00 4.208360e+00 1.972894e+00 -2.338650e+00 -1.992845e+00 -3.051094e+00 -6.714966e+00 -8.875158e+00 -4.540613e+00 -2.675570e+00 -3.192237e+00 5.895323e+01 -1.803479e+00 3.901282e-01 -2.231264e-01 -1.777519e-01 8.031697e-01 4.708816e-01 6.032726e-01 1.599800e+00 1.213735e+00 -1.633594e-01 -4.586058e-01 1.978723e-01 -5.977248e-01 -3.998727e-01 -6.043030e-01 -4.445853e-01 -2.781371e-01 -1.337043e-02 6.674497e-02 -2.546425e-01 4.079448e-01 4.800784e-01 2.792267e-01 3.172919e-01 -2.149720e-03 4.269633e-01
<VARIANCE> 39
 3.340727e+01 2.395650e+01 3.060878e+01 3.377274e+01 3.704425e+01 4.188953e+01 4.505972e+01 5.172391e+01 4.650988e+01 3.120761e+01 3.105018e+01 2.578361e+01 2.974156e+01 2.951752e+00 3.605306e+00 2.824878e+00 3.620080e+00 3.870908e+00 3.206950e+00 4.765725e+00 4.488975e+00 4.250493e+00 3.065474e+00 3.425840e+00 2.905031e+00 2.858385e+00 6.571915e-01 6.840218e-01 4.776841e-01 5.559981e-01 8.029086e-01 5.931171e-01 8.377020e-01 7.876460e-01 8.678503e-01 5.901600e-01 5.530431e-01 4.610192e-01 4.487844e-01
<GCONST> 1.278294e+02
<MIXTURE> 2 3.760824e-01
<MEAN> 39
 1.387312e+00 -2.488976e+00 -9.558980e-01 -1.548708e+00 -6.999159e+00 -7.060026e+00 -1.027616e+01 -6.802063e+00 -4.502852e+00 -2.374216e+00 -3.939893e+00 -6.926935e+00 6.686008e+01 -5.464299e-01 -2.492014e+00 -1.030022e+00 -2.397124e+00 -1.342306e+00 1.900506e-01 7.682471e-01 3.473504e+00 2.525302e+00 -1.147351e+00 -1.415144e+00 3.231501e-01 2.418789e+00 -3.421719e-01 5.902724e-02 1.824359e-01 -2.993191e-01 -3.507333e-02 1.193204e-01 6.061904e-01 3.450488e-01 -3.016309e-01 -2.981367e-01 -5.351435e-03 4.003171e-01 3.490255e-02
<VARIANCE> 39
 1.497973e+01 3.427375e+01 3.759093e+01 5.402197e+01 2.563404e+01 5.148268e+01 3.195118e+01 5.561194e+01 5.220222e+01 3.195399e+01 4.559746e+01 3.121124e+01 2.242405e+01 9.509980e-01 1.822547e+00 3.006640e+00 3.038316e+00 3.585618e+00 3.903378e+00 4.038364e+00 4.684844e+00 5.590012e+00 4.386236e+00 4.688830e+00 4.248140e+00 1.179534e+00 1.328632e-01 3.659023e-01 3.771130e-01 5.935832e-01 4.649601e-01 4.623287e-01 5.013927e-01 7.213567e-01 7.733436e-01 5.444442e-01 6.015540e-01 4.550093e-01 2.709795e-01
<GCONST> 1.221484e+02
<MIXTURE> 3 3.709351e-01
<MEAN> 39
 6.003892e-01 1.958385e-01 3.824836e+00 -3.788727e-01 -4.056329e+00 3.791703e-01 -7.215183e+00 -5.220021e+00 -1.000642e+01 -5.728611e+00 2.001791e+00 -4.853959e+00 6.645762e+01 -2.017585e-01 -1.271432e+00 -1.583554e+00 -1.917478e+00 -1.847260e+00 -8.158341e-02 -4.222611e-01 2.649794e+00 2.839835e+00 7.470083e-01 -3.337763e-01 -4.133513e-01 1.767798e+00 -1.414714e-01 -1.374020e-01 -2.438700e-01 -3.435681e-01 -2.565438e-01 -2.349544e-02 6.417699e-02 5.100862e-01 4.409166e-01 1.516934e-01 -3.158471e-02 -1.478341e-02 1.941307e-01
<VARIANCE> 39
 1.451129e+01 2.603148e+01 4.964389e+01 3.930214e+01 3.436752e+01 7.058029e+01 5.249723e+01 5.821991e+01 5.304309e+01 3.045816e+01 4.008717e+01 3.177118e+01 2.135509e+01 1.038667e+00 1.900654e+00 3.544404e+00 3.001685e+00 3.191292e+00 3.537493e+00 4.659905e+00 4.135711e+00 4.997021e+00 3.634457e+00 3.864585e+00 2.661886e+00 1.168611e+00 1.296802e-01 2.526134e-01 3.856192e-01 3.931161e-01 5.363220e-01 4.586591e-01 6.061564e-01 6.901953e-01 7.481994e-01 4.580776e-01 5.691867e-01 3.935168e-01 1.812809e-01
<GCONST> 1.205643e+02
<TRANSP> 5
 0.000000e+00 1.000000e+00 0.000000e+00 0.000000e+00 0.000000e+00
 0.000000e+00 5.209026e-01 4.790974e-01 0.000000e+00 0.000000e+00
 0.000000e+00 0.000000e+00 6.701110e-01 3.298890e-01 0.000000e+00
 0.000000e+00 0.000000e+00 0.000000e+00 4.836539e-01 5.163462e-01
 0.000000e+00 0.000000e+00 0.000000e+00 0.000000e+00 0.000000e+00
<ENDHMM>
~h "n"
<BEGINHMM>
<NUMSTATES> 5
<STATE> 2
<NUMMIXES> 3
<MIXTURE> 1 2.434656e-01
<MEAN> 39
 -1.264174e-01 -4.061992e+00 3.811450e+00 4.809694e-01 -8.323704e+00 -7.112111e-01 -8.521628e+00 1.751974e+00 -1.786970e+00 -2.370564e+00 -1.752655e+00 -7.932533e+00 6.837529e+01 5.227275e-01 2.438496e+00 2.390437e+00 1.954018e+00 7.928234e-01 -1.207433e+00 1.377664e+00 -2.949421e+00 -3.874497e+00 1.323683e+00 -2.974409e-01 8.111778e-01 -2.739687e+00 -2.541073e-01 2.915001e-01 -7.774104e-02 -9.364028e-02 1.294322e-01 5.543509e-02 4.676985e-01 -2.603859e-01 -2.430481e-01 -1.659192e-01 -7.175060e-02 2.564594e-01 -8.399001e-02
<VARIANCE> 39
 9.560465e+00 1.994876e+01 3.913006e+01 4.309301e+01 2.442753e+01 3.109698e+01 3.023548e+01 1.350026e+02 5.296109e+01 3.426783e+01 3.114465e+01 2.864742e+01 1.801338e+01 8.425255e-01 1.743320e+00 2.586671e+00 1.801971e+00 2.890615e+00 2.893064e+00 3.548744e+00 3.336534e+00 3.684354e+00 3.604350e+00 4.381879e+00 2.482306e+00 6.670083e-01 1.311029e-01 2.486372e-01 4.888574e-01 4.033746e-01 4.136164e-01 3.448462e-01 4.157163e-01 8.557198e-01 7.577882e-01 4.625828e-01 3.777182e-01 3.940542e-01 1.961667e-01
<GCONST> 1.149709e+02
<MIXTURE> 2 4.381354e-01
<MEAN> 39
 -7.789046e-01 1.721665e-01 2.842776e-01 -5.215214e+00 -8.868786e+00 -7.655254e+00 -5.509995e+00 -4.635289e+00 -7.986533e+00 -5.316041e+00 -6.947290e+00 -9.247352e-01 6.556218e+01 4.665172e-01 1.350853e+00 4.647177e-01 1.030493e+00 -1.199967e-01 3.910962e-01 -1.305234e-01 -1.779223e+00 -5.234717e-01 4.127757e-01 -4.088680e-01 4.565307e-01 -1.176544e+00 -2.514921e-01 -3.459784e-02 1.341660e-02 -8.041910e-02 8.787727e-02 2.106887e-01 -2.605744e-02 3.811837e-02 1.594906e-01 4.759675e-02 1.922824e-01 -1.423217e-01 6.301672e-02
<VARIANCE> 39
 2.383882e+01 4.039622e+01 5.409879e+01 6.404366e+01 4.685276e+01 7.272761e+01 5.000258e+01 6.469388e+01 5.630092e+01 4.739888e+01 5.939791e+01 3.958245e+01 2.780216e+01 1.474876e+00 3.551240e+00 3.689182e+00 3.539604e+00 3.811068e+00 3.928802e+00 4.305699e+00 6.466238e+00 4.466684e+00 3.502634e+00 3.196472e+00 2.888748e+00 2.657593e+00 2.553137e-01 3.656227e-01 4.598222e-01 5.262045e-01 6.126360e-01 6.097947e-01 6.294878e-01 8.749567e-01 6.526161e-01 5.792844e-01 5.367617e-01 4.606029e-01 2.498287e-01
<GCONST> 1.289701e+02
<MIXTURE> 3 3.183998e-01
<MEAN> 39
 -1.642091e+00 -1.008027e+00 6.109839e+00 -3.707731e+00 -1.042867e+01 -1.954412e+00 -7.346381e+00 3.157571e+00 -7.464503e+00 -5.742557e+00 2.420474e-01 -4.409523e+00 6.875047e+01 5.544975e-01 1.241304e+00 5.673602e-01 1.161109e+00 8.957125e-01 -3.106629e-01 8.121165e-01 -1.859966e+00 -1.563530e+00 4.393754e-01 -7.294110e-01 4.258797e-01 -1.500667e+00 -4.999575e-02 1.832473e-01 -4.439212e-02 5.669720e-02 7.200149e-02 -1.621767e-02 1.976248e-01 -4.785693e-01 -3.600413e-02 1.929547e-01 -1.684954e-01 9.681524e-02 -1.355079e-01
<VARIANCE> 39
 1.470439e+01 2.629716e+01 7.388331e+01 3.612265e+01 3.402673e+01 5.891963e+01 3.399018e+01 7.519984e+01 6.356778e+01 2.997670e+01 4.908797e+01 3.359781e+01 2.373023e+01 6.705065e-01 1.648294e+00 2.841057e+00 2.068539e+00 2.911988e+00 2.952373e+00 3.429702e+00 5.074671e+00 4.703501e+00 2.552368e+00 2.707891e+00 2.078560e+00 1.216376e+00 7.822002e-02 1.688248e-01 3.693530e-01 2.711748e-01 3.583516e-01 3.561305e-01 3.604733e-01 5.924082e-01 6.091053e-01 3.314383e-01 3.360352e-01 3.003321e-01 1.334183e-01
<GCONST> 1.142509e+02
<STATE> 3
<NUMMIXES> 3
<MIXTURE> 1 2.304000e-01
<MEAN> 39
 4.432276e-01 3.219918e+00 1.096460e+01 6.205897e-01 -5.891829e+00 -3.360271e+00 -2.217368e+00 1.033907e+00 -1.586212e+01 -3.198767e+00 -1.003838e+00 -5.571191e+00 6.495276e+01 7.871093e-02 1.762684e+00 4.692989e-01 1.075137e+00 1.024114e+00 -6.066229e-01 1.429299e+00 -1.866765e+00 -1.311121e+00 8.291805e-02 -9.308474e-01 6.289975e-01 -1.625135e+00 -5.489321e-01 -3.708861e-01 -5.772700e-01 -2.629569e-01 -2.311719e-01 4.938869e-01 -5.392821e-01 5.781551e-01 1.346026e+00 -2.714631e-01 2.389985e-01 1.083877e-01 4.678060e-01
<VARIANCE> 39
 5.776198e+00 1.612530e+01 1.926279e+01 1.438891e+01 1.430739e+01 2.117238e+01 2.401522e+01 3.167397e+01 4.225161e+01 2.196056e+01 2.183874e+01 2.091525e+01 1.143650e+01 9.845498e-01 2.306487e+00 2.365449e+00 1.659956e+00 2.419672e+00 1.860091e+00 3.370951e+00 3.885745e+00 6.432128e+00 2.009845e+00 1.976268e+00 2.083055e+00 1.605307e+00 1.826067e-01 3.181219e-01 4.053508e-01 3.053709e-01 4.977356e-01 3.789855e-01 4.670278e-01 5.536883e-01 6.560720e-01 4.010790e-01 3.738215e-01 3.393412e-01 1.834782e-01
<GCONST> 1.072390e+02
<MIXTURE> 2 4.468297e-01
<MEAN> 39
 1.087548e+00 4.859240e+00 9.922003e-01 -3.942542e+00 -9.917775e+00 -6.517543e+00 -5.702629e+00 -1.250955e+01 -9.236425e+00 -4.243118e+00 -1.054936e+01 3.355135e+00 6.221658e+01 -8.125039e-02 9.554879e-01 3.411206e-01 5.437260e-01 2.352075e-01 4.908195e-01 -4.433901e-02 -9.786273e-01 -2.280198e-01 1.257538e-01 1.168159e-01 -4.134686e-02 -7.839897e-01 -4.660806e-01 -5.223423e-01 -4.185604e-02 -2.436150e-01 2.495447e-01 -6.621706e-02 4.038113e-02 1.047283e+00 2.284294e-01 -1.991698e-01 4.075748e-01 -4.537743e-01 3.999689e-01
<VARIANCE> 39
 1.784398e+01 1.812989e+01 2.007393e+01 3.024268e+01 2.431541e+01 3.198011e+01 3.190025e+01 3.523527e+01 3.336683e+01 3.177580e+01 4.619140e+01 4.247459e+01 1.489333e+01 6.929481e-01 2.420765e+00 1.723287e+00 1.959969e+00 2.193835e+00 2.239089e+00 2.179097e+00 5.214551e+00 2.392686e+00 2.445322e+00 2.388410e+00 2.401837e+00 1.315727e+00 2.749009e-01 4.017784e-01 4.174737e-01 5.014860e-01 4.831393e-01 4.751747e-01 5.362278e-01 7.355974e-01 5.211411e-01 5.407773e-01 5.401701e-01 4.950431e-01 2.188487e-01
<GCONST> 1.140657e+02
<MIXTURE> 3 3.227692e-01
<MEAN> 39
 -1.670753e-01 3.455487e+00 7.372255e+00 3.887441e+00 -8.027515e+00 -3.241735e+00 -2.059500e+00 -7.424862e+00 -1.144875e+01 -1.998139e+00 -1.887861e+00 -2.816113e+00 6.228395e+01 -1.290048e-01 7.505048e-01 3.804970e-01 2.260922e-01 3.315053e-01 7.666226e-03 7.981758e-02 -4.508159e-01 -5.266454e-01 1.628244e-02 -4.099581e-02 2.029877e-01 -5.971412e-01 -2.259815e-01 -2.472732e-01 -3.218675e-01 -3.730769e-01 1.207083e-01 1.005667e-01 -3.331422e-01 6.649019e-01 7.597671e-01 -2.744994e-01 -2.055574e-02 -9.703533e-02 2.783727e-01
<VARIANCE> 39
 1.331089e+01 2.719112e+01 2.719993e+01 3.665225e+01 2.822552e+01 3.369574e+01 3.053646e+01 7.065335e+01 4.407760e+01 3.985284e+01 2.375821e+01 2.847970e+01 2.227601e+01 3.778700e-01 1.621704e+00 1.564568e+00 1.362305e+00 1.726596e+00 1.592894e+00 1.788967e+00 2.652639e+00 3.730955e+00 1.812422e+00 1.702575e+00 1.477992e+00 9.116803e-01 1.301756e-01 2.676709e-01 3.783953e-01 3.979715e-01 4.680328e-01 3.541076e-01 4.841321e-01 5.916314e-01 6.805981e-01 4.633896e-01 3.841704e-01 3.127856e-01 1.763352e-01
<GCONST> 1.083712e+02
<STATE> 4
<NUMMIXES> 3
<MIXTURE> 1 2.227028e-01
<MEAN> 39
 -2.457688e+00 9.759437e+00 7.554639e+00 3.612442e+00 -2.438191e+00 -3.330637e+00 -1.721987e+00 -3.452270e+00 -9.290621e+00 -5.655640e+00 -3.899038e+00 -2.042508e+00 5.833334e+01 -2.264319e+00 7.040533e-01 -9.337121e-01 8.035039e-01 2.023898e+00 1.100424e+00 6.984357e-01 4.480928e-01 1.548671e+00 -1.991819e-01 1.567737e-01 7.334071e-02 -1.331266e+00 -7.374206e-01 -1.017713e+00 -6.349690e-01 -4.232485e-01 -2.899656e-01 3.476599e-01 -1.442672e-01 5.956662e-01 4.807664e-01 3.502144e-01 4.228389e-01 -1.108282e-01 6.393842e-01
<VARIANCE> 39
 1.503119e+01 1.357696e+01 1.919931e+01 1.514700e+01 2.166243e+01 2.342524e+01 2.680806e+01 2.917595e+01 2.833428e+01 2.143163e+01 1.692119e+01 1.850827e+01 1.949754e+01 2.190623e+00 2.627296e+00 2.981407e+00 1.935746e+00 2.360109e+00 2.517952e+00 3.318171e+00 4.050070e+00 3.801494e+00 2.641769e+00 2.377848e+00 2.714618e+00 1.644302e+00 3.863401e-01 4.876710e-01 4.715455e-01 4.319144e-01 5.293811e-01 5.029720e-01 6.683730e-01 5.537655e-01 6.283376e-01 3.892070e-01 3.704847e-01 3.832329e-01 3.452518e-01
<GCONST> 1.132367e+02
<MIXTURE> 2 4.280261e-01
<MEAN> 39
 -3.216616e+00 2.708710e-01 3.203961e+00 -2.858174e+00 -9.286582e+00 -4.997030e+00 -6.821981e+00 -5.733189e+00 -6.950668e+00 -3.406906e+00 -5.175247e+00 -1.136022e+00 6.513667e+01 -6.895779e-01 -8.067403e-01 -9.215342e-02 -6.098375e-01 1.167904e-01 -1.210525e-02 -2.710221e-01 1.497961e+00 7.925186e-01 -3.827458e-01 5.222761e-01 -4.001339e-01 8.617417e-01 -1.823619e-01 -6.863661e-02 -2.210211e-01 -1.183304e-01 1.898089e-01 4.738190e-02 1.781167e-01 3.524547e-01 1.773519e-01 -9.740455e-02 9.818906e-02 -1.385961e-01 1.331023e-01
<VARIANCE> 39
 5.366237e+01 4.192137e+01 5.077033e+01 6.131268e+01 4.683811e+01 6.031382e+01 4.759948e+01 9.258598e+01 5.713198e+01 4.958684e+01 6.167392e+01 3.924840e+01 2.899067e+01 3.679226e+00 4.669421e+00 3.887681e+00 4.825947e+00 4.817906e+00 3.953460e+00 4.475040e+00 6.577730e+00 5.825830e+00 3.879903e+00 3.903181e+00 3.519477e+00 3.387189e+00 8.079770e-01 7.109038e-01 6.889903e-01 8.183190e-01 8.110533e-01 7.098756e-01 8.105335e-01 1.319204e+00 9.365936e-01 7.339393e-01 7.354668e-01 5.786124e-01 5.760764e-01
<GCONST> 1.385536e+02
<MIXTURE> 3 3.492734e-01
<MEAN> 39
 -3.709085e+00 5.031652e+00 5.329381e+00 2.093495e+00 -4.484567e+00 -2.823753e+00 -3.014200e+00 -4.595236e+00 -9.062798e+00 -3.231678e+00 -2.900765e+00 -3.289553e+00 5.963721e+01 -1.506999e+00 -4.632407e-01 -4.130755e-01 -3.601316e-01 6.351492e-01 5.422474e-01 -3.357883e-01 1.292421e+00 1.162797e+00 -1.777146e-01 4.165962e-01 -1.007156e-01 2.141979e-01 -3.467845e-01 -5.795484e-01 -3.964752e-01 -4.365408e-01 -3.274593e-01 4.103145e-02 -2.037153e-01 5.095946e-01 6.637846e-01 -7.684633e-03 1.699889e-01 8.826014e-02 7.026952e-01
<VARIANCE> 39
 3.613889e+01 2.517525e+01 3.446578e+01 2.788967e+01 3.506828e+01 3.168635e+01 3.478024e+01 6.698980e+01 5.229177e+01 3.060841e+01 2.911197e+01 2.937286e+01 3.757775e+01 3.210973e+00 3.677722e+00 3.285976e+00 3.246047e+00 5.314548e+00 2.925796e+00 4.173949e+00 4.710310e+00 4.969351e+00 3.042072e+00 2.907866e+00 2.965035e+00 2.910711e+00 5.376763e-01 5.308709e-01 5.841622e-01 4.755101e-01 7.287475e-01 5.773544e-01 7.445864e-01 8.415021e-01 1.123932e+00 5.457459e-01 5.207104e-01 4.758510e-01 4.068906e-01
<GCONST> 1.277272e+02
<TRANSP> 5
 0.000000e+00 1.000000e+00 0.000000e+00 0.000000e+00 0.000000e+00
 0.000000e+00 4.048359e-01 5.951641e-01 0.000000e+00 0.000000e+00
 0.000000e+00 0.000000e+00 6.336389e-01 3.663611e-01 0.000000e+00
 0.000000e+00 0.000000e+00 0.000000e+00 5.217429e-01 4.782570e-01
 0.000000e+00 0.000000e+00 0.000000e+00 0.000000e+00 0.000000e+00
<ENDHMM>
~h "p"
<BEGINHMM>
<NUMSTATES> 5
<STATE> 2
<NUMMIXES> 3
<MIXTURE> 1 1.743912e-01
<MEAN> 39
 -1.284714e+01 4.796106e+00 2.049575e+00 4.459533e-01 1.810383e+00 5.314584e-01 -2.480433e+00 1.510015e+00 1.131803e+00 1.245972e-01 7.640511e-01 -1.423040e-01 5.493987e+01 1.481381e+00 4.192771e-01 -1.377559e-01 1.711192e+00 3.659063e-01 4.745241e-01 2.016744e+00 -3.616231e-01 3.545574e-01 7.734927e-01 8.636052e-02 -2.362108e-01 -3.489693e+00 -6.291041e-01 -2.085341e-01 -6.381404e-01 -2.134610e-01 -1.634691e-01 -3.403912e-01 1.023336e-01 1.221311e-01 -1.971813e-01 -8.312437e-02 -9.523612e-02 -2.478376e-03 6.843345e-01
<VARIANCE> 39
 4.505938e+01 2.522103e+01 2.577126e+01 1.989412e+01 3.007764e+01 2.904378e+01 3.458727e+01 2.570996e+01 2.143473e+01 2.085873e+01 1.641634e+01 1.807249e+01 3.429471e+01 4.536105e+00 3.058899e+00 2.767197e+00 2.637219e+00 3.223540e+00 3.640457e+00 3.426181e+00 2.883993e+00 2.584897e+00 2.040494e+00 2.172926e+00 2.048641e+00 2.409048e+00 5.510247e-01 4.409520e-01 6.770505e-01 4.292029e-01 5.336370e-01 5.053710e-01 7.239360e-01 4.982508e-01 4.151074e-01 4.396572e-01 3.987145e-01 3.745251e-01 6.984240e-01
<GCONST> 1.183099e+02
<MIXTURE> 2 4.522946e-01
<MEAN> 39
 -8.234132e+00 6.892345e+00 2.349044e+00 2.389717e+00 -3.799389e-01 -1.447539e+00 -1.773190e+00 -2.128413e+00 -2.356551e+00 -1.944901e+00 -1.511456e+00 -2.315869e+00 5.160337e+01 -2.441121e+00 -8.424710e-01 -2.296459e-01 1.620683e-01 4.073375e-01 8.034581e-01 1.142320e+00 1.314135e+00 1.118326e+00 4.534442e-01 3.198523e-01 5.385948e-01 -1.340602e+00 3.750656e-01 -1.113913e+00 -5.245825e-01 -5.212241e-01 -5.691477e-01 -2.048226e-01 -6.687235e-01 -6.820195e-02 3.582524e-02 2.706450e-01 2.914782e-01 1.104101e-01 1.398540e+00
<VARIANCE> 39
 9.294161e+00 1.161962e+01 1.907533e+01 1.911942e+01 1.944203e+01 2.256323e+01 2.793510e+01 2.286995e+01 2.886854e+01 2.201960e+01 2.199987e+01 1.850643e+01 1.126538e+01 1.191541e+00 2.069339e+00 2.555454e+00 2.069849e+00 2.175683e+00 2.580438e+00 2.877170e+00 2.848671e+00 3.080506e+00 2.568054e+00 2.489554e+00 1.884711e+00 1.966166e+00 2.511677e-01 5.345054e-01 5.556762e-01 4.984887e-01 5.433541e-01 6.363515e-01 5.974672e-01 5.532873e-01 6.192601e-01 5.239065e-01 4.958105e-01 4.241276e-01 4.616712e-01
<GCONST> 1.114562e+02
<MIXTURE> 3 3.733144e-01
<MEAN> 39
 -3.013638e+00 7.558316e+00 1.353437e+00 1.621357e+00 -1.235563e+00 -2.874242e+00 -5.145351e+00 -4.620248e+00 -2.847640e+00 -1.185814e+00 -1.005647e+00 -3.097700e+00 5.533191e+01 -2.928886e+00 1.909410e+00 8.858263e-01 1.456903e+00 1.661972e+00 7.337347e-01 2.259299e+00 9.840683e-01 5.250072e-01 -7.154895e-02 -2.114782e-01 3.602707e-01 -3.716802e+00 -4.471649e-01 -1.166520e+00 -2.406183e-01 -5.810522e-01 -5.534371e-01 7.122646e-02 -1.661686e-01 4.542886e-01 2.571347e-01 7.041099e-02 6.503631e-02 1.312354e-01 8.317988e-01
<VARIANCE> 39
 1.475884e+01 1.763401e+01 3.257733e+01 2.623916e+01 2.333977e+01 3.516515e+01 3.015556e+01 2.904729e+01 3.543670e+01 2.731938e+01 2.712352e+01 2.194164e+01 1.314585e+01 1.283370e+00 3.148974e+00 4.751179e+00 3.727501e+00 3.499186e+00 5.454342e+00 3.533475e+00 3.780738e+00 4.370364e+00 3.138653e+00 3.179338e+00 2.519814e+00 1.943850e+00 2.838755e-01 3.439851e-01 3.594918e-01 3.851628e-01 4.424250e-01 4.861550e-01 5.761405e-01 5.567959e-01 5.861334e-01 5.125597e-01 4.520129e-01 4.265308e-01 2.977480e-01
<GCONST> 1.174541e+02
<STATE> 3
<NUMMIXES> 3
<MIXTURE> 1 9.200583e-02
<MEAN> 39
 -1.125619e+01 2.093357e+00 -1.483609e+00 8.550431e-01 3.482592e-01 1.090494e+00 -3.909208e-01 7.526374e-01 1.215803e+00 1.649046e-01 5.641422e-01 -4.199035e-01 5.108611e+01 -6.327998e-01 -2.738689e-01 -1.468454e-01 1.713415e-01 3.272327e-01 4.488324e-01 5.726565e-01 7.135437e-01 7.995958e-01 6.492301e-01 5.924954e-01 3.228876e-01 -3.290610e-01 1.668361e-01 -4.366704e-02 7.887121e-02 -1.835527e-02 -1.277272e-01 -1.109153e-01 -1.953211e-01 -1.201462e-01 -1.611966e-01 -1.022249e-01 -9.257027e-02 -1.004985e-01 4.880590e-01
<VARIANCE> 39
 8.786439e+00 1.740578e+01 1.664977e+01 1.706989e+01 1.779099e+01 2.502964e+01 1.917997e+01 1.625156e+01 1.852220e+01 1.756983e+01 1.890170e+01 1.792849e+01 1.582693e+01 8.846371e-01 1.795515e+00 1.279168e+00 1.328883e+00 1.426953e+00 1.845651e+00 1.969150e+00 2.318502e+00 2.432074e+00 1.997353e+00 1.899544e+00 1.650958e+00 1.461645e+00 1.739851e-01 1.612112e-01 2.172375e-01 2.266133e-01 2.731479e-01 3.468647e-01 3.516964e-01 3.713567e-01 3.893279e-01 3.336994e-01 3.441684e-01 3.150834e-01 2.680790e-01
<GCONST> 9.859738e+01
<MIXTURE> 2 4.737019e-01
<MEAN> 39
 -1.198584e+01 4.186460e+00 8.916308e-01 2.495242e+00 7.610843e-01 6.604798e-01 -9.972287e-03 1.864005e-01 2.510019e-03 -1.865241e-01 1.373164e-01 -9.512180e-01 5.034377e+01 -4.824640e-01 -2.296152e+00 -1.297881e+00 -6.200545e-01 -9.538820e-01 -3.375062e-01 -9.607493e-01 1.897246e-01 2.774839e-01 3.634747e-01 5.264757e-01 3.807676e-01 2.394019e+00 5.520301e-01 -5.132848e-01 -3.160177e-01 -4.260842e-01 -3.857859e-01 -2.542565e-01 -6.474790e-01 -1.553782e-01 -1.503741e-01 -6.876957e-03 5.544047e-02 -1.082192e-02 1.335906e+00
<VARIANCE> 39
 8.658741e+00 1.032988e+01 9.951656e+00 1.138828e+01 1.453249e+01 1.593492e+01 1.753782e+01 1.602613e+01 1.720804e+01 1.470853e+01 1.446808e+01 1.313098e+01 1.485282e+01 2.641824e+00 2.684064e+00 2.488545e+00 2.372919e+00 3.040668e+00 3.066801e+00 3.975316e+00 3.256153e+00 3.202898e+00 2.784009e+00 2.600534e+00 2.280673e+00 4.112101e+00 4.511987e-01 3.909316e-01 5.306126e-01 5.330679e-01 6.033872e-01 7.499421e-01 7.470670e-01 5.846058e-01 5.488598e-01 4.714451e-01 4.679518e-01 3.828973e-01 5.050126e-01
<GCONST> 1.109999e+02
<MIXTURE> 3 4.342913e-01
<MEAN> 39
 -1.231416e+01 1.503527e+00 -8.246971e-01 7.098773e-01 -3.394345e-01 -2.798493e-01 -4.589342e-01 1.587954e+00 1.408104e+00 4.867127e-02 8.126738e-01 -9.455248e-02 5.126046e+01 -3.711227e-01 -3.715250e-01 -2.121513e-01 4.715487e-02 6.596214e-02 1.866170e-01 1.501966e-01 5.627845e-02 -1.139271e-02 -3.944386e-02 6.239384e-03 3.691015e-02 1.352058e-02 1.885995e-01 -1.423253e-01 -7.754642e-02 -7.955282e-02 -7.980327e-02 -2.647918e-02 -3.047248e-01 -1.586856e-01 -1.439554e-01 -9.702596e-02 -2.973047e-02 -4.760466e-02 6.302187e-01
<VARIANCE> 39
 9.454437e+00 2.802442e+01 1.142558e+01 1.386124e+01 1.576929e+01 1.737702e+01 1.839209e+01 1.888885e+01 1.866864e+01 1.767157e+01 1.587484e+01 1.499771e+01 1.979997e+01 6.673302e-01 8.986592e-01 8.297829e-01 9.437163e-01 1.102798e+00 1.381591e+00 1.571618e+00 1.475024e+00 1.557687e+00 1.463916e+00 1.346879e+00 1.298480e+00 1.207453e+00 1.967584e-01 2.116896e-01 2.126323e-01 2.495111e-01 2.814411e-01 3.445924e-01 4.203392e-01 3.729634e-01 3.956917e-01 3.673309e-01 3.259904e-01 3.121371e-01 4.154116e-01
<GCONST> 9.472701e+01
<STATE> 4
<NUMMIXES> 3
<MIXTURE> 1 2.386037e-01
<MEAN> 39
 -1.247413e+01 -6.249358e+00 -4.970515e+00 -4.899968e-01 -3.381177e+00 -1.656945e+00 -6.066960e+00 6.052064e-01 9.210016e-01 2.074577e+00 3.349192e+00 1.056529e+00 6.391764e+01 1.242751e-01 -2.455017e+00 -1.650536e+00 -3.951765e-01 4.452103e-01 9.575720e-01 -1.420095e-01 8.278972e-01 7.332624e-01 9.542084e-01 6.097046e-01 3.348264e-01 2.486230e+00 4.247327e-01 9.275606e-01 2.875413e-01 1.032811e-01 4.976929e-01 3.926550e-01 5.676461e-01 -1.449042e-01 -2.575163e-01 -3.426812e-01 -4.948637e-01 -3.500715e-01 -9.495357e-01
<VARIANCE> 39
 1.483710e+01 2.534345e+01 2.097785e+01 2.146356e+01 2.902774e+01 3.675374e+01 3.065751e+01 3.128062e+01 2.538254e+01 3.078091e+01 2.012618e+01 1.948163e+01 2.051091e+01 1.859338e+00 3.272527e+00 3.235372e+00 2.674443e+00 4.069987e+00 5.199206e+00 4.491388e+00 3.321548e+00 2.977142e+00 3.049577e+00 2.917605e+00 2.258390e+00 3.612890e+00 3.781892e-01 5.072162e-01 3.871665e-01 4.552944e-01 6.335049e-01 8.271596e-01 6.996740e-01 8.565524e-01 8.033780e-01 7.451289e-01 5.779077e-01 4.950837e-01 3.330617e-01
<GCONST> 1.208937e+02
<MIXTURE> 2 3.856595e-01
<MEAN> 39
 -1.101091e+01 -3.009856e+00 -5.086219e+00 -8.210806e-01 3.911471e-01 2.813370e+00 -1.590268e+00 1.906795e-01 -3.110967e-01 3.585602e-01 3.829828e-01 -1.190753e+00 6.050242e+01 2.656871e+00 7.584611e-01 -3.106081e-01 -1.357857e+00 -1.336290e+00 -1.019408e+00 -1.482758e+00 -1.314148e+00 -1.386914e+00 -1.351939e+00 -9.841727e-01 -8.679442e-01 1.621751e+00 7.036201e-01 1.829557e-01 9.494649e-02 -4.971181e-01 -6.801667e-01 -6.067955e-01 -5.200175e-01 -1.929457e-01 -2.027343e-01 -2.280924e-01 -4.051922e-02 -9.559028e-02 4.678441e-01
<VARIANCE> 39
 2.436733e+01 4.444327e+01 4.623134e+01 3.631529e+01 4.418166e+01 6.320197e+01 4.170739e+01 3.666649e+01 3.422592e+01 3.231500e+01 2.985097e+01 2.304055e+01 2.773255e+01 3.198538e+00 4.533730e+00 3.604922e+00 4.116848e+00 5.040340e+00 6.286708e+00 4.928782e+00 4.616321e+00 4.280476e+00 3.328976e+00 3.724910e+00 2.608490e+00 3.947033e+00 3.939645e-01 7.333616e-01 5.808441e-01 5.900759e-01 7.345222e-01 9.479665e-01 7.649829e-01 8.344783e-01 8.334214e-01 7.164261e-01 6.412265e-01 5.385580e-01 4.205077e-01
<GCONST> 1.309097e+02
<MIXTURE> 3 3.757377e-01
<MEAN> 39
 -1.369805e+01 -4.292719e+00 -4.443764e+00 -1.400485e+00 -1.397196e+00 1.943378e+00 -1.764722e+00 1.742743e+00 9.550879e-01 9.171667e-01 1.672809e+00 7.433960e-02 6.200685e+01 2.780405e-01 -4.228259e-01 -5.488424e-01 -3.503756e-01 1.446534e-02 5.907933e-01 2.717087e-02 -1.466882e-02 -8.645611e-02 -3.962507e-02 -2.345655e-02 -1.908339e-01 9.456168e-01 6.045038e-01 6.411543e-01 2.503948e-01 -2.675967e-02 -1.389024e-01 -2.964247e-01 -1.874018e-01 -3.089340e-01 -2.747172e-01 -2.962145e-01 -2.125017e-01 -1.890985e-01 -2.825682e-01
<VARIANCE> 39
 3.952194e+01 4.753040e+01 4.155001e+01 3.624466e+01 4.026708e+01 6.289520e+01 4.325638e+01 3.322873e+01 2.838060e+01 3.029476e+01 2.591451e+01 2.006246e+01 2.798762e+01 3.838997e+00 3.635803e+00 3.212413e+00 3.308050e+00 3.915524e+00 4.667503e+00 4.754067e+00 3.165719e+00 2.825507e+00 2.457411e+00 2.532963e+00 2.308036e+00 4.659146e+00 5.913277e-01 6.620139e-01 5.258625e-01 6.249577e-01 6.586261e-01 8.937277e-01 7.831057e-01 7.302799e-01 6.694915e-01 6.160512e-01 5.711170e-01 4.337602e-01 4.729709e-01
<GCONST> 1.276718e+02
<TRANSP> 5
 0.000000e+00 1.000000e+00 0.000000e+00 0.000000e+00 0.000000e+00
 0.000000e+00 5.731481e-01 4.268519e-01 0.000000e+00 0.000000e+00
 0.000000e+00 0.000000e+00 7.260656e-01 2.739344e-01 0.000000e+00
 0.000000e+00 0.000000e+00 0.000000e+00 7.511377e-01 2.488623e-01
 0.000000e+00 0.000000e+00 0.000000e+00 0.000000e+00 0.000000e+00
<ENDHMM>
~h "r"
<BEGINHMM>
<NUMSTATES> 5
<STATE> 2
<NUMMIXES> 3
<MIXTURE> 1 1.790921e-01
<MEAN> 39
 -5.945508e+00 -4.842975e+00 -5.466068e+00 5.324334e-01 -3.780053e+00 -3.075401e+00 -1.132734e+01 2.183920e+00 4.414465e+00 -6.478586e-01 1.139879e+00 -2.445434e+00 6.668778e+01 9.238288e-03 5.903524e-01 2.982621e-01 7.697833e-01 7.462059e-01 -3.833946e-01 -2.477388e-01 -1.536766e-01 5.888445e-02 -1.016040e-01 -3.829464e-01 3.063187e-01 -8.716139e-01 1.440514e-01 3.950602e-01 1.916610e-01 -5.865321e-02 3.084760e-02 1.424961e-02 5.079960e-01 -2.315466e-01 -6.740758e-01 -3.180851e-01 -6.279474e-02 1.204909e-01 -2.984783e-01
<VARIANCE> 39
 1.283973e+02 5.988959e+01 6.058904e+01 4.067143e+01 4.835927e+01 4.932580e+01 1.044059e+02 5.758624e+01 5.443543e+01 4.068770e+01 3.959638e+01 3.306432e+01 5.077600e+01 4.931441e+00 3.523375e+00 3.870052e+00 3.462337e+00 3.794391e+00 5.076863e+00 5.813715e+00 5.170588e+00 5.382165e+00 3.305957e+00 4.281848e+00 2.668329e+00 2.789489e+00 1.006775e+00 7.622489e-01 6.477480e-01 5.716317e-01 8.020638e-01 6.828251e-01 1.361166e+00 8.310235e-01 7.651892e-01 7.222719e-01 6.231307e-01 5.505792e-01 6.872054e-01
<GCONST> 1.380979e+02
<MIXTURE> 2 3.435836e-01
<MEAN> 39
 -2.071439e+00 -1.850373e+00 -6.705697e+00 1.047234e+00 -1.687728e+00 -8.545309e+00 -1.114875e+01 -2.653304e+00 -3.785351e+00 -1.921100e+00 -9.316857e-01 -1.554425e+00 6.359114e+01 3.242680e+00 -1.859529e-01 -1.055848e+00 -8.608868e-01 -3.137493e-01 -1.961437e+00 -2.180273e+00 -1.849560e-02 -2.666000e-01 -9.109030e-01 -1.868966e-01 1.259030e-01 1.389887e+00 -4.364197e-01 -3.214111e-01 3.757665e-01 -1.965861e-01 -4.468770e-01 1.982644e-01 4.764827e-01 4.417689e-01 9.476733e-02 -3.026950e-02 1.444997e-01 4.663922e-02 2.670553e-01
<VARIANCE> 39
 4.946132e+01 3.315995e+01 5.007782e+01 4.440855e+01 4.362630e+01 8.969590e+01 4.511452e+01 5.164135e+01 4.520981e+01 2.980251e+01 3.459446e+01 2.275397e+01 2.579200e+01 8.132489e+00 4.443632e+00 4.946392e+00 4.730582e+00 5.720140e+00 9.558407e+00 6.034680e+00 6.149660e+00 7.114426e+00 4.505115e+00 3.759876e+00 2.883486e+00 3.083097e+00 8.168052e-01 5.519142e-01 7.459416e-01 5.977964e-01 8.334232e-01 1.049330e+00 8.871468e-01 9.931336e-01 7.319726e-01 6.915286e-01 5.626694e-01 4.485465e-01 3.999913e-01
<GCONST> 1.364298e+02
<MIXTURE> 3 4.773255e-01
<MEAN> 39
 1.766064e+00 4.282470e-01 -8.446585e+00 -2.301268e+00 -4.033993e-01 -2.489600e+00 -9.813293e+00 -4.578074e+00 -4.233266e+00 -3.707941e+00 6.554542e-01 3.651749e-01 6.325588e+01 1.794531e-01 -1.424038e-01 -2.663435e-01 1.473890e-01 1.912127e-01 -1.753760e-01 -4.551490e-01 5.485021e-02 3.158177e-01 -9.929451e-02 -1.069684e-02 1.262075e-01 1.279757e-01 -1.402767e-01 -3.643340e-01 2.894407e-01 1.714946e-01 -3.532518e-01 -3.418789e-01 -9.113432e-02 3.820301e-01 1.799003e-01 4.181721e-02 -7.668123e-03 -1.747164e-01 2.711214e-01
<VARIANCE> 39
 4.415081e+01 5.134969e+01 5.216742e+01 3.221760e+01 3.053104e+01 7.985779e+01 6.341532e+01 6.057759e+01 5.983203e+01 3.333706e+01 4.704735e+01 3.463291e+01 3.848725e+01 1.281536e+00 2.860525e+00 2.314689e+00 1.913322e+00 1.994910e+00 3.162946e+00 4.510143e+00 2.956884e+00 3.772760e+00 2.488843e+00 2.700239e+00 2.036795e+00 1.747998e+00 2.704572e-01 4.378461e-01 5.114609e-01 3.342136e-01 4.384021e-01 6.156875e-01 7.962651e-01 6.650281e-01 6.154296e-01 5.033476e-01 5.423128e-01 4.340768e-01 2.773815e-01
<GCONST> 1.235041e+02
<STATE> 3
<NUMMIXES> 3
<MIXTURE> 1 1.774824e-01
<MEAN> 39
 4.114684e+00 -7.876981e+00 -6.996634e+00 3.281020e+00 -3.874981e+00 -6.706787e+00 -2.337240e+01 9.768566e-01 7.430784e+00 -5.310413e+00 1.990180e+00 1.082196e+00 6.996074e+01 2.074689e-01 -2.041936e-03 1.598200e+00 1.116230e+00 -2.460647e-01 -1.617112e+00 -1.938226e-01 1.189952e+00 1.497400e-01 -1.293389e+00 -4.601078e-01 4.771135e-01 1.757810e-01 -1.125819e+00 5.783846e-01 7.150942e-01 -9.991568e-02 -1.866383e-01 4.707749e-01 1.935817e+00 4.245649e-02 -1.091458e+00 2.337789e-01 1.969461e-01 -2.315655e-01 -6.427888e-01
<VARIANCE> 39
 8.809377e+00 1.693234e+01 3.686839e+01 2.101014e+01 2.671654e+01 3.565361e+01 3.775824e+01 6.307119e+01 3.611547e+01 4.271495e+01 2.425229e+01 2.126248e+01 1.391062e+01 4.252857e+00 5.779213e+00 3.914878e+00 4.376904e+00 6.962935e+00 4.230773e+00 8.016529e+00 6.599363e+00 6.364490e+00 5.011934e+00 5.180546e+00 2.952954e+00 6.663526e+00 5.592925e-01 4.894445e-01 5.351458e-01 4.469979e-01 6.674300e-01 5.988320e-01 6.447431e-01 1.050823e+00 6.300169e-01 7.217612e-01 6.187213e-01 4.858025e-01 2.181119e-01
<GCONST> 1.281247e+02
<MIXTURE> 2 3.945703e-01
<MEAN> 39
 2.787820e+00 -5.187670e+00 -1.038232e+01 -2.452864e+00 -1.961630e+00 -1.870435e+01 -1.132170e+01 3.316262e+00 -6.949206e+00 -2.322398e+00 -4.278884e+00 -1.686194e+00 6.772427e+01 6.358510e-01 -6.153725e-01 7.867008e-01 -3.613363e-01 -1.414894e+00 -1.456132e+00 5.603579e-01 1.155781e+00 -6.410865e-01 -6.245506e-01 -4.908907e-02 -3.057438e-02 9.295192e-01 -8.514879e-01 2.970123e-02 7.634647e-01 -6.992451e-02 -4.396911e-01 1.142451e+00 7.889537e-01 -4.159294e-01 5.415180e-02 1.606362e-01 2.563160e-01 -1.076065e-01 -1.943347e-01
<VARIANCE> 39
 1.846278e+01 2.522482e+01 4.561014e+01 3.276577e+01 4.079353e+01 1.142744e+02 4.322664e+01 5.407922e+01 5.000655e+01 3.496496e+01 4.592659e+01 2.837413e+01 1.635848e+01 3.491817e+00 3.183418e+00 4.336567e+00 3.761907e+00 4.934761e+00 7.775197e+00 4.417789e+00 5.421843e+00 5.086954e+00 3.427954e+00 3.591080e+00 2.563114e+00 2.766670e+00 5.754804e-01 4.228533e-01 4.524084e-01 4.184593e-01 6.317813e-01 9.633062e-01 6.263461e-01 8.137580e-01 7.550921e-01 6.741151e-01 5.730627e-01 4.706502e-01 1.687833e-01
<GCONST> 1.288748e+02
<MIXTURE> 3 4.279481e-01
<MEAN> 39
 4.593274e+00 -7.261402e+00 -1.000085e+01 1.101126e+00 -1.744232e+00 -8.670846e+00 -1.910303e+01 2.562937e+00 5.442909e+00 -3.493915e+00 5.303300e-01 -2.039523e-01 6.910114e+01 -4.419635e-01 -7.836756e-01 1.230683e+00 6.885582e-01 -1.172496e+00 -1.359830e+00 2.736303e-01 1.884889e+00 3.334098e-01 -7.095595e-01 -3.886823e-02 -5.411612e-02 4.663379e-01 -3.812076e-01 2.335791e-01 6.510873e-01 -1.433612e-01 -4.891887e-01 1.996370e-01 1.040445e+00 -3.928771e-02 -8.930959e-01 -7.592914e-02 2.181176e-01 -4.255256e-02 -1.680868e-01
<VARIANCE> 39
 8.269709e+00 2.188271e+01 4.102390e+01 2.263158e+01 2.576454e+01 8.386005e+01 4.729926e+01 7.029506e+01 5.855473e+01 4.116983e+01 4.901027e+01 2.798468e+01 1.801571e+01 5.867877e-01 2.364914e+00 2.582514e+00 1.607605e+00 3.127482e+00 3.516588e+00 4.410952e+00 5.071065e+00 4.936001e+00 2.884091e+00 3.129857e+00 2.611389e+00 1.680976e+00 1.609888e-01 1.980521e-01 2.709346e-01 2.515632e-01 3.757436e-01 5.291544e-01 5.389543e-01 7.799785e-01 4.783697e-01 4.520947e-01 5.036565e-01 3.672749e-01 1.142906e-01
<GCONST> 1.159302e+02
<STATE> 4
<NUMMIXES> 3
<MIXTURE> 1 1.932814e-01
<MEAN> 39
 1.302769e+00 -1.768569e+00 -3.896288e+00 5.006171e+00 -2.667008e+00 -1.088493e+01 -1.472603e+01 1.460658e+00 3.159089e+00 -4.007756e+00 -1.962722e+00 1.356054e+00 6.388062e+01 -2.180372e+00 2.932598e+00 2.370733e+00 1.236892e+00 9.830687e-01 1.125890e+00 2.775564e+00 -9.546688e-01 -1.214959e+00 -6.084777e-02 -5.853250e-01 -3.210471e-01 -2.737068e+00 -7.437007e-01 -8.049296e-02 -2.867939e-03 -6.191977e-01 -1.124175e-01 8.259906e-01 5.791335e-01 2.013611e-02 -2.846025e-01 2.902144e-01 3.746247e-01 -3.276471e-01 4.351565e-02
<VARIANCE> 39
 1.963252e+01 3.438561e+01 4.688328e+01 4.699045e+01 4.982797e+01 5.792611e+01 5.165673e+01 6.148586e+01 4.257985e+01 4.043975e+01 3.470241e+01 3.212419e+01 2.734292e+01 4.815644e+00 3.228837e+00 3.626086e+00 3.285891e+00 3.853912e+00 6.327400e+00 5.854082e+00 4.902429e+00 4.439615e+00 3.648421e+00 3.448993e+00 2.861667e+00 3.088268e+00 5.097585e-01 7.219055e-01 6.483582e-01 7.558272e-01 1.096766e+00 8.755954e-01 8.909759e-01 8.807781e-01 7.072526e-01 7.543823e-01 7.605181e-01 6.449134e-01 5.394958e-01
<GCONST> 1.337179e+02
<MIXTURE> 2 4.906392e-01
<MEAN> 39
 1.296062e+00 -8.223722e+00 -4.040387e+00 -2.522890e+00 -8.926780e+00 -1.737972e+01 -6.737731e+00 6.053803e+00 -8.470993e+00 -3.672481e+00 -9.261342e-01 -2.400959e+00 7.002905e+01 -7.844088e-01 -4.797309e-02 2.223875e+00 -1.115188e+00 -2.163451e+00 1.330228e+00 1.879652e+00 -8.522658e-01 -9.905801e-01 3.956797e-01 2.686208e-01 -5.918853e-01 3.541616e-01 -2.517200e-01 4.800038e-01 9.413562e-03 -1.611558e-01 4.212309e-01 9.776914e-01 -2.717889e-01 -9.290803e-01 4.189351e-01 2.604279e-01 -2.420529e-01 8.246025e-03 -3.482672e-01
<VARIANCE> 39
 1.466723e+01 2.346293e+01 7.324754e+01 3.373417e+01 4.052157e+01 1.378238e+02 5.130154e+01 5.044559e+01 8.681176e+01 3.484801e+01 5.306588e+01 2.661771e+01 1.636057e+01 7.832811e-01 1.866745e+00 3.283982e+00 2.037151e+00 3.085402e+00 3.641695e+00 3.763896e+00 4.616281e+00 3.922035e+00 3.099539e+00 3.040152e+00 2.648548e+00 1.012006e+00 3.218285e-01 2.534573e-01 4.035737e-01 3.926651e-01 5.054887e-01 8.979161e-01 5.638441e-01 7.070210e-01 7.414365e-01 4.657120e-01 5.042373e-01 3.842007e-01 1.215188e-01
<GCONST> 1.211598e+02
<MIXTURE> 3 3.160805e-01
<MEAN> 39
 1.166000e+00 -6.245284e+00 -1.950475e+00 2.317278e+00 -8.282914e+00 -1.212728e+01 -1.412597e+01 4.573726e+00 -9.436058e-01 -7.219172e+00 2.159363e+00 1.159428e+00 6.885030e+01 -9.513565e-01 6.257639e-01 2.713775e+00 2.333370e-01 -1.860898e+00 4.388682e-01 1.656223e+00 -9.147260e-02 -1.273123e+00 -5.777007e-01 6.695531e-01 -1.800580e-01 -2.306770e-01 -4.361060e-01 5.681545e-01 -1.362335e-02 -3.351713e-01 4.236300e-01 8.822225e-01 5.964539e-01 -6.306752e-01 -2.753524e-01 5.819972e-01 -1.866117e-01 -4.008246e-01 -4.535732e-01
<VARIANCE> 39
 1.661369e+01 3.117812e+01 6.111610e+01 4.975969e+01 4.133798e+01 9.322787e+01 6.212297e+01 7.010772e+01 7.450505e+01 4.946003e+01 4.989980e+01 3.416641e+01 2.995616e+01 1.877255e+00 3.985040e+00 4.281026e+00 3.181008e+00 5.572401e+00 4.877223e+00 4.653705e+00 7.644330e+00 7.037828e+00 3.237068e+00 3.933920e+00 3.142462e+00 3.841563e+00 4.376453e-01 4.661635e-01 5.080429e-01 7.322758e-01 7.162447e-01 8.572538e-01 8.303358e-01 1.035543e+00 9.726915e-01 7.667054e-01 6.786630e-01 5.814788e-01 3.523445e-01
<GCONST> 1.346370e+02
<TRANSP> 5
 0.000000e+00 1.000000e+00 0.000000e+00 0.000000e+00 0.000000e+00
 0.000000e+00 6.362085e-01 3.637914e-01 0.000000e+00 0.000000e+00
 0.000000e+00 0.000000e+00 4.873864e-01 5.126136e-01 0.000000e+00
 0.000000e+00 0.000000e+00 0.000000e+00 4.497662e-01 5.502337e-01
 0.000000e+00 0.000000e+00 0.000000e+00 0.000000e+00 0.000000e+00
<ENDHMM>
~h "s"
<BEGINHMM>
<NUMSTATES> 5
<STATE> 2
<NUMMIXES> 3
<MIXTURE> 1 2.187338e-01
<MEAN> 39
 -7.787345e+00 7.454471e+00 1.482752e-02 -1.814078e+00 -5.237072e+00 -1.159713e+01 -7.602853e+00 -3.082014e+00 -1.308330e+00 -4.942881e+00 -5.393389e+00 2.258627e+00 6.736057e+01 -5.048863e+00 3.461150e+00 -4.992286e-01 1.938855e+00 2.907021e+00 1.449776e+00 2.737485e+00 5.592418e-01 -1.751246e-01 -5.454688e-02 9.594898e-01 1.128787e-01 -7.374570e-01 -1.027667e+00 -6.114349e-01 -5.023042e-01 -1.751859e-01 2.267763e-01 7.354015e-01 4.002443e-01 5.040067e-01 -1.272929e-01 3.488814e-01 5.507555e-01 -2.913966e-01 1.058716e-01
<VARIANCE> 39
 2.861562e+01 3.128629e+01 3.785072e+01 3.951093e+01 3.597302e+01 5.280584e+01 4.506027e+01 4.975324e+01 4.844349e+01 3.978778e+01 4.193308e+01 3.584686e+01 1.651744e+01 2.137764e+00 2.500461e+00 4.052660e+00 4.574566e+00 4.098461e+00 5.071760e+00 6.305144e+00 4.767763e+00 4.133805e+00 3.365781e+00 3.612866e+00 5.225935e+00 1.147731e+00 3.758066e-01 4.747559e-01 3.524880e-01 4.517832e-01 5.008227e-01 5.085076e-01 6.693099e-01 5.139281e-01 4.650777e-01 5.274446e-01 4.087613e-01 4.642141e-01 1.264820e-01
<GCONST> 1.243444e+02
<MIXTURE> 2 5.259112e-01
<MEAN> 39
 -2.410614e+01 8.478374e+00 -3.784121e+00 1.307112e+00 2.121555e+00 -2.458025e+00 8.404715e-02 2.392202e+00 -1.179688e+00 -1.780986e+00 1.870795e-01 8.482441e-01 6.509447e+01 -3.539156e+00 3.321267e-01 -1.870277e+00 -3.569239e-01 1.204395e+00 6.178260e-01 1.224480e+00 8.159992e-01 3.777570e-01 5.828803e-01 6.887463e-01 5.035518e-01 4.958300e-02 1.170948e+00 -4.933125e-01 1.382459e-01 -2.737139e-01 -5.830230e-01 -2.998744e-01 -5.517642e-01 -3.079136e-01 -7.293966e-02 -4.343665e-02 -1.773875e-01 -7.767683e-02 -1.354037e-01
<VARIANCE> 39
 2.922471e+01 3.095339e+01 4.209258e+01 3.727636e+01 2.762161e+01 3.809192e+01 3.571868e+01 2.985388e+01 2.728034e+01 2.249393e+01 2.010731e+01 2.136034e+01 2.110616e+01 3.202569e+00 3.006648e+00 3.454851e+00 2.684187e+00 2.637601e+00 3.477713e+00 3.352382e+00 3.044927e+00 3.008304e+00 2.785842e+00 2.449216e+00 2.140344e+00 1.733287e+00 4.076328e-01 6.024463e-01 6.438880e-01 6.545025e-01 6.411082e-01 7.640251e-01 7.059634e-01 5.786573e-01 5.329831e-01 5.104920e-01 4.640602e-01 5.316454e-01 2.762195e-01
<GCONST> 1.208042e+02
<MIXTURE> 3 2.553548e-01
<MEAN> 39
 -1.671318e+01 1.022064e+01 5.480381e-01 1.589972e+00 -1.133303e+00 -6.092327e+00 -3.740877e+00 -1.997931e+00 -4.878305e+00 -4.991274e+00 -3.068685e+00 -1.604301e+00 6.620094e+01 -5.424286e+00 1.266314e+00 -1.105173e+00 7.259134e-01 2.457891e+00 1.859487e+00 2.130841e+00 1.716184e+00 5.017797e-01 8.982579e-01 1.238108e+00 1.126206e-01 -2.073477e-01 2.957671e-01 -9.510696e-01 -5.676761e-01 -6.053398e-01 -3.416433e-01 -4.443307e-02 -1.478090e-01 1.199955e-01 2.900546e-01 3.342946e-01 1.159999e-01 2.554885e-01 4.664681e-02
<VARIANCE> 39
 4.450948e+01 3.269671e+01 5.446299e+01 3.687861e+01 3.922247e+01 5.171400e+01 4.412569e+01 3.928754e+01 4.097796e+01 3.135494e+01 2.897783e+01 2.575410e+01 2.322036e+01 3.932944e+00 3.240860e+00 4.892123e+00 5.205927e+00 4.219631e+00 6.352581e+00 4.262804e+00 4.571270e+00 4.199409e+00 3.985378e+00 3.996180e+00 3.712959e+00 1.443271e+00 6.207008e-01 6.021194e-01 6.906916e-01 5.697894e-01 7.646359e-01 8.049387e-01 7.327398e-01 6.411122e-01 5.839524e-01 5.742572e-01 4.936377e-01 5.368828e-01 2.347293e-01
<GCONST> 1.294520e+02
<STATE> 3
<NUMMIXES> 3
<MIXTURE> 1 1.075381e-01
<MEAN> 39
 -2.390657e+01 7.220705e+00 -8.790806e+00 2.570180e+00 1.132574e+00 -1.938889e+00 9.534441e-01 1.181759e+00 4.085527e-02 -1.418020e+00 1.249079e+00 1.565504e+00 6.159615e+01 -4.473916e-01 3.737625e-01 1.627598e-02 2.269216e-01 4.426242e-01 2.224646e-01 2.761580e-01 3.056180e-01 5.767980e-01 5.711272e-01 3.968664e-01 1.626777e-01 -6.457879e-01 5.362388e-01 -1.398099e-01 4.972229e-01 -1.217564e-01 1.586347e-02 2.293881e-04 1.754455e-03 5.778699e-02 -3.488821e-02 1.682271e-02 -1.305167e-01 -9.898359e-02 -1.350928e-01
<VARIANCE> 39
 3.836213e+01 2.909986e+01 2.710153e+01 2.038958e+01 1.645759e+01 2.094477e+01 1.532658e+01 1.807855e+01 1.561588e+01 1.682958e+01 1.594059e+01 1.596367e+01 3.493785e+01 2.158657e+00 2.478016e+00 2.201202e+00 1.789329e+00 1.745641e+00 1.777699e+00 1.712165e+00 1.828651e+00 1.787695e+00 1.886467e+00 1.891396e+00 1.692810e+00 2.284449e+00 4.306552e-01 3.835486e-01 4.023769e-01 3.547688e-01 2.517967e-01 3.288773e-01 2.818645e-01 3.209631e-01 3.111601e-01 3.344977e-01 3.149977e-01 2.876107e-01 4.546662e-01
<GCONST> 1.055744e+02
<MIXTURE> 2 4.451342e-01
<MEAN> 39
 -2.814499e+01 8.201055e+00 -8.126845e+00 -5.145755e-01 3.419796e+00 -3.363784e+00 1.874878e+00 3.001354e+00 -3.245631e-01 -2.762420e-01 9.973811e-01 2.377118e+00 6.510719e+01 1.784757e-03 -7.134848e-01 1.353960e-01 -8.754316e-01 -1.899157e-01 -3.130528e-01 -2.466481e-01 3.195460e-01 9.272335e-02 6.895652e-02 -8.126690e-02 1.700411e-01 -1.374488e-01 1.386860e+00 -2.779302e-01 6.521418e-01 -2.520516e-02 -5.911937e-01 -2.784777e-01 -7.152018e-01 -3.422301e-01 -1.026148e-01 -2.444924e-01 -2.853238e-01 -2.302875e-01 -1.062077e-01
<VARIANCE> 39
 1.270041e+01 1.639460e+01 2.604447e+01 2.663563e+01 2.085470e+01 2.638381e+01 2.616490e+01 2.238262e+01 2.183476e+01 1.950822e+01 1.701178e+01 1.604895e+01 1.334986e+01 2.747946e+00 1.736567e+00 3.480181e+00 1.960163e+00 1.921014e+00 2.511117e+00 2.426467e+00 2.239921e+00 2.074499e+00 2.074898e+00 1.915463e+00 1.765429e+00 9.682500e-01 3.766245e-01 3.350442e-01 3.505748e-01 4.740828e-01 4.022753e-01 6.167701e-01 5.175412e-01 4.837225e-01 4.461902e-01 4.480759e-01 4.499837e-01 3.726961e-01 2.569700e-01
<GCONST> 1.084939e+02
<MIXTURE> 3 4.473231e-01
<MEAN> 39
 -2.667609e+01 6.680201e+00 -7.921536e+00 2.083090e-01 1.952172e+00 -2.750374e+00 9.616393e-01 2.491194e+00 -3.612888e-01 -9.354594e-01 1.205788e+00 1.414369e+00 6.400523e+01 -1.929468e-01 -1.428441e-01 -1.589802e-01 -2.146107e-01 8.664488e-02 -8.278694e-03 4.389638e-02 5.116345e-02 4.301325e-02 3.661833e-02 -3.518120e-02 5.211392e-02 -3.944056e-02 3.886509e-01 -8.477362e-02 3.417315e-01 -4.192616e-02 -7.359781e-02 -7.754733e-02 -9.773561e-02 -3.567133e-03 -9.799542e-03 -5.127939e-02 -8.052959e-02 -4.098762e-03 -3.431604e-02
<VARIANCE> 39
 3.244561e+01 5.020296e+01 3.477286e+01 2.632688e+01 2.232634e+01 2.353794e+01 2.572527e+01 2.110884e+01 1.875870e+01 1.750153e+01 1.558246e+01 1.440613e+01 2.055420e+01 4.574446e-01 8.172191e-01 9.441515e-01 1.099769e+00 1.099197e+00 1.266531e+00 1.315715e+00 1.433354e+00 1.416176e+00 1.379861e+00 1.305018e+00 1.240668e+00 4.314547e-01 1.814716e-01 1.974208e-01 2.150633e-01 2.375652e-01 2.299737e-01 2.814949e-01 2.759111e-01 3.010736e-01 3.001445e-01 2.961647e-01 2.805794e-01 2.580052e-01 9.640462e-02
<GCONST> 9.410088e+01
<STATE> 4
<NUMMIXES> 3
<MIXTURE> 1 2.689077e-01
<MEAN> 39
 -2.358937e+01 3.703241e+00 -6.799421e-01 -3.852148e+00 2.668732e+00 -2.289744e+00 -6.423012e+00 4.749771e+00 2.015282e-01 -6.303019e-01 1.134906e+00 7.232075e-01 6.321154e+01 2.746456e+00 -5.965151e-01 1.400998e+00 9.928916e-01 -3.928565e-01 1.219271e+00 -2.012394e-01 -6.433537e-01 5.198741e-01 1.781586e-01 9.754806e-02 -4.043386e-01 -2.634970e+00 5.573363e-01 1.268351e-01 -2.898340e-01 5.079240e-01 -1.294682e-01 9.643579e-02 7.549809e-01 -3.601756e-01 -1.293387e-01 2.499752e-02 -1.121166e-01 -4.697115e-02 -4.992348e-01
<VARIANCE> 39
 6.352785e+01 3.619683e+01 3.914147e+01 3.378581e+01 4.668122e+01 5.923671e+01 4.402282e+01 3.914858e+01 3.619261e+01 3.240360e+01 2.445495e+01 2.419805e+01 2.632073e+01 2.695683e+00 2.588703e+00 3.294496e+00 2.250518e+00 2.818289e+00 3.074470e+00 3.801034e+00 2.907161e+00 2.704694e+00 2.587060e+00 2.192831e+00 1.967238e+00 2.423179e+00 9.371954e-01 6.543964e-01 5.837460e-01 6.552593e-01 7.237499e-01 9.566457e-01 7.135116e-01 7.559580e-01 6.945817e-01 6.394212e-01 5.038692e-01 4.774130e-01 5.113774e-01
<GCONST> 1.261608e+02
<MIXTURE> 2 3.938962e-01
<MEAN> 39
 -2.080504e+01 5.148442e+00 -4.276731e+00 -2.579172e+00 -1.090200e+00 -7.268099e+00 -1.464620e+00 1.740280e+00 -7.620617e-01 -2.322090e+00 -1.469373e+00 2.054868e+00 6.496638e+01 6.012053e+00 -1.705840e+00 1.796553e+00 -1.123013e+00 -2.925527e+00 -2.024380e+00 -3.387037e+00 -1.404466e+00 -1.938615e-01 -7.494722e-01 -1.263689e+00 -6.865813e-01 1.118953e+00 8.197188e-01 -3.341763e-01 1.644318e-02 -6.155600e-02 -4.213030e-01 1.900274e-01 -5.161031e-01 -1.797489e-01 4.503038e-02 8.468565e-02 3.412910e-02 -2.841800e-01 3.949008e-01
<VARIANCE> 39
 5.694901e+01 2.058690e+01 2.980247e+01 2.180883e+01 2.850986e+01 4.483328e+01 4.313469e+01 3.181312e+01 2.948803e+01 2.493006e+01 2.293035e+01 2.235755e+01 1.532692e+01 2.574204e+00 2.415805e+00 3.014552e+00 4.281478e+00 3.414068e+00 5.515407e+00 4.161898e+00 4.484113e+00 3.456721e+00 3.084875e+00 3.832940e+00 3.645142e+00 1.574149e+00 1.124942e+00 3.636910e-01 4.346600e-01 4.642224e-01 6.425689e-01 8.583841e-01 9.341937e-01 7.683150e-01 5.275255e-01 4.961284e-01 6.146492e-01 5.310193e-01 2.408133e-01
<GCONST> 1.235677e+02
<MIXTURE> 3 3.371983e-01
<MEAN> 39
 -1.989963e+01 4.787569e+00 -1.901919e+00 -5.138606e-01 1.808430e+00 -1.093841e+00 -4.922251e-01 2.716739e+00 1.445118e-02 -3.708264e-02 7.949403e-02 2.604163e-01 5.797015e+01 2.039447e+00 -7.540367e-01 8.451062e-01 1.277004e-01 -7.441325e-01 1.902178e-01 -3.881932e-01 -4.672607e-01 -2.523313e-01 -1.531205e-01 -1.317092e-01 -5.182065e-01 -9.381789e-01 3.460269e-01 -2.066962e-01 -8.409899e-02 -1.237537e-01 -2.762044e-01 -1.755544e-01 -2.710375e-01 -1.935220e-01 -1.159685e-01 -1.247250e-01 2.379362e-02 8.172430e-03 4.964901e-01
<VARIANCE> 39
 6.194150e+01 3.921203e+01 3.251569e+01 3.200510e+01 3.112709e+01 3.517563e+01 3.366774e+01 2.788934e+01 2.517268e+01 2.044245e+01 1.863278e+01 1.833184e+01 4.737756e+01 5.091650e+00 2.985665e+00 3.282341e+00 3.246412e+00 3.283522e+00 3.689352e+00 4.197486e+00 3.383583e+00 2.968373e+00 2.418289e+00 2.186106e+00 2.127313e+00 5.515913e+00 9.629005e-01 6.557830e-01 4.844917e-01 7.172419e-01 6.344786e-01 7.175457e-01 6.475059e-01 6.345338e-01 5.544036e-01 4.557030e-01 4.351222e-01 4.166171e-01 8.825873e-01
<GCONST> 1.252478e+02
<TRANSP> 5
 0.000000e+00 1.000000e+00 0.000000e+00 0.000000e+00 0.000000e+00
 0.000000e+00 6.646469e-01 3.353530e-01 0.000000e+00 0.000000e+00
 0.000000e+00 0.000000e+00 8.041922e-01 1.958077e-01 0.000000e+00
 0.000000e+00 0.000000e+00 0.000000e+00 6.438443e-01 3.561556e-01
 0.000000e+00 0.000000e+00 0.000000e+00 0.000000e+00 0.000000e+00
<ENDHMM>
~h "t"
<BEGINHMM>
<NUMSTATES> 5
<STATE> 2
<NUMMIXES> 3
<MIXTURE> 1 1.879151e-01
<MEAN> 39
 -5.574053e+00 5.628927e+00 5.764014e+00 2.101777e+00 -6.880375e+00 -8.194859e+00 -7.449157e+00 5.671360e-01 -1.568839e+00 -2.737935e+00 -5.628055e-01 1.356190e+00 5.988767e+01 -1.555049e+00 2.322181e+00 -3.377609e-01 1.712673e+00 2.732981e+00 1.466120e+00 2.163822e+00 -5.781479e-01 7.013057e-01 1.988797e-01 -3.329169e-01 -1.946150e-01 -3.920548e+00 -3.254621e-01 -7.957178e-01 -4.688638e-01 -5.659462e-01 -3.992812e-02 5.558678e-01 1.819810e-01 1.372703e-01 -1.208903e-01 1.561380e-01 1.477853e-01 -3.388337e-01 4.101466e-01
<VARIANCE> 39
 2.385062e+01 3.025739e+01 4.255727e+01 3.579931e+01 3.820629e+01 4.637669e+01 3.583957e+01 3.906212e+01 4.747104e+01 2.991638e+01 3.184704e+01 2.917999e+01 3.207545e+01 2.447068e+00 2.851747e+00 3.793993e+00 3.037933e+00 3.097199e+00 4.701180e+00 4.066190e+00 4.617101e+00 4.475893e+00 3.068649e+00 3.615150e+00 3.737687e+00 2.620305e+00 2.956600e-01 4.384511e-01 3.775222e-01 4.276775e-01 5.911593e-01 4.998254e-01 6.224184e-01 5.190794e-01 6.068897e-01 5.054078e-01 5.020569e-01 4.321235e-01 4.686885e-01
<GCONST> 1.243744e+02
<MIXTURE> 2 3.698263e-01
<MEAN> 39
 -6.730991e+00 4.160643e+00 2.318322e+00 1.205630e+00 -3.906718e+00 -4.595423e+00 -5.120751e+00 -2.551120e+00 -2.839356e+00 -3.038075e+00 -3.903781e+00 -3.053015e+00 5.824178e+01 -1.187651e+00 1.041307e-02 3.457898e-01 3.212590e-01 8.242027e-01 9.982309e-01 5.933267e-01 2.188707e-01 -1.254148e-01 -4.366257e-02 5.492045e-01 4.136556e-02 -1.084702e+00 -2.244817e-01 -7.517447e-01 -2.819490e-01 -6.942647e-01 -5.540639e-01 -9.707974e-02 -1.657981e-01 2.760130e-01 -1.996586e-02 1.751329e-01 4.096702e-01 3.007046e-01 1.124119e+00
<VARIANCE> 39
 5.671902e+01 4.003531e+01 4.258902e+01 4.912160e+01 5.018129e+01 5.420863e+01 5.245906e+01 5.302829e+01 4.984838e+01 3.757352e+01 3.585965e+01 2.724646e+01 3.653428e+01 5.521878e+00 5.501832e+00 4.128369e+00 4.550967e+00 5.185976e+00 4.847149e+00 4.580735e+00 5.565043e+00 5.074430e+00 3.759768e+00 3.798037e+00 3.240347e+00 4.252364e+00 6.294152e-01 8.553756e-01 6.615384e-01 8.259872e-01 1.055558e+00 8.583866e-01 9.881356e-01 9.850438e-01 9.450728e-01 7.841712e-01 7.794902e-01 5.712414e-01 8.243791e-01
<GCONST> 1.379733e+02
<MIXTURE> 3 4.422597e-01
<MEAN> 39
 -9.273731e+00 7.528569e+00 3.779397e+00 3.239058e+00 -1.123113e+00 -2.834705e+00 -2.844465e+00 -1.072456e+00 -1.889967e+00 -2.070095e+00 -1.472347e+00 -1.552576e+00 5.316500e+01 -1.049724e+00 -3.647413e-01 -5.444664e-01 2.803832e-01 1.341140e+00 1.488064e+00 1.342028e+00 2.673869e-01 5.525814e-01 3.960267e-01 3.102854e-01 -8.466403e-02 -2.040799e+00 -3.649138e-01 -9.737637e-01 -3.848107e-01 -7.815188e-01 -6.199749e-01 -1.158799e-01 -3.007606e-01 1.987479e-01 -1.393220e-01 1.149741e-01 2.835587e-01 1.973010e-01 1.472059e+00
<VARIANCE> 39
 3.342087e+01 1.497455e+01 2.785196e+01 2.057648e+01 2.478665e+01 2.907665e+01 2.916420e+01 2.669086e+01 2.719593e+01 2.158453e+01 2.099416e+01 1.821451e+01 1.693932e+01 5.663108e+00 3.754672e+00 4.038248e+00 3.344136e+00 3.793538e+00 3.530375e+00 3.372370e+00 3.788564e+00 3.692283e+00 2.846003e+00 2.919889e+00 2.586936e+00 3.199493e+00 4.515434e-01 4.977774e-01 4.870046e-01 4.557777e-01 5.269279e-01 5.800058e-01 6.040207e-01 5.217022e-01 5.631890e-01 4.787209e-01 4.478158e-01 4.278849e-01 5.766987e-01
<GCONST> 1.201203e+02
<STATE> 3
<NUMMIXES> 3
<MIXTURE> 1 3.318094e-01
<MEAN> 39
 -1.676326e+01 -6.401505e+00 1.760877e-01 -1.798953e+00 -2.182102e+00 -1.492634e+00 7.304378e-01 4.624076e+00 -6.553192e-01 -2.433471e+00 2.013688e+00 8.060846e-01 5.971682e+01 6.354147e-02 4.992861e-02 2.800133e-03 8.431069e-02 6.261358e-02 1.403136e-01 5.389181e-02 -2.272670e-02 8.989733e-02 2.193072e-02 -4.394136e-02 -4.361540e-03 -1.808877e-01 7.098299e-02 1.296354e-01 8.803792e-03 7.968999e-02 5.984700e-02 5.727668e-02 1.104454e-02 -5.485630e-02 2.113584e-02 2.572699e-02 -4.191159e-02 -4.403243e-02 -1.107005e-01
<VARIANCE> 39
 2.142996e+01 3.478044e+01 1.729396e+01 1.480766e+01 1.780781e+01 2.691911e+01 2.366713e+01 2.129163e+01 2.220701e+01 2.019417e+01 1.760468e+01 1.486250e+01 3.802816e+01 4.912408e-01 7.945233e-01 6.276093e-01 8.275859e-01 1.001515e+00 1.331823e+00 1.284075e+00 1.482880e+00 1.520880e+00 1.478708e+00 1.369683e+00 1.230129e+00 6.519678e-01 5.951820e-02 1.198932e-01 1.239444e-01 1.621333e-01 1.963344e-01 2.474146e-01 2.537390e-01 3.003822e-01 3.129877e-01 3.007544e-01 2.760314e-01 2.544526e-01 5.822723e-02
<GCONST> 8.947217e+01
<MIXTURE> 2 3.729082e-01
<MEAN> 39
 -1.187214e+01 2.725798e+00 1.959566e+00 1.056386e+00 -7.706667e-01 -1.369198e-01 -1.777342e+00 -2.999906e-01 -1.636409e+00 -1.332353e+00 -5.692950e-01 -1.279770e+00 5.514679e+01 -1.526981e+00 -1.709048e+00 -5.865043e-01 -1.424513e+00 -7.288570e-01 1.261276e-01 -2.729506e-01 3.929391e-01 -1.716341e-01 3.193066e-01 9.329681e-01 5.665317e-01 2.203504e+00 9.008589e-03 -1.265572e-01 -4.541799e-02 -4.004166e-01 -7.023118e-01 -5.948088e-01 -4.309480e-01 1.026372e-01 -1.406690e-01 -4.606067e-02 5.268948e-02 1.758238e-01 1.216390e+00
<VARIANCE> 39
 3.693185e+01 3.276872e+01 3.016692e+01 3.194228e+01 3.495668e+01 3.679469e+01 3.824636e+01 3.005478e+01 2.939617e+01 2.340225e+01 2.137802e+01 1.764072e+01 4.236370e+01 5.567383e+00 3.948232e+00 3.909240e+00 4.139853e+00 4.488693e+00 4.569080e+00 4.523983e+00 3.976249e+00 4.109420e+00 3.041089e+00 3.138663e+00 2.504325e+00 5.443417e+00 8.134651e-01 7.224450e-01 6.675079e-01 7.557382e-01 7.918471e-01 7.722989e-01 8.652874e-01 7.551028e-01 6.891178e-01 5.987905e-01 6.315802e-01 5.094862e-01 8.596960e-01
<GCONST> 1.298286e+02
<MIXTURE> 3 2.952825e-01
<MEAN> 39
 -1.339081e+01 2.516755e+00 -4.823083e-01 1.559584e+00 4.365809e-01 7.423106e-01 6.551193e-01 1.861206e+00 8.078694e-01 -1.222960e-01 5.803382e-01 9.066425e-06 5.168392e+01 -5.277711e-01 -4.278703e-01 -2.594148e-01 -2.260661e-01 3.985083e-02 1.321584e-01 1.168132e-01 5.347900e-03 -9.551960e-02 4.497888e-02 1.220866e-01 3.207450e-02 3.101574e-01 -7.673606e-02 -1.241259e-01 1.562982e-02 -2.145790e-01 -2.425456e-01 -2.520024e-01 -2.600232e-01 -1.147193e-02 -1.631376e-01 -1.256402e-01 -1.278340e-02 3.128365e-02 6.921980e-01
<VARIANCE> 39
 1.895043e+01 2.300584e+01 1.538416e+01 1.359444e+01 1.551333e+01 1.859407e+01 1.732046e+01 1.819988e+01 1.692803e+01 1.580211e+01 1.388068e+01 1.288628e+01 2.291459e+01 2.098430e+00 2.598641e+00 1.772019e+00 1.866409e+00 1.750706e+00 2.064369e+00 2.108110e+00 2.056128e+00 1.974899e+00 1.798689e+00 1.653427e+00 1.539051e+00 3.284440e+00 3.770063e-01 3.907189e-01 3.204326e-01 3.172304e-01 3.374976e-01 4.071675e-01 4.329542e-01 4.068881e-01 3.966294e-01 3.484464e-01 3.288936e-01 3.017366e-01 5.503266e-01
<GCONST> 1.046487e+02
<STATE> 4
<NUMMIXES> 3
<MIXTURE> 1 2.267056e-01
<MEAN> 39
 -2.306967e+01 -5.066843e-02 -1.111804e+00 -6.413704e+00 -2.574305e+00 -1.792322e+00 -1.946679e+00 2.774022e+00 -2.084424e+00 1.108170e+00 4.111528e+00 2.109553e+00 6.758050e+01 -1.667252e+00 -2.387568e-01 2.677867e-01 -4.466053e-01 -9.094882e-01 -8.323955e-01 4.246705e-01 1.309776e+00 1.819462e-01 -3.132868e-02 3.291171e-01 9.353439e-01 2.232816e+00 1.593508e+00 2.871599e-01 4.751788e-01 8.948150e-01 -1.868752e-01 -2.105565e-01 -8.803992e-02 -3.151807e-01 -6.687015e-02 -4.463861e-01 -7.562386e-01 -3.175945e-01 -1.165589e+00
<VARIANCE> 39
 2.341322e+01 3.545711e+01 3.056252e+01 2.663453e+01 3.152742e+01 3.613543e+01 3.602658e+01 3.096234e+01 2.300167e+01 2.258612e+01 1.861731e+01 1.796432e+01 1.737788e+01 5.754460e+00 2.735017e+00 3.085447e+00 3.770637e+00 3.094456e+00 3.489449e+00 4.032083e+00 3.172443e+00 3.077264e+00 2.683731e+00 2.877108e+00 2.140796e+00 5.687718e+00 7.442096e-01 7.246563e-01 5.954085e-01 5.620781e-01 7.802166e-01 9.333699e-01 8.832730e-01 8.396507e-01 6.402000e-01 5.860742e-01 5.739955e-01 5.264458e-01 4.668618e-01
<GCONST> 1.246154e+02
<MIXTURE> 2 3.851190e-01
<MEAN> 39
 -1.565295e+01 -1.010333e+00 1.955400e+00 -1.802165e+00 -5.101148e+00 -3.894866e+00 -2.337574e+00 1.799328e+00 -3.067586e+00 -2.081336e+00 -2.032983e-01 8.397919e-01 6.420728e+01 3.288486e+00 -3.849691e-01 4.757388e-01 -3.060499e-01 -1.843487e+00 -1.527983e+00 -2.029850e+00 -1.025237e+00 -1.010872e+00 -9.641668e-01 -8.484580e-01 -5.079544e-01 1.399639e+00 8.781763e-01 8.354934e-02 -1.097529e-01 -1.627923e-01 -1.676948e-01 -2.025990e-02 -5.082052e-01 -2.794042e-01 3.199164e-02 1.363479e-02 -5.790986e-03 -2.439436e-01 5.600525e-02
<VARIANCE> 39
 5.989521e+01 4.356907e+01 4.179214e+01 4.640974e+01 4.834817e+01 5.463575e+01 4.737325e+01 4.698564e+01 3.885205e+01 3.013770e+01 2.925763e+01 2.343019e+01 2.767593e+01 5.974320e+00 3.758209e+00 4.234854e+00 5.323433e+00 6.066449e+00 6.962005e+00 5.272376e+00 4.982769e+00 4.415034e+00 3.838526e+00 4.539973e+00 3.199638e+00 5.319949e+00 1.032936e+00 6.611278e-01 6.580639e-01 8.614299e-01 9.863341e-01 1.016796e+00 9.180642e-01 9.964485e-01 8.600983e-01 6.743197e-01 7.118926e-01 5.851637e-01 7.417741e-01
<GCONST> 1.372794e+02
<MIXTURE> 3 3.881725e-01
<MEAN> 39
 -1.302420e+01 -1.594555e+00 2.800234e-01 -1.238383e+00 -6.161434e+00 -1.993839e+00 -4.833917e+00 1.281145e+00 -7.819422e-01 -1.508545e+00 5.023773e-01 -5.205737e-01 6.413224e+01 -1.700265e-01 -4.351790e-01 -4.102311e-01 1.357072e-01 -1.705263e-01 -7.736355e-02 -5.256447e-02 3.405957e-01 2.293727e-01 1.231081e-01 1.443391e-01 3.247270e-02 5.754455e-01 3.617350e-01 2.648620e-01 6.328039e-04 4.858361e-02 1.648267e-01 -1.445108e-01 -2.370575e-02 -1.274669e-01 -1.260616e-01 -4.823472e-02 -1.150103e-01 -8.965789e-02 -1.156999e-01
<VARIANCE> 39
 1.012654e+02 5.825934e+01 5.738263e+01 5.052118e+01 5.880484e+01 6.402819e+01 6.085207e+01 4.955653e+01 4.230040e+01 3.020899e+01 3.241522e+01 3.011657e+01 5.399448e+01 6.292712e+00 3.943353e+00 3.377683e+00 3.606539e+00 4.697132e+00 4.203834e+00 4.207399e+00 3.512849e+00 3.298489e+00 2.656445e+00 2.847024e+00 2.482797e+00 5.486938e+00 1.160623e+00 7.942562e-01 5.884256e-01 6.791591e-01 9.010359e-01 8.785683e-01 9.445026e-01 7.614716e-01 6.937716e-01 5.622132e-01 5.440350e-01 5.321464e-01 8.578632e-01
<GCONST> 1.359225e+02
<TRANSP> 5
 0.000000e+00 1.000000e+00 0.000000e+00 0.000000e+00 0.000000e+00
 0.000000e+00 4.186815e-01 5.813185e-01 0.000000e+00 0.000000e+00
 0.000000e+00 0.000000e+00 7.242510e-01 2.757490e-01 0.000000e+00
 0.000000e+00 0.000000e+00 0.000000e+00 6.825654e-01 3.174346e-01
 0.000000e+00 0.000000e+00 0.000000e+00 0.000000e+00 0.000000e+00
<ENDHMM>
~h "v"
<BEGINHMM>
<NUMSTATES> 5
<STATE> 2
<NUMMIXES> 3
<MIXTURE> 1 1.645488e-01
<MEAN> 39
 3.302898e+00 -4.223204e+00 -3.820844e+00 -1.459356e+00 -4.732757e+00 2.265016e+00 -1.204835e+01 -4.702332e+00 1.253605e+00 2.954383e+00 4.902499e+00 -4.414791e+00 6.713333e+01 -7.143958e-01 3.948180e+00 5.405794e-01 2.660091e+00 3.057801e+00 2.592999e-01 1.842943e+00 -2.252506e+00 -2.625365e+00 -1.292499e+00 2.426814e-01 1.234160e+00 -3.923174e+00 -8.917849e-01 4.755873e-01 4.706244e-01 7.018410e-03 1.105587e-01 -3.277461e-01 6.084684e-01 7.481470e-01 2.689068e-02 -4.962014e-01 -9.973590e-01 -1.793819e-01 -1.878529e-01
<VARIANCE> 39
 7.872414e+00 2.143480e+01 2.106725e+01 3.372815e+01 2.316888e+01 4.212925e+01 4.435973e+01 3.156262e+01 2.451531e+01 2.654400e+01 2.219506e+01 2.936691e+01 1.476267e+01 1.007558e+00 1.147271e+00 1.907226e+00 2.419466e+00 1.733317e+00 3.398473e+00 3.248269e+00 3.675886e+00 2.768151e+00 2.780259e+00 3.192509e+00 1.942725e+00 7.872706e-01 1.379580e-01 3.495907e-01 3.014064e-01 4.371897e-01 4.265932e-01 4.757454e-01 4.815215e-01 4.182574e-01 4.667140e-01 4.574548e-01 4.095455e-01 5.535612e-01 2.766860e-01
<GCONST> 1.101345e+02
<MIXTURE> 2 4.617729e-01
<MEAN> 39
 -1.760003e+00 4.476049e+00 -1.882950e+00 -1.856776e+00 -4.683701e+00 -5.501786e+00 -9.642904e+00 -7.565923e+00 -3.626260e+00 -7.734621e-01 -1.535294e+00 -2.236964e+00 6.158911e+01 -1.494933e+00 1.582141e+00 6.460286e-01 1.743001e+00 1.466874e+00 1.082080e+00 6.994038e-01 -3.636912e-02 -2.406771e-01 -2.868696e-01 1.602555e-01 -2.678947e-01 -1.682288e+00 -3.914100e-01 -3.421339e-01 1.324716e-01 -1.390833e-01 -1.482162e-01 -2.397357e-03 2.367950e-01 4.238605e-01 3.838075e-02 -7.734738e-02 -7.459666e-02 5.484673e-02 2.692454e-01
<VARIANCE> 39
 2.522258e+01 2.114638e+01 4.457653e+01 4.511098e+01 2.361105e+01 4.839077e+01 3.119005e+01 3.642105e+01 4.021988e+01 3.780715e+01 3.876694e+01 2.293175e+01 1.889232e+01 2.300358e+00 2.251570e+00 2.852959e+00 3.719789e+00 3.007596e+00 3.703470e+00 3.166618e+00 3.656578e+00 3.558630e+00 2.425251e+00 2.775406e+00 2.583386e+00 1.299346e+00 2.619138e-01 2.888376e-01 3.021098e-01 4.126404e-01 3.775411e-01 4.894855e-01 5.212463e-01 4.911109e-01 5.408702e-01 4.289219e-01 3.949291e-01 3.557993e-01 1.860223e-01
<GCONST> 1.171279e+02
<MIXTURE> 3 3.736781e-01
<MEAN> 39
 9.185698e-01 1.067712e+00 -2.518307e+00 1.244545e+00 -1.790093e+00 -3.362307e+00 -1.156163e+01 -6.771335e+00 -2.163121e+00 6.232673e-01 9.555895e-01 -3.110352e+00 6.265090e+01 -1.557085e+00 3.389429e+00 7.880235e-01 1.916283e+00 2.387876e+00 1.117614e+00 1.883366e+00 -1.035198e+00 -1.426525e+00 -6.269683e-01 -3.234887e-01 -3.803471e-02 -3.153101e+00 -6.910463e-01 -2.123411e-01 4.077467e-01 -2.855794e-01 -5.144222e-01 -7.903293e-02 3.542550e-01 8.509185e-01 1.775385e-01 -3.323758e-01 -4.090936e-01 4.828998e-02 3.253657e-01
<VARIANCE> 39
 1.010734e+01 1.872353e+01 3.128238e+01 2.883538e+01 2.326982e+01 5.326712e+01 3.026059e+01 3.207828e+01 2.889707e+01 2.414418e+01 3.028679e+01 2.248983e+01 1.386922e+01 1.293640e+00 1.571241e+00 2.545624e+00 2.911039e+00 2.394212e+00 4.925116e+00 4.057174e+00 4.035847e+00 3.058797e+00 2.455340e+00 3.003843e+00 2.224501e+00 1.041979e+00 1.841621e-01 3.442795e-01 3.565741e-01 3.839228e-01 3.871698e-01 5.206223e-01 5.405336e-01 5.074933e-01 6.064724e-01 4.320402e-01 4.195451e-01 4.442372e-01 2.596520e-01
<GCONST> 1.133492e+02
<STATE> 3
<NUMMIXES> 3
<MIXTURE> 1 1.361124e-01
<MEAN> 39
 -4.936862e+00 8.461285e+00 3.364849e+00 3.810408e+00 -4.538000e-02 -6.049873e-01 -6.092324e+00 -2.619610e+00 -1.024070e+00 -4.611140e-01 -8.524215e-01 -3.069637e+00 5.781652e+01 -3.041714e+00 1.416415e+00 4.461862e-01 1.715677e+00 1.572997e+00 1.247496e-01 2.481014e+00 1.131313e+00 2.132042e-02 -6.116437e-01 -8.418275e-01 5.228311e-01 -2.110857e+00 -2.877751e-01 -1.070051e+00 -3.572135e-01 -7.102606e-01 -5.927215e-01 2.508725e-01 -3.326788e-01 4.055654e-01 -3.939420e-03 -3.378668e-02 1.733208e-01 2.234665e-02 8.737895e-01
<VARIANCE> 39
 2.062299e+01 1.748019e+01 2.389224e+01 1.691053e+01 1.479454e+01 2.973521e+01 3.654504e+01 2.985363e+01 2.900539e+01 2.076992e+01 2.276624e+01 2.442828e+01 2.207822e+01 2.812701e+00 3.311943e+00 4.300458e+00 3.182172e+00 2.575053e+00 4.069434e+00 3.652070e+00 4.202113e+00 4.015718e+00 2.836722e+00 2.711262e+00 2.788944e+00 2.116764e+00 2.798094e-01 2.929763e-01 3.091385e-01 3.373388e-01 3.215813e-01 4.290759e-01 5.191037e-01 5.709406e-01 4.927755e-01 3.384013e-01 3.761393e-01 3.913703e-01 2.415925e-01
<GCONST> 1.145119e+02
<MIXTURE> 2 4.388101e-01
<MEAN> 39
 -5.177076e+00 5.917960e+00 -4.820262e-02 2.170601e+00 -1.622129e+00 -2.916431e+00 -7.426433e+00 -6.279441e+00 -5.994577e+00 -3.606670e+00 -2.543434e+00 -3.622356e+00 5.951000e+01 -1.628483e+00 4.960803e-01 5.701432e-01 7.117791e-01 2.574726e-01 4.332767e-01 6.017603e-01 5.986750e-01 -2.725750e-03 -2.186379e-01 -1.321481e-01 6.218142e-02 -3.882863e-01 4.369206e-01 -1.164800e+00 -3.900026e-01 -9.005380e-01 -8.344511e-01 -6.159036e-01 -3.953639e-01 4.265207e-01 4.705712e-01 2.479432e-01 1.120413e-01 1.747749e-01 1.133021e+00
<VARIANCE> 39
 2.538152e+01 2.062327e+01 3.171379e+01 2.774588e+01 2.537111e+01 3.339783e+01 2.873757e+01 2.593082e+01 2.501030e+01 2.296406e+01 2.769415e+01 2.187997e+01 1.993331e+01 2.346683e+00 2.116465e+00 1.796291e+00 2.521700e+00 2.345279e+00 2.745716e+00 2.289416e+00 2.443238e+00 2.348349e+00 1.908355e+00 1.937876e+00 1.676149e+00 1.370571e+00 4.368550e-01 5.310816e-01 5.624158e-01 6.695842e-01 7.827861e-01 8.229067e-01 8.232143e-01 7.548572e-01 8.061993e-01 5.614055e-01 6.184644e-01 4.791618e-01 4.475735e-01
<GCONST> 1.173503e+02
<MIXTURE> 3 4.250774e-01
<MEAN> 39
 -3.667758e+00 8.481564e+00 2.870971e+00 5.022543e+00 1.597526e+00 -6.297940e-01 -6.508559e+00 -6.054056e+00 -4.285932e+00 -2.040663e+00 -1.346745e+00 -3.407108e+00 5.609983e+01 -2.265842e+00 1.460908e+00 1.150578e+00 1.165477e+00 8.020644e-01 5.568612e-01 1.837684e+00 9.506915e-01 -4.947428e-01 -9.351258e-01 -1.034914e+00 -3.824457e-02 -1.668192e+00 1.103967e-02 -1.186230e+00 -4.114426e-01 -7.049037e-01 -8.647243e-01 -1.664357e-01 -4.258113e-01 5.427427e-01 4.791390e-01 2.362228e-01 1.820763e-01 1.125147e-01 1.089516e+00
<VARIANCE> 39
 1.446960e+01 1.488797e+01 2.121559e+01 1.551474e+01 1.517522e+01 2.460254e+01 2.200443e+01 2.055497e+01 1.903900e+01 1.715173e+01 1.848322e+01 1.496426e+01 1.443862e+01 1.517518e+00 3.111125e+00 1.975398e+00 2.127673e+00 1.958104e+00 3.106097e+00 2.644048e+00 2.784346e+00 2.369239e+00 2.003316e+00 2.264075e+00 1.885158e+00 1.607456e+00 2.943004e-01 3.602249e-01 4.111356e-01 4.185615e-01 4.507936e-01 5.362759e-01 5.416359e-01 6.377925e-01 4.982682e-01 3.813492e-01 4.161558e-01 3.298818e-01 3.291013e-01
<GCONST> 1.079925e+02
<STATE> 4
<NUMMIXES> 3
<MIXTURE> 1 2.778769e-01
<MEAN> 39
 -1.421661e+01 4.929566e-01 -3.074633e+00 -1.078992e+00 -2.260998e+00 -2.048041e+00 -4.532621e+00 1.629469e+00 1.626043e+00 2.623611e-01 6.622322e-01 3.584872e-01 6.252968e+01 -2.033664e-01 1.738860e-02 1.923542e-02 -5.559692e-02 2.361241e-01 1.139663e-01 3.720247e-01 2.736624e-01 1.612895e-01 1.177234e-01 7.344837e-02 1.576679e-01 -3.536174e-01 3.341484e-01 2.829098e-01 2.309274e-01 1.969913e-01 1.240305e-01 1.738902e-02 7.378663e-02 -2.155888e-01 -2.563502e-01 -1.966846e-01 -1.326082e-01 -1.347630e-01 -2.807809e-01
<VARIANCE> 39
 1.029517e+02 5.519188e+01 4.038946e+01 3.469362e+01 3.939303e+01 5.008103e+01 6.419248e+01 3.838966e+01 3.127469e+01 2.964039e+01 2.936316e+01 2.768854e+01 4.686155e+01 4.853993e+00 2.938690e+00 2.645595e+00 2.562154e+00 2.576921e+00 2.895729e+00 3.612348e+00 2.970494e+00 2.735647e+00 2.484437e+00 2.315106e+00 2.049161e+00 3.203902e+00 9.924864e-01 5.787429e-01 4.671450e-01 5.637552e-01 5.563314e-01 6.074548e-01 9.036083e-01 6.233400e-01 5.237049e-01 4.841769e-01 4.522007e-01 4.317724e-01 5.314129e-01
<GCONST> 1.267509e+02
<MIXTURE> 2 3.397635e-01
<MEAN> 39
 -6.867182e+00 2.985774e+00 -1.257581e+00 1.863985e+00 -2.522169e+00 -2.616111e+00 -7.578854e+00 -4.227252e+00 -4.473805e+00 -2.509957e+00 -1.093973e+00 -2.232320e+00 6.236523e+01 1.539034e+00 -2.290860e+00 -1.169619e+00 -2.249645e+00 -2.210792e+00 -1.384601e+00 -1.531805e+00 3.904611e-01 8.743801e-01 5.454729e-01 6.357613e-01 2.736619e-01 2.743414e+00 7.312933e-01 -4.872299e-01 -7.739888e-02 -6.405942e-01 -4.500794e-01 -2.396488e-01 -2.454759e-01 1.800072e-01 2.816323e-01 1.320941e-01 5.485683e-02 -4.977276e-02 5.370562e-01
<VARIANCE> 39
 3.327666e+01 2.315025e+01 3.171145e+01 3.106629e+01 2.382512e+01 4.298213e+01 2.677002e+01 2.710770e+01 2.356180e+01 2.001014e+01 2.209813e+01 1.735386e+01 2.287486e+01 3.402986e+00 2.621937e+00 3.986537e+00 4.037760e+00 3.692226e+00 3.908041e+00 4.402139e+00 4.408168e+00 3.658067e+00 2.718338e+00 3.233876e+00 2.477548e+00 2.140422e+00 5.570502e-01 5.553759e-01 5.671629e-01 6.922272e-01 6.152964e-01 7.086462e-01 6.752211e-01 6.525795e-01 5.894879e-01 4.548142e-01 5.324154e-01 4.333456e-01 4.128022e-01
<GCONST> 1.222862e+02
<MIXTURE> 3 3.823602e-01
<MEAN> 39
 -1.136482e+01 6.159267e+00 2.262132e+00 5.245348e+00 1.011140e+00 8.366527e-01 -2.263096e+00 -6.425258e-01 -2.339483e+00 -2.355320e+00 -2.053638e+00 -2.070845e+00 5.596559e+01 -1.385545e+00 -1.076229e+00 -6.778666e-01 -4.146132e-01 -3.142105e-01 1.091560e-01 3.815333e-01 7.354423e-01 2.038232e-01 7.970671e-02 2.580725e-01 4.275984e-01 6.086255e-01 7.992026e-01 -6.257514e-01 -4.637908e-01 -7.876266e-01 -6.487870e-01 -4.221884e-01 -7.508791e-01 -3.077053e-01 7.078626e-02 2.314693e-01 3.543517e-01 8.881021e-02 9.007246e-01
<VARIANCE> 39
 3.030588e+01 2.741476e+01 2.338745e+01 2.020387e+01 1.812755e+01 2.183480e+01 2.539351e+01 2.238210e+01 2.240646e+01 1.885240e+01 1.658234e+01 1.553458e+01 2.964706e+01 3.979994e+00 2.469762e+00 2.475122e+00 2.507321e+00 2.469603e+00 2.614541e+00 3.533992e+00 3.066383e+00 2.713020e+00 2.099768e+00 2.067460e+00 1.798202e+00 2.667507e+00 6.863279e-01 6.910574e-01 6.219856e-01 5.989481e-01 5.559040e-01 6.177217e-01 6.412501e-01 5.922585e-01 5.831112e-01 4.623661e-01 5.107095e-01 4.137582e-01 5.322297e-01
<GCONST> 1.169950e+02
<TRANSP> 5
 0.000000e+00 1.000000e+00 0.000000e+00 0.000000e+00 0.000000e+00
 0.000000e+00 4.398098e-01 5.601903e-01 0.000000e+00 0.000000e+00
 0.000000e+00 0.000000e+00 4.547497e-01 5.452504e-01 0.000000e+00
 0.000000e+00 0.000000e+00 0.000000e+00 6.657919e-01 3.342081e-01
 0.000000e+00 0.000000e+00 0.000000e+00 0.000000e+00 0.000000e+00
<ENDHMM>
~h "w"
<BEGINHMM>
<NUMSTATES> 5
<STATE> 2
<NUMMIXES> 3
<MIXTURE> 1 3.128187e-01
<MEAN> 39
 -1.213643e+01 -2.277663e+00 -3.474329e+00 5.806612e-01 1.598770e+00 3.105629e+00 -4.030149e+00 3.429737e-02 3.824790e-01 2.392410e-02 1.425654e+00 -7.037205e-01 5.786552e+01 1.680893e+00 1.003018e+00 -1.826837e-01 -7.773431e-01 -4.981770e-01 4.876357e-02 3.668377e-01 -8.800881e-01 -1.173665e+00 -4.992726e-01 4.754537e-02 5.134615e-02 -4.149621e-01 3.172932e-01 4.213331e-01 1.292966e-01 -5.717884e-01 -5.526158e-01 -2.999271e-01 -1.003304e-01 2.062044e-02 -2.813982e-01 -3.255933e-01 -1.596788e-01 -1.852583e-02 3.676257e-01
<VARIANCE> 39
 3.743662e+01 4.756294e+01 2.738907e+01 3.395072e+01 2.530706e+01 3.701524e+01 4.932570e+01 3.422277e+01 3.171597e+01 2.780138e+01 2.522926e+01 1.973470e+01 4.526187e+01 5.578739e+00 4.827358e+00 2.657418e+00 4.377181e+00 4.092414e+00 3.772223e+00 4.742362e+00 4.455076e+00 4.369372e+00 3.259051e+00 2.971323e+00 2.252532e+00 3.092033e+00 4.292997e-01 9.072421e-01 5.797819e-01 8.783349e-01 6.898300e-01 6.564003e-01 1.120786e+00 7.292808e-01 8.339162e-01 6.596438e-01 5.914450e-01 4.627812e-01 6.051309e-01
<GCONST> 1.292884e+02
<MIXTURE> 2 2.896614e-01
<MEAN> 39
 1.402571e+00 7.618625e+00 -3.594401e+00 -8.367050e+00 -7.877716e+00 -9.239115e-01 -6.135031e+00 -5.851714e+00 -7.910709e+00 -4.798746e+00 -1.304371e+00 -1.851565e+00 6.037818e+01 1.949616e+00 1.126498e+00 -5.196216e-01 -2.416583e+00 -1.742855e+00 1.765912e-01 -2.933033e-03 -2.687752e-01 -8.291872e-01 -9.455017e-01 -2.176334e-01 -9.968700e-02 8.569299e-01 -5.403948e-01 -8.032908e-01 5.237095e-02 2.795536e-01 2.226123e-01 9.987920e-02 -3.454278e-01 3.277262e-01 4.687600e-01 4.240423e-01 2.219341e-01 -4.640995e-02 4.220052e-01
<VARIANCE> 39
 1.852242e+01 2.420362e+01 2.387606e+01 3.799216e+01 3.148768e+01 4.118175e+01 3.776483e+01 4.295343e+01 3.588277e+01 2.563405e+01 3.068075e+01 2.175581e+01 1.990368e+01 4.110810e+00 4.295882e+00 3.790668e+00 5.613795e+00 4.741457e+00 4.921353e+00 6.852389e+00 5.107111e+00 5.178088e+00 3.721195e+00 4.044577e+00 3.153570e+00 4.434547e+00 3.531711e-01 5.548297e-01 5.375110e-01 7.280409e-01 7.606440e-01 9.739269e-01 9.637940e-01 8.708737e-01 8.388699e-01 7.249769e-01 6.865785e-01 5.289976e-01 2.795000e-01
<GCONST> 1.292705e+02
<MIXTURE> 3 3.975198e-01
<MEAN> 39
 1.502115e+00 9.663191e+00 -6.855829e-01 -6.807122e+00 -8.293601e+00 -2.203523e+00 -4.693118e+00 -4.234615e+00 -5.988137e+00 -3.868564e+00 -1.642867e+00 -3.057433e+00 5.939441e+01 1.293081e-01 7.480887e-02 -1.242479e-01 -5.321321e-01 -4.268681e-01 -9.485134e-02 3.662612e-02 3.125441e-01 3.205140e-01 7.111570e-02 -9.788144e-03 -1.620799e-01 1.693956e-01 2.141506e-02 -4.870235e-01 -3.046632e-01 -2.828022e-01 -1.299062e-02 3.846355e-01 -2.905661e-01 3.326821e-02 -1.054988e-01 5.452779e-02 2.422585e-01 1.715374e-01 4.287612e-01
<VARIANCE> 39
 2.076211e+01 2.693454e+01 2.466365e+01 3.719238e+01 3.611688e+01 3.509963e+01 2.597548e+01 2.758241e+01 2.823730e+01 1.855860e+01 2.292229e+01 1.698031e+01 2.042045e+01 6.841004e-01 1.552163e+00 2.008967e+00 3.071642e+00 2.454994e+00 2.521702e+00 2.061973e+00 2.370975e+00 2.467243e+00 1.909289e+00 1.759310e+00 1.670852e+00 1.050202e+00 1.131409e-01 3.316333e-01 3.587941e-01 5.303405e-01 5.322477e-01 5.822362e-01 5.553151e-01 5.111089e-01 5.876501e-01 4.991515e-01 4.346091e-01 3.853167e-01 1.586120e-01
<GCONST> 1.095259e+02
<STATE> 3
<NUMMIXES> 3
<MIXTURE> 1 1.686480e-01
<MEAN> 39
 3.816022e+00 5.269258e+00 -4.988564e+00 -1.594202e+01 -9.492281e+00 9.312660e+00 -1.089712e+01 -2.428357e+00 -1.229216e+01 -6.762201e+00 3.628307e+00 1.446390e+00 6.637767e+01 -1.991381e-01 -3.084968e+00 -5.352728e-01 2.317430e-01 9.482722e-01 1.794706e+00 -4.102985e+00 -1.510312e+00 -2.107261e-01 2.891078e+00 2.691927e+00 1.265377e-01 2.803701e+00 -6.752198e-01 -4.698135e-01 5.938755e-01 1.437217e+00 2.888658e-01 -1.393581e+00 -2.600570e-01 3.174570e-01 1.519058e+00 1.041553e+00 -5.053526e-01 -9.805241e-01 -5.636007e-02
<VARIANCE> 39
 6.458666e+00 2.029948e+01 1.537631e+01 3.202966e+01 2.020219e+01 3.336625e+01 3.300752e+01 4.424081e+01 3.028988e+01 2.208739e+01 3.105319e+01 2.257817e+01 1.627877e+01 1.037259e+00 1.461285e+00 1.527616e+00 3.846473e+00 2.465815e+00 3.473569e+00 4.104744e+00 2.762895e+00 3.486840e+00 3.208673e+00 2.732551e+00 2.902213e+00 9.710162e-01 2.603613e-01 3.677642e-01 3.602369e-01 5.137497e-01 5.536557e-01 5.047428e-01 6.346744e-01 6.984078e-01 5.007459e-01 6.074222e-01 6.934735e-01 5.295724e-01 1.695430e-01
<GCONST> 1.135317e+02
<MIXTURE> 2 3.818564e-01
<MEAN> 39
 3.445510e+00 4.048819e+00 -7.450682e+00 -1.204472e+01 -8.772282e+00 -1.122905e+00 -6.658187e+00 -7.502445e+00 -9.221796e+00 -4.381860e+00 -1.379243e+00 -6.131571e-01 6.429807e+01 9.381897e-01 -1.676551e+00 -1.342467e+00 -1.371091e+00 -8.130310e-02 1.355612e-02 -1.528633e+00 -1.721903e-01 7.329062e-03 9.579313e-01 7.329964e-01 -1.596589e-02 2.113991e+00 -6.570760e-01 -5.075759e-01 3.139081e-01 6.986220e-01 4.926639e-01 -2.302626e-01 -2.253287e-01 4.268887e-01 6.754372e-01 3.705949e-01 -1.695724e-01 -2.881372e-01 4.375827e-03
<VARIANCE> 39
 1.952784e+01 2.977122e+01 3.746660e+01 4.709458e+01 3.024825e+01 4.861509e+01 4.625154e+01 4.574730e+01 4.474277e+01 3.209653e+01 4.311576e+01 2.960963e+01 1.875181e+01 2.146927e+00 2.275260e+00 2.584831e+00 4.292299e+00 4.859456e+00 4.459393e+00 4.654865e+00 4.651963e+00 4.891356e+00 4.000297e+00 3.679402e+00 3.427664e+00 1.623847e+00 3.820121e-01 3.980343e-01 4.133929e-01 5.558521e-01 6.228340e-01 7.094229e-01 8.269629e-01 8.750273e-01 8.458412e-01 6.469243e-01 6.968583e-01 5.332550e-01 2.083728e-01
<GCONST> 1.263030e+02
<MIXTURE> 3 4.494959e-01
<MEAN> 39
 3.665975e+00 4.368526e+00 -4.496513e+00 -1.492569e+01 -1.367350e+01 4.693231e+00 -4.253478e+00 3.820071e-01 -4.974854e+00 -7.237450e+00 7.751340e-01 -3.209721e+00 6.642572e+01 -3.663134e-02 -2.102127e+00 -1.306254e+00 -8.860878e-01 6.381416e-01 2.340629e+00 -5.515757e-01 -9.738205e-02 -7.669393e-01 -3.381109e-01 1.205761e+00 7.308010e-01 1.808962e+00 -3.328173e-01 -4.102393e-01 6.815259e-02 7.997921e-01 7.852253e-01 -1.501309e-01 -5.039144e-01 -6.255723e-01 1.027479e-01 7.573898e-01 1.868293e-01 -1.366169e-01 2.979129e-02
<VARIANCE> 39
 8.273738e+00 4.060411e+01 2.778363e+01 3.185153e+01 3.559048e+01 4.872408e+01 4.770170e+01 3.987728e+01 4.580875e+01 2.907731e+01 3.218604e+01 3.154648e+01 2.358244e+01 5.282885e-01 1.619269e+00 1.625744e+00 3.199930e+00 3.544850e+00 3.112646e+00 4.521590e+00 4.593654e+00 3.807674e+00 3.731958e+00 3.239569e+00 3.117777e+00 8.335541e-01 1.470870e-01 3.879488e-01 3.302349e-01 3.822016e-01 5.209519e-01 5.660886e-01 8.127299e-01 6.243635e-01 8.183721e-01 7.763944e-01 6.329411e-01 7.097995e-01 1.981363e-01
<GCONST> 1.185732e+02
<STATE> 4
<NUMMIXES> 3
<MIXTURE> 1 2.457033e-01
<MEAN> 39
 3.002545e+00 1.008762e-01 -6.208187e+00 -1.170205e+01 -7.152263e+00 7.934295e+00 -1.593168e+01 -7.442475e+00 -1.086842e+01 1.263814e+00 8.593693e+00 1.858800e-01 6.943977e+01 -7.186970e-01 -2.967182e+00 3.961388e-01 1.745888e+00 6.259954e-01 -1.214825e+00 -3.691982e+00 -3.293706e-02 2.608958e+00 3.447167e+00 5.973832e-01 -1.887033e+00 2.404076e+00 -5.576826e-01 3.242638e-01 7.690768e-01 8.447652e-01 -2.243745e-01 -1.471274e+00 8.552042e-01 1.138812e+00 1.228684e+00 -4.724512e-01 -1.395244e+00 -6.027831e-01 -5.150293e-01
<VARIANCE> 39
 9.006900e+00 1.921431e+01 2.214729e+01 4.557192e+01 2.517183e+01 5.611532e+01 5.192001e+01 5.053109e+01 3.378872e+01 3.668161e+01 3.746819e+01 2.849688e+01 1.830667e+01 1.169340e+00 1.532218e+00 2.430490e+00 3.433339e+00 2.942944e+00 3.245035e+00 3.783059e+00 3.536012e+00 3.230724e+00 3.604879e+00 3.128062e+00 2.692675e+00 9.248534e-01 2.525679e-01 3.164543e-01 3.910066e-01 6.272262e-01 7.448367e-01 6.947089e-01 8.820370e-01 6.439474e-01 5.880203e-01 7.507240e-01 5.988082e-01 6.628263e-01 1.910632e-01
<GCONST> 1.193854e+02
<MIXTURE> 2 4.329987e-01
<MEAN> 39
 1.922486e+00 -3.805555e+00 -9.234461e+00 -1.164107e+01 -5.049171e+00 -1.038927e+00 -1.228768e+01 -5.508962e+00 -2.418372e+00 1.051889e+00 -3.157937e+00 -5.998681e+00 7.023282e+01 -6.851634e-01 -1.308441e+00 3.734027e-01 9.809446e-01 2.701510e-01 -1.938600e+00 -7.560261e-01 1.636000e+00 2.065264e+00 -3.966996e-02 -2.103655e+00 -6.838198e-01 9.304209e-01 -1.677057e-01 4.685358e-01 5.063933e-01 2.514818e-01 -4.379907e-01 -2.377773e-01 6.669842e-01 4.159453e-01 -3.346505e-01 -8.405877e-01 -9.256223e-02 5.704558e-01 -4.251237e-01
<VARIANCE> 39
 1.579307e+01 3.903045e+01 3.566319e+01 4.924611e+01 3.593465e+01 1.094987e+02 6.233815e+01 5.425716e+01 6.970097e+01 5.442472e+01 4.880999e+01 4.464986e+01 2.406787e+01 5.638277e-01 1.488840e+00 2.023173e+00 2.885990e+00 3.399587e+00 4.851758e+00 4.169680e+00 5.156845e+00 3.562269e+00 4.134667e+00 4.226042e+00 3.365054e+00 6.305623e-01 2.110440e-01 2.589096e-01 3.482664e-01 4.757421e-01 6.207492e-01 7.348456e-01 8.018166e-01 7.104681e-01 9.342110e-01 8.022109e-01 7.578902e-01 6.985077e-01 1.093404e-01
<GCONST> 1.242387e+02
<MIXTURE> 3 3.212985e-01
<MEAN> 39
 1.376746e+00 -3.702819e+00 -5.261846e+00 -8.350461e+00 -7.323698e+00 3.890038e+00 -1.451717e+01 -4.343615e+00 -3.874986e+00 3.684180e+00 6.036592e+00 -5.232180e+00 7.192454e+01 -9.182719e-01 -1.812826e+00 8.030271e-01 1.484145e+00 1.574191e-01 -2.000073e+00 -1.541885e+00 1.141064e+00 2.928026e+00 1.598379e+00 -1.285611e+00 -2.033397e+00 1.404167e+00 -1.979161e-01 6.840847e-01 4.437992e-01 8.138822e-02 -3.296734e-01 -5.920881e-01 8.710517e-01 7.221147e-01 1.954407e-01 -1.010091e+00 -9.822308e-01 1.460200e-01 -5.726547e-01
<VARIANCE> 39
 1.558317e+01 2.681624e+01 4.081536e+01 4.293130e+01 2.539920e+01 7.336966e+01 1.146206e+02 5.976978e+01 3.819125e+01 5.762036e+01 3.950913e+01 4.175582e+01 2.531763e+01 8.337325e-01 1.345387e+00 2.893516e+00 3.061854e+00 4.233243e+00 5.302102e+00 4.064969e+00 6.376119e+00 5.097520e+00 3.866452e+00 4.902618e+00 3.966822e+00 8.508870e-01 1.998288e-01 2.915369e-01 3.521697e-01 4.651490e-01 6.474984e-01 6.835309e-01 1.637023e+00 7.164678e-01 8.124323e-01 1.145803e+00 7.053563e-01 7.904658e-01 1.480879e-01
<GCONST> 1.264562e+02
<TRANSP> 5
 0.000000e+00 1.000000e+00 0.000000e+00 0.000000e+00 0.000000e+00
 0.000000e+00 8.054074e-01 1.945926e-01 0.000000e+00 0.000000e+00
 0.000000e+00 0.000000e+00 5.779338e-01 4.220662e-01 0.000000e+00
 0.000000e+00 0.000000e+00 0.000000e+00 5.319428e-01 4.680573e-01
 0.000000e+00 0.000000e+00 0.000000e+00 0.000000e+00 0.000000e+00
<ENDHMM>
~h "y"
<BEGINHMM>
<NUMSTATES> 5
<STATE> 2
<NUMMIXES> 3
<MIXTURE> 1 3.498040e-01
<MEAN> 39
 -1.751155e+01 3.178577e-01 4.322506e+00 3.404063e-02 -3.264447e+00 7.783655e-01 -1.864317e+00 1.505287e+00 -1.707154e+00 -1.663217e+00 9.521350e-01 -5.347002e-01 5.995337e+01 1.280398e-01 8.358458e-02 8.712651e-01 -1.132899e-01 -7.624773e-01 -1.966589e-01 -3.204879e-01 -4.965411e-01 -5.844151e-01 -2.684394e-01 8.116631e-02 -1.436551e-01 5.287399e-01 5.105805e-01 6.406205e-02 2.215687e-01 -3.909424e-02 -4.029637e-01 -2.348399e-01 -2.844604e-01 -2.416819e-01 -3.674854e-01 -1.284007e-01 8.673369e-02 -1.565375e-01 2.186389e-01
<VARIANCE> 39
 7.127855e+01 5.419540e+01 4.050003e+01 3.193702e+01 3.158333e+01 4.122242e+01 4.081741e+01 3.132299e+01 2.917905e+01 2.439136e+01 2.216624e+01 1.854806e+01 4.381295e+01 4.836317e+00 3.519505e+00 4.200552e+00 2.718973e+00 4.662261e+00 3.266019e+00 3.671272e+00 3.875253e+00 4.158897e+00 2.366235e+00 2.356886e+00 2.168745e+00 3.606982e+00 8.152637e-01 7.330875e-01 5.224948e-01 5.995045e-01 7.600068e-01 6.729571e-01 6.972353e-01 6.204799e-01 7.166482e-01 4.827862e-01 5.229606e-01 4.593218e-01 6.782042e-01
<GCONST> 1.275823e+02
<MIXTURE> 2 2.663805e-01
<MEAN> 39
 -1.066021e+01 5.287370e+00 1.373833e+01 -3.890545e+00 -1.273817e+01 -5.230437e+00 -7.771414e+00 -9.608703e+00 -1.066509e+01 -2.330304e+00 -3.568268e+00 -2.830012e+00 6.458835e+01 3.051320e+00 4.540386e-02 1.575760e+00 -4.489285e-01 -2.805960e+00 -1.253808e+00 -1.590489e+00 -1.716816e+00 -2.320293e+00 -4.426136e-01 -4.831644e-02 -8.463818e-01 1.313948e+00 -2.314853e-01 -5.437549e-01 -7.320309e-01 1.118856e-01 2.844834e-01 -2.212055e-02 2.843034e-01 8.473465e-01 3.543475e-01 8.233358e-02 3.562071e-01 6.817721e-02 6.386147e-02
<VARIANCE> 39
 4.389817e+01 2.539737e+01 3.569598e+01 6.710308e+01 3.450227e+01 4.481047e+01 3.121918e+01 3.898230e+01 3.626131e+01 3.386392e+01 3.910727e+01 2.184076e+01 2.010746e+01 5.396238e+00 3.372034e+00 4.102184e+00 5.691391e+00 4.855997e+00 7.160026e+00 4.246899e+00 4.863052e+00 5.646366e+00 6.045527e+00 4.933764e+00 4.003469e+00 2.157996e+00 7.391310e-01 4.138278e-01 4.524455e-01 5.367734e-01 7.255713e-01 7.171603e-01 7.175552e-01 6.211212e-01 6.862439e-01 6.532108e-01 4.713604e-01 4.037927e-01 2.256217e-01
<GCONST> 1.296864e+02
<MIXTURE> 3 3.838144e-01
<MEAN> 39
 -6.062473e+00 4.281873e+00 1.535436e+01 -1.705872e+00 -1.248626e+01 -1.932732e+00 -9.902590e+00 -3.862981e+00 -1.168656e+01 -4.883308e+00 2.106777e+00 -4.306911e+00 6.553014e+01 -4.850280e-01 2.912274e-01 2.102582e+00 -6.382105e-01 -1.168553e+00 1.033283e+00 1.988333e-01 -6.779997e-01 -8.217509e-01 2.192783e-01 1.742901e-01 -5.551295e-01 2.344811e-01 7.337087e-02 -1.163388e-01 -4.928223e-01 -2.317999e-02 2.171534e-01 -2.579909e-02 -3.411978e-02 -1.567928e-02 3.567998e-01 1.949756e-01 -7.563730e-02 -5.568025e-02 1.318555e-02
<VARIANCE> 39
 2.138499e+01 3.868048e+01 5.322892e+01 6.192842e+01 4.789263e+01 6.919807e+01 4.106109e+01 5.754031e+01 3.630512e+01 3.589777e+01 4.040065e+01 3.423492e+01 3.031914e+01 1.264253e+00 2.411268e+00 4.571727e+00 3.062050e+00 5.717381e+00 2.947651e+00 5.314119e+00 3.932637e+00 5.232293e+00 3.163710e+00 2.755998e+00 2.710916e+00 2.603333e+00 1.673015e-01 3.735492e-01 5.055770e-01 6.868241e-01 8.621830e-01 7.915128e-01 7.530903e-01 6.599103e-01 6.904413e-01 5.233272e-01 4.715858e-01 5.292807e-01 2.753685e-01
<GCONST> 1.269708e+02
<STATE> 3
<NUMMIXES> 3
<MIXTURE> 1 1.878124e-01
<MEAN> 39
 -7.048498e+00 1.464148e-01 1.807602e+01 -1.502979e+00 -1.792410e+01 -1.010065e+00 -1.151616e+01 -1.595340e+00 -1.342898e+01 -6.529373e+00 7.525196e+00 -7.100892e+00 7.029939e+01 1.407837e+00 -1.445747e+00 -5.474249e-01 2.508909e-01 -1.538729e+00 -1.497527e+00 -9.252684e-01 1.378756e+00 -1.686507e-01 -7.153946e-01 1.619221e+00 -4.343894e-01 1.782001e+00 -2.914097e-01 1.741172e-02 -1.182336e+00 7.656236e-02 1.160885e+00 -1.005285e-01 2.998770e-01 3.434439e-01 9.447560e-01 3.148751e-01 -5.433943e-01 4.062742e-01 -4.959889e-01
<VARIANCE> 39
 1.364745e+01 1.825449e+01 4.011330e+01 3.649268e+01 2.399434e+01 4.967978e+01 3.015412e+01 3.754329e+01 3.619778e+01 4.149832e+01 2.924656e+01 3.065988e+01 1.714466e+01 2.495552e+00 1.769685e+00 4.568894e+00 2.969906e+00 3.037879e+00 4.369175e+00 4.359501e+00 3.206771e+00 4.468519e+00 4.593612e+00 2.635028e+00 3.120937e+00 1.415185e+00 4.886508e-01 2.635852e-01 4.557430e-01 4.106559e-01 4.589648e-01 6.980074e-01 8.368756e-01 5.067675e-01 6.807391e-01 6.301759e-01 4.557934e-01 5.150501e-01 1.815531e-01
<GCONST> 1.206236e+02
<MIXTURE> 2 4.193019e-01
<MEAN> 39
 -5.876508e+00 3.217043e+00 1.360968e+01 -7.982157e+00 -1.730047e+01 -7.099705e+00 -6.586107e+00 -1.201044e+01 -1.403500e+01 1.951504e+00 -6.393975e+00 -2.320883e+00 6.694612e+01 3.918086e-01 -1.066631e+00 -5.199256e-01 3.878168e-01 -9.650569e-01 -1.257078e+00 8.341807e-01 5.831102e-01 -6.557091e-01 2.577581e-01 5.327401e-01 -2.205517e-02 6.388895e-01 2.105965e-02 -1.715978e-01 -5.589715e-01 3.714113e-01 4.201297e-01 -4.283014e-01 -3.247832e-03 6.794217e-01 3.014784e-01 -4.409505e-01 2.617562e-01 1.462505e-01 -4.731972e-02
<VARIANCE> 39
 2.244552e+01 2.599005e+01 3.601109e+01 1.033605e+02 3.377049e+01 5.028143e+01 3.434754e+01 3.143480e+01 4.569800e+01 3.913206e+01 4.409745e+01 3.092259e+01 2.042659e+01 7.995960e-01 1.388948e+00 1.715570e+00 2.220619e+00 2.006345e+00 3.285990e+00 2.837057e+00 3.080449e+00 2.295962e+00 2.172229e+00 2.088906e+00 1.508964e+00 5.371236e-01 2.273942e-01 1.904175e-01 3.069387e-01 4.215360e-01 5.149228e-01 5.126978e-01 5.602065e-01 4.873322e-01 5.733800e-01 4.686489e-01 3.499473e-01 3.275532e-01 1.014349e-01
<GCONST> 1.124600e+02
<MIXTURE> 3 3.928849e-01
<MEAN> 39
 -8.250372e+00 3.413357e+00 2.321344e+01 -4.055051e+00 -1.539100e+01 4.091493e+00 -1.339175e+01 -3.384311e+00 -1.308199e+01 -5.985507e+00 6.541107e+00 -9.334646e+00 6.938081e+01 2.314003e-01 -6.533120e-01 -4.110856e-01 2.046894e-01 -6.857399e-01 -4.963039e-01 8.186805e-02 4.041693e-01 -1.556432e-01 -2.030407e-01 6.266432e-01 -4.445664e-02 5.553884e-01 1.119485e-01 -1.060635e-01 -4.496672e-01 1.960087e-01 1.457283e-01 -3.337280e-01 8.325778e-02 1.895328e-01 1.023214e-01 -4.191085e-02 1.310487e-02 2.771923e-01 -2.539246e-02
<VARIANCE> 39
 9.081675e+00 2.097710e+01 2.076317e+01 1.942237e+01 2.937130e+01 2.200824e+01 2.323158e+01 4.001672e+01 2.768775e+01 2.657273e+01 2.876640e+01 1.917114e+01 1.943708e+01 3.343713e-01 7.096651e-01 1.330882e+00 1.095544e+00 1.265680e+00 1.494599e+00 1.126437e+00 1.608562e+00 1.268343e+00 1.107266e+00 1.375670e+00 1.310005e+00 4.729972e-01 5.334361e-02 9.095962e-02 2.281092e-01 1.598125e-01 2.827175e-01 2.128343e-01 2.992144e-01 2.504582e-01 2.642612e-01 2.491384e-01 2.546334e-01 2.374464e-01 8.760462e-02
<GCONST> 9.046098e+01
<STATE> 4
<NUMMIXES> 3
<MIXTURE> 1 1.742154e-01
<MEAN> 39
 -2.252945e+00 -6.060652e+00 1.310888e+01 1.378869e+00 -1.467245e+01 -8.376824e+00 -1.552393e+01 6.529562e+00 -9.887609e+00 -1.175382e+01 1.554735e+01 -1.774148e+00 7.275756e+01 1.213967e+00 -1.142154e+00 -2.643922e+00 6.611419e-01 1.742293e+00 -1.991847e+00 -9.716108e-01 1.496131e+00 2.643883e+00 -7.227151e-01 -5.515929e-01 1.769168e+00 1.476193e-02 -2.342985e-02 2.628881e-01 -1.478983e-01 -1.899482e-01 4.243413e-01 4.390743e-01 -2.277137e-01 -3.819799e-01 5.384251e-01 2.456314e-01 -8.384924e-01 -8.230951e-02 -1.984371e-01
<VARIANCE> 39
 9.094124e+00 1.149234e+01 1.999248e+01 1.271040e+01 2.054382e+01 2.929380e+01 2.133138e+01 2.663338e+01 3.810869e+01 3.862672e+01 1.473030e+01 2.812692e+01 1.008796e+01 2.512807e-01 4.243278e-01 7.793904e-01 6.811035e-01 1.162051e+00 1.530690e+00 2.151827e+00 1.840375e+00 2.854029e+00 1.915941e+00 2.666258e+00 1.433629e+00 2.725793e-01 4.475242e-02 6.783783e-02 1.413958e-01 1.084409e-01 2.535889e-01 2.775075e-01 2.482689e-01 3.713153e-01 4.157598e-01 4.843741e-01 3.188389e-01 2.742525e-01 6.554621e-02
<GCONST> 8.928218e+01
<MIXTURE> 2 4.185072e-01
<MEAN> 39
 -4.517427e+00 -1.701751e+00 8.715899e+00 -3.053414e+00 -1.843432e+01 -1.329502e+01 -5.155667e+00 -3.720371e+00 -1.414698e+01 -2.168098e+00 -7.727607e-01 -2.825208e+00 6.921846e+01 1.001166e+00 -1.006119e+00 -2.409838e+00 8.295200e-01 1.068889e+00 -1.876057e+00 -7.945949e-01 2.205257e+00 1.159311e+00 -1.198277e+00 2.009742e-01 6.130233e-01 4.672578e-01 -1.101029e-01 3.562598e-01 -3.964534e-01 -1.347457e-01 9.857333e-01 6.910735e-01 -5.438951e-01 -2.087082e-01 7.400745e-01 -1.060916e-02 -4.282250e-01 4.843749e-02 -4.201115e-01
<VARIANCE> 39
 2.281024e+01 2.998903e+01 4.410593e+01 8.605560e+01 3.299762e+01 7.706526e+01 4.789698e+01 5.384072e+01 6.368765e+01 5.491768e+01 5.913342e+01 3.492325e+01 2.101803e+01 1.124429e+00 1.324371e+00 2.978634e+00 2.414289e+00 2.959629e+00 3.765378e+00 4.575264e+00 4.070352e+00 3.925350e+00 3.385869e+00 2.650525e+00 1.870919e+00 6.972219e-01 3.112963e-01 2.401173e-01 4.849443e-01 5.594406e-01 6.207834e-01 7.151042e-01 7.636167e-01 8.836759e-01 6.879743e-01 8.520377e-01 4.869627e-01 4.469143e-01 1.800030e-01
<GCONST> 1.236377e+02
<MIXTURE> 3 4.072773e-01
<MEAN> 39
 -3.000158e+00 -3.855640e+00 9.908714e+00 1.524603e+00 -1.656342e+01 -1.221488e+01 -8.186853e+00 1.292065e+00 -1.238459e+01 -5.779494e+00 4.915027e+00 -1.958437e+00 7.072350e+01 7.835189e-01 -5.187178e-01 -2.242280e+00 5.191647e-01 1.558146e+00 -1.222663e+00 -1.368583e+00 1.680706e+00 1.502802e+00 -7.747362e-01 -5.461994e-01 8.774363e-01 6.785444e-02 -1.489788e-02 2.812684e-01 -4.670279e-02 -1.666689e-01 3.312132e-01 5.671149e-01 -3.990719e-01 -4.446032e-01 4.484969e-01 2.365796e-01 -5.283403e-01 -6.881067e-02 -2.093656e-01
<VARIANCE> 39
 1.707961e+01 2.866351e+01 5.304360e+01 5.421749e+01 2.675376e+01 1.082286e+02 4.825163e+01 5.724724e+01 5.053992e+01 5.363006e+01 4.083373e+01 4.617682e+01 1.738783e+01 2.395732e-01 4.736992e-01 8.922938e-01 8.581864e-01 1.249971e+00 1.398347e+00 2.440155e+00 2.084312e+00 2.002037e+00 1.669376e+00 1.787444e+00 9.989709e-01 2.754537e-01 4.717231e-02 7.338613e-02 1.736052e-01 1.526168e-01 2.603741e-01 2.730233e-01 3.224507e-01 3.781972e-01 3.130298e-01 3.647420e-01 2.270119e-01 2.524743e-01 4.385661e-02
<GCONST> 9.807040e+01
<TRANSP> 5
 0.000000e+00 1.000000e+00 0.000000e+00 0.000000e+00 0.000000e+00
 0.000000e+00 7.546588e-01 2.453411e-01 0.000000e+00 0.000000e+00
 0.000000e+00 0.000000e+00 7.386221e-01 2.613779e-01 0.000000e+00
 0.000000e+00 0.000000e+00 0.000000e+00 5.835551e-01 4.164449e-01
 0.000000e+00 0.000000e+00 0.000000e+00 0.000000e+00 0.000000e+00
<ENDHMM>
~h "z"
<BEGINHMM>
<NUMSTATES> 5
<STATE> 2
<NUMMIXES> 3
<MIXTURE> 1 1.620266e-01
<MEAN> 39
 -1.043292e+01 1.167359e+01 1.751293e+00 2.789527e+00 -3.111443e+00 -8.819524e+00 -1.151760e+01 -6.957874e-01 1.164214e+00 -4.842839e+00 -1.607176e+00 4.987397e+00 6.906523e+01 -3.935425e+00 4.007502e+00 -1.792544e+00 1.537628e+00 2.993194e+00 -5.904445e-02 4.098405e+00 -8.697709e-01 5.357518e-01 4.269368e-01 -4.119945e-01 1.269315e+00 -1.427456e+00 -4.996688e-01 -8.422108e-01 -1.280963e-01 -3.657288e-01 -5.805380e-02 9.537566e-01 3.331826e-01 6.984157e-01 -4.824163e-01 1.722066e-01 6.065534e-01 -7.205173e-01 -3.268616e-02
<VARIANCE> 39
 1.702342e+01 3.335861e+01 2.392173e+01 1.869557e+01 2.189311e+01 2.325593e+01 4.395852e+01 1.944991e+01 2.828017e+01 1.919795e+01 1.709981e+01 1.961217e+01 1.313639e+01 1.607156e+00 2.432148e+00 2.066739e+00 2.103696e+00 2.202281e+00 3.756106e+00 2.979188e+00 3.953385e+00 3.253504e+00 2.154523e+00 2.530189e+00 2.506358e+00 6.220599e-01 2.709323e-01 7.070239e-01 2.716351e-01 3.032013e-01 3.462237e-01 3.675364e-01 6.988897e-01 4.463049e-01 3.282775e-01 3.420225e-01 3.302131e-01 3.054654e-01 8.512154e-02
<GCONST> 1.082051e+02
<MIXTURE> 2 3.951951e-01
<MEAN> 39
 -9.333178e+00 9.745215e+00 -1.358042e+00 -1.815260e+00 -5.829161e+00 -1.404243e+01 -1.113081e+01 -6.702403e+00 -4.006999e+00 -6.475078e+00 -6.526627e+00 1.658871e+00 6.607548e+01 -3.761462e+00 2.892229e+00 -2.828058e-01 1.452534e+00 1.898688e+00 1.279874e+00 7.347353e-01 7.819669e-01 -2.069009e-01 -2.288677e-01 9.821103e-01 -1.154178e+00 -1.170800e-01 -4.800280e-01 -3.782666e-01 -9.324223e-02 -6.185098e-02 2.521143e-01 4.690769e-01 6.505913e-01 4.511593e-01 -2.103638e-02 3.329419e-01 2.302588e-01 -9.677754e-02 2.442792e-02
<VARIANCE> 39
 5.389089e+01 4.446323e+01 3.999971e+01 4.781976e+01 3.422289e+01 5.043500e+01 4.016154e+01 3.063537e+01 3.820738e+01 3.138327e+01 3.425128e+01 4.188966e+01 2.234162e+01 3.092159e+00 4.058555e+00 2.557581e+00 4.637926e+00 3.616369e+00 4.570440e+00 4.222180e+00 3.524894e+00 3.101435e+00 2.737752e+00 2.864619e+00 3.707699e+00 8.924067e-01 7.689354e-01 8.102410e-01 4.324694e-01 5.577363e-01 5.009167e-01 6.553760e-01 5.573554e-01 5.337158e-01 5.022495e-01 4.590230e-01 4.982316e-01 6.762597e-01 1.595281e-01
<GCONST> 1.253323e+02
<MIXTURE> 3 4.427783e-01
<MEAN> 39
 -1.637547e+01 1.265516e+01 2.096650e+00 1.416694e+00 6.181962e-01 -6.783627e+00 -6.691035e+00 -2.156583e+00 -3.012446e+00 -2.611351e+00 -1.015260e+00 2.017208e-01 6.462690e+01 -4.901346e+00 1.644969e+00 -9.276847e-01 1.342393e-01 2.905680e+00 1.467327e+00 2.370719e+00 1.840857e+00 2.787817e-02 4.409204e-01 3.195206e-01 -5.932288e-02 -4.281796e-01 4.362502e-01 -1.148142e+00 -3.642488e-01 -3.404601e-01 -5.201218e-01 1.786021e-01 -4.228181e-02 1.604679e-01 1.626395e-01 -9.148408e-03 5.936115e-02 4.803270e-02 5.529409e-02
<VARIANCE> 39
 3.740586e+01 3.943527e+01 4.450851e+01 4.401552e+01 3.491665e+01 5.879945e+01 4.535109e+01 3.985633e+01 3.228127e+01 3.208726e+01 2.120545e+01 2.355680e+01 2.553138e+01 2.445974e+00 3.629445e+00 3.911289e+00 5.251510e+00 3.410488e+00 5.571083e+00 4.166730e+00 3.846988e+00 3.685974e+00 3.046687e+00 2.597852e+00 2.973318e+00 1.822950e+00 6.353214e-01 7.464975e-01 6.019063e-01 6.988006e-01 7.502558e-01 9.302062e-01 7.298514e-01 6.947591e-01 5.702295e-01 5.608795e-01 4.315466e-01 4.993041e-01 2.125446e-01
<GCONST> 1.271911e+02
<STATE> 3
<NUMMIXES> 3
<MIXTURE> 1 1.754507e-01
<MEAN> 39
 -2.548298e+01 1.230086e+01 -9.049248e+00 4.471919e+00 2.495383e+00 -2.928790e+00 1.732375e+00 -6.379554e-02 -1.440372e-01 -2.767473e+00 9.691994e-01 7.597558e-01 6.364216e+01 -1.151262e+00 -9.281052e-01 -8.678793e-01 -3.701711e-01 2.885397e-01 5.555456e-01 8.762119e-01 8.865820e-01 6.781470e-01 6.885816e-01 6.649988e-01 3.451138e-01 -1.282324e-01 7.971222e-01 -3.469781e-01 5.646486e-01 -4.217541e-01 -2.162842e-01 -3.368410e-01 -4.553218e-01 1.072023e-02 -4.416872e-02 1.783286e-02 -2.125147e-01 1.031431e-01 -4.782353e-02
<VARIANCE> 39
 1.560673e+01 1.838705e+01 1.639105e+01 2.009285e+01 2.060613e+01 2.015169e+01 1.687548e+01 1.704549e+01 1.860134e+01 1.679829e+01 1.628206e+01 1.578008e+01 1.645457e+01 2.737579e+00 1.518602e+00 2.161867e+00 1.885869e+00 1.674115e+00 2.433444e+00 2.451417e+00 1.911241e+00 1.890941e+00 1.695749e+00 1.645346e+00 1.632097e+00 7.168577e-01 2.608477e-01 3.900115e-01 2.718923e-01 3.547013e-01 3.234564e-01 3.832420e-01 4.173045e-01 3.428270e-01 3.381376e-01 3.155736e-01 2.949175e-01 3.130612e-01 1.198512e-01
<GCONST> 1.011195e+02
<MIXTURE> 2 4.158561e-01
<MEAN> 39
 -2.520756e+01 1.105106e+01 -1.880215e+00 -9.065251e-01 4.100646e+00 -3.777279e+00 -2.479086e+00 2.482714e+00 -2.958752e+00 -2.633748e+00 -1.188111e+00 2.185720e-01 6.502013e+01 1.823169e-01 -1.318829e+00 -1.536144e-01 -8.458229e-01 -3.330810e-01 -1.191566e-01 -1.630010e-01 4.408275e-01 3.667797e-01 2.181330e-01 -1.998433e-02 1.088255e-01 -1.748672e-01 1.871239e+00 -6.533962e-01 2.794380e-01 -4.810397e-02 -1.036195e+00 -4.294766e-01 -7.628881e-01 -6.424752e-01 1.752732e-01 -7.466653e-03 -1.078835e-01 1.165539e-02 -1.152527e-02
<VARIANCE> 39
 2.925957e+01 2.572446e+01 4.604035e+01 3.563611e+01 3.061897e+01 4.791664e+01 4.989395e+01 3.529414e+01 3.214652e+01 2.658870e+01 2.201900e+01 2.109749e+01 1.657880e+01 7.573358e+00 2.754591e+00 3.818250e+00 3.016369e+00 4.002843e+00 5.426034e+00 5.203529e+00 3.569860e+00 2.841066e+00 2.581923e+00 2.184825e+00 2.065670e+00 1.369471e+00 5.257367e-01 6.255267e-01 6.623121e-01 8.622360e-01 6.392361e-01 9.901844e-01 9.034276e-01 7.105677e-01 6.181794e-01 5.692444e-01 5.216802e-01 5.277557e-01 3.688701e-01
<GCONST> 1.255599e+02
<MIXTURE> 3 4.086916e-01
<MEAN> 39
 -2.527823e+01 1.172625e+01 -6.039104e+00 1.897819e+00 4.404070e+00 -3.194481e+00 8.689035e-01 1.899539e+00 -9.753004e-01 -1.585557e+00 3.838460e-01 2.028289e+00 6.390951e+01 -1.186353e+00 -9.347350e-01 -9.253067e-01 -4.354493e-01 3.838307e-01 4.512103e-01 8.138755e-01 6.572564e-01 2.726746e-01 2.742648e-01 1.516222e-01 2.692291e-02 -4.099457e-01 1.220123e+00 -4.904374e-01 5.771801e-01 -2.135231e-01 -6.218237e-01 -2.929955e-01 -7.420893e-01 -2.270878e-01 -2.051895e-02 -1.252996e-01 -1.427848e-01 -7.008870e-02 -7.744239e-02
<VARIANCE> 39
 1.924645e+01 2.394518e+01 2.552978e+01 3.033940e+01 2.261820e+01 2.789038e+01 2.859187e+01 2.460225e+01 2.135546e+01 2.034277e+01 1.770088e+01 1.818440e+01 1.755529e+01 3.585165e+00 2.067607e+00 3.239494e+00 2.271779e+00 2.237137e+00 2.936033e+00 3.104988e+00 2.368913e+00 2.082950e+00 1.809690e+00 1.718104e+00 1.768805e+00 9.411521e-01 3.323300e-01 5.103296e-01 3.977654e-01 5.756117e-01 4.685552e-01 6.061822e-01 5.798640e-01 4.564021e-01 4.208586e-01 3.729186e-01 3.589977e-01 4.025353e-01 2.399623e-01
<GCONST> 1.113838e+02
<STATE> 4
<NUMMIXES> 3
<MIXTURE> 1 1.605560e-01
<MEAN> 39
 -1.555245e+01 1.401446e+00 -6.811307e-01 -2.601987e+00 -1.035389e+00 -3.788797e+00 -7.427547e+00 3.259812e+00 2.631821e+00 -8.346348e-01 -2.786139e-01 1.096773e+00 6.198437e+01 2.037629e+00 -5.679250e-01 6.021093e-01 1.171265e+00 -1.603664e-01 1.070030e+00 5.581133e-01 -4.503452e-01 4.529405e-01 5.985566e-01 2.520534e-01 -3.475759e-01 -2.346725e+00 -9.429090e-02 5.670180e-01 -1.213055e-01 3.672856e-01 2.462279e-01 1.397346e-01 6.605646e-01 -3.030777e-01 -5.092945e-01 -1.006334e-01 -3.531662e-02 -1.308931e-01 -2.969264e-01
<VARIANCE> 39
 9.324052e+01 3.731514e+01 4.284100e+01 3.995841e+01 6.304140e+01 7.494164e+01 6.842340e+01 4.605516e+01 4.058458e+01 3.304501e+01 3.280686e+01 3.686126e+01 4.372106e+01 4.003795e+00 3.788912e+00 2.886489e+00 2.499401e+00 3.224835e+00 3.881365e+00 4.003905e+00 3.496699e+00 3.259275e+00 2.581205e+00 2.304948e+00 2.343863e+00 2.703380e+00 1.232454e+00 6.564192e-01 5.620814e-01 7.484339e-01 8.890088e-01 1.097244e+00 1.016994e+00 8.189867e-01 7.314194e-01 6.732641e-01 5.661567e-01 6.379783e-01 6.790502e-01
<GCONST> 1.331435e+02
<MIXTURE> 2 3.377016e-01
<MEAN> 39
 -1.527686e+01 5.671153e+00 -1.363152e+00 -1.064353e+00 -1.464557e+00 -5.418483e+00 -4.337543e+00 -1.337490e-01 -1.319927e+00 -2.252322e+00 -1.320975e+00 3.518047e-01 6.246873e+01 3.241679e+00 -1.717050e+00 6.221622e-01 -8.024630e-01 -1.891196e+00 -5.640771e-01 -1.606974e+00 -7.006494e-01 6.026470e-02 -1.035717e-01 -3.274963e-01 -2.452363e-01 5.344819e-01 3.155808e-01 -1.574991e-01 7.081829e-03 -4.286789e-02 -1.795743e-01 1.898029e-01 -1.014873e-01 -9.711798e-03 -3.866050e-02 -5.976383e-03 6.003729e-02 -1.015799e-01 2.363686e-01
<VARIANCE> 39
 6.590689e+01 4.228656e+01 3.695656e+01 3.618734e+01 4.404360e+01 6.894424e+01 5.758829e+01 4.238597e+01 3.520943e+01 2.821736e+01 2.581384e+01 2.490236e+01 5.014928e+01 8.814681e+00 4.344145e+00 4.103207e+00 4.558479e+00 5.332403e+00 5.938116e+00 6.849872e+00 4.922263e+00 4.395919e+00 3.252688e+00 3.098220e+00 3.370250e+00 4.400559e+00 1.071817e+00 6.835942e-01 5.536041e-01 7.529677e-01 8.095141e-01 1.046384e+00 1.010615e+00 8.180972e-01 6.148714e-01 5.501593e-01 5.119068e-01 5.345133e-01 6.666653e-01
<GCONST> 1.356163e+02
<MIXTURE> 3 5.017435e-01
<MEAN> 39
 -1.652906e+01 -2.527222e+00 -1.426613e+00 -6.587199e-01 1.242041e-02 -8.789275e-01 1.523546e-01 4.072771e+00 4.670008e-01 -1.656748e+00 1.074177e+00 5.588677e-01 5.714604e+01 3.644537e-01 -2.567330e-01 1.488477e-01 1.101733e-01 -1.311433e-01 2.006767e-01 2.422437e-02 -6.732262e-02 -2.122360e-02 -2.241707e-02 -4.520071e-02 -1.126967e-01 -2.973705e-01 -6.086890e-03 5.990119e-02 -7.555002e-03 -1.522091e-02 -7.757561e-03 -4.390835e-02 -5.482543e-02 -4.427002e-02 -2.613751e-02 -1.901697e-02 -2.244960e-02 -9.097407e-03 1.079449e-01
<VARIANCE> 39
 2.672879e+01 5.210561e+01 1.806133e+01 1.816574e+01 2.189956e+01 2.594814e+01 2.349014e+01 2.098878e+01 2.071666e+01 1.977106e+01 1.732117e+01 1.641969e+01 4.464547e+01 1.392172e+00 1.700669e+00 1.082661e+00 1.218010e+00 1.286263e+00 1.658985e+00 1.625180e+00 1.657663e+00 1.695389e+00 1.633153e+00 1.502755e+00 1.415695e+00 1.734693e+00 2.185022e-01 2.229138e-01 1.882206e-01 2.314280e-01 2.543148e-01 3.273146e-01 3.302755e-01 3.284054e-01 3.358400e-01 3.264202e-01 3.025379e-01 2.812748e-01 2.773062e-01
<GCONST> 1.011085e+02
<TRANSP> 5
 0.000000e+00 1.000000e+00 0.000000e+00 0.000000e+00 0.000000e+00
 0.000000e+00 6.526875e-01 3.473125e-01 0.000000e+00 0.000000e+00
 0.000000e+00 0.000000e+00 7.456076e-01 2.543924e-01 0.000000e+00
 0.000000e+00 0.000000e+00 0.000000e+00 8.066112e-01 1.933888e-01
 0.000000e+00 0.000000e+00 0.000000e+00 0.000000e+00 0.000000e+00
<ENDHMM>
~h "aa"
<BEGINHMM>
<NUMSTATES> 5
<STATE> 2
<NUMMIXES> 3
<MIXTURE> 1 1.737746e-01
<MEAN> 39
 -7.004478e-01 -4.335581e+00 -6.620385e+00 -5.672388e+00 -6.495175e+00 3.601965e+00 -9.420702e+00 -8.172013e-01 2.476103e+00 1.202960e+00 -8.776166e-01 -7.141655e+00 6.975465e+01 3.172094e+00 -1.899506e+00 -1.185045e+00 -1.456982e+00 -1.397659e+00 1.717552e+00 -1.612877e-01 -6.788360e-01 9.001912e-01 3.829770e-01 1.844730e-02 -2.039512e+00 2.440682e+00 -9.228190e-01 -2.741568e-03 2.175739e-02 2.305292e-01 7.229925e-01 3.060934e-02 8.385865e-01 5.353776e-02 -2.692274e-01 -2.251173e-01 -1.567359e-02 3.567876e-01 -4.222461e-01
<VARIANCE> 39
 2.038998e+01 2.162741e+01 3.484116e+01 3.756440e+01 2.909599e+01 7.299839e+01 7.110896e+01 5.395495e+01 3.412984e+01 2.704699e+01 3.328508e+01 2.897832e+01 2.526410e+01 4.269554e+00 3.459410e+00 3.047566e+00 3.456773e+00 4.009325e+00 5.642790e+00 6.214723e+00 5.167817e+00 5.029230e+00 3.180670e+00 3.447161e+00 3.472464e+00 2.532978e+00 6.031344e-01 7.148334e-01 5.357594e-01 6.701301e-01 6.150486e-01 9.519023e-01 1.135303e+00 7.884679e-01 6.869707e-01 5.526041e-01 5.052120e-01 5.451976e-01 4.767342e-01
<GCONST> 1.300945e+02
<MIXTURE> 2 3.600109e-01
<MEAN> 39
 -4.732598e-01 -5.364550e+00 -9.428869e+00 -1.107502e+01 -2.756993e+00 -5.142854e+00 -5.245053e+00 -3.471730e+00 -4.084978e+00 -5.379482e+00 -7.850326e+00 -3.900387e+00 6.976833e+01 1.572568e+00 -1.227366e+00 -1.778470e+00 -1.363256e+00 2.478126e-01 3.887598e-01 -2.114021e-01 -3.353031e-01 1.631238e-01 -3.023348e-01 -6.815340e-01 -6.161557e-01 1.221006e+00 -6.734900e-01 -1.271041e-02 2.314247e-01 4.576529e-01 2.639154e-01 3.611579e-01 9.425309e-02 7.945953e-02 1.484261e-01 3.095791e-01 3.980591e-01 3.971521e-02 -2.996355e-01
<VARIANCE> 39
 1.879611e+01 3.642849e+01 3.956598e+01 5.007570e+01 5.756356e+01 1.041557e+02 4.957907e+01 6.243514e+01 5.073231e+01 4.789149e+01 5.990074e+01 3.459042e+01 1.691239e+01 3.332079e+00 2.421194e+00 2.450052e+00 3.286242e+00 4.915696e+00 5.231380e+00 3.851260e+00 4.932126e+00 3.633944e+00 3.233127e+00 3.615541e+00 2.546129e+00 1.322987e+00 4.367723e-01 4.942707e-01 4.177754e-01 5.203661e-01 6.141659e-01 8.300013e-01 6.362699e-01 1.030457e+00 6.680340e-01 5.954861e-01 5.746850e-01 4.709412e-01 2.009113e-01
<GCONST> 1.281338e+02
<MIXTURE> 3 4.662144e-01
<MEAN> 39
 2.414058e-01 -7.588684e+00 -7.458154e+00 -8.751813e+00 -6.789172e+00 3.986989e+00 -5.735692e+00 1.841097e+00 1.702696e+00 -2.351737e+00 -1.810427e+00 -7.510585e+00 7.291117e+01 2.469503e-01 -1.514881e+00 -1.370466e+00 -6.495793e-01 9.507598e-01 1.678196e+00 9.983931e-01 -5.518055e-01 5.497758e-01 -2.866394e-02 -4.626562e-01 -1.029587e+00 8.957517e-01 -3.152058e-01 3.553894e-01 3.474463e-01 3.600412e-01 3.536954e-01 -1.028066e-01 1.337706e-01 -5.971146e-01 -5.085686e-01 1.714406e-02 6.813846e-02 2.889708e-01 -5.123628e-01
<VARIANCE> 39
 1.485654e+01 2.100396e+01 4.037402e+01 3.897113e+01 4.340678e+01 8.322658e+01 6.867366e+01 7.857809e+01 4.579095e+01 4.078203e+01 5.797382e+01 3.548001e+01 2.110813e+01 8.105739e-01 1.321378e+00 2.928071e+00 2.283214e+00 2.879124e+00 3.660393e+00 3.845508e+00 5.627736e+00 4.818090e+00 3.003305e+00 3.320303e+00 2.727883e+00 9.986394e-01 3.246242e-01 2.707713e-01 3.014544e-01 3.797055e-01 5.227814e-01 6.400667e-01 7.838043e-01 1.041819e+00 7.733725e-01 5.675779e-01 6.302374e-01 5.449408e-01 2.093424e-01
<GCONST> 1.226982e+02
<STATE> 3
<NUMMIXES> 3
<MIXTURE> 1 1.918868e-01
<MEAN> 39
 1.146297e+00 -1.099478e+01 -9.472499e+00 -7.569911e+00 -3.865375e+00 9.392926e+00 -3.279088e+00 -4.089326e+00 9.744071e-01 8.307572e-02 -1.340898e+00 -9.915308e+00 7.380337e+01 9.854622e-02 -3.008423e-01 -7.262614e-02 2.755928e-01 2.478389e-01 -2.948052e-01 -2.011260e-01 4.723765e-02 3.100469e-01 -6.117535e-02 -1.731069e-01 -2.036469e-01 7.854737e-02 -1.596002e-01 5.812431e-01 2.004402e-01 2.942626e-01 2.183005e-02 -4.937656e-01 -1.987832e-01 3.531182e-01 -6.729270e-02 -2.252209e-01 5.757794e-02 3.899126e-01 -4.496385e-01
<VARIANCE> 39
 1.032506e+01 1.765659e+01 2.337992e+01 2.299251e+01 3.251523e+01 5.999496e+01 6.646590e+01 3.752142e+01 3.976191e+01 2.727390e+01 3.527377e+01 2.479571e+01 1.654284e+01 6.140603e-01 1.145160e+00 1.302265e+00 1.924386e+00 2.220848e+00 4.063843e+00 3.513320e+00 5.141446e+00 3.017566e+00 2.288822e+00 2.415984e+00 1.763125e+00 6.051770e-01 1.888475e-01 2.428465e-01 2.360624e-01 2.527626e-01 3.795436e-01 3.564893e-01 6.310769e-01 5.327396e-01 5.554808e-01 3.968536e-01 3.953806e-01 3.512819e-01 1.496896e-01
<GCONST> 1.092993e+02
<MIXTURE> 2 3.561226e-01
<MEAN> 39
 1.150693e-01 -8.910238e+00 -1.329320e+01 -1.382574e+01 1.076959e+00 -3.979528e-01 -6.049428e+00 -5.558432e+00 -2.636083e+00 -4.963212e+00 -7.593614e+00 -7.052429e+00 7.189226e+01 -2.465036e-03 -8.544225e-02 -1.895207e-01 1.309450e-01 1.991125e-01 -1.858266e-01 -2.086245e-01 1.086039e-01 7.147291e-02 -6.232095e-02 -1.272092e-01 -1.139679e-01 -3.603373e-03 -1.584369e-02 2.456104e-01 2.651462e-01 1.896427e-01 -2.860256e-01 -2.974536e-01 -1.524353e-02 1.771388e-01 -4.905953e-02 1.793023e-02 4.722328e-02 1.652385e-01 -1.650602e-01
<VARIANCE> 39
 1.464259e+01 2.624643e+01 1.846052e+01 5.135478e+01 3.490161e+01 8.488631e+01 5.397341e+01 6.282661e+01 5.169050e+01 5.165030e+01 5.341249e+01 3.219930e+01 1.232923e+01 2.312397e-01 7.913926e-01 7.529219e-01 1.171953e+00 1.613893e+00 2.660729e+00 1.678490e+00 2.696433e+00 1.779906e+00 1.712672e+00 1.789617e+00 1.552012e+00 2.040976e-01 5.802010e-02 1.266666e-01 1.484377e-01 1.946124e-01 2.329325e-01 3.168818e-01 3.023150e-01 3.506110e-01 3.021768e-01 2.914654e-01 2.904678e-01 2.495605e-01 5.027075e-02
<GCONST> 9.879589e+01
<MIXTURE> 3 4.519906e-01
<MEAN> 39
 1.578566e+00 -1.076804e+01 -1.034756e+01 -9.573540e+00 -2.879615e+00 1.182625e+01 -1.331527e+00 -5.238205e+00 -4.684370e-01 -1.847483e+00 7.655527e-02 -8.575806e+00 7.375255e+01 1.842268e-02 -1.264002e-01 -1.454879e-01 1.364981e-01 1.935608e-01 6.562684e-02 -1.677110e-01 -1.655615e-01 9.043768e-02 4.793493e-02 5.116099e-03 -1.395122e-01 -4.337847e-02 -2.327559e-03 1.746101e-01 6.767799e-02 9.757531e-02 -1.295016e-01 -2.963961e-01 -1.808663e-01 3.032895e-01 9.080291e-02 7.654810e-04 -6.307586e-02 -1.534579e-02 -7.324380e-02
<VARIANCE> 39
 8.695295e+00 1.234704e+01 1.522917e+01 2.650252e+01 3.879694e+01 3.977538e+01 4.471742e+01 3.345753e+01 3.487872e+01 2.521703e+01 4.393533e+01 2.602439e+01 1.239193e+01 1.349928e-01 3.773475e-01 3.331679e-01 7.196359e-01 8.305937e-01 1.230917e+00 1.614839e+00 1.745435e+00 1.680181e+00 1.073320e+00 1.369256e+00 1.039155e+00 1.361613e-01 2.668167e-02 6.269766e-02 7.079485e-02 1.110168e-01 1.393443e-01 1.665343e-01 2.061395e-01 2.503997e-01 2.064657e-01 1.834143e-01 2.026986e-01 1.781968e-01 2.525769e-02
<GCONST> 8.070615e+01
<STATE> 4
<NUMMIXES> 3
<MIXTURE> 1 1.823612e-01
<MEAN> 39
 1.193252e+00 -5.078408e+00 -7.549420e+00 -4.491940e+00 -5.229334e+00 4.964099e+00 -6.431828e+00 -4.993095e-01 4.136860e-01 1.010426e+00 -7.797742e-01 -1.042092e+01 6.915496e+01 -1.498353e+00 3.998770e+00 1.754310e+00 2.357030e+00 1.645427e+00 -2.094271e+00 9.116219e-01 6.089866e-01 -9.328490e-01 -1.378016e-01 -4.872624e-01 1.297215e+00 -3.232470e+00 -9.929971e-01 3.566456e-01 2.342139e-01 3.346628e-02 6.657792e-01 1.175405e-01 6.774689e-01 -3.389877e-01 -2.144176e-01 -3.720618e-01 -1.089558e-01 5.769192e-01 -4.510037e-01
<VARIANCE> 39
 1.283924e+01 2.922610e+01 3.428794e+01 3.381890e+01 2.770078e+01 6.264212e+01 7.839453e+01 6.252738e+01 3.475642e+01 2.973131e+01 4.067451e+01 3.409540e+01 2.276439e+01 2.769343e+00 1.936716e+00 2.136325e+00 2.067700e+00 3.534362e+00 3.067530e+00 3.507000e+00 5.300117e+00 3.611223e+00 3.157530e+00 3.182598e+00 2.688321e+00 2.540658e+00 2.823097e-01 6.597245e-01 3.881436e-01 4.575683e-01 4.963374e-01 6.452044e-01 7.634892e-01 9.579985e-01 5.774781e-01 5.109704e-01 5.862586e-01 5.529996e-01 3.373680e-01
<GCONST> 1.236074e+02
<MIXTURE> 2 4.656678e-01
<MEAN> 39
 7.933101e-02 -8.354005e+00 -1.142536e+01 -1.060225e+01 -1.218321e+00 -4.114598e+00 -6.992804e+00 -1.332940e+00 -1.522405e+00 -5.339151e+00 -8.371120e+00 -5.577382e+00 7.148603e+01 8.359374e-02 1.190723e+00 9.001312e-01 7.933093e-01 -1.021031e+00 -1.467182e+00 -4.129429e-01 9.540797e-01 3.335993e-02 -9.532130e-02 -1.475456e-01 7.644681e-01 -8.948984e-01 -1.123545e-01 5.467103e-01 4.540772e-01 3.885711e-01 -1.572963e-01 1.184753e-01 5.014368e-02 -3.337109e-01 -2.590903e-01 1.772489e-01 3.142998e-01 9.413096e-02 -4.795507e-01
<VARIANCE> 39
 1.827411e+01 3.361789e+01 3.017328e+01 4.981815e+01 4.089079e+01 1.086359e+02 5.426060e+01 7.606007e+01 6.862164e+01 5.785769e+01 5.341350e+01 3.351833e+01 1.785003e+01 5.488147e-01 1.825147e+00 1.857270e+00 1.888776e+00 2.539209e+00 3.330947e+00 3.185009e+00 3.588406e+00 2.953771e+00 2.849077e+00 2.640508e+00 2.236895e+00 9.145924e-01 1.716073e-01 2.701038e-01 2.654218e-01 3.997432e-01 4.170430e-01 5.997241e-01 4.775659e-01 6.959971e-01 5.842591e-01 5.311403e-01 4.790526e-01 3.786920e-01 1.923282e-01
<GCONST> 1.181131e+02
<MIXTURE> 3 3.519714e-01
<MEAN> 39
 1.187921e+00 -8.498511e+00 -9.520041e+00 -6.958491e+00 -4.979220e+00 4.928149e+00 -6.101660e+00 -2.366692e+00 2.560468e+00 -1.589592e+00 -2.905149e+00 -9.789847e+00 7.154785e+01 3.008782e-02 1.897593e+00 1.349330e+00 1.644374e+00 -5.078865e-01 -1.624273e+00 -5.168284e-01 6.180370e-01 -6.081187e-01 1.775956e-01 4.334719e-01 4.286828e-01 -1.732824e+00 -3.047056e-01 5.962831e-01 5.435491e-01 4.027089e-01 3.896839e-01 -1.575743e-01 2.509745e-01 -2.878179e-01 -5.702829e-01 -4.679550e-02 4.796467e-02 4.332573e-01 -5.751699e-01
<VARIANCE> 39
 1.227378e+01 2.702324e+01 2.946123e+01 4.163433e+01 3.181265e+01 9.633536e+01 5.499954e+01 6.018783e+01 5.257095e+01 3.141902e+01 5.343535e+01 3.889860e+01 2.263895e+01 8.809647e-01 2.007061e+00 2.999538e+00 2.618276e+00 2.521537e+00 3.288436e+00 4.108284e+00 4.913679e+00 4.185437e+00 3.229848e+00 2.851394e+00 2.599711e+00 1.650407e+00 2.233411e-01 3.584883e-01 3.898130e-01 4.590130e-01 4.714787e-01 6.861489e-01 5.300043e-01 7.108446e-01 6.727858e-01 5.058400e-01 5.546865e-01 4.540999e-01 2.575901e-01
<GCONST> 1.215906e+02
<TRANSP> 5
 0.000000e+00 1.000000e+00 0.000000e+00 0.000000e+00 0.000000e+00
 0.000000e+00 6.606869e-01 3.393131e-01 0.000000e+00 0.000000e+00
 0.000000e+00 0.000000e+00 8.430739e-01 1.569261e-01 0.000000e+00
 0.000000e+00 0.000000e+00 0.000000e+00 5.929505e-01 4.070495e-01
 0.000000e+00 0.000000e+00 0.000000e+00 0.000000e+00 0.000000e+00
<ENDHMM>
~h "ae"
<BEGINHMM>
<NUMSTATES> 5
<STATE> 2
<NUMMIXES> 3
<MIXTURE> 1 2.287611e-01
<MEAN> 39
 -5.584939e+00 -2.520593e+00 8.030695e-01 -2.569267e+00 -1.078863e+01 -3.015915e+00 -5.849656e+00 4.041724e+00 -1.742000e+00 -2.643069e+00 -2.011650e-01 -3.431721e+00 6.699866e+01 2.041421e+00 -1.427275e+00 1.917073e-01 -7.622157e-01 -1.569783e+00 -1.865924e-01 -5.196253e-01 1.113464e+00 3.515918e-01 -6.410639e-01 -2.362025e-01 -1.185797e+00 2.219408e+00 -6.005682e-01 5.120973e-02 -9.430860e-02 -6.339792e-04 6.845279e-01 2.196934e-01 6.606182e-01 -3.103016e-02 1.723914e-02 -8.608999e-02 -7.696760e-02 1.542846e-01 -2.207533e-01
<VARIANCE> 39
 3.225534e+01 3.022744e+01 3.757674e+01 3.527182e+01 5.226656e+01 7.226453e+01 6.607739e+01 5.286476e+01 4.552881e+01 3.257480e+01 2.926574e+01 2.882141e+01 6.018493e+01 4.714846e+00 3.922440e+00 2.825768e+00 3.587432e+00 4.758389e+00 4.211268e+00 4.238221e+00 5.301863e+00 4.474288e+00 3.191918e+00 3.459290e+00 2.830999e+00 4.398524e+00 7.484721e-01 6.662402e-01 4.366847e-01 5.902551e-01 9.280804e-01 9.271149e-01 9.166452e-01 7.032256e-01 7.327297e-01 5.178162e-01 4.985960e-01 5.000518e-01 8.308526e-01
<GCONST> 1.328622e+02
<MIXTURE> 2 3.832076e-01
<MEAN> 39
 -2.885113e+00 -7.983865e+00 -2.162383e+00 -8.291147e+00 -1.037539e+01 -8.023330e+00 5.663056e-01 1.245359e+00 -1.826939e+00 -6.372431e+00 -7.257669e+00 -2.609997e+00 7.284013e+01 2.186490e-01 -1.294996e+00 -5.348890e-01 -7.900397e-01 1.496358e-01 3.269228e-02 1.143016e+00 6.118184e-01 -1.776392e-01 -1.168443e+00 -6.646454e-01 1.614831e-01 1.091980e+00 -3.529406e-01 3.792707e-01 3.821554e-02 4.521831e-01 4.227988e-01 3.516498e-01 -1.733543e-01 -2.521026e-01 -2.081567e-01 1.448850e-01 3.431415e-01 5.669264e-02 -5.622209e-01
<VARIANCE> 39
 1.774767e+01 3.200037e+01 3.450306e+01 5.024690e+01 3.717043e+01 7.359430e+01 4.789597e+01 6.450415e+01 6.497978e+01 5.620122e+01 3.495250e+01 4.190940e+01 1.905062e+01 1.589763e+00 1.500749e+00 2.227987e+00 2.289830e+00 2.846022e+00 3.299789e+00 3.444520e+00 3.478194e+00 2.971761e+00 3.117690e+00 2.743774e+00 2.369490e+00 1.267098e+00 3.686842e-01 3.737092e-01 2.908761e-01 4.026499e-01 4.558268e-01 5.756220e-01 5.391614e-01 7.250854e-01 6.461330e-01 5.787198e-01 4.925723e-01 4.634881e-01 2.917988e-01
<GCONST> 1.213276e+02
<MIXTURE> 3 3.880313e-01
<MEAN> 39
 -4.351093e+00 -5.531635e+00 1.398532e+00 -4.204335e+00 -1.213471e+01 -1.461589e+00 -4.028517e+00 9.030112e+00 -1.483607e+00 -4.947762e+00 1.442564e-01 -5.471737e+00 7.098067e+01 -1.038892e-01 -1.021878e+00 -1.042022e-01 -5.370389e-01 -1.516522e-01 3.122212e-01 1.043827e+00 7.617295e-01 1.603164e-01 -8.135370e-01 -1.207460e-01 -3.394903e-01 1.072487e+00 -1.693263e-01 2.526065e-01 -3.087770e-02 1.787548e-01 5.101589e-01 -2.299526e-02 8.923993e-02 -5.659131e-01 -1.903207e-01 6.581205e-02 -8.446115e-02 1.737521e-01 -3.834096e-01
<VARIANCE> 39
 2.428127e+01 2.556019e+01 4.598282e+01 3.089592e+01 4.430688e+01 5.390409e+01 4.839718e+01 5.286144e+01 4.836535e+01 3.463161e+01 3.290044e+01 2.701187e+01 4.397759e+01 9.374653e-01 1.389601e+00 2.238901e+00 1.688718e+00 2.844248e+00 2.670857e+00 3.075149e+00 3.210328e+00 2.911156e+00 2.234721e+00 2.259283e+00 1.936947e+00 1.102796e+00 2.733214e-01 2.727060e-01 3.134009e-01 3.276473e-01 4.347687e-01 4.011206e-01 5.457189e-01 5.828560e-01 5.268248e-01 4.033369e-01 3.949044e-01 3.512059e-01 2.993773e-01
<GCONST> 1.158530e+02
<STATE> 3
<NUMMIXES> 3
<MIXTURE> 1 2.600230e-01
<MEAN> 39
 -1.461630e+01 -4.593539e+00 5.468340e-01 -3.569545e-01 -1.997345e+00 -7.001126e-01 1.657625e+00 3.546981e+00 -8.058755e-01 -2.130858e+00 1.367569e+00 4.554720e-01 5.676171e+01 5.784927e-02 3.708798e-02 2.085342e-02 5.872639e-02 -3.290336e-02 1.764823e-01 1.253597e-01 -2.709892e-02 -2.277548e-02 -2.034199e-02 -1.489335e-02 -2.799423e-02 -1.156460e-01 2.429863e-02 6.911884e-02 -2.647376e-02 -2.298642e-03 -6.695164e-03 1.013897e-02 3.421126e-02 -1.169002e-02 -2.689989e-02 -3.396244e-02 -3.052811e-02 -3.122850e-02 -2.512051e-02
<VARIANCE> 39
 2.066215e+01 3.321387e+01 1.337644e+01 1.628604e+01 2.272923e+01 2.817878e+01 2.892318e+01 2.142870e+01 2.119238e+01 1.940518e+01 1.786512e+01 1.517564e+01 4.512827e+01 5.528243e-01 1.195285e+00 8.256934e-01 9.592873e-01 1.262590e+00 1.668348e+00 1.573062e+00 1.632725e+00 1.684236e+00 1.647922e+00 1.503997e+00 1.422133e+00 8.472844e-01 1.028929e-01 2.207110e-01 1.552752e-01 1.888588e-01 2.954795e-01 3.204089e-01 3.474786e-01 3.507900e-01 3.572629e-01 3.333380e-01 2.966782e-01 2.929484e-01 1.661874e-01
<GCONST> 9.642974e+01
<MIXTURE> 2 4.558122e-01
<MEAN> 39
 -2.613341e+00 -1.043740e+01 -4.456474e+00 -7.305312e+00 -7.547148e+00 -5.070449e+00 7.792058e-01 3.055169e+00 -2.428933e+00 -9.725129e+00 -7.229080e+00 -3.033307e+00 7.434204e+01 7.817774e-02 -5.809241e-02 -2.745810e-01 9.490368e-02 3.224599e-01 5.640525e-03 -1.714071e-01 -8.962291e-02 1.031272e-01 -1.056413e-01 -2.460833e-01 -5.127289e-02 -7.095728e-02 4.422608e-02 3.303484e-01 1.041676e-01 1.358025e-01 -7.508665e-02 -2.822459e-02 -2.517142e-01 -1.276548e-01 7.891811e-03 3.080895e-01 1.194395e-01 -9.069367e-02 -2.734902e-01
<VARIANCE> 39
 1.449567e+01 2.339642e+01 2.903176e+01 3.956076e+01 3.661864e+01 6.421381e+01 4.542290e+01 6.087649e+01 5.524475e+01 4.269567e+01 3.736456e+01 3.510352e+01 1.413124e+01 3.101158e-01 6.575084e-01 1.025946e+00 9.347093e-01 1.613712e+00 1.545347e+00 1.915144e+00 1.655334e+00 1.733529e+00 1.629729e+00 1.394554e+00 1.230813e+00 2.708588e-01 7.558808e-02 1.397501e-01 1.630998e-01 2.094741e-01 2.657337e-01 2.644740e-01 3.272952e-01 3.675106e-01 2.969747e-01 2.717803e-01 2.734070e-01 2.327702e-01 1.022297e-01
<GCONST> 9.828705e+01
<MIXTURE> 3 2.841637e-01
<MEAN> 39
 -6.666331e+00 -8.781466e+00 1.635695e+00 -5.049788e+00 -9.015625e+00 -2.996376e-01 -4.935657e-01 8.835600e+00 -2.181911e+00 -7.869867e+00 4.246477e-01 -5.623784e+00 7.335847e+01 5.824338e-02 -1.065122e-01 -2.101595e-01 1.070219e-01 2.019451e-01 9.520945e-02 -5.780394e-02 -5.289984e-02 1.654109e-01 -2.107686e-01 -1.552323e-01 -5.229530e-02 -7.296022e-03 8.747244e-02 8.747610e-02 -5.301208e-02 8.425206e-02 4.409136e-02 -5.652479e-02 -1.734944e-01 -1.726555e-02 8.130951e-02 1.404427e-01 -6.497454e-02 3.881518e-02 -1.197669e-01
<VARIANCE> 39
 4.604651e+01 1.568386e+01 3.260213e+01 1.608005e+01 3.582105e+01 3.170966e+01 3.074286e+01 3.313022e+01 2.940025e+01 3.176559e+01 3.355248e+01 2.442922e+01 3.578532e+01 1.507396e-01 2.540956e-01 5.883620e-01 5.169237e-01 7.364117e-01 7.756292e-01 1.044746e+00 9.542284e-01 9.937971e-01 1.005410e+00 8.987094e-01 8.597826e-01 1.766961e-01 2.436729e-02 4.798814e-02 9.219357e-02 9.338350e-02 1.445101e-01 1.351710e-01 1.777283e-01 1.757821e-01 1.807458e-01 1.875766e-01 1.673160e-01 1.666797e-01 2.640652e-02
<GCONST> 7.909506e+01
<STATE> 4
<NUMMIXES> 3
<MIXTURE> 1 1.542840e-01
<MEAN> 39
 -4.315249e-01 -5.802562e+00 -3.877313e+00 -1.543292e+00 -8.500113e+00 -1.648484e+00 -6.170954e+00 6.397129e+00 2.259867e+00 -2.274193e+00 -2.870357e+00 -8.860461e+00 7.044681e+01 -9.237342e-01 3.834505e+00 9.167197e-01 1.953089e+00 1.723718e+00 -3.837998e-01 6.623207e-01 -1.290597e+00 -7.328964e-01 1.014297e+00 3.883437e-01 9.538220e-01 -3.147774e+00 -1.017278e+00 5.168964e-01 2.212676e-01 1.175762e-01 6.920213e-01 9.253763e-02 7.593954e-01 -2.919631e-01 -2.284502e-01 -4.087081e-01 -1.248010e-01 6.843045e-01 -5.051268e-01
<VARIANCE> 39
 1.097557e+01 2.807755e+01 3.408489e+01 3.035073e+01 2.747954e+01 4.672679e+01 7.327111e+01 7.246967e+01 5.035667e+01 4.304844e+01 3.804610e+01 3.066956e+01 1.934796e+01 2.374741e+00 2.142011e+00 2.043667e+00 1.941502e+00 2.456625e+00 2.728849e+00 3.538691e+00 4.769942e+00 3.252783e+00 2.821101e+00 2.711651e+00 2.590657e+00 2.119473e+00 2.959841e-01 5.375685e-01 4.043028e-01 4.338977e-01 4.738569e-01 4.846371e-01 7.654087e-01 8.216639e-01 7.909546e-01 5.252404e-01 6.092417e-01 4.807548e-01 3.272792e-01
<GCONST> 1.217046e+02
<MIXTURE> 2 3.183994e-01
<MEAN> 39
 -7.936040e+00 -1.983235e+00 -5.508524e-01 -2.650959e+00 -6.342104e+00 -2.307742e+00 2.982875e-01 1.193535e+00 -3.063428e+00 -4.207057e+00 -2.273505e+00 -1.744429e+00 6.248626e+01 4.870428e-01 -9.719600e-02 5.712159e-02 -2.817752e-01 -5.897696e-01 -4.037621e-01 -4.130670e-01 3.861419e-02 -1.662202e-01 -2.759306e-01 -1.859171e-01 -2.337118e-01 8.849278e-01 2.077433e-02 -8.740528e-02 -1.912723e-02 -4.646978e-02 -1.308274e-02 -1.194459e-02 -1.101550e-01 7.139749e-02 7.125374e-02 1.370885e-02 -4.852530e-03 -6.255902e-02 1.598416e-01
<VARIANCE> 39
 5.396774e+01 4.927880e+01 4.020600e+01 6.608409e+01 5.262083e+01 8.339585e+01 5.532481e+01 5.438377e+01 4.234443e+01 4.201659e+01 3.463016e+01 2.893164e+01 7.655686e+01 3.605670e+00 4.858702e+00 2.604168e+00 4.434075e+00 4.667036e+00 3.739456e+00 3.528637e+00 3.653350e+00 3.693408e+00 3.280961e+00 2.635763e+00 2.562996e+00 7.258319e+00 5.532222e-01 8.022140e-01 4.456310e-01 8.027515e-01 8.243278e-01 6.881845e-01 6.309696e-01 6.791424e-01 6.707692e-01 6.119431e-01 4.778647e-01 4.470225e-01 9.614481e-01
<GCONST> 1.339605e+02
<MIXTURE> 3 5.273152e-01
<MEAN> 39
 -2.219870e+00 -8.392337e+00 -2.947923e+00 -5.790586e+00 -9.340200e+00 -4.989475e+00 -3.275763e+00 4.955073e+00 -1.612533e-01 -6.965898e+00 -5.529641e+00 -4.722135e+00 7.310698e+01 4.123705e-01 1.314153e+00 4.649863e-01 7.251953e-01 3.243488e-02 -1.328574e-01 -8.979911e-01 -5.791484e-01 -1.975654e-01 1.040866e+00 2.539790e-01 -2.688415e-01 -1.235181e+00 -1.777965e-01 7.403185e-01 3.395291e-01 4.594105e-01 3.072582e-01 1.138967e-01 1.436483e-01 -4.815486e-01 -4.292416e-01 2.106696e-01 1.662875e-01 1.399233e-01 -7.209965e-01
<VARIANCE> 39
 1.485377e+01 2.669837e+01 4.029097e+01 3.609275e+01 3.526569e+01 7.803051e+01 5.876100e+01 6.903355e+01 5.786390e+01 4.546173e+01 5.286652e+01 4.156598e+01 1.959079e+01 6.835849e-01 1.730308e+00 2.060390e+00 1.835877e+00 2.455648e+00 2.537811e+00 3.224344e+00 3.497867e+00 3.204801e+00 2.720872e+00 2.873280e+00 2.252088e+00 1.595407e+00 2.315978e-01 2.627542e-01 3.045094e-01 3.126217e-01 4.397378e-01 5.018322e-01 5.452765e-01 6.537527e-01 6.368504e-01 4.691246e-01 5.270184e-01 4.270624e-01 2.266584e-01
<GCONST> 1.180890e+02
<TRANSP> 5
 0.000000e+00 1.000000e+00 0.000000e+00 0.000000e+00 0.000000e+00
 0.000000e+00 6.454844e-01 3.545156e-01 0.000000e+00 0.000000e+00
 0.000000e+00 0.000000e+00 8.561342e-01 1.438658e-01 0.000000e+00
 0.000000e+00 0.000000e+00 0.000000e+00 7.361061e-01 2.638939e-01
 0.000000e+00 0.000000e+00 0.000000e+00 0.000000e+00 0.000000e+00
<ENDHMM>
~h "ah"
<BEGINHMM>
<NUMSTATES> 5
<STATE> 2
<NUMMIXES> 3
<MIXTURE> 1 2.188088e-01
<MEAN> 39
 -2.750593e+00 -3.552794e+00 4.182432e+00 -4.557996e+00 -1.173836e+01 -2.714869e+00 -1.793417e+01 4.803336e+00 -6.849271e-01 -2.279571e+00 2.901015e+00 -3.829849e+00 7.262373e+01 1.693700e+00 -1.169147e+00 9.462299e-01 -7.032133e-01 -1.234320e+00 4.093547e-01 -1.870493e+00 1.262392e+00 4.375538e-01 8.566374e-02 5.130389e-01 -9.653143e-01 1.550660e+00 -7.662833e-01 8.415585e-01 -2.533993e-01 5.787351e-01 1.096819e+00 2.062420e-01 1.516960e+00 -5.212163e-01 -3.028783e-01 -3.293795e-02 -3.637011e-01 2.959464e-01 -1.189509e+00
<VARIANCE> 39
 1.291758e+01 1.900875e+01 4.954023e+01 2.792122e+01 3.262092e+01 3.542749e+01 3.904638e+01 5.370136e+01 6.011457e+01 3.696473e+01 3.494085e+01 3.087100e+01 1.291116e+01 4.258847e+00 2.063187e+00 3.656117e+00 3.236746e+00 3.554389e+00 3.852948e+00 5.325834e+00 5.277086e+00 4.720091e+00 3.072797e+00 3.621803e+00 3.119045e+00 1.848783e+00 6.850086e-01 4.598431e-01 5.785732e-01 5.214186e-01 5.679843e-01 5.148680e-01 7.174477e-01 8.915431e-01 1.016840e+00 6.389881e-01 6.565709e-01 6.003692e-01 4.118173e-01
<GCONST> 1.263926e+02
<MIXTURE> 2 4.166201e-01
<MEAN> 39
 -6.255858e+00 1.904554e+00 -1.328659e-01 -5.432134e+00 -7.207715e+00 -8.910799e+00 -7.014928e+00 -3.924800e+00 -4.047514e+00 -3.314698e+00 -4.633110e+00 8.765137e-02 6.613040e+01 2.455747e+00 -5.285194e-01 -2.098528e-02 -1.157925e+00 -1.082334e+00 -5.979693e-01 -1.109284e+00 -7.412629e-01 -7.920080e-02 -2.052252e-01 -6.317344e-01 2.239984e-02 9.060413e-01 -4.377806e-01 -6.728826e-02 -8.099837e-02 1.822857e-01 2.469891e-01 5.586741e-01 1.899620e-01 2.509736e-01 1.283375e-01 1.635403e-01 3.596892e-01 -1.060622e-01 -1.815016e-01
<VARIANCE> 39
 7.053155e+01 4.276886e+01 5.817582e+01 6.494138e+01 5.707016e+01 9.107600e+01 5.504118e+01 4.821181e+01 4.814592e+01 3.868235e+01 4.525212e+01 3.451060e+01 3.250672e+01 9.287831e+00 4.599719e+00 4.454293e+00 5.805375e+00 5.867612e+00 6.224514e+00 6.257198e+00 5.947684e+00 4.692533e+00 3.894830e+00 4.534691e+00 3.805880e+00 3.080442e+00 1.125546e+00 6.721733e-01 5.569358e-01 8.436567e-01 9.003517e-01 1.066977e+00 9.394453e-01 8.407794e-01 7.234455e-01 6.569386e-01 6.628027e-01 5.711533e-01 6.675037e-01
<GCONST> 1.404015e+02
<MIXTURE> 3 3.645726e-01
<MEAN> 39
 -2.751638e+00 -3.210114e+00 3.658956e-01 -4.839497e+00 -1.088725e+01 -4.349678e+00 -9.662767e+00 -1.419177e+00 -2.325821e+00 -1.775563e+00 1.304875e-01 -2.887005e+00 6.981046e+01 8.593826e-01 -8.552138e-01 8.618725e-02 -7.023736e-01 -9.109679e-01 1.210674e-01 -4.453384e-01 3.709582e-01 7.098075e-01 4.848897e-02 -1.206899e-02 -3.999192e-01 1.189722e+00 -3.414590e-01 4.533531e-01 3.450230e-02 2.602040e-01 5.774407e-01 1.932579e-01 3.519359e-01 -6.625152e-02 -1.534700e-01 -8.389367e-02 -1.425044e-01 4.920748e-02 -5.917794e-01
<VARIANCE> 39
 4.005514e+01 3.513269e+01 8.726318e+01 6.279876e+01 5.324025e+01 1.012758e+02 5.305576e+01 7.240223e+01 7.191107e+01 4.506474e+01 5.381919e+01 4.388094e+01 2.411255e+01 3.937698e+00 2.854377e+00 4.312545e+00 3.951031e+00 4.842736e+00 4.648047e+00 5.072653e+00 5.830022e+00 5.306035e+00 3.670631e+00 3.910585e+00 3.631981e+00 2.715462e+00 6.568709e-01 4.691825e-01 6.048532e-01 5.623665e-01 7.142684e-01 8.303389e-01 6.956615e-01 9.160019e-01 9.258807e-01 6.407040e-01 6.424069e-01 6.155633e-01 3.505546e-01
<GCONST> 1.360658e+02
<STATE> 3
<NUMMIXES> 3
<MIXTURE> 1 1.478230e-01
<MEAN> 39
 -1.461773e+00 -3.544058e+00 2.125928e+00 -3.575309e+00 -1.068600e+01 -4.542563e+00 -1.653692e+01 2.158396e-01 5.837154e-02 -9.542725e-01 1.122763e+00 -2.829267e+00 7.066882e+01 7.346656e-01 1.569731e+00 4.660120e-01 9.872285e-01 1.004945e+00 3.040270e-01 6.677484e-01 -1.061280e+00 -6.448266e-01 1.664549e-02 -2.538667e-02 3.000561e-01 -1.560859e+00 -1.060861e+00 1.129349e+00 -1.543208e-01 4.999994e-01 1.122996e+00 2.472570e-01 1.523225e+00 -2.138874e-01 -3.392954e-01 -1.632017e-01 -2.416721e-01 2.179917e-01 -1.276086e+00
<VARIANCE> 39
 1.958052e+01 2.953148e+01 4.776080e+01 5.311758e+01 3.562901e+01 7.384307e+01 5.132895e+01 9.363626e+01 5.647958e+01 4.547606e+01 4.373060e+01 3.841910e+01 1.888097e+01 3.837810e+00 2.493702e+00 3.630790e+00 4.339386e+00 3.587291e+00 4.089397e+00 4.106911e+00 4.600358e+00 4.379252e+00 3.233768e+00 3.494213e+00 3.188615e+00 2.639887e+00 7.565015e-01 5.661496e-01 6.347026e-01 8.237887e-01 7.607088e-01 1.037317e+00 8.977261e-01 1.579256e+00 1.189137e+00 8.457660e-01 8.488165e-01 7.360435e-01 4.675552e-01
<GCONST> 1.345078e+02
<MIXTURE> 2 5.617856e-01
<MEAN> 39
 -1.941832e+00 -5.017460e+00 -1.200634e+00 -8.913629e+00 -8.597123e+00 -2.299649e+00 -7.756299e+00 -2.173070e-01 -1.788884e+00 -2.906558e+00 -2.869986e+00 -4.869378e+00 7.221579e+01 5.304997e-02 1.563721e-02 -1.429191e-01 -4.287589e-02 1.690042e-01 3.343793e-02 -8.103617e-02 1.670506e-02 1.283584e-01 -6.063264e-02 -1.307365e-01 -5.992557e-02 -4.110442e-02 -5.662056e-02 3.399415e-01 1.136612e-01 3.452029e-01 6.513631e-02 -8.878684e-02 -8.430907e-02 -1.332971e-01 -1.482501e-01 2.126365e-02 1.048401e-01 1.486941e-01 -3.449441e-01
<VARIANCE> 39
 2.334599e+01 4.024502e+01 1.043561e+02 5.236634e+01 5.869675e+01 1.129148e+02 5.993026e+01 7.562664e+01 6.999955e+01 4.924071e+01 7.674506e+01 5.557181e+01 2.332506e+01 3.954201e-01 1.034447e+00 1.352757e+00 1.415891e+00 1.715990e+00 2.130436e+00 2.040246e+00 2.556582e+00 2.031664e+00 1.938095e+00 2.057716e+00 1.793556e+00 5.621024e-01 1.393346e-01 2.393806e-01 2.804573e-01 2.936017e-01 3.690168e-01 3.796080e-01 3.916775e-01 5.342835e-01 4.362755e-01 3.811586e-01 4.496393e-01 3.589284e-01 1.584978e-01
<GCONST> 1.139169e+02
<MIXTURE> 3 2.903898e-01
<MEAN> 39
 -2.105191e+00 -4.378832e+00 7.538660e-01 -6.586473e+00 -1.097081e+01 -5.047817e+00 -1.080266e+01 2.158182e+00 -1.038863e+00 -2.304791e+00 -1.284939e+00 -3.452872e+00 7.190623e+01 3.559259e-01 4.580611e-01 1.828609e-01 2.361275e-01 1.445665e-01 1.396107e-01 -2.048049e-02 -9.685484e-02 -1.229757e-01 -9.467711e-02 7.604799e-03 2.587345e-01 -4.879928e-01 -4.151919e-01 7.799476e-01 7.981104e-02 5.886833e-01 6.584659e-01 2.147679e-01 4.698079e-01 -5.078237e-01 -3.520532e-01 -2.972013e-02 -2.143931e-03 1.291427e-01 -8.786888e-01
<VARIANCE> 39
 1.967433e+01 3.235864e+01 7.109278e+01 4.728372e+01 4.244485e+01 1.018061e+02 5.507269e+01 8.374932e+01 7.016915e+01 4.584261e+01 7.054142e+01 5.462175e+01 2.385903e+01 1.176197e+00 1.816216e+00 3.056178e+00 2.963439e+00 3.016930e+00 3.510450e+00 3.039921e+00 4.124844e+00 3.815473e+00 3.090813e+00 3.562933e+00 3.031621e+00 1.504451e+00 5.083558e-01 4.085032e-01 5.364389e-01 5.076070e-01 5.975221e-01 8.495737e-01 6.710977e-01 1.050926e+00 9.954776e-01 6.649031e-01 8.781120e-01 7.014344e-01 3.078647e-01
<GCONST> 1.296980e+02
<STATE> 4
<NUMMIXES> 3
<MIXTURE> 1 1.556213e-01
<MEAN> 39
 -2.721524e+00 5.894210e-01 4.647916e+00 -7.372891e-01 -8.185427e+00 -4.913702e+00 -1.636734e+01 2.937276e+00 -8.034988e-01 -2.756624e+00 1.026606e+00 -8.521293e-01 6.837770e+01 -1.497602e+00 3.438344e+00 -1.874742e-01 1.852426e+00 2.835512e+00 -3.330119e-01 2.956928e+00 -1.298362e+00 3.272555e-01 -8.022985e-02 -1.153941e+00 9.944670e-01 -2.891671e+00 -1.039554e+00 3.756674e-01 -3.442680e-01 5.194468e-02 5.144031e-01 2.838046e-01 1.165261e+00 -1.475811e-01 -1.168290e-01 8.376750e-02 3.952955e-02 2.091399e-02 -5.166760e-01
<VARIANCE> 39
 1.746945e+01 2.623582e+01 4.361663e+01 2.405828e+01 3.138198e+01 3.995851e+01 4.009698e+01 5.398251e+01 4.713120e+01 3.575319e+01 2.731447e+01 3.258171e+01 2.114747e+01 3.045677e+00 1.858099e+00 2.660370e+00 2.437827e+00 2.072953e+00 3.154502e+00 3.203755e+00 3.980538e+00 3.952697e+00 2.405195e+00 2.759246e+00 2.881436e+00 3.503334e+00 4.539532e-01 4.638774e-01 4.492728e-01 3.752255e-01 4.849015e-01 5.411270e-01 6.095104e-01 7.320755e-01 5.838094e-01 4.698417e-01 4.589415e-01 4.710061e-01 3.102930e-01
<GCONST> 1.209738e+02
<MIXTURE> 2 4.170835e-01
<MEAN> 39
 -4.470451e+00 2.390856e+00 2.820305e+00 -5.038248e+00 -8.753960e+00 -4.214131e+00 -6.932263e+00 -5.323179e+00 -6.852953e+00 -2.397662e+00 -1.979082e+00 -2.020529e+00 6.491063e+01 -4.793750e-02 1.815636e-01 -1.004970e-01 4.052554e-02 8.142515e-02 1.354506e-01 3.480179e-02 8.407743e-02 1.625204e-02 -1.851157e-02 7.400783e-02 1.228885e-01 -2.118391e-01 -5.923594e-02 -9.167124e-02 -8.124315e-02 8.633131e-02 4.539735e-02 -3.656641e-02 -9.101599e-02 1.349456e-01 1.376514e-01 -7.021964e-03 2.239785e-02 -2.266721e-02 3.746543e-02
<VARIANCE> 39
 5.040433e+01 4.521267e+01 1.010790e+02 9.409656e+01 7.126765e+01 8.994825e+01 6.199917e+01 7.511613e+01 6.892314e+01 5.074360e+01 5.994453e+01 3.647091e+01 4.290970e+01 2.757776e+00 3.561998e+00 4.114381e+00 4.605023e+00 4.834340e+00 4.654359e+00 4.598585e+00 5.031931e+00 4.662696e+00 3.711528e+00 3.410927e+00 2.687435e+00 3.410280e+00 5.183687e-01 7.453755e-01 6.554575e-01 9.117352e-01 9.568989e-01 9.009493e-01 8.813710e-01 1.019666e+00 9.500934e-01 7.104017e-01 6.998026e-01 5.220965e-01 7.118976e-01
<GCONST> 1.397037e+02
<MIXTURE> 3 4.272945e-01
<MEAN> 39
 -5.822372e-01 -1.655188e+00 -1.452293e-01 -4.489048e+00 -8.940982e+00 -6.958411e+00 -1.051354e+01 -2.419039e+00 -1.781643e+00 -2.419020e+00 -2.418018e+00 -1.620993e+00 6.781747e+01 -2.755744e-01 2.479371e+00 6.932146e-01 1.626261e+00 1.342433e+00 6.317659e-01 8.563906e-01 -1.026104e+00 -1.074186e+00 -2.675184e-01 -1.118189e-02 -1.113067e-03 -2.525036e+00 -6.208225e-01 4.405282e-01 1.053417e-01 2.492641e-01 4.121289e-01 2.966323e-01 5.366136e-01 -4.231781e-02 -2.401557e-01 -2.790326e-02 -1.491419e-02 -8.165288e-02 -4.725205e-01
<VARIANCE> 39
 1.970025e+01 3.368540e+01 6.252976e+01 6.590132e+01 4.168461e+01 1.063746e+02 4.897249e+01 8.405867e+01 6.246886e+01 4.942451e+01 6.484282e+01 5.482931e+01 2.475259e+01 1.895006e+00 2.460629e+00 3.432286e+00 3.548434e+00 3.708589e+00 4.183640e+00 4.035094e+00 4.776315e+00 4.919594e+00 3.558353e+00 3.707874e+00 3.473532e+00 2.399573e+00 4.198785e-01 4.801052e-01 5.511345e-01 6.462373e-01 6.392524e-01 8.637686e-01 6.019746e-01 1.168642e+00 9.491443e-01 7.060681e-01 7.327510e-01 6.833349e-01 3.455482e-01
<GCONST> 1.329381e+02
<TRANSP> 5
 0.000000e+00 1.000000e+00 0.000000e+00 0.000000e+00 0.000000e+00
 0.000000e+00 4.700273e-01 5.299726e-01 0.000000e+00 0.000000e+00
 0.000000e+00 0.000000e+00 6.328099e-01 3.671901e-01 0.000000e+00
 0.000000e+00 0.000000e+00 0.000000e+00 4.675669e-01 5.324331e-01
 0.000000e+00 0.000000e+00 0.000000e+00 0.000000e+00 0.000000e+00
<ENDHMM>
~h "ao"
<BEGINHMM>
<NUMSTATES> 5
<STATE> 2
<NUMMIXES> 3
<MIXTURE> 1 1.949438e-01
<MEAN> 39
 9.184819e-01 -4.469928e+00 -5.852299e+00 -5.469106e+00 -7.266682e+00 3.629234e-01 -1.559614e+01 -3.321692e+00 2.019287e+00 2.523129e+00 1.428495e+00 -5.958547e+00 7.071128e+01 2.472660e+00 -9.377520e-01 -1.520521e+00 -1.761932e+00 -3.391024e-01 1.746441e+00 -6.365433e-02 -9.886367e-01 -2.647010e-01 7.209061e-01 1.251763e+00 -8.576629e-01 1.206274e+00 -8.522375e-01 3.612494e-01 2.686346e-01 1.970642e-01 1.916301e-01 2.280096e-01 1.364700e+00 2.221603e-01 -7.412534e-01 -5.743515e-01 1.140282e-01 5.083449e-01 -4.959638e-01
<VARIANCE> 39
 1.901877e+01 2.266564e+01 3.746442e+01 4.252048e+01 2.789921e+01 5.868741e+01 4.799783e+01 5.608863e+01 4.500418e+01 3.049392e+01 4.998015e+01 4.441229e+01 2.099493e+01 5.700816e+00 3.321622e+00 4.026590e+00 3.078458e+00 4.360978e+00 5.367354e+00 9.131206e+00 5.039422e+00 6.882318e+00 4.048848e+00 4.914360e+00 4.274758e+00 2.486367e+00 7.536693e-01 3.327026e-01 5.001916e-01 5.221757e-01 6.162921e-01 7.112948e-01 7.420084e-01 1.147652e+00 8.206150e-01 6.322830e-01 7.878230e-01 7.382669e-01 2.516234e-01
<GCONST> 1.318239e+02
<MIXTURE> 2 3.923317e-01
<MEAN> 39
 2.103697e+00 5.074676e+00 -8.338899e+00 -1.231671e+01 -1.107980e+01 -1.959881e+00 -5.287359e+00 -3.478972e+00 -5.966072e+00 -4.375289e+00 -2.595047e+00 -3.270999e+00 6.340050e+01 3.312751e+00 7.097769e-01 -5.842978e-01 -2.715965e+00 -2.258062e+00 -1.310491e+00 -6.177986e-01 -3.743074e-01 -6.963572e-01 -6.122965e-01 -3.808679e-01 -6.253765e-01 1.675368e+00 -9.646305e-01 -8.043220e-01 -7.455803e-02 6.983641e-01 7.288301e-01 2.129907e-01 1.092801e-01 3.953422e-01 2.377094e-01 4.474645e-01 4.835694e-01 2.407900e-01 3.702663e-02
<VARIANCE> 39
 2.206110e+01 3.453173e+01 2.122462e+01 4.856471e+01 5.730354e+01 5.556582e+01 4.351970e+01 3.167221e+01 4.490932e+01 2.544523e+01 3.112161e+01 2.195616e+01 1.937772e+01 4.438410e+00 4.432088e+00 3.292646e+00 4.344819e+00 5.420012e+00 5.250599e+00 5.193279e+00 3.748123e+00 5.614927e+00 3.377052e+00 3.463874e+00 3.074976e+00 1.709504e+00 4.535815e-01 4.283126e-01 4.340657e-01 6.473354e-01 6.400399e-01 5.528946e-01 5.398945e-01 5.357335e-01 5.946576e-01 4.469937e-01 4.869897e-01 4.117406e-01 1.964882e-01
<GCONST> 1.251328e+02
<MIXTURE> 3 4.127245e-01
<MEAN> 39
 1.381451e-01 -6.626681e-01 -5.915852e+00 -1.098649e+01 -1.018544e+01 2.810070e+00 -6.060770e+00 -3.255120e+00 -2.505440e+00 -2.631628e+00 4.277433e-01 -4.518242e+00 6.831670e+01 5.147014e-01 -6.252463e-01 -8.582045e-01 -1.271055e+00 -3.582430e-01 8.150862e-01 9.141715e-01 3.971753e-01 7.237932e-02 -4.516971e-01 6.952830e-02 -1.074331e-01 6.575122e-01 -2.470728e-01 1.363254e-02 1.156609e-01 3.660605e-01 3.132882e-01 -8.184283e-02 1.505130e-01 2.396626e-02 -1.972085e-01 -1.779703e-01 -1.053774e-01 1.615908e-01 -2.198576e-01
<VARIANCE> 39
 3.077866e+01 5.474192e+01 5.794072e+01 6.866503e+01 7.269707e+01 9.820309e+01 6.768909e+01 5.812274e+01 5.591844e+01 4.368303e+01 6.807334e+01 4.191695e+01 3.331807e+01 1.131898e+00 2.308723e+00 2.664148e+00 2.642326e+00 3.601825e+00 4.097831e+00 4.777963e+00 4.228562e+00 4.206975e+00 3.596361e+00 3.299990e+00 3.037235e+00 1.455902e+00 3.815781e-01 4.123689e-01 4.737733e-01 5.438246e-01 6.900533e-01 7.581144e-01 7.018310e-01 8.206995e-01 8.438699e-01 6.303993e-01 7.369244e-01 6.009417e-01 2.883672e-01
<GCONST> 1.307222e+02
<STATE> 3
<NUMMIXES> 3
<MIXTURE> 1 2.513316e-01
<MEAN> 39
 3.953017e+00 8.415244e-01 -9.393389e+00 -1.267224e+01 -1.326992e+01 -5.954776e-01 -4.703315e+00 2.243083e-01 -5.319064e+00 -5.786606e+00 9.017184e-01 -2.549901e+00 6.782751e+01 4.050463e-01 -1.423609e+00 -1.133732e+00 4.437466e-01 7.519712e-01 -1.776496e-01 4.109535e-01 2.001696e-01 -1.258790e+00 -3.768851e-01 1.400584e+00 1.145305e+00 8.690307e-01 -4.192679e-01 -1.324948e-01 1.039787e-01 5.640762e-01 5.657383e-01 4.037435e-02 -3.111620e-01 -2.175398e-01 1.157373e-01 4.062672e-01 2.672550e-01 2.466663e-02 -1.742135e-01
<VARIANCE> 39
 1.827092e+01 3.402322e+01 2.911327e+01 5.321907e+01 5.837980e+01 7.930120e+01 7.082812e+01 3.930740e+01 7.839935e+01 4.545144e+01 4.942028e+01 3.783376e+01 1.717433e+01 1.211815e+00 1.409454e+00 1.699394e+00 1.860351e+00 2.582456e+00 3.303031e+00 4.056278e+00 2.833312e+00 3.911865e+00 3.213677e+00 3.922215e+00 3.433663e+00 7.351353e-01 4.036470e-01 2.916450e-01 3.121051e-01 3.712609e-01 4.302936e-01 5.149735e-01 8.658562e-01 5.730644e-01 9.053949e-01 6.422487e-01 7.185796e-01 5.797660e-01 1.652426e-01
<GCONST> 1.217576e+02
<MIXTURE> 2 3.530474e-01
<MEAN> 39
 1.069459e+00 -7.488229e+00 -1.183419e+01 -1.549769e+01 -4.081973e+00 6.022688e+00 -1.687039e+00 -6.949085e+00 -3.557638e+00 -4.110185e+00 -2.535858e+00 -6.193802e+00 7.193181e+01 1.960494e-02 -6.410512e-02 -9.255535e-02 3.543516e-02 1.250748e-01 4.420900e-02 -4.315059e-02 5.531383e-02 -7.635933e-02 -1.492756e-01 5.293934e-03 -9.798749e-02 -3.669640e-02 -1.471719e-02 2.150075e-01 9.945852e-02 1.913371e-01 -7.823835e-02 -2.440559e-01 -2.088102e-01 1.701060e-01 6.239443e-02 7.131384e-03 1.869667e-04 5.138122e-02 -1.459550e-01
<VARIANCE> 39
 1.354643e+01 2.814399e+01 1.847957e+01 6.004327e+01 5.210097e+01 9.599482e+01 5.266866e+01 4.615957e+01 5.237921e+01 4.971007e+01 4.865255e+01 2.832619e+01 1.509950e+01 2.448973e-01 7.161630e-01 5.996402e-01 1.099791e+00 1.236784e+00 1.839777e+00 1.937719e+00 1.911054e+00 1.814727e+00 1.605101e+00 1.601230e+00 1.262789e+00 2.851761e-01 5.190003e-02 1.249103e-01 1.156789e-01 1.691086e-01 2.089602e-01 2.498811e-01 2.702170e-01 2.908044e-01 2.609367e-01 2.449392e-01 2.610061e-01 2.085237e-01 5.641944e-02
<GCONST> 9.624185e+01
<MIXTURE> 3 3.956216e-01
<MEAN> 39
 3.601979e+00 -3.014258e+00 -6.986264e+00 -1.380589e+01 -1.190306e+01 9.129711e+00 -2.744606e-01 1.941690e+00 -2.902404e+00 -6.502060e+00 3.035948e+00 -4.517124e+00 7.059333e+01 4.133424e-02 -2.506556e-01 -1.705604e-01 1.121923e-01 5.160825e-02 6.207938e-02 2.729217e-01 6.675632e-02 -1.008577e-01 -5.597791e-02 2.107800e-02 -9.896939e-02 5.554591e-02 -2.907567e-02 2.712273e-02 -2.818166e-02 1.188046e-01 1.134917e-01 -4.582745e-02 -8.926833e-02 -1.312113e-01 -6.430933e-02 8.780858e-02 2.175160e-02 4.755472e-02 -3.820215e-02
<VARIANCE> 39
 7.612455e+00 5.576516e+01 2.943973e+01 2.948082e+01 3.692068e+01 6.846747e+01 7.447826e+01 4.479519e+01 3.361403e+01 3.020308e+01 3.373412e+01 3.076972e+01 1.741501e+01 1.126713e-01 6.491501e-01 5.078363e-01 5.742570e-01 7.385718e-01 9.751402e-01 1.390045e+00 1.241577e+00 1.346926e+00 1.209490e+00 1.168730e+00 1.124797e+00 2.185995e-01 2.197532e-02 1.143363e-01 9.481569e-02 1.073285e-01 1.321916e-01 1.703685e-01 2.376831e-01 2.116288e-01 2.485716e-01 2.207317e-01 2.358172e-01 2.297806e-01 3.272951e-02
<GCONST> 8.618332e+01
<STATE> 4
<NUMMIXES> 3
<MIXTURE> 1 2.554030e-01
<MEAN> 39
 8.661889e-01 -6.066379e+00 -8.478989e+00 -9.536672e+00 -6.966784e+00 2.873451e+00 -6.776816e+00 -2.470213e+00 -2.056053e-01 -2.498714e+00 -1.114455e+00 -5.865038e+00 7.041604e+01 -2.458721e-01 1.640376e+00 9.667213e-01 1.377235e+00 1.638092e-01 -1.081107e+00 -5.440036e-01 2.010137e-01 -8.970986e-02 2.124040e-01 -2.034077e-01 3.550130e-01 -1.110518e+00 -6.491832e-01 6.400964e-01 3.812553e-01 5.112129e-01 4.329672e-01 -2.159122e-02 4.693410e-01 -6.163041e-02 -3.225001e-01 -6.477721e-02 -1.869962e-03 2.327813e-01 -5.792582e-01
<VARIANCE> 39
 2.285839e+01 2.925636e+01 3.777254e+01 6.617480e+01 4.466831e+01 1.499677e+02 9.590882e+01 6.955704e+01 5.750966e+01 5.653866e+01 6.395806e+01 4.319286e+01 2.219593e+01 1.971635e+00 3.171093e+00 2.382387e+00 3.405238e+00 3.534656e+00 3.409535e+00 3.117190e+00 4.172733e+00 3.464320e+00 3.039240e+00 2.998669e+00 2.808081e+00 2.039967e+00 6.033541e-01 3.967068e-01 4.188830e-01 5.051232e-01 5.957990e-01 8.176969e-01 8.438488e-01 8.335037e-01 6.718597e-01 6.324086e-01 6.353940e-01 5.557694e-01 2.853576e-01
<GCONST> 1.297064e+02
<MIXTURE> 2 3.776444e-01
<MEAN> 39
 4.004753e+00 -5.428899e+00 -1.560358e+01 -9.100205e+00 -8.346069e-01 -6.998564e+00 -8.387290e+00 -2.126813e+00 -6.984842e+00 2.640926e+00 -1.162941e+00 -4.620390e+00 6.938483e+01 -2.267045e-01 -4.909290e-01 1.171228e-01 1.492403e+00 9.615102e-01 -1.848715e+00 -2.054797e+00 1.046866e+00 2.117795e+00 4.140792e-01 -1.532875e+00 -3.738627e-01 1.848516e-02 -1.320544e-01 2.386685e-01 5.181069e-01 1.584432e-01 -4.738894e-01 -1.090819e-01 1.483886e-01 3.300458e-01 1.140167e-01 -6.093280e-01 -2.389666e-01 2.839468e-01 -2.101572e-01
<VARIANCE> 39
 1.358696e+01 2.367405e+01 2.041094e+01 4.755801e+01 4.206010e+01 1.023378e+02 5.729211e+01 4.533667e+01 1.172393e+02 4.514889e+01 6.885931e+01 3.740057e+01 1.569254e+01 2.665001e-01 1.353045e+00 1.184377e+00 1.535832e+00 2.262941e+00 2.283191e+00 3.028236e+00 2.811599e+00 3.704252e+00 2.847649e+00 3.087572e+00 2.182461e+00 4.318416e-01 8.854853e-02 1.545113e-01 2.187768e-01 2.819521e-01 3.621952e-01 4.707700e-01 5.584643e-01 5.841471e-01 8.765340e-01 5.902334e-01 7.672890e-01 4.222225e-01 6.769623e-02
<GCONST> 1.120805e+02
<MIXTURE> 3 3.669517e-01
<MEAN> 39
 5.079792e+00 -3.171826e+00 -1.270482e+01 -8.010672e+00 -9.857907e+00 1.059744e+00 -7.031915e+00 -1.332640e+00 -8.858813e+00 -4.335562e+00 1.085223e+01 1.642319e+00 7.009040e+01 -9.946413e-02 -1.274529e+00 -6.793342e-01 1.676835e+00 1.989288e+00 -6.716149e-01 -2.536835e+00 -7.752671e-01 1.461794e+00 1.929898e+00 4.031102e-01 -3.267735e-01 3.853104e-01 -1.124578e-01 1.773468e-01 4.463282e-01 2.049181e-01 5.498854e-02 -4.169210e-01 -6.271830e-01 1.853094e-01 1.088632e+00 1.905884e-01 -1.195536e+00 -6.145401e-01 -1.768613e-01
<VARIANCE> 39
 8.806254e+00 1.923050e+01 2.266854e+01 3.576412e+01 2.918704e+01 5.173834e+01 6.747004e+01 3.263774e+01 6.754868e+01 4.374476e+01 4.812787e+01 3.505084e+01 1.431422e+01 2.203243e-01 9.717212e-01 1.256413e+00 1.335962e+00 1.794376e+00 1.950991e+00 3.506818e+00 2.203856e+00 5.249299e+00 3.050861e+00 5.858677e+00 3.191954e+00 3.057939e-01 4.870518e-02 1.482896e-01 1.836852e-01 2.227194e-01 2.855183e-01 3.668616e-01 6.490196e-01 4.822305e-01 7.445194e-01 7.508684e-01 6.273221e-01 5.266302e-01 6.831966e-02
<GCONST> 1.074816e+02
<TRANSP> 5
 0.000000e+00 1.000000e+00 0.000000e+00 0.000000e+00 0.000000e+00
 0.000000e+00 6.482500e-01 3.517500e-01 0.000000e+00 0.000000e+00
 0.000000e+00 0.000000e+00 8.302383e-01 1.697616e-01 0.000000e+00
 0.000000e+00 0.000000e+00 0.000000e+00 6.711093e-01 3.288908e-01
 0.000000e+00 0.000000e+00 0.000000e+00 0.000000e+00 0.000000e+00
<ENDHMM>
~h "aw"
<BEGINHMM>
<NUMSTATES> 5
<STATE> 2
<NUMMIXES> 3
<MIXTURE> 1 2.151556e-01
<MEAN> 39
 -3.301043e+00 -7.269559e+00 -2.063094e-01 -4.810813e+00 -1.117671e+01 -2.377894e+00 -4.030590e+00 1.028816e+01 4.617953e-01 -6.055752e+00 -2.162135e+00 -6.098890e+00 7.436199e+01 3.092236e-01 -1.526369e+00 -8.893163e-01 -8.407650e-01 5.258586e-01 3.692251e-01 1.138054e+00 1.240464e+00 9.488534e-01 -1.538593e+00 -1.034853e+00 -4.880144e-01 1.638795e+00 -3.179353e-01 3.226303e-01 -6.412540e-02 3.184116e-01 7.908286e-01 1.832231e-01 2.932794e-01 -9.179240e-01 -3.903799e-01 5.203812e-02 -1.344113e-01 2.964518e-01 -6.981463e-01
<VARIANCE> 39
 1.240747e+01 1.761420e+01 3.391526e+01 2.872720e+01 2.663169e+01 5.864391e+01 4.283779e+01 3.407712e+01 4.350081e+01 2.758562e+01 3.266710e+01 1.999513e+01 2.255822e+01 2.045786e+00 1.466262e+00 2.236980e+00 1.944469e+00 3.429191e+00 3.485101e+00 3.828782e+00 4.320238e+00 3.490118e+00 2.483663e+00 2.816143e+00 2.301313e+00 1.559231e+00 4.210097e-01 3.496372e-01 3.063273e-01 4.466029e-01 4.467415e-01 6.468741e-01 7.178391e-01 6.109961e-01 6.609938e-01 5.415115e-01 4.462880e-01 3.647117e-01 2.729695e-01
<GCONST> 1.174896e+02
<MIXTURE> 2 3.533518e-01
<MEAN> 39
 -1.458815e+00 -1.017071e+01 -6.566280e+00 -8.492228e+00 -6.061067e+00 -7.453681e+00 2.157025e-01 2.257890e-01 -2.255162e+00 -7.918219e+00 -1.068657e+01 -2.865096e+00 7.279337e+01 2.104874e-01 -1.001641e+00 -1.162611e+00 -5.000591e-01 1.277495e+00 1.030632e+00 -2.283899e-01 -3.346877e-01 2.785567e-01 -6.156147e-01 -9.087424e-01 -2.544169e-01 5.364132e-01 -1.887783e-01 4.152594e-01 1.005518e-01 2.186255e-01 2.571081e-01 3.574815e-01 -3.885617e-01 -3.991659e-01 -6.640787e-02 3.727691e-01 4.000865e-01 -1.169142e-01 -4.586608e-01
<VARIANCE> 39
 1.437489e+01 2.584683e+01 2.517850e+01 4.008302e+01 4.177616e+01 5.515511e+01 4.010942e+01 4.530462e+01 6.945583e+01 5.843134e+01 2.744238e+01 4.474485e+01 1.462610e+01 9.187716e-01 1.181446e+00 1.848439e+00 1.783794e+00 2.218761e+00 2.401994e+00 5.163185e+00 3.349609e+00 2.723251e+00 3.233980e+00 2.051158e+00 2.035903e+00 6.702625e-01 2.584157e-01 2.615041e-01 2.632399e-01 3.924738e-01 5.046684e-01 5.019760e-01 5.766459e-01 5.892668e-01 5.738224e-01 5.731747e-01 4.287756e-01 4.603876e-01 1.916001e-01
<GCONST> 1.150635e+02
<MIXTURE> 3 4.314927e-01
<MEAN> 39
 -3.196597e+00 -1.095929e+01 -3.728010e+00 -5.512512e+00 -4.792577e+00 -1.580890e+00 -1.803279e+00 7.985652e+00 1.197591e-01 -1.129211e+01 -6.782641e+00 -4.687789e+00 7.611185e+01 2.066202e-01 -4.599856e-01 -8.246068e-01 2.850406e-01 1.238487e+00 6.904075e-01 -7.078157e-01 -8.840364e-01 6.596405e-01 -8.035822e-02 -6.244647e-01 -3.941704e-01 -5.277493e-02 1.232759e-01 1.526200e-01 -5.846892e-02 -4.089430e-02 -4.358067e-02 1.741223e-01 -3.760367e-01 -3.506773e-01 1.397223e-01 5.108249e-01 1.613918e-01 -2.766523e-01 -1.624250e-01
<VARIANCE> 39
 9.741763e+00 1.376843e+01 2.047460e+01 2.293994e+01 2.591090e+01 4.611249e+01 3.632789e+01 3.524482e+01 3.188650e+01 1.693323e+01 2.731312e+01 1.996099e+01 1.073305e+01 2.036558e-01 3.212497e-01 6.872799e-01 7.747612e-01 1.118607e+00 1.247173e+00 2.054875e+00 1.330685e+00 1.541760e+00 1.547027e+00 1.159121e+00 1.259742e+00 1.241668e-01 3.427292e-02 5.867983e-02 9.359848e-02 1.575638e-01 2.054633e-01 2.257014e-01 2.844966e-01 2.483776e-01 2.098298e-01 2.228779e-01 2.545060e-01 1.979658e-01 2.958621e-02
<GCONST> 8.336040e+01
<STATE> 3
<NUMMIXES> 3
<MIXTURE> 1 2.090298e-01
<MEAN> 39
 1.451739e+00 -1.125360e+01 -9.402029e+00 -8.010919e+00 -8.122649e-01 1.032050e+01 -4.045205e+00 -5.571005e+00 1.756028e+00 1.526902e-01 -1.930311e+00 -1.297735e+01 7.373128e+01 8.570620e-01 7.579370e-01 -5.051225e-01 -9.596308e-01 -1.394727e+00 1.492113e+00 1.369974e+00 -9.968053e-01 -2.059112e+00 9.462286e-01 2.522978e+00 1.053598e-01 -7.475693e-01 -3.759170e-02 3.362152e-01 2.151336e-01 2.276180e-01 -4.068394e-01 -6.738763e-01 2.862913e-01 7.676879e-01 -2.192771e-01 -6.421986e-01 -3.056997e-02 6.906728e-01 -1.521197e-01
<VARIANCE> 39
 5.778946e+00 1.138148e+01 1.345477e+01 2.012284e+01 1.589342e+01 3.266606e+01 3.411017e+01 2.246389e+01 3.005910e+01 1.980061e+01 3.539046e+01 1.908836e+01 1.161923e+01 1.937454e-01 5.848241e-01 4.197932e-01 9.315223e-01 1.281750e+00 1.683579e+00 1.784984e+00 2.463141e+00 1.939268e+00 2.529903e+00 1.825165e+00 2.111852e+00 1.480242e-01 4.060395e-02 1.008726e-01 1.015736e-01 1.581332e-01 2.350256e-01 2.631081e-01 4.926175e-01 3.024043e-01 5.334201e-01 3.300764e-01 5.172514e-01 3.230218e-01 4.896495e-02
<GCONST> 8.901904e+01
<MIXTURE> 2 4.371094e-01
<MEAN> 39
 -5.908238e-01 -9.461679e+00 -1.227497e+01 -1.241609e+01 1.693936e+00 -2.117089e+00 -6.782015e+00 -5.145272e+00 -1.518666e+00 -6.685716e+00 -1.058079e+01 -6.583516e+00 7.179575e+01 3.189255e-01 5.564655e-01 -4.854640e-01 -7.901953e-01 3.259676e-01 9.509081e-01 -5.707697e-01 -8.153952e-01 -1.793115e-01 1.032668e+00 6.948974e-01 -8.981963e-01 -3.694428e-01 1.040519e-02 2.091206e-01 2.421218e-01 3.950299e-02 -4.397438e-01 -1.618440e-01 1.924533e-01 1.176216e-01 -1.588710e-01 4.706605e-02 2.052391e-01 1.762997e-01 -1.200274e-01
<VARIANCE> 39
 1.892255e+01 2.235299e+01 1.680659e+01 3.663484e+01 2.968703e+01 4.984585e+01 4.845131e+01 4.339010e+01 5.152470e+01 6.279417e+01 3.517077e+01 3.271644e+01 1.564824e+01 2.230371e-01 7.269507e-01 7.905128e-01 1.080936e+00 1.789097e+00 1.889359e+00 2.271168e+00 1.808665e+00 2.040424e+00 1.754619e+00 1.585322e+00 1.898648e+00 2.158081e-01 4.550937e-02 1.110359e-01 1.404359e-01 2.166211e-01 2.407349e-01 2.713133e-01 4.032089e-01 3.220003e-01 3.792756e-01 3.307914e-01 3.349040e-01 3.264981e-01 4.402799e-02
<GCONST> 9.751403e+01
<MIXTURE> 3 3.538606e-01
<MEAN> 39
 -6.383400e-01 -1.268581e+01 -8.443154e+00 -5.239539e+00 -2.073122e+00 6.898383e+00 -5.214251e+00 -1.488899e+00 5.140335e+00 -4.424645e+00 -8.142961e+00 -1.069613e+01 7.428924e+01 5.398093e-01 2.453378e-01 -7.173915e-01 -6.393111e-01 2.689307e-01 1.637167e+00 -3.385759e-01 -1.836227e+00 -1.942892e-02 1.392561e+00 8.235794e-01 -8.916947e-01 -4.390986e-01 4.012092e-02 2.680166e-01 9.894940e-02 -1.359125e-01 -3.816156e-01 -9.144555e-02 2.947414e-01 7.032752e-02 -4.119979e-01 1.149075e-01 4.882692e-01 1.899646e-01 -1.085085e-01
<VARIANCE> 39
 8.758270e+00 1.211851e+01 1.582653e+01 2.179084e+01 2.970474e+01 5.164429e+01 4.016704e+01 4.988636e+01 2.696621e+01 3.398457e+01 3.236267e+01 1.876594e+01 1.333864e+01 1.947148e-01 4.483049e-01 4.865377e-01 8.660687e-01 1.134225e+00 1.345337e+00 1.463288e+00 1.862567e+00 1.491096e+00 1.972156e+00 1.487667e+00 1.885988e+00 1.185194e-01 3.393458e-02 6.515629e-02 8.156330e-02 1.592619e-01 1.860426e-01 2.343662e-01 3.801616e-01 2.905003e-01 3.810791e-01 2.123197e-01 3.228104e-01 2.198683e-01 2.668988e-02
<GCONST> 8.646680e+01
<STATE> 4
<NUMMIXES> 3
<MIXTURE> 1 1.649316e-01
<MEAN> 39
 2.826581e+00 -7.323176e+00 -9.253095e+00 -8.024873e+00 -7.956591e+00 1.101674e+01 -3.298684e+00 -4.416107e+00 -1.031405e-01 1.892503e+00 4.692994e+00 -1.144999e+01 7.127434e+01 -3.514167e-01 3.122834e+00 7.794234e-01 1.355601e+00 2.618946e-01 -1.608547e+00 -1.008226e-01 -1.568375e-01 -6.095806e-01 3.659951e-01 5.581076e-01 1.553911e+00 -2.104701e+00 -8.056285e-01 7.142870e-01 4.575366e-01 6.728410e-01 1.017619e+00 -7.094867e-01 1.872483e-01 9.616947e-02 1.012928e-01 -3.150747e-01 -1.042542e+00 4.134722e-01 -5.526269e-01
<VARIANCE> 39
 7.989734e+00 2.159443e+01 1.545712e+01 1.801064e+01 2.134559e+01 2.996085e+01 4.125804e+01 3.327613e+01 2.996827e+01 2.814742e+01 3.239939e+01 2.981012e+01 1.274361e+01 2.432025e+00 2.956457e+00 2.099176e+00 2.428616e+00 4.861138e+00 2.504335e+00 3.311232e+00 3.080727e+00 2.679975e+00 2.923763e+00 4.289980e+00 2.483058e+00 1.523264e+00 3.211901e-01 3.821926e-01 3.137746e-01 2.929425e-01 3.926422e-01 3.438411e-01 6.861284e-01 6.422542e-01 6.132807e-01 5.626441e-01 5.005696e-01 5.367911e-01 1.545987e-01
<GCONST> 1.140151e+02
<MIXTURE> 2 4.459097e-01
<MEAN> 39
 1.066068e+00 -3.065229e+00 -1.181203e+01 -1.436245e+01 -2.055976e+00 -3.106655e-01 -7.176100e+00 -5.360084e+00 -3.118651e+00 -2.187257e+00 -5.115151e+00 -6.806750e+00 6.754239e+01 -2.288869e-01 1.565472e+00 1.255516e+00 1.081874e+00 -8.309234e-01 -8.116791e-01 -3.536371e-01 -2.426468e-01 1.217691e-02 3.938888e-01 2.761938e-01 6.786177e-01 -1.286821e+00 -3.483944e-01 1.075265e-01 4.774384e-01 7.053108e-01 -5.604450e-03 -1.369231e-01 1.259427e-01 -3.205435e-02 2.993700e-02 -1.944444e-01 -1.073172e-01 1.457655e-01 -2.145673e-01
<VARIANCE> 39
 1.874599e+01 3.538669e+01 2.455998e+01 4.973907e+01 3.559551e+01 6.537713e+01 5.392120e+01 4.537980e+01 7.753104e+01 5.507283e+01 4.219061e+01 3.467681e+01 2.520259e+01 9.928378e-01 2.096627e+00 2.111582e+00 4.179306e+00 3.098451e+00 3.367616e+00 3.592567e+00 3.211869e+00 3.473709e+00 2.794747e+00 3.198919e+00 2.283102e+00 1.519680e+00 2.225566e-01 3.426156e-01 3.090124e-01 5.082650e-01 5.043498e-01 6.673565e-01 7.195470e-01 5.801629e-01 6.791626e-01 5.286840e-01 5.241460e-01 4.920232e-01 2.348073e-01
<GCONST> 1.218775e+02
<MIXTURE> 3 3.891584e-01
<MEAN> 39
 3.123952e+00 -5.343685e+00 -1.065053e+01 -9.472955e+00 -8.081390e+00 7.569736e+00 4.462701e-01 -4.251429e+00 -2.750863e+00 -8.882539e-01 1.210171e+00 -6.246949e+00 6.820818e+01 -3.632598e-02 1.307423e+00 6.363235e-01 4.961555e-01 -4.072600e-01 -9.783512e-01 -3.771207e-01 2.314425e-01 -1.846918e-01 1.337549e-01 4.490947e-01 7.509648e-01 -1.041729e+00 -2.440924e-01 7.170454e-02 3.731328e-01 3.968772e-01 4.349546e-01 -4.235456e-01 -4.442987e-01 8.477539e-03 2.237705e-01 4.680578e-02 -3.707358e-01 -7.481175e-02 -1.103192e-01
<VARIANCE> 39
 1.151844e+01 4.037967e+01 2.686245e+01 3.106254e+01 3.501716e+01 6.035493e+01 5.503115e+01 4.809744e+01 4.348666e+01 3.844613e+01 4.411386e+01 3.970277e+01 2.819121e+01 6.670340e-01 2.396151e+00 2.087831e+00 2.610018e+00 3.470165e+00 2.648958e+00 4.128809e+00 3.362234e+00 3.393331e+00 3.426015e+00 3.326538e+00 2.886436e+00 1.671391e+00 9.289540e-02 3.539045e-01 2.985346e-01 2.870423e-01 3.938190e-01 4.845435e-01 5.045096e-01 6.296805e-01 6.558787e-01 5.773326e-01 5.306911e-01 5.003069e-01 1.823579e-01
<GCONST> 1.178805e+02
<TRANSP> 5
 0.000000e+00 1.000000e+00 0.000000e+00 0.000000e+00 0.000000e+00
 0.000000e+00 8.265788e-01 1.734212e-01 0.000000e+00 0.000000e+00
 0.000000e+00 0.000000e+00 8.117895e-01 1.882106e-01 0.000000e+00
 0.000000e+00 0.000000e+00 0.000000e+00 7.753018e-01 2.246982e-01
 0.000000e+00 0.000000e+00 0.000000e+00 0.000000e+00 0.000000e+00
<ENDHMM>
~h "ay"
<BEGINHMM>
<NUMSTATES> 5
<STATE> 2
<NUMMIXES> 3
<MIXTURE> 1 2.814351e-01
<MEAN> 39
 5.235566e-01 -7.006937e+00 -8.303736e+00 -9.941882e+00 -6.321305e+00 1.809697e+00 -6.203342e+00 -3.453221e+00 1.540509e+00 1.195017e+00 -3.720023e+00 -7.986735e+00 7.211576e+01 2.196151e+00 -2.454197e+00 -1.112720e+00 -2.233649e+00 -1.857401e-01 1.474027e+00 4.495090e-01 -3.675107e-01 8.584610e-01 1.518051e-01 -1.372739e+00 -1.725945e+00 2.579235e+00 -1.155161e+00 3.559055e-01 4.095297e-01 8.405697e-01 7.712753e-01 7.483630e-02 5.021473e-01 1.371316e-01 -2.606341e-01 -3.823421e-01 -1.641110e-02 4.509934e-01 -7.514082e-01
<VARIANCE> 39
 1.405203e+01 1.991367e+01 2.329998e+01 3.111204e+01 3.091141e+01 9.143492e+01 4.887602e+01 4.753393e+01 3.443776e+01 4.614079e+01 6.327849e+01 2.870511e+01 1.739049e+01 4.703850e+00 2.278919e+00 2.931615e+00 3.514801e+00 3.821255e+00 4.254030e+00 4.003702e+00 4.783832e+00 3.504701e+00 3.384276e+00 3.960810e+00 3.316076e+00 1.970343e+00 5.035048e-01 4.494739e-01 4.124176e-01 5.858238e-01 5.626072e-01 8.376654e-01 7.737499e-01 8.881592e-01 6.333883e-01 6.717574e-01 7.705340e-01 5.147061e-01 3.658547e-01
<GCONST> 1.266799e+02
<MIXTURE> 2 3.520414e-01
<MEAN> 39
 -6.453619e-01 -8.480455e+00 -1.130782e+01 -1.336136e+01 -7.814362e-01 8.056396e-01 -3.276329e+00 -6.271345e+00 -6.555362e-01 -2.151734e+00 -6.937594e+00 -7.418361e+00 7.234206e+01 -2.777632e-01 -1.159322e+00 -1.076021e-01 3.932633e-01 7.150053e-01 -2.103109e-01 -3.799812e-01 3.739462e-01 9.277092e-01 -5.847938e-01 -1.214433e+00 -4.732437e-01 5.484330e-01 -1.586839e-01 3.893884e-01 4.404423e-01 5.070953e-01 -4.759178e-01 -4.604774e-01 -1.315421e-01 3.884641e-01 -1.496614e-01 -2.860031e-01 2.297216e-01 4.630125e-01 -3.331310e-01
<VARIANCE> 39
 1.816870e+01 3.240943e+01 2.423539e+01 4.036745e+01 4.366633e+01 1.040344e+02 6.469675e+01 5.227657e+01 5.200238e+01 7.341622e+01 4.949902e+01 3.828434e+01 1.923987e+01 5.681547e-01 1.180379e+00 1.651742e+00 2.031554e+00 2.612529e+00 3.817189e+00 2.573659e+00 4.119663e+00 2.920035e+00 2.983889e+00 2.902143e+00 2.726890e+00 5.500929e-01 1.754745e-01 2.337303e-01 2.365959e-01 3.452411e-01 4.755995e-01 5.815216e-01 6.049216e-01 7.892968e-01 6.267848e-01 6.090952e-01 5.371194e-01 5.250323e-01 1.204369e-01
<GCONST> 1.172792e+02
<MIXTURE> 3 3.665237e-01
<MEAN> 39
 8.144574e-01 -1.042257e+01 -9.115788e+00 -9.219530e+00 -5.253964e+00 6.716961e+00 -2.637248e+00 -2.152036e+00 7.143238e-01 -5.194959e-01 -3.221405e+00 -8.772964e+00 7.388253e+01 -1.797495e-01 -1.108821e+00 -3.466215e-01 -3.812721e-01 1.144130e+00 1.262610e+00 7.882898e-01 -8.008965e-01 -2.570942e-02 -5.332363e-02 -8.415704e-01 -7.919247e-01 4.688178e-01 -3.128890e-01 4.682124e-01 2.412110e-01 4.494709e-01 1.740083e-01 -4.386872e-01 -3.515937e-01 -5.738514e-02 -7.390930e-02 -1.631024e-01 5.091642e-02 3.726004e-01 -5.125128e-01
<VARIANCE> 39
 1.095979e+01 1.572323e+01 2.476287e+01 2.808649e+01 3.401034e+01 8.048883e+01 5.077225e+01 4.919921e+01 3.718933e+01 4.356543e+01 6.410379e+01 3.158265e+01 1.196011e+01 5.477395e-01 8.989088e-01 1.504923e+00 1.484790e+00 1.652098e+00 2.230823e+00 2.662092e+00 2.942374e+00 2.476308e+00 2.529742e+00 2.555960e+00 2.274844e+00 5.209950e-01 2.706356e-01 2.002301e-01 2.207477e-01 3.347205e-01 3.341804e-01 4.310161e-01 4.798182e-01 7.057383e-01 5.429189e-01 4.021480e-01 5.253087e-01 3.781005e-01 1.817941e-01
<GCONST> 1.096116e+02
<STATE> 3
<NUMMIXES> 3
<MIXTURE> 1 3.006638e-01
<MEAN> 39
 -1.793099e+00 -1.160087e+01 -6.275588e+00 -5.958912e+00 -5.288081e+00 -1.333304e+00 -5.593297e+00 5.256239e+00 3.697170e+00 -7.596722e+00 -9.126843e+00 -6.755298e+00 7.454697e+01 -4.333365e-01 5.340732e-01 1.766177e+00 7.217631e-01 -2.475707e+00 -2.380118e+00 8.769376e-01 2.630713e+00 -1.111766e+00 -1.131011e+00 1.046823e+00 1.289976e+00 -5.783770e-02 5.790241e-02 4.043857e-01 3.708433e-01 -2.040340e-01 -3.525257e-01 1.669630e-01 9.502071e-02 -5.835062e-01 -6.019758e-01 6.678293e-01 8.973383e-01 -6.499673e-02 -2.525333e-01
<VARIANCE> 39
 1.200174e+01 1.813608e+01 2.292614e+01 3.087427e+01 3.359896e+01 6.086255e+01 3.950447e+01 4.970833e+01 3.569141e+01 4.421822e+01 2.982378e+01 3.432892e+01 1.409867e+01 2.757801e-01 7.053425e-01 9.311427e-01 1.344872e+00 1.560779e+00 1.994015e+00 2.857728e+00 2.947221e+00 2.502077e+00 2.362945e+00 2.875832e+00 1.611899e+00 1.982383e-01 5.804224e-02 1.415370e-01 1.608186e-01 2.048654e-01 4.233845e-01 3.619473e-01 4.688143e-01 5.806363e-01 4.930435e-01 4.684103e-01 4.491005e-01 4.457175e-01 6.362113e-02
<GCONST> 1.020954e+02
<MIXTURE> 2 3.976576e-01
<MEAN> 39
 4.032658e-01 -1.071820e+01 -1.037052e+01 -1.075176e+01 1.071531e-01 1.883299e+00 -4.083734e+00 -4.888844e+00 -1.483692e+00 -5.136563e+00 -8.208505e+00 -6.002839e+00 7.270521e+01 -1.232609e-01 -1.485527e-01 2.357379e-01 2.518851e-01 -1.514336e-01 -2.685671e-01 1.232258e-01 2.533107e-01 -6.941064e-02 -4.274142e-01 -5.428128e-02 2.343311e-01 2.085917e-02 -1.073307e-02 1.310965e-01 1.499185e-01 7.530437e-02 -2.959499e-01 -2.556543e-01 4.172399e-02 2.135895e-01 -4.239351e-03 2.269753e-02 7.184601e-02 3.038819e-02 -4.461789e-02
<VARIANCE> 39
 1.465347e+01 1.540968e+01 1.427149e+01 2.597663e+01 2.881598e+01 1.157480e+02 4.255398e+01 3.966821e+01 4.211587e+01 5.140668e+01 6.424863e+01 2.895282e+01 1.164489e+01 1.884506e-01 4.446441e-01 6.028908e-01 7.739327e-01 1.460517e+00 1.606445e+00 1.470671e+00 1.678696e+00 1.419276e+00 1.241776e+00 1.099672e+00 1.167343e+00 1.272984e-01 3.521547e-02 7.710467e-02 9.483321e-02 1.200150e-01 1.855647e-01 2.148037e-01 2.560754e-01 2.356012e-01 2.372100e-01 2.076774e-01 2.223933e-01 1.862754e-01 2.608040e-02
<GCONST> 8.723365e+01
<MIXTURE> 3 3.016775e-01
<MEAN> 39
 4.075052e-01 -1.238622e+01 -9.196111e+00 -6.957772e+00 -1.827832e+00 9.610305e+00 -4.512959e+00 -3.837161e+00 3.139374e+00 -3.601543e-01 -4.588926e+00 -1.182285e+01 7.411616e+01 -2.274888e-01 -1.308633e-01 3.847534e-01 8.295853e-01 -1.923273e-01 -1.323787e+00 -6.427653e-01 1.476139e+00 7.514845e-01 -8.636881e-01 -1.022873e+00 6.385753e-02 5.358305e-02 -3.318138e-02 2.165962e-01 1.944614e-01 9.114179e-02 -4.173987e-01 -4.622383e-01 6.974059e-02 5.581992e-01 -1.493955e-01 -2.415997e-01 1.738024e-01 3.478589e-01 -4.656255e-02
<VARIANCE> 39
 7.997408e+00 1.314596e+01 1.752716e+01 1.747532e+01 2.650094e+01 4.668365e+01 3.870223e+01 3.593183e+01 2.712606e+01 3.134721e+01 4.716248e+01 2.037359e+01 1.214661e+01 2.023295e-01 4.162221e-01 5.021442e-01 8.893530e-01 1.228684e+00 2.100917e+00 1.540399e+00 3.009259e+00 1.539010e+00 1.489583e+00 1.922566e+00 1.354814e+00 1.697825e-01 3.310802e-02 6.738599e-02 8.458828e-02 1.206586e-01 2.078200e-01 2.192283e-01 3.106987e-01 3.546240e-01 3.121653e-01 2.313290e-01 3.817316e-01 2.304868e-01 2.832842e-02
<GCONST> 8.713381e+01
<STATE> 4
<NUMMIXES> 3
<MIXTURE> 1 1.781771e-01
<MEAN> 39
 -1.954953e+00 -7.198803e+00 3.306117e+00 -2.970438e+00 -1.503574e+01 -4.977405e+00 -9.751844e+00 1.060147e+01 -1.576628e+00 -2.166788e+00 2.559302e+00 -6.156932e+00 7.265385e+01 -2.988647e-02 2.635649e+00 1.743105e+00 1.576602e+00 6.133615e-01 -8.675635e-01 -4.114283e-01 -1.946288e+00 -1.677889e+00 7.327285e-01 1.077489e+00 1.281116e+00 -2.391122e+00 -2.716663e-01 6.348889e-01 -5.666579e-01 2.680859e-01 1.322310e+00 5.382870e-01 7.985017e-01 -1.004154e+00 2.330242e-01 -2.094740e-01 -8.552470e-01 -1.255535e-02 -7.955441e-01
<VARIANCE> 39
 1.283608e+01 2.074525e+01 4.570176e+01 2.629527e+01 3.037578e+01 4.637606e+01 3.411154e+01 4.670465e+01 6.342634e+01 3.319013e+01 3.796971e+01 2.463209e+01 1.319013e+01 1.141772e+00 2.032103e+00 3.277104e+00 2.565910e+00 5.349740e+00 3.065917e+00 3.867136e+00 4.737188e+00 4.310713e+00 4.049619e+00 4.679560e+00 2.758035e+00 1.965720e+00 2.828640e-01 2.813935e-01 5.074031e-01 4.968261e-01 5.273257e-01 5.854615e-01 5.204363e-01 9.162584e-01 1.127144e+00 7.617963e-01 7.147902e-01 4.826928e-01 2.076662e-01
<GCONST> 1.222063e+02
<MIXTURE> 2 4.603441e-01
<MEAN> 39
 -2.800337e+00 -7.580423e+00 -4.345261e-01 -1.083339e+01 -1.303316e+01 -9.856598e+00 1.156520e+00 -1.288945e-01 -6.385684e+00 -6.430991e+00 -6.619267e+00 -2.029133e+00 7.178914e+01 -1.470822e-01 1.468993e+00 1.547096e+00 -1.276104e-02 -1.598190e+00 -7.518376e-01 4.194883e-02 -8.349011e-01 -6.582468e-01 1.576971e+00 9.579419e-01 -5.854807e-02 -7.847474e-01 6.863897e-02 2.845708e-01 -2.472807e-01 3.424452e-01 6.230426e-01 2.294707e-01 -6.131951e-01 -3.383574e-01 2.834797e-01 8.952884e-02 -1.461175e-01 -5.799914e-02 -3.149447e-01
<VARIANCE> 39
 2.282888e+01 2.730011e+01 4.759151e+01 3.852891e+01 4.251784e+01 4.959332e+01 4.103241e+01 6.155109e+01 4.024179e+01 6.341874e+01 3.722284e+01 2.699122e+01 1.785853e+01 4.225484e-01 1.146095e+00 1.878081e+00 2.065136e+00 3.233244e+00 2.352337e+00 3.516862e+00 3.245612e+00 2.777862e+00 3.153258e+00 2.358615e+00 1.793252e+00 5.853920e-01 1.143833e-01 2.136886e-01 2.769357e-01 4.298876e-01 4.334489e-01 4.076690e-01 4.845540e-01 7.227253e-01 3.933053e-01 7.844377e-01 3.812726e-01 3.840163e-01 1.277581e-01
<GCONST> 1.131476e+02
<MIXTURE> 3 3.614793e-01
<MEAN> 39
 -2.336181e+00 -6.502172e+00 1.341264e+00 -3.783754e+00 -1.380053e+01 -7.055751e+00 -5.017637e+00 6.433704e+00 -1.255172e+00 -3.550198e+00 -2.095150e-01 -4.951160e+00 7.152277e+01 8.294266e-02 1.464103e+00 1.293533e+00 9.873921e-01 -3.736953e-01 -6.664252e-01 -9.509183e-01 -6.062503e-01 -1.025249e+00 5.631580e-01 1.423285e+00 4.699738e-01 -1.353963e+00 -1.318340e-02 2.582335e-01 -2.373933e-01 1.421102e-01 8.055457e-01 5.325354e-01 -8.271791e-02 -5.680524e-01 6.071005e-03 4.253943e-02 -3.396419e-01 -1.132237e-01 -4.069533e-01
<VARIANCE> 39
 1.593103e+01 3.521134e+01 6.130962e+01 3.544302e+01 3.750349e+01 9.186089e+01 4.774299e+01 8.638797e+01 5.527504e+01 4.476159e+01 5.032444e+01 3.572673e+01 2.794380e+01 7.149134e-01 1.717041e+00 3.044614e+00 2.585065e+00 4.325304e+00 2.912514e+00 3.373284e+00 3.754387e+00 3.958041e+00 3.435170e+00 3.653279e+00 2.341300e+00 1.569837e+00 1.597161e-01 2.494611e-01 3.309792e-01 3.455878e-01 4.592363e-01 6.132960e-01 5.363477e-01 9.308327e-01 6.527696e-01 6.790636e-01 5.544415e-01 4.127358e-01 2.091840e-01
<GCONST> 1.221403e+02
<TRANSP> 5
 0.000000e+00 1.000000e+00 0.000000e+00 0.000000e+00 0.000000e+00
 0.000000e+00 7.085645e-01 2.914355e-01 0.000000e+00 0.000000e+00
 0.000000e+00 0.000000e+00 8.474296e-01 1.525704e-01 0.000000e+00
 0.000000e+00 0.000000e+00 0.000000e+00 7.521998e-01 2.478002e-01
 0.000000e+00 0.000000e+00 0.000000e+00 0.000000e+00 0.000000e+00
<ENDHMM>
~h "ch"
<BEGINHMM>
<NUMSTATES> 5
<STATE> 2
<NUMMIXES> 3
<MIXTURE> 1 2.576350e-01
<MEAN> 39
 -6.913208e+00 7.640591e+00 8.059299e+00 2.601796e+00 -6.355401e+00 -6.466391e+00 -7.157191e+00 -1.214007e+00 -3.318672e+00 -5.446926e+00 -2.387106e+00 -1.040598e+00 5.885418e+01 -1.930764e+00 1.712147e+00 -4.585702e-01 1.052709e+00 2.763949e+00 2.187935e+00 1.993678e+00 -4.725288e-02 1.173247e+00 8.234810e-01 4.950218e-02 -3.865786e-01 -3.829565e+00 -7.337096e-01 -1.339500e+00 -6.960921e-01 -8.842784e-01 -7.517506e-02 5.009233e-01 -1.620707e-01 2.117825e-01 9.572767e-02 4.862776e-01 3.633826e-01 6.000206e-02 9.004347e-01
<VARIANCE> 39
 2.494247e+01 2.882496e+01 2.904603e+01 4.155807e+01 4.603837e+01 3.259806e+01 3.038292e+01 3.560213e+01 3.431662e+01 2.789678e+01 2.803808e+01 2.651417e+01 2.687194e+01 2.939055e+00 3.691779e+00 3.620246e+00 3.502248e+00 3.325653e+00 4.851307e+00 3.676893e+00 3.784583e+00 4.125348e+00 2.701021e+00 3.122478e+00 2.972090e+00 2.593154e+00 5.560036e-01 4.998783e-01 3.817942e-01 5.050662e-01 7.431522e-01 6.829435e-01 7.735794e-01 6.533124e-01 5.661715e-01 5.360512e-01 4.826458e-01 5.792270e-01 7.203544e-01
<GCONST> 1.252652e+02
<MIXTURE> 2 4.400151e-01
<MEAN> 39
 -1.385442e+01 5.214940e-01 3.159953e+00 1.520666e-01 -1.730061e+00 2.038522e+00 -2.296676e+00 -3.840452e-01 -3.333700e-02 -6.505494e-01 7.118572e-01 -5.018148e-01 5.430246e+01 -3.524882e+00 -2.188406e+00 -2.188029e-01 -1.649784e+00 -8.347155e-01 1.561365e+00 -2.927618e-02 2.163928e-01 6.170385e-01 3.881113e-01 1.071955e+00 3.865629e-01 2.512245e+00 -6.131564e-01 1.871187e-01 4.666894e-01 -1.342834e-01 -6.751614e-01 -4.747283e-01 -2.821407e-01 7.136877e-02 -1.929347e-01 -3.063709e-01 4.523568e-02 1.958997e-02 1.261888e+00
<VARIANCE> 39
 1.819655e+01 4.033855e+01 2.247234e+01 2.233795e+01 2.779708e+01 2.590550e+01 3.008309e+01 2.687749e+01 2.332047e+01 1.825933e+01 1.784645e+01 1.434307e+01 2.769300e+01 4.088174e+00 3.172158e+00 3.025170e+00 2.655531e+00 3.292548e+00 3.334646e+00 3.657568e+00 2.970054e+00 3.051973e+00 2.282666e+00 2.405712e+00 1.991901e+00 3.303111e+00 4.717562e-01 7.021677e-01 3.949519e-01 5.035056e-01 6.511912e-01 6.346200e-01 5.887520e-01 5.646084e-01 5.285298e-01 3.988304e-01 3.771261e-01 3.618526e-01 7.084073e-01
<GCONST> 1.182213e+02
<MIXTURE> 3 3.023496e-01
<MEAN> 39
 -1.073453e+01 6.670562e+00 5.174958e+00 2.744373e+00 -1.193878e+00 -1.465435e+00 -3.977416e+00 -9.978637e-01 -2.059932e+00 -2.910733e+00 -1.543462e+00 -1.905824e+00 5.415649e+01 -2.454198e+00 -1.280039e+00 -1.012901e+00 -5.137442e-01 1.199295e+00 2.153462e+00 9.659750e-01 4.270886e-01 8.893560e-01 9.290367e-01 7.123671e-01 1.548786e-01 -9.249625e-01 -6.772146e-01 -1.015074e+00 -8.826598e-02 -8.094751e-01 -8.811572e-01 9.829616e-04 -4.352044e-01 1.135423e-01 -9.790194e-02 6.488070e-02 3.717411e-01 2.462806e-01 1.703441e+00
<VARIANCE> 39
 3.283322e+01 2.460122e+01 3.052849e+01 2.465736e+01 2.614865e+01 2.894339e+01 3.220024e+01 2.983437e+01 2.544058e+01 2.299077e+01 2.378963e+01 1.910533e+01 2.505383e+01 4.892073e+00 3.202959e+00 2.658768e+00 2.811412e+00 3.575062e+00 4.009051e+00 3.307273e+00 3.117046e+00 3.417140e+00 2.801561e+00 2.464194e+00 2.334958e+00 3.913946e+00 7.309121e-01 7.352836e-01 4.859213e-01 5.587639e-01 5.909257e-01 6.693782e-01 7.220464e-01 6.157240e-01 5.853972e-01 4.854238e-01 4.637188e-01 4.390782e-01 7.238495e-01
<GCONST> 1.225001e+02
<STATE> 3
<NUMMIXES> 3
<MIXTURE> 1 2.229126e-01
<MEAN> 39
 -2.532125e+01 5.890725e-01 2.881165e+00 -5.746942e+00 -2.618879e+00 5.264711e+00 -7.460628e+00 2.177476e+00 -1.625802e+00 -9.433483e-01 3.847434e+00 -4.883279e-01 6.530656e+01 -4.351845e+00 -4.488727e-01 4.705749e-01 -9.012472e-01 -1.356308e+00 1.176317e+00 3.865660e-01 6.167982e-01 4.351074e-01 4.249820e-02 9.922104e-01 4.797301e-01 3.038823e+00 9.965157e-01 3.309761e-01 4.193036e-01 8.259941e-01 -4.816360e-01 -7.852251e-01 6.256028e-01 -1.966844e-01 -6.754871e-02 -2.282553e-01 -4.357580e-01 -1.651768e-02 -5.046109e-01
<VARIANCE> 39
 2.559153e+01 4.318941e+01 1.979217e+01 1.698103e+01 2.836611e+01 2.329074e+01 2.039759e+01 2.892787e+01 2.397903e+01 1.809845e+01 1.508593e+01 1.451401e+01 1.732190e+01 2.822882e+00 2.324533e+00 1.789433e+00 2.285268e+00 2.441858e+00 2.416578e+00 3.070696e+00 2.347831e+00 2.352649e+00 2.184030e+00 1.821798e+00 1.697948e+00 2.001682e+00 6.106978e-01 7.112340e-01 3.695552e-01 3.948224e-01 5.389894e-01 6.147122e-01 4.374601e-01 4.932343e-01 4.870448e-01 4.137702e-01 3.726429e-01 3.896020e-01 3.703985e-01
<GCONST> 1.122682e+02
<MIXTURE> 2 4.646648e-01
<MEAN> 39
 -2.998610e+01 -2.859691e+00 7.500974e+00 -1.866333e+00 -9.594650e+00 2.343061e+00 1.868153e-01 5.631367e-01 1.393455e+00 -1.283016e+00 3.268912e+00 4.434628e-01 6.849049e+01 1.124546e+00 -6.352580e-01 -1.480864e-01 9.808121e-01 -9.395412e-01 -1.380697e+00 5.165719e-01 3.775045e-01 -3.207235e-01 -2.130784e-02 -2.721882e-01 -6.133852e-02 -4.706490e-02 1.609932e+00 2.059811e-01 -2.856582e-01 4.153147e-02 2.350016e-01 -4.692443e-01 -6.065801e-01 -2.360022e-01 -4.008013e-01 -2.171940e-01 -2.781543e-01 -1.789305e-01 -5.728933e-01
<VARIANCE> 39
 1.267916e+01 1.795441e+01 1.306345e+01 2.135862e+01 2.191239e+01 2.813341e+01 1.962344e+01 2.281008e+01 2.545146e+01 1.978351e+01 1.919816e+01 1.378431e+01 1.283445e+01 3.261827e+00 1.444446e+00 1.634095e+00 1.623564e+00 2.384561e+00 2.167162e+00 2.077836e+00 2.119391e+00 2.035281e+00 1.810461e+00 1.600194e+00 1.410754e+00 1.042512e+00 5.942100e-01 3.091521e-01 3.538550e-01 3.452588e-01 4.478976e-01 5.412161e-01 4.388804e-01 4.514450e-01 4.883274e-01 4.415421e-01 3.709747e-01 3.157622e-01 2.407219e-01
<GCONST> 1.054915e+02
<MIXTURE> 3 3.124226e-01
<MEAN> 39
 -2.812780e+01 4.349824e-01 5.408393e+00 -3.638672e+00 -5.578850e+00 4.187446e+00 -2.052904e+00 -1.685727e-01 1.273281e+00 -2.283498e+00 2.540645e+00 4.787790e-01 6.625835e+01 -2.237035e+00 -2.536247e-01 6.963582e-01 5.793635e-02 -1.112765e+00 -4.333598e-01 8.481221e-01 2.444471e-01 2.503587e-01 -9.213653e-02 3.030888e-01 1.983257e-01 1.669133e+00 1.282405e+00 1.210993e-01 -1.658508e-01 4.589616e-01 1.071712e-01 -6.382234e-01 -7.693199e-02 1.227917e-01 -2.377394e-01 2.953562e-02 -2.274865e-01 -1.324140e-01 -6.623127e-01
<VARIANCE> 39
 3.945621e+01 3.361662e+01 3.527593e+01 2.588073e+01 3.455372e+01 3.098648e+01 2.283726e+01 3.338256e+01 2.451898e+01 1.674658e+01 1.766793e+01 1.455631e+01 1.969201e+01 4.556509e+00 2.494619e+00 2.500583e+00 1.936954e+00 2.500173e+00 2.081093e+00 2.197681e+00 2.330574e+00 2.047735e+00 1.915616e+00 1.661269e+00 1.533448e+00 2.571431e+00 6.123887e-01 5.048723e-01 4.065147e-01 4.040934e-01 4.475462e-01 5.078785e-01 4.480649e-01 4.648127e-01 3.932588e-01 3.605488e-01 3.386003e-01 3.232692e-01 3.485691e-01
<GCONST> 1.131316e+02
<STATE> 4
<NUMMIXES> 3
<MIXTURE> 1 2.608134e-01
<MEAN> 39
 -1.821371e+01 -1.072839e+00 -7.092906e-01 1.285636e+00 -2.921268e+00 -1.837188e+00 -6.106099e+00 2.922491e+00 2.062175e+00 -6.514113e-01 5.092782e-01 -5.573193e-01 6.334713e+01 2.946011e+00 4.936458e-01 -1.001327e+00 -1.734686e-01 8.431552e-01 2.792170e-01 -5.360601e-01 -9.413608e-01 -1.966749e-01 6.254857e-01 4.707612e-02 -5.423700e-01 -1.207149e+00 2.431663e-01 2.218775e-01 1.902626e-01 -4.387658e-01 -1.652075e-01 4.961577e-01 3.266612e-01 -3.297130e-01 -3.662459e-01 -4.500054e-02 1.990699e-01 -5.172485e-03 1.562931e-02
<VARIANCE> 39
 8.775226e+01 4.706770e+01 4.131717e+01 4.257613e+01 4.187984e+01 4.304511e+01 3.960770e+01 3.907016e+01 3.691291e+01 2.775595e+01 2.562395e+01 2.750702e+01 4.327200e+01 6.790369e+00 3.025210e+00 3.211424e+00 3.857605e+00 4.233677e+00 3.893415e+00 5.039980e+00 4.322546e+00 3.747699e+00 2.378174e+00 3.021219e+00 2.477718e+00 5.092681e+00 1.154914e+00 6.493478e-01 5.543862e-01 8.197426e-01 9.168978e-01 7.584390e-01 7.973898e-01 7.835207e-01 7.915255e-01 6.328494e-01 6.144710e-01 4.933419e-01 8.898469e-01
<GCONST> 1.329143e+02
<MIXTURE> 2 3.922658e-01
<MEAN> 39
 -1.900131e+01 -1.235284e+00 7.577203e+00 -5.853428e-01 -1.126540e+01 -2.989147e+00 -1.726287e+00 -1.495582e+00 -3.817721e+00 -3.827980e+00 2.786308e-01 -8.287575e-01 6.617425e+01 6.206364e+00 7.725904e-01 2.924206e-01 -4.463745e-01 -1.411280e+00 -3.262761e+00 -2.311342e+00 -1.646179e+00 -2.764221e+00 -1.434841e+00 -1.124820e+00 -8.595889e-01 2.213818e-01 3.772972e-01 -1.581440e-01 -1.249094e-01 -5.870323e-01 2.390484e-02 -1.132354e-01 -4.998314e-01 6.484098e-02 5.956512e-03 9.355578e-02 1.112940e-01 -4.297819e-02 4.084421e-01
<VARIANCE> 39
 6.036135e+01 2.443074e+01 1.831662e+01 2.787752e+01 2.450421e+01 4.678529e+01 3.434402e+01 3.110878e+01 3.250877e+01 2.511018e+01 2.289723e+01 1.729191e+01 1.456136e+01 1.708066e+00 1.816766e+00 3.376418e+00 3.105638e+00 3.363756e+00 4.592034e+00 2.953748e+00 3.875591e+00 3.085672e+00 2.792868e+00 3.574209e+00 2.719680e+00 1.009303e+00 1.090009e+00 3.429478e-01 3.975618e-01 3.863030e-01 4.759878e-01 8.189214e-01 5.863478e-01 6.330295e-01 7.436632e-01 5.181217e-01 5.025482e-01 5.205923e-01 1.719241e-01
<GCONST> 1.188407e+02
<MIXTURE> 3 3.469209e-01
<MEAN> 39
 -2.056642e+01 -5.394298e+00 3.451964e+00 3.547157e+00 -1.076566e+01 -4.509562e+00 -2.675411e-01 4.568483e+00 2.765141e-01 -1.989174e+00 2.994706e+00 6.640647e-02 6.486773e+01 4.830134e+00 -8.915170e-02 -1.263195e+00 7.326469e-01 5.907521e-01 -2.103691e+00 -2.198631e+00 3.713891e-04 -1.769511e-01 -8.699403e-01 -6.868526e-01 -3.979999e-01 -2.395978e-01 1.016425e+00 2.037168e-01 -1.020311e-01 -6.121076e-01 4.332993e-01 4.279092e-01 -9.291461e-01 -6.722298e-01 -2.264722e-02 -1.276889e-01 -1.483105e-01 -1.400779e-01 3.133105e-01
<VARIANCE> 39
 3.679844e+01 1.723410e+01 2.011192e+01 2.679438e+01 2.813544e+01 3.156645e+01 2.624873e+01 2.052133e+01 2.503535e+01 1.935137e+01 1.794072e+01 1.722764e+01 1.948532e+01 4.556010e+00 1.845722e+00 2.220238e+00 3.330210e+00 3.745552e+00 3.914083e+00 4.758707e+00 3.247947e+00 3.285262e+00 2.935304e+00 2.496243e+00 2.308126e+00 2.092806e+00 9.065334e-01 3.859847e-01 4.116286e-01 5.504021e-01 8.597974e-01 8.074339e-01 7.443706e-01 6.512748e-01 6.857238e-01 5.799464e-01 5.047115e-01 5.211502e-01 4.955602e-01
<GCONST> 1.201092e+02
<TRANSP> 5
 0.000000e+00 1.000000e+00 0.000000e+00 0.000000e+00 0.000000e+00
 0.000000e+00 7.434231e-01 2.565769e-01 0.000000e+00 0.000000e+00
 0.000000e+00 0.000000e+00 8.071484e-01 1.928516e-01 0.000000e+00
 0.000000e+00 0.000000e+00 0.000000e+00 6.227481e-01 3.772518e-01
 0.000000e+00 0.000000e+00 0.000000e+00 0.000000e+00 0.000000e+00
<ENDHMM>
~h "dh"
<BEGINHMM>
<NUMSTATES> 5
<STATE> 2
<NUMMIXES> 3
<MIXTURE> 1 1.231234e-01
<MEAN> 39
 -1.258104e+01 -2.107306e+00 -2.051719e+00 1.281741e+00 7.458485e-01 1.334070e+00 9.161710e-01 4.095658e+00 1.003231e+00 -3.261735e+00 -6.831243e-01 1.185770e+00 5.276153e+01 1.725077e-01 1.024717e+00 2.939576e-02 3.865973e-01 3.568341e-01 2.806588e-01 1.782520e-01 -3.357149e-01 2.265775e-01 5.693145e-01 8.455512e-02 -8.964219e-02 -8.080949e-01 -1.332158e-01 8.617278e-02 1.833926e-01 -1.220319e-02 -4.969986e-02 -1.058884e-01 -5.201346e-02 -1.154886e-01 -3.485075e-02 1.824442e-01 1.359300e-01 -1.204078e-01 8.155992e-02
<VARIANCE> 39
 6.123341e+00 2.755149e+01 1.196489e+01 9.355009e+00 1.351449e+01 2.192467e+01 2.037011e+01 1.950392e+01 1.795260e+01 1.944026e+01 1.545852e+01 1.588530e+01 1.999260e+01 6.318296e-01 2.444707e+00 1.259151e+00 1.303970e+00 1.291249e+00 1.713983e+00 1.821233e+00 2.190591e+00 1.831500e+00 1.924240e+00 1.723361e+00 1.657687e+00 1.119026e+00 8.119161e-02 2.614807e-01 1.947874e-01 1.864928e-01 2.093584e-01 2.764404e-01 3.163000e-01 3.555870e-01 3.395452e-01 3.572984e-01 2.889090e-01 3.007006e-01 9.946562e-02
<GCONST> 9.402128e+01
<MIXTURE> 2 3.623687e-01
<MEAN> 39
 -1.111772e+01 4.085068e+00 2.826254e-01 2.186214e+00 -9.707921e-01 -1.091503e+00 -1.850868e+00 -6.024494e-01 -1.202033e+00 -1.509832e+00 -1.218547e+00 -1.342866e+00 5.561549e+01 -4.580697e-01 -1.576388e-01 -9.626734e-02 1.655823e-01 2.986616e-01 1.958135e-01 2.916394e-01 1.469211e-01 -1.941621e-02 -1.500717e-01 6.851721e-02 -7.664724e-02 -1.979711e-01 8.066592e-02 -4.223453e-01 -1.641085e-01 -3.841920e-01 -4.210050e-01 -2.554566e-01 -2.829422e-01 8.068967e-02 3.646576e-02 -4.472759e-02 7.663760e-02 1.031958e-01 7.495918e-01
<VARIANCE> 39
 5.216676e+01 3.874244e+01 2.883638e+01 2.671551e+01 2.735111e+01 3.807264e+01 3.906547e+01 4.152648e+01 3.078683e+01 2.443457e+01 2.833252e+01 2.366039e+01 3.883002e+01 2.706078e+00 3.528338e+00 2.809636e+00 2.813288e+00 2.950724e+00 3.236847e+00 3.490860e+00 3.295444e+00 3.148411e+00 2.368730e+00 2.362077e+00 2.191949e+00 4.408400e+00 4.288465e-01 6.340621e-01 4.623881e-01 5.528179e-01 5.816748e-01 6.535532e-01 6.646811e-01 6.678471e-01 6.137297e-01 4.898155e-01 5.123844e-01 4.369412e-01 6.972554e-01
<GCONST> 1.237207e+02
<MIXTURE> 3 5.145096e-01
<MEAN> 39
 -1.661409e+01 -6.235751e+00 -4.166681e-02 -1.460107e+00 -1.617845e+00 -1.890982e+00 8.015382e-01 4.399805e+00 -2.082058e-01 -2.475570e+00 1.631584e+00 8.608045e-01 5.891494e+01 4.770605e-02 -3.193592e-02 -1.617817e-02 3.639909e-02 -6.312411e-03 6.141119e-02 1.729039e-03 1.553083e-03 1.003804e-03 -9.197713e-02 -4.904252e-02 7.506181e-04 -7.343898e-02 6.452002e-02 6.868161e-02 -3.568000e-02 3.630907e-02 2.341178e-02 3.568135e-02 -8.842936e-04 -1.659070e-02 -2.396472e-03 -2.488538e-02 -4.348239e-02 2.809427e-03 -5.853184e-02
<VARIANCE> 39
 1.719752e+01 3.226917e+01 1.372207e+01 1.712891e+01 1.648103e+01 2.249740e+01 2.275842e+01 1.963892e+01 2.184201e+01 2.011095e+01 1.758725e+01 1.499709e+01 4.837739e+01 2.501525e-01 4.068842e-01 4.729763e-01 6.832091e-01 8.499498e-01 1.110200e+00 1.214302e+00 1.341703e+00 1.415857e+00 1.344008e+00 1.266280e+00 1.187487e+00 2.945247e-01 3.277990e-02 8.421087e-02 9.255576e-02 1.348851e-01 1.732729e-01 2.190781e-01 2.495356e-01 2.825167e-01 2.907569e-01 2.749339e-01 2.542525e-01 2.415470e-01 3.586728e-02
<GCONST> 8.301392e+01
<STATE> 3
<NUMMIXES> 3
<MIXTURE> 1 7.971729e-02
<MEAN> 39
 -9.431734e+00 8.763397e+00 2.636874e+00 4.515176e+00 -1.003910e+00 -2.201258e+00 -5.431570e+00 -9.044518e-01 -1.699667e+00 -2.500792e+00 -1.992157e+00 -2.323167e+00 5.905120e+01 -1.116497e+00 -5.607325e-02 -4.549805e-01 1.234471e-01 3.600082e-01 6.936383e-01 8.118098e-01 1.581881e-01 7.800728e-02 -2.301746e-01 3.904694e-01 2.364647e-01 -3.030987e-01 1.625699e-01 -9.412207e-01 -2.936062e-01 -7.260177e-01 -8.346068e-01 -1.963662e-02 -5.146853e-01 1.643233e-01 2.498464e-02 6.641698e-02 4.080521e-01 1.281245e-01 1.040028e+00
<VARIANCE> 39
 8.187870e+01 3.072143e+01 4.042252e+01 2.667728e+01 3.096436e+01 3.707211e+01 5.653256e+01 2.899124e+01 3.064648e+01 1.823208e+01 2.815829e+01 2.691387e+01 4.546706e+01 4.211904e+00 3.169480e+00 3.492453e+00 2.887325e+00 3.673014e+00 3.337859e+00 5.769054e+00 3.486970e+00 3.408589e+00 1.880546e+00 2.561892e+00 2.060151e+00 4.198273e+00 1.032885e+00 7.616320e-01 7.654281e-01 6.836433e-01 8.847814e-01 8.004224e-01 1.311721e+00 7.043192e-01 6.594625e-01 4.303185e-01 6.640795e-01 4.318935e-01 1.379032e+00
<GCONST> 1.295788e+02
<MIXTURE> 2 4.849897e-01
<MEAN> 39
 -1.315277e+01 1.889130e+00 -3.219565e+00 1.426070e+00 -2.802474e+00 -1.262563e+00 -1.806360e+00 -4.317368e-01 -9.897147e-01 -1.840109e+00 -1.550561e-02 -1.430676e-01 5.908799e+01 1.309491e+00 -1.336333e+00 -6.238111e-01 -1.489017e+00 -2.402744e+00 -2.072315e+00 -2.035516e+00 -2.585671e-01 1.826325e-01 -3.393348e-01 -1.270659e-01 3.489191e-01 3.474319e+00 8.390641e-01 -3.000362e-02 4.677151e-01 -4.113110e-01 -5.225440e-01 -5.733365e-01 -6.954521e-01 -9.980287e-02 3.667324e-02 4.849184e-02 -2.715361e-01 -9.066139e-02 6.110660e-01
<VARIANCE> 39
 3.718623e+01 2.723885e+01 2.221810e+01 2.433284e+01 2.564361e+01 4.108937e+01 3.374249e+01 3.071346e+01 2.301071e+01 2.084402e+01 2.651593e+01 1.789201e+01 4.285917e+01 4.116546e+00 2.639175e+00 3.159361e+00 3.019371e+00 3.648004e+00 3.961500e+00 5.617914e+00 5.237607e+00 4.081398e+00 2.894460e+00 3.549967e+00 3.306552e+00 3.157796e+00 4.884510e-01 5.383152e-01 6.208836e-01 5.623251e-01 5.235441e-01 8.170220e-01 8.135573e-01 7.212521e-01 6.060359e-01 5.168812e-01 6.063102e-01 5.064440e-01 5.666521e-01
<GCONST> 1.249826e+02
<MIXTURE> 3 4.352929e-01
<MEAN> 39
 -7.560239e+00 7.751673e+00 2.294919e+00 5.124329e+00 -2.966481e-01 -1.166848e+00 -4.520915e+00 -3.404326e+00 -2.813972e+00 -3.088111e+00 -3.230321e+00 -3.867015e+00 5.552079e+01 -6.481304e-01 -1.637682e+00 -1.223611e+00 -9.269288e-01 -1.455730e+00 -3.689291e-01 -8.766405e-01 4.967032e-01 5.491182e-01 -3.809530e-02 9.166750e-01 6.863259e-01 2.385286e+00 3.894142e-01 -9.176424e-01 -2.161250e-01 -9.296644e-01 -1.115750e+00 -5.826768e-01 -7.979335e-01 2.979987e-01 3.203701e-01 2.217751e-01 3.150641e-01 3.004220e-01 1.506496e+00
<VARIANCE> 39
 2.724924e+01 1.860981e+01 1.692437e+01 1.714699e+01 1.826595e+01 3.431179e+01 3.747897e+01 2.983117e+01 2.194444e+01 1.903995e+01 2.135468e+01 1.718312e+01 3.040421e+01 2.249383e+00 2.588657e+00 2.265277e+00 2.489179e+00 3.018401e+00 3.240437e+00 4.839763e+00 3.612825e+00 4.301651e+00 2.246628e+00 2.477352e+00 2.376136e+00 3.124731e+00 3.714596e-01 5.484692e-01 5.454441e-01 5.813127e-01 5.419811e-01 8.421608e-01 9.381504e-01 8.491659e-01 7.171670e-01 5.145834e-01 6.288196e-01 5.939504e-01 4.962865e-01
<GCONST> 1.197714e+02
<STATE> 4
<NUMMIXES> 3
<MIXTURE> 1 2.104750e-01
<MEAN> 39
 -4.208879e+00 -1.073378e+00 5.251469e-01 -3.357539e+00 -1.230227e+01 -3.406443e+00 -1.952344e+01 5.488873e+00 2.992376e+00 -2.943995e+00 1.534723e+00 -2.876610e+00 7.245197e+01 1.639717e+00 -2.118569e+00 1.271032e+00 -2.331252e+00 -2.058742e+00 -4.792965e-01 -2.686526e+00 2.518929e+00 1.062751e+00 3.227344e-01 7.675970e-01 -4.113289e-01 3.244719e+00 -7.566699e-02 4.955631e-01 3.632201e-01 5.916239e-01 1.117823e+00 3.155540e-01 1.452964e+00 -4.224156e-01 -5.864064e-01 5.331296e-02 -2.718152e-01 -9.661844e-02 -1.234363e+00
<VARIANCE> 39
 1.056369e+01 1.437204e+01 1.771489e+01 1.913891e+01 1.826918e+01 1.957159e+01 3.267993e+01 3.917257e+01 2.398083e+01 2.287548e+01 2.099726e+01 1.907751e+01 1.671464e+01 2.368143e+00 2.437500e+00 3.013501e+00 2.568737e+00 2.623795e+00 2.429351e+00 6.147432e+00 3.726321e+00 3.576986e+00 2.785672e+00 3.564798e+00 2.886882e+00 2.149844e+00 5.073093e-01 2.728350e-01 5.001042e-01 3.378074e-01 3.728199e-01 3.821701e-01 5.425609e-01 6.449751e-01 5.208691e-01 3.985644e-01 4.022908e-01 3.601242e-01 2.705471e-01
<GCONST> 1.132899e+02
<MIXTURE> 2 4.777900e-01
<MEAN> 39
 -8.293504e+00 6.834100e-01 -2.450045e+00 -3.266956e+00 -8.696258e+00 -1.083276e+01 -5.842123e+00 -2.617526e+00 -2.564855e+00 -3.460580e+00 -3.593115e+00 2.305413e+00 6.647855e+01 1.985066e+00 -1.223235e+00 5.145512e-01 -2.058182e+00 -2.295601e+00 -2.814609e+00 -1.506635e+00 2.389787e-02 -2.680157e-01 5.150832e-02 -6.697552e-01 7.724638e-01 3.090358e+00 2.308156e-01 2.580646e-01 4.770350e-01 1.434880e-01 3.440582e-01 4.807501e-01 1.921544e-02 3.117079e-02 -4.874055e-02 1.569951e-01 1.922136e-03 -4.207810e-01 -6.106374e-01
<VARIANCE> 39
 4.235628e+01 3.004591e+01 2.978411e+01 3.926819e+01 3.278634e+01 6.593024e+01 4.255773e+01 2.818723e+01 3.185803e+01 2.241223e+01 4.753642e+01 2.431487e+01 2.953596e+01 4.174823e+00 3.484691e+00 4.233206e+00 4.172791e+00 4.637547e+00 5.167083e+00 7.010846e+00 4.972948e+00 4.505090e+00 3.326318e+00 4.889452e+00 3.971402e+00 3.877096e+00 6.348700e-01 5.596671e-01 5.651672e-01 6.017113e-01 5.622759e-01 8.484676e-01 6.864768e-01 6.318030e-01 5.716382e-01 4.743468e-01 6.629778e-01 5.105026e-01 6.146615e-01
<GCONST> 1.304093e+02
<MIXTURE> 3 3.117355e-01
<MEAN> 39
 -5.113018e+00 9.148667e-01 -3.853488e+00 8.037480e-01 -9.017449e+00 -4.756427e+00 -1.088015e+01 -4.905120e+00 2.518669e+00 -2.804258e-01 2.198830e-01 -3.523259e+00 6.694322e+01 1.421919e+00 -2.287405e+00 -7.850271e-02 -1.795523e+00 -2.877211e+00 -8.319231e-01 -2.653701e+00 8.259444e-01 1.877284e+00 4.669028e-01 6.738861e-01 -3.033768e-01 3.919767e+00 6.041710e-02 5.918762e-02 7.025173e-01 -6.944245e-02 4.037418e-01 3.471913e-01 4.702223e-01 3.798906e-01 -3.905229e-01 -6.755978e-02 -8.565610e-02 3.156580e-03 -4.853662e-01
<VARIANCE> 39
 2.622946e+01 2.718727e+01 2.795080e+01 3.087847e+01 3.124751e+01 4.414307e+01 3.976030e+01 8.715913e+01 3.423254e+01 3.825312e+01 2.571735e+01 2.731210e+01 2.538017e+01 3.677047e+00 2.616301e+00 4.027237e+00 4.432435e+00 3.479102e+00 4.023548e+00 6.767953e+00 8.984009e+00 5.036805e+00 3.894299e+00 4.063010e+00 3.285900e+00 2.887364e+00 4.952348e-01 3.657035e-01 4.192824e-01 3.801677e-01 5.691539e-01 4.616834e-01 5.608499e-01 8.285083e-01 6.831129e-01 5.797657e-01 4.287136e-01 5.094616e-01 4.447761e-01
<GCONST> 1.269682e+02
<TRANSP> 5
 0.000000e+00 1.000000e+00 0.000000e+00 0.000000e+00 0.000000e+00
 0.000000e+00 8.559683e-01 1.440317e-01 0.000000e+00 0.000000e+00
 0.000000e+00 0.000000e+00 5.264055e-01 4.735945e-01 0.000000e+00
 0.000000e+00 0.000000e+00 0.000000e+00 4.017121e-01 5.982878e-01
 0.000000e+00 0.000000e+00 0.000000e+00 0.000000e+00 0.000000e+00
<ENDHMM>
~h "eh"
<BEGINHMM>
<NUMSTATES> 5
<STATE> 2
<NUMMIXES> 3
<MIXTURE> 1 2.075265e-01
<MEAN> 39
 -3.438635e+00 -5.079473e+00 4.209414e+00 -5.894166e+00 -1.395788e+01 -5.310554e+00 -1.389965e+01 8.496920e+00 -1.046245e+00 -2.714287e+00 3.196574e+00 -3.001736e+00 7.450811e+01 1.857070e+00 -1.822092e+00 5.892763e-01 -1.400117e+00 -1.401987e+00 -2.913440e-01 -8.795066e-01 2.465170e+00 1.050318e+00 -3.320808e-01 4.613116e-01 -1.521001e+00 2.547227e+00 -1.027893e+00 4.604457e-01 -5.472782e-01 3.821775e-01 1.061442e+00 3.669292e-01 1.407407e+00 -2.473421e-01 1.595355e-01 -1.752889e-01 -4.087716e-01 1.069537e-01 -8.931493e-01
<VARIANCE> 39
 9.930981e+00 1.305893e+01 3.555467e+01 1.547070e+01 2.171049e+01 2.003322e+01 2.561412e+01 3.298795e+01 4.039423e+01 2.091153e+01 3.555326e+01 1.860569e+01 1.440897e+01 3.551900e+00 1.476040e+00 2.581287e+00 1.924053e+00 3.585010e+00 2.816906e+00 5.451420e+00 2.780309e+00 2.578480e+00 2.194460e+00 2.642862e+00 1.800726e+00 2.278987e+00 5.541494e-01 2.558213e-01 3.677175e-01 3.127226e-01 3.799855e-01 4.114916e-01 4.113590e-01 5.644247e-01 5.199835e-01 3.385028e-01 5.565344e-01 4.321734e-01 2.650500e-01
<GCONST> 1.120532e+02
<MIXTURE> 2 3.735141e-01
<MEAN> 39
 -3.078241e+00 -3.288280e+00 -1.663232e+00 -9.248935e+00 -1.133801e+01 -1.539771e+01 -3.810070e+00 -1.653379e+00 -3.664136e+00 -4.852654e+00 -7.527257e+00 9.731301e-01 7.075381e+01 2.668704e+00 -2.265331e+00 -4.658905e-01 -1.857780e+00 -1.396591e+00 -1.257011e+00 -1.920605e-01 7.992037e-01 8.901983e-02 -6.165280e-01 -1.117809e+00 -2.009704e-01 1.789057e+00 -1.097900e+00 1.279057e-01 -2.012238e-01 4.532770e-01 7.235348e-01 9.514925e-01 4.811860e-01 3.589900e-01 1.046536e-01 1.941273e-01 4.709290e-01 -1.111442e-01 -4.001618e-01
<VARIANCE> 39
 2.235346e+01 2.951689e+01 3.879734e+01 3.806783e+01 3.099991e+01 5.065674e+01 4.534148e+01 3.965099e+01 5.025505e+01 4.436293e+01 3.670575e+01 3.721066e+01 1.536052e+01 5.884531e+00 2.870283e+00 3.288223e+00 3.091379e+00 4.102312e+00 5.434864e+00 5.304633e+00 3.887005e+00 3.679364e+00 3.490383e+00 3.794507e+00 2.966542e+00 1.999170e+00 6.244604e-01 4.928184e-01 3.768660e-01 4.908673e-01 4.356006e-01 6.332024e-01 6.797237e-01 7.132199e-01 5.762941e-01 6.010747e-01 5.358563e-01 4.972017e-01 2.722583e-01
<GCONST> 1.263621e+02
<MIXTURE> 3 4.189600e-01
<MEAN> 39
 -2.476460e+00 -7.371486e+00 -9.062370e-01 -4.806137e+00 -1.304768e+01 -6.847137e+00 -7.378942e+00 4.657656e+00 2.064152e+00 -1.219837e+00 -1.791093e+00 -5.627080e+00 7.398196e+01 -5.744265e-02 -1.272206e+00 -2.837902e-01 -6.833578e-01 -4.821762e-01 -4.133248e-01 1.140862e+00 1.747899e+00 1.044053e+00 -9.743305e-01 -1.032618e+00 -2.025917e-01 1.213256e+00 -2.808820e-01 5.382876e-01 -1.032403e-02 1.325060e-01 6.128078e-01 2.649813e-01 2.063602e-01 -4.466366e-01 -5.767722e-01 -2.119119e-01 9.895897e-02 3.678605e-01 -6.787668e-01
<VARIANCE> 39
 1.828343e+01 2.563432e+01 4.417339e+01 4.200663e+01 4.335361e+01 8.127496e+01 5.554118e+01 6.879333e+01 6.749200e+01 4.924507e+01 5.325523e+01 3.169951e+01 2.240007e+01 1.451837e+00 1.503991e+00 2.885265e+00 2.522122e+00 3.211803e+00 3.259598e+00 3.790587e+00 4.409622e+00 3.523277e+00 3.290201e+00 3.638470e+00 2.833903e+00 1.341998e+00 4.025207e-01 3.294020e-01 3.569850e-01 3.912562e-01 5.594482e-01 5.594326e-01 6.595988e-01 7.908721e-01 7.821911e-01 6.222857e-01 7.847898e-01 5.268064e-01 2.566887e-01
<GCONST> 1.246615e+02
<STATE> 3
<NUMMIXES> 3
<MIXTURE> 1 2.003570e-01
<MEAN> 39
 -3.816505e+00 -7.213676e+00 1.661987e-01 -7.151681e+00 -1.092829e+01 -3.920703e+00 -7.638865e+00 1.223987e+01 2.956540e+00 -5.587306e+00 -2.396863e+00 -6.480859e+00 7.706317e+01 1.508113e-01 -2.597911e-02 2.287939e-01 1.620124e-01 8.625850e-02 3.055572e-03 9.375587e-02 6.448179e-02 -3.858634e-01 -1.417715e-01 5.041634e-02 6.177039e-02 -2.491464e-01 8.822891e-02 5.797547e-01 1.749485e-01 5.035796e-01 3.388110e-01 1.517330e-01 -1.328889e-01 -9.493122e-01 -6.205635e-01 3.872743e-01 3.981678e-01 2.415253e-01 -7.828817e-01
<VARIANCE> 39
 8.395787e+00 1.514917e+01 2.025957e+01 1.578077e+01 2.644949e+01 4.103593e+01 4.311870e+01 3.264658e+01 3.312106e+01 3.236240e+01 3.952202e+01 1.726158e+01 1.065794e+01 7.178929e-01 7.497041e-01 2.109174e+00 1.690382e+00 2.177703e+00 2.137539e+00 4.060317e+00 2.730078e+00 2.852543e+00 2.818017e+00 3.452954e+00 2.379461e+00 6.459116e-01 2.149547e-01 2.211060e-01 2.865844e-01 2.852655e-01 3.376252e-01 4.120458e-01 7.078959e-01 4.976540e-01 5.246242e-01 4.439537e-01 8.709592e-01 3.706688e-01 1.607096e-01
<GCONST> 1.077649e+02
<MIXTURE> 2 4.072798e-01
<MEAN> 39
 -1.802612e+00 -8.388198e+00 -4.231371e+00 -1.098146e+01 -1.009847e+01 -1.412545e+01 -3.534890e-01 1.669879e+00 -4.113275e+00 -6.685745e+00 -9.198551e+00 7.923701e-02 7.269999e+01 9.320979e-02 -1.270301e-01 -3.769189e-01 8.180883e-02 3.602747e-01 1.313807e-02 -1.257136e-01 7.117729e-02 -9.940511e-02 -2.634198e-01 -2.310810e-01 2.492533e-02 -6.524438e-02 -4.277097e-02 5.221577e-01 1.307536e-01 3.524708e-01 1.142642e-01 7.074755e-02 -4.413877e-01 -3.570231e-01 -3.816047e-02 2.301086e-01 2.057654e-01 -2.066099e-02 -3.913469e-01
<VARIANCE> 39
 2.084892e+01 2.336560e+01 3.087109e+01 3.716427e+01 3.428718e+01 5.791100e+01 4.079682e+01 3.890066e+01 6.823499e+01 5.015882e+01 3.489425e+01 3.477219e+01 1.428199e+01 4.413173e-01 1.043898e+00 1.783053e+00 1.400186e+00 1.946618e+00 2.146681e+00 2.717403e+00 2.424094e+00 2.197457e+00 2.064885e+00 1.647029e+00 1.674134e+00 3.299617e-01 1.692870e-01 2.430683e-01 2.756091e-01 3.055554e-01 3.359835e-01 4.142917e-01 4.080013e-01 4.775218e-01 4.168363e-01 4.031219e-01 3.770703e-01 2.909913e-01 1.349240e-01
<GCONST> 1.073766e+02
<MIXTURE> 3 3.923602e-01
<MEAN> 39
 -2.234025e+00 -8.264066e+00 -4.470260e-01 -5.552668e+00 -1.121042e+01 -6.565725e+00 -6.530086e+00 1.045797e+01 1.301427e+00 -5.981242e+00 -4.389374e-01 -4.328434e+00 7.509692e+01 1.937252e-01 -1.389164e-01 -5.416963e-01 1.365714e-01 5.314889e-01 2.546990e-02 -2.603295e-01 8.900192e-02 4.588699e-01 -2.660693e-01 -4.128588e-01 4.220292e-02 -9.386942e-02 5.786926e-02 1.930608e-01 7.129363e-02 1.247814e-01 7.568576e-02 3.349656e-02 -2.920686e-01 -3.273241e-01 -1.005288e-01 2.378260e-01 6.167857e-02 4.771104e-02 -2.113802e-01
<VARIANCE> 39
 1.786045e+01 2.070325e+01 3.928655e+01 2.560155e+01 3.452847e+01 6.886767e+01 5.606803e+01 4.839482e+01 5.185595e+01 3.241767e+01 5.500965e+01 2.606126e+01 1.710174e+01 2.619974e-01 4.435557e-01 1.096615e+00 6.276529e-01 1.099660e+00 1.152755e+00 2.054999e+00 1.436404e+00 1.516074e+00 1.318935e+00 1.646058e+00 1.063279e+00 1.983031e-01 4.919966e-02 7.947091e-02 1.493805e-01 1.324279e-01 1.796307e-01 2.135211e-01 3.166583e-01 2.874339e-01 2.458960e-01 2.389088e-01 2.833374e-01 1.987237e-01 5.729559e-02
<GCONST> 9.245049e+01
<STATE> 4
<NUMMIXES> 3
<MIXTURE> 1 1.626768e-01
<MEAN> 39
 -1.250807e+00 -5.494699e+00 1.622618e-01 -3.086149e+00 -1.047461e+01 -4.330182e+00 -1.294749e+01 8.175738e+00 2.567943e+00 -2.023286e+00 -1.651331e-01 -5.111809e+00 7.237605e+01 -7.166916e-01 3.236307e+00 6.838831e-01 2.244241e+00 2.168291e+00 2.254041e-01 1.058810e+00 -2.041142e+00 -6.739308e-01 1.022722e-01 -2.799933e-01 1.155963e+00 -3.040466e+00 -9.609969e-01 7.696502e-01 -9.645186e-03 1.384998e-01 6.351451e-01 5.289974e-02 1.098268e+00 -2.215089e-01 -1.078792e-01 -1.502035e-01 -1.802952e-01 2.866290e-01 -5.430310e-01
<VARIANCE> 39
 1.178570e+01 2.073065e+01 3.523834e+01 2.127882e+01 2.509604e+01 2.923769e+01 5.369703e+01 5.408412e+01 3.403901e+01 2.817139e+01 3.499043e+01 2.776944e+01 1.616504e+01 2.373024e+00 1.898657e+00 2.268093e+00 1.683555e+00 2.372611e+00 2.793316e+00 3.475865e+00 3.487646e+00 2.991757e+00 2.309058e+00 2.906576e+00 2.017978e+00 2.678535e+00 3.871502e-01 3.845655e-01 3.997147e-01 3.702002e-01 3.738812e-01 3.819043e-01 4.600171e-01 6.170434e-01 5.788361e-01 3.674765e-01 6.382907e-01 4.544162e-01 2.754951e-01
<GCONST> 1.157180e+02
<MIXTURE> 2 4.584174e-01
<MEAN> 39
 -1.421841e+00 -5.739833e+00 -4.796340e+00 -9.666653e+00 -8.500671e+00 -1.491109e+01 -4.849663e+00 1.106218e-01 -2.629053e+00 -5.846234e+00 -9.733534e+00 7.260731e-01 7.090375e+01 8.847417e-02 1.779430e+00 3.524202e-01 1.142087e+00 3.856045e-01 5.758212e-01 -1.222003e+00 -1.299853e+00 -2.670633e-01 4.986525e-01 3.146245e-01 -2.558164e-01 -1.493706e+00 -3.426892e-01 5.997258e-01 2.501360e-01 4.512253e-01 1.020666e-01 5.526139e-01 6.080259e-02 -1.970594e-01 -1.710191e-01 9.450763e-02 4.030437e-01 -2.300854e-01 -4.506981e-01
<VARIANCE> 39
 2.225294e+01 3.359819e+01 3.985067e+01 4.103958e+01 4.184068e+01 7.436549e+01 5.599265e+01 5.671007e+01 7.590250e+01 4.737694e+01 4.313795e+01 4.933699e+01 1.847802e+01 1.195698e+00 2.345293e+00 3.040112e+00 3.014696e+00 2.833682e+00 3.229600e+00 3.094082e+00 3.295340e+00 3.122196e+00 3.108440e+00 2.895073e+00 2.660740e+00 1.438181e+00 3.432694e-01 3.439702e-01 3.567794e-01 4.371377e-01 5.030286e-01 5.850207e-01 5.642137e-01 8.139881e-01 7.033465e-01 5.257881e-01 5.841362e-01 5.414485e-01 2.754316e-01
<GCONST> 1.235960e+02
<MIXTURE> 3 3.789052e-01
<MEAN> 39
 -2.040235e+00 -7.581377e+00 -5.030384e-01 -3.868258e+00 -1.256243e+01 -6.581398e+00 -8.632304e+00 5.397621e+00 1.798057e+00 -2.376057e+00 -1.117098e+00 -5.271136e+00 7.339214e+01 3.968306e-01 1.535106e+00 8.630008e-01 1.287924e+00 8.270860e-01 3.345824e-01 -4.987632e-01 -1.394088e+00 -1.425273e+00 5.694814e-01 6.859926e-01 1.388694e-01 -2.107540e+00 -1.771496e-01 6.795328e-01 1.226048e-01 2.512005e-01 5.288003e-01 1.896766e-01 4.006020e-01 -3.731900e-01 -2.941940e-01 -5.301014e-02 -1.037773e-01 2.105568e-01 -7.315435e-01
<VARIANCE> 39
 1.725403e+01 2.736616e+01 4.826478e+01 3.858676e+01 4.486847e+01 7.268892e+01 5.695776e+01 8.660159e+01 8.146810e+01 4.768311e+01 4.422644e+01 3.412431e+01 2.338579e+01 9.911180e-01 1.839194e+00 3.006165e+00 2.615060e+00 2.908882e+00 3.003129e+00 3.401031e+00 4.071093e+00 4.003196e+00 3.484604e+00 3.523150e+00 2.408641e+00 2.093952e+00 2.013196e-01 2.961872e-01 4.192346e-01 4.002640e-01 5.918426e-01 5.507401e-01 5.551884e-01 7.809218e-01 1.048848e+00 6.546573e-01 7.526455e-01 5.179892e-01 3.275562e-01
<GCONST> 1.246693e+02
<TRANSP> 5
 0.000000e+00 1.000000e+00 0.000000e+00 0.000000e+00 0.000000e+00
 0.000000e+00 5.491657e-01 4.508343e-01 0.000000e+00 0.000000e+00
 0.000000e+00 0.000000e+00 7.590833e-01 2.409167e-01 0.000000e+00
 0.000000e+00 0.000000e+00 0.000000e+00 4.782465e-01 5.217535e-01
 0.000000e+00 0.000000e+00 0.000000e+00 0.000000e+00 0.000000e+00
<ENDHMM>
~h "er"
<BEGINHMM>
<NUMSTATES> 5
<STATE> 2
<NUMMIXES> 3
<MIXTURE> 1 2.089843e-01
<MEAN> 39
 3.907833e+00 -6.952246e+00 -6.848854e+00 1.720158e+00 -4.163703e+00 -4.441777e+00 -2.209074e+01 -1.607917e+00 6.451874e+00 -4.376768e+00 3.392666e+00 -1.032443e-01 7.024170e+01 2.184537e+00 -1.642062e+00 -1.104556e-01 -1.059729e-01 -1.522543e-01 -6.678693e-01 -3.209206e+00 2.637807e-01 2.530933e+00 -7.307361e-01 8.172277e-02 -2.533596e-02 1.718731e+00 -1.237378e+00 4.213431e-01 5.731475e-01 2.114357e-01 1.467117e-01 2.474814e-01 1.303770e+00 3.230003e-01 -5.260556e-01 9.862898e-02 -2.757913e-01 1.245510e-02 -6.573616e-01
<VARIANCE> 39
 1.073153e+01 1.350020e+01 6.143809e+01 1.551510e+01 2.401077e+01 3.568127e+01 4.038425e+01 6.089489e+01 3.132832e+01 5.815023e+01 2.865920e+01 2.109611e+01 1.133499e+01 3.855664e+00 1.225158e+00 2.720936e+00 1.983646e+00 3.318469e+00 2.649478e+00 4.073770e+00 4.035761e+00 2.861722e+00 3.726209e+00 2.786372e+00 2.249120e+00 1.435644e+00 4.918239e-01 3.238662e-01 6.317255e-01 2.946745e-01 5.606765e-01 5.264117e-01 6.037408e-01 7.353889e-01 5.481406e-01 8.280200e-01 5.025995e-01 3.901836e-01 1.906905e-01
<GCONST> 1.175629e+02
<MIXTURE> 2 4.488967e-01
<MEAN> 39
 1.554840e-01 -3.952589e+00 -5.167848e+00 -2.850037e+00 -6.774222e+00 -1.615734e+01 -1.078219e+01 -8.602202e-02 -6.668294e+00 -2.296466e+00 -3.295261e+00 -1.629689e+00 6.716217e+01 2.819931e+00 -6.906330e-01 -1.624363e+00 -3.004393e-01 5.527614e-01 -2.948929e+00 -1.226746e+00 1.125802e+00 -5.741259e-01 -3.023792e-01 -9.332591e-02 2.092564e-01 5.817840e-01 -7.741917e-01 9.810127e-02 2.234572e-01 1.393653e-01 2.777685e-01 6.744665e-01 3.272569e-01 1.211881e-01 3.255498e-01 2.349823e-02 1.363636e-01 1.048426e-01 -2.078829e-01
<VARIANCE> 39
 2.794933e+01 2.969555e+01 6.750171e+01 3.609939e+01 6.392482e+01 8.991894e+01 4.306823e+01 4.462525e+01 4.815322e+01 3.323892e+01 3.984993e+01 2.382658e+01 1.928458e+01 5.882912e+00 2.865415e+00 3.768552e+00 3.661069e+00 4.745861e+00 6.946047e+00 4.817492e+00 4.677428e+00 4.409354e+00 3.288585e+00 3.748785e+00 2.499943e+00 1.521026e+00 7.089007e-01 4.953482e-01 7.403341e-01 4.817013e-01 8.909972e-01 1.060613e+00 7.147493e-01 8.336720e-01 6.338038e-01 5.626978e-01 5.801620e-01 3.759303e-01 2.519804e-01
<GCONST> 1.304148e+02
<MIXTURE> 3 3.421195e-01
<MEAN> 39
 1.477103e+00 -7.019114e+00 -2.749447e+00 2.100332e+00 -7.821818e+00 -8.643921e+00 -1.514974e+01 8.941419e-01 1.674881e+00 -4.114428e+00 2.818744e+00 7.666951e-02 6.953113e+01 1.908427e+00 -1.101606e+00 -1.179256e+00 4.909121e-02 6.606458e-01 -1.396703e+00 -2.489552e+00 8.668275e-01 1.809554e+00 -7.615461e-01 1.905077e-01 6.419390e-01 9.056055e-01 -4.538729e-01 4.109735e-01 1.369008e-01 -5.762861e-02 3.502237e-01 4.348326e-01 3.304331e-01 -9.780975e-02 -9.138641e-02 4.023675e-02 -2.523916e-01 -1.058480e-01 -3.915249e-01
<VARIANCE> 39
 1.565482e+01 2.451281e+01 6.702008e+01 2.935733e+01 4.183594e+01 5.460691e+01 3.769122e+01 6.854921e+01 4.561230e+01 5.502002e+01 3.975542e+01 3.079081e+01 2.292323e+01 3.668516e+00 1.821531e+00 3.044082e+00 2.496346e+00 3.523154e+00 3.479221e+00 4.745365e+00 4.800346e+00 4.085722e+00 3.929110e+00 3.706432e+00 3.000366e+00 1.854178e+00 4.859859e-01 3.606976e-01 4.989190e-01 3.722391e-01 5.979143e-01 5.176835e-01 5.470397e-01 6.956166e-01 6.225663e-01 6.190099e-01 5.016416e-01 4.617869e-01 2.170694e-01
<GCONST> 1.247270e+02
<STATE> 3
<NUMMIXES> 3
<MIXTURE> 1 1.949242e-01
<MEAN> 39
 3.277778e+00 -7.948792e+00 -5.315339e+00 2.200327e+00 -4.378551e+00 -8.704274e+00 -2.170204e+01 1.543360e+00 6.067063e+00 -5.528132e+00 1.001386e+00 4.551888e-01 7.005341e+01 -7.337649e-02 3.871090e-01 6.607975e-01 6.155828e-01 -1.308461e-01 -3.880312e-01 6.970762e-01 5.737067e-01 -5.620662e-01 -4.956420e-01 -1.818003e-01 4.547523e-01 -4.225555e-01 -7.848285e-01 7.748556e-01 5.111354e-01 1.389553e-01 -4.825786e-02 4.409719e-01 1.342234e+00 -2.973052e-01 -7.869534e-01 3.192782e-01 -7.020593e-03 -1.477107e-01 -6.386685e-01
<VARIANCE> 39
 1.218104e+01 1.816279e+01 5.526205e+01 2.782049e+01 3.233359e+01 6.899019e+01 6.220883e+01 6.023055e+01 6.667477e+01 5.109225e+01 4.035291e+01 3.238987e+01 1.495720e+01 1.231417e+00 2.362923e+00 3.841036e+00 2.557125e+00 4.592659e+00 3.969468e+00 3.869108e+00 6.036394e+00 3.821851e+00 3.789491e+00 2.827969e+00 2.274939e+00 1.740359e+00 4.425100e-01 3.262930e-01 4.380590e-01 4.259407e-01 6.313005e-01 8.216137e-01 6.060776e-01 7.964212e-01 8.568252e-01 6.861309e-01 6.392159e-01 4.799829e-01 2.730468e-01
<GCONST> 1.248526e+02
<MIXTURE> 2 4.105302e-01
<MEAN> 39
 2.962413e+00 -5.867257e+00 -9.881862e+00 -2.887662e+00 -2.071178e+00 -2.032347e+01 -1.205741e+01 4.723749e+00 -4.810229e+00 -1.884436e+00 -4.155774e+00 -6.021796e-01 6.783823e+01 -7.667597e-02 1.409532e-02 1.838122e-01 1.425825e-01 -6.125059e-02 -1.740339e-01 4.378285e-02 2.969392e-01 -9.834047e-03 -2.743450e-01 9.960874e-02 1.198702e-01 -1.279341e-01 -2.281008e-01 1.496386e-01 4.405252e-01 3.038060e-02 -3.697806e-01 5.154629e-01 1.951595e-01 -3.936615e-01 -1.380291e-02 -4.833303e-02 1.137215e-01 -2.612520e-02 -9.666399e-02
<VARIANCE> 39
 1.453247e+01 2.766067e+01 4.575734e+01 3.228901e+01 4.910659e+01 1.106643e+02 5.206475e+01 5.534545e+01 6.087069e+01 3.750364e+01 4.462094e+01 2.791214e+01 1.864958e+01 3.669701e-01 9.425979e-01 1.924065e+00 1.078743e+00 2.875297e+00 2.614793e+00 2.280260e+00 2.658168e+00 2.438479e+00 1.874136e+00 2.054693e+00 1.399220e+00 4.456871e-01 1.219613e-01 2.020719e-01 2.309841e-01 2.195610e-01 3.503602e-01 5.288384e-01 3.410774e-01 5.535178e-01 4.198071e-01 3.337313e-01 3.938686e-01 2.587186e-01 8.375283e-02
<GCONST> 1.078132e+02
<MIXTURE> 3 3.945454e-01
<MEAN> 39
 4.232235e+00 -8.570604e+00 -5.993305e+00 2.328712e+00 -3.643382e+00 -8.381926e+00 -2.184838e+01 2.555588e+00 9.281937e+00 -5.523070e+00 1.917122e+00 3.734723e-01 7.071653e+01 5.136897e-02 1.028240e-01 -1.223295e-01 1.614454e-01 3.108101e-01 -1.502257e-01 -3.817911e-01 8.503979e-02 2.633881e-01 -1.116590e-01 -2.502932e-01 1.409960e-01 -2.463920e-01 -2.141539e-01 2.207275e-01 2.178194e-01 7.884904e-02 -1.397858e-01 8.460575e-02 4.909159e-01 -5.216219e-02 -4.765434e-01 5.953921e-02 -6.371367e-03 -5.483307e-03 -1.653076e-01
<VARIANCE> 39
 7.949604e+00 1.471050e+01 4.487658e+01 1.567496e+01 1.961310e+01 4.566236e+01 4.376545e+01 6.395798e+01 4.123756e+01 5.161715e+01 2.897709e+01 2.613451e+01 1.671986e+01 2.530629e-01 5.039611e-01 1.203731e+00 6.492114e-01 1.172997e+00 1.293314e+00 1.885181e+00 1.855435e+00 2.042996e+00 1.624338e+00 1.196142e+00 1.084084e+00 2.916967e-01 8.927952e-02 1.352791e-01 1.539860e-01 1.311515e-01 2.011766e-01 2.389012e-01 3.008608e-01 3.808998e-01 2.930460e-01 3.131963e-01 2.303077e-01 2.142968e-01 7.562716e-02
<GCONST> 9.292995e+01
<STATE> 4
<NUMMIXES> 3
<MIXTURE> 1 1.844617e-01
<MEAN> 39
 2.407941e+00 -5.638166e+00 -2.232583e+00 7.429134e+00 -2.956051e+00 -1.115452e+01 -2.087185e+01 4.021026e+00 5.837801e+00 -8.527534e+00 8.983780e-01 4.116194e+00 6.718970e+01 -2.360584e+00 2.754448e+00 1.580359e+00 1.244385e+00 1.218385e-01 4.630034e-01 3.650738e+00 -2.144011e-01 -1.785061e+00 1.171111e+00 -6.567076e-01 -2.952447e-01 -1.915583e+00 -1.019491e+00 4.880843e-01 3.822119e-01 -5.139742e-01 7.988797e-03 8.313904e-01 8.459595e-01 -2.470613e-01 -2.788904e-01 5.597273e-01 1.254267e-01 -4.501644e-01 -3.012022e-01
<VARIANCE> 39
 1.179541e+01 1.877721e+01 3.801161e+01 2.492407e+01 3.239645e+01 2.693252e+01 3.565525e+01 4.354750e+01 3.205354e+01 3.511637e+01 2.349110e+01 1.640902e+01 1.799784e+01 2.681702e+00 2.293592e+00 2.585770e+00 2.025483e+00 3.719037e+00 3.014609e+00 3.201771e+00 4.009818e+00 2.921897e+00 3.207482e+00 2.898544e+00 1.797229e+00 2.704664e+00 3.977497e-01 4.659615e-01 3.521934e-01 4.247510e-01 5.943823e-01 4.791535e-01 5.388791e-01 5.689518e-01 4.358103e-01 4.676560e-01 3.438130e-01 2.980259e-01 2.181202e-01
<GCONST> 1.158310e+02
<MIXTURE> 2 4.741490e-01
<MEAN> 39
 -4.854385e-01 -4.829020e+00 -7.005963e-01 -1.760507e+00 -9.615396e+00 -1.388327e+01 -9.235218e+00 2.129546e+00 -6.305071e+00 -3.677910e+00 2.011275e-01 -1.038005e+00 6.712864e+01 -8.016929e-01 1.011296e+00 1.523314e+00 -1.988468e-01 -9.502813e-01 1.861516e+00 1.008757e+00 -1.534546e+00 -1.961414e-01 7.711639e-02 -2.307421e-01 -1.398423e-01 -5.719312e-01 -2.596800e-01 4.463460e-01 -8.597165e-02 3.869225e-02 4.700742e-01 3.838673e-01 -1.392240e-01 -2.718680e-01 3.303595e-01 1.121438e-02 -2.917734e-01 3.822889e-03 -2.051570e-01
<VARIANCE> 39
 2.585034e+01 3.807153e+01 7.874603e+01 4.291116e+01 5.460324e+01 1.295351e+02 5.497245e+01 6.460435e+01 8.438540e+01 3.858918e+01 5.334637e+01 4.033348e+01 3.525434e+01 1.232664e+00 2.795136e+00 2.959430e+00 2.954164e+00 3.944995e+00 4.174028e+00 3.794422e+00 4.089966e+00 4.862265e+00 2.873211e+00 3.470175e+00 2.692408e+00 1.743050e+00 3.948730e-01 5.787755e-01 5.188617e-01 5.280430e-01 7.024321e-01 9.678261e-01 6.255576e-01 9.309983e-01 8.488416e-01 5.292708e-01 6.312584e-01 5.142157e-01 4.264267e-01
<GCONST> 1.309595e+02
<MIXTURE> 3 3.413894e-01
<MEAN> 39
 2.361619e-01 -2.615880e+00 -2.354735e+00 4.196788e+00 -5.548941e+00 -1.283239e+01 -1.377715e+01 1.071815e+00 9.093174e-01 -4.467083e+00 -1.005601e+00 2.098142e+00 6.435692e+01 -2.149328e+00 2.108312e+00 2.058274e+00 2.799876e-01 7.278380e-02 1.983671e+00 2.274058e+00 -7.717788e-01 -8.564789e-01 8.510953e-02 -9.987165e-02 -4.198936e-01 -1.522660e+00 -6.727407e-01 2.163571e-01 8.673748e-02 -4.180392e-01 3.667961e-01 6.011453e-01 3.528448e-01 3.561823e-02 -1.566131e-01 2.310256e-01 8.662225e-02 -2.961125e-01 -8.229429e-02
<VARIANCE> 39
 2.184922e+01 2.993658e+01 6.718243e+01 4.002747e+01 6.157366e+01 7.324570e+01 4.216400e+01 6.677485e+01 5.750332e+01 3.899019e+01 3.737331e+01 2.709144e+01 3.101594e+01 3.843019e+00 3.964315e+00 3.550028e+00 3.160674e+00 5.245700e+00 6.737389e+00 5.097763e+00 5.118123e+00 5.645236e+00 3.681416e+00 3.529794e+00 2.587744e+00 2.891900e+00 4.838441e-01 5.548503e-01 6.500598e-01 5.497654e-01 1.012954e+00 8.732024e-01 5.762315e-01 9.898592e-01 6.131600e-01 6.229854e-01 5.475594e-01 4.371696e-01 2.803621e-01
<GCONST> 1.320683e+02
<TRANSP> 5
 0.000000e+00 1.000000e+00 0.000000e+00 0.000000e+00 0.000000e+00
 0.000000e+00 5.697812e-01 4.302188e-01 0.000000e+00 0.000000e+00
 0.000000e+00 0.000000e+00 7.800136e-01 2.199864e-01 0.000000e+00
 0.000000e+00 0.000000e+00 0.000000e+00 6.015530e-01 3.984470e-01
 0.000000e+00 0.000000e+00 0.000000e+00 0.000000e+00 0.000000e+00
<ENDHMM>
~h "ey"
<BEGINHMM>
<NUMSTATES> 5
<STATE> 2
<NUMMIXES> 3
<MIXTURE> 1 2.019817e-01
<MEAN> 39
 -5.056800e+00 -3.392843e+00 7.744841e+00 -5.112651e+00 -1.604335e+01 -5.430519e+00 -1.319715e+01 5.258674e+00 -4.593561e+00 -2.082894e+00 5.474786e+00 -1.903416e+00 7.358096e+01 1.658433e+00 -1.416468e+00 1.918953e+00 -1.242374e+00 -2.963500e+00 -3.783329e-01 -1.655148e+00 1.345622e+00 -3.336841e-01 4.551798e-01 2.136932e+00 -1.349577e+00 2.680878e+00 -9.107327e-01 4.481107e-01 -2.820220e-01 2.457948e-01 8.665197e-01 4.508180e-01 1.138509e+00 -3.646127e-01 3.647684e-02 2.676788e-01 -9.129485e-02 -1.235974e-01 -9.122940e-01
<VARIANCE> 39
 1.038031e+01 1.782605e+01 3.535176e+01 2.181662e+01 2.496887e+01 3.334859e+01 3.059658e+01 3.655799e+01 4.210572e+01 2.210622e+01 2.658333e+01 2.095736e+01 1.563393e+01 3.648041e+00 2.029634e+00 2.937297e+00 2.134584e+00 4.105301e+00 3.001068e+00 4.404611e+00 3.239115e+00 3.385242e+00 2.146245e+00 2.490332e+00 2.123122e+00 1.694295e+00 5.360169e-01 3.962311e-01 3.683236e-01 3.430390e-01 4.051563e-01 4.880407e-01 5.010771e-01 5.309046e-01 5.446292e-01 3.660375e-01 5.511658e-01 4.513721e-01 3.231311e-01
<GCONST> 1.156846e+02
<MIXTURE> 2 3.859718e-01
<MEAN> 39
 -3.876648e+00 -3.551932e+00 3.821025e+00 -1.039064e+01 -1.638852e+01 -1.357823e+01 -1.391719e+00 -3.843831e+00 -6.336111e+00 -1.333307e+00 -3.911637e+00 -1.565455e-01 7.129524e+01 7.841710e-01 -9.575540e-01 6.564370e-01 -1.608272e+00 -1.689280e+00 -1.092198e-01 5.844995e-01 -3.148100e-01 -3.705001e-01 7.621593e-01 -1.143549e-01 -3.640834e-01 9.800177e-01 -6.463656e-01 3.848769e-01 -6.406978e-02 4.077697e-01 6.491305e-01 6.700412e-01 -2.483278e-02 -1.090231e-01 1.415222e-01 1.631390e-01 9.102830e-02 -1.311293e-01 -5.369166e-01
<VARIANCE> 39
 2.050847e+01 3.013889e+01 4.144895e+01 5.599075e+01 2.820385e+01 6.377073e+01 3.659169e+01 4.391091e+01 4.392130e+01 4.133807e+01 3.666902e+01 3.442933e+01 1.756118e+01 3.598734e+00 2.466223e+00 2.934468e+00 2.667755e+00 3.303807e+00 4.007020e+00 3.620921e+00 3.584306e+00 2.618721e+00 2.815751e+00 2.486766e+00 2.291555e+00 1.365004e+00 5.941603e-01 4.666406e-01 3.408041e-01 3.848923e-01 4.502068e-01 6.305382e-01 6.630023e-01 6.969097e-01 5.197805e-01 6.010889e-01 5.110289e-01 5.106683e-01 2.470288e-01
<GCONST> 1.224274e+02
<MIXTURE> 3 4.120457e-01
<MEAN> 39
 -3.836833e+00 -6.569887e+00 4.309833e+00 -4.645310e+00 -1.609918e+01 -8.252533e+00 -8.495757e+00 6.968837e+00 -1.193548e+00 -2.987715e+00 3.403016e+00 -2.490496e+00 7.481466e+01 -7.027168e-01 4.219753e-02 1.579365e+00 -4.576043e-01 -1.814179e+00 -1.589295e-01 1.675216e+00 -1.363350e-02 -1.550111e+00 3.617031e-01 1.469290e+00 -9.422144e-02 3.755963e-01 -2.662276e-02 5.165796e-01 1.495558e-02 7.448485e-02 5.112930e-01 4.470214e-01 -8.722326e-02 -1.017139e+00 -4.768101e-01 3.661779e-01 -9.509934e-03 -2.210604e-01 -5.729768e-01
<VARIANCE> 39
 1.274864e+01 2.135783e+01 3.476253e+01 3.249330e+01 3.058273e+01 5.151843e+01 5.107848e+01 5.434942e+01 4.860075e+01 3.746919e+01 6.413612e+01 2.524784e+01 1.647381e+01 4.555257e-01 9.018462e-01 2.257860e+00 1.938249e+00 2.355864e+00 2.343647e+00 2.657646e+00 4.152377e+00 3.866415e+00 2.697210e+00 2.304556e+00 2.684622e+00 7.181413e-01 1.873794e-01 1.731523e-01 2.549965e-01 3.488086e-01 3.959205e-01 3.787266e-01 6.383919e-01 6.471558e-01 6.260967e-01 4.988213e-01 7.747671e-01 3.569370e-01 1.683870e-01
<GCONST> 1.129756e+02
<STATE> 3
<NUMMIXES> 3
<MIXTURE> 1 1.840803e-01
<MEAN> 39
 -6.464422e+00 -1.602470e+00 1.591166e+01 -7.253814e+00 -1.896593e+01 -1.141019e+00 -1.185463e+01 1.779950e+00 -1.243407e+01 1.539741e+00 8.871767e+00 -7.993056e+00 7.352380e+01 2.064959e-01 2.922667e-01 7.261113e-01 5.635188e-01 1.827180e-01 1.214010e-01 3.168299e-02 -4.647612e-01 -1.107262e+00 -8.295587e-02 -3.031544e-01 -1.624157e-01 -6.679409e-01 7.921082e-02 2.610678e-01 -5.165818e-01 5.070401e-01 6.208435e-01 -2.305356e-01 3.572614e-01 5.080055e-02 4.382964e-01 -2.350230e-01 -4.252471e-01 3.771247e-01 -5.183876e-01
<VARIANCE> 39
 7.506513e+00 1.709708e+01 2.591041e+01 1.711942e+01 1.879750e+01 3.786799e+01 2.189093e+01 3.683716e+01 2.873843e+01 2.259727e+01 2.864148e+01 1.858473e+01 1.287181e+01 4.367885e-01 7.056384e-01 1.689028e+00 1.279891e+00 1.179921e+00 1.663511e+00 1.464644e+00 2.395416e+00 2.129865e+00 1.929625e+00 1.642409e+00 1.355298e+00 7.513415e-01 1.409443e-01 1.714103e-01 2.358700e-01 2.016839e-01 3.200749e-01 3.244150e-01 4.032300e-01 4.177797e-01 5.255711e-01 3.234936e-01 3.818843e-01 2.606908e-01 1.946099e-01
<GCONST> 9.811639e+01
<MIXTURE> 2 4.654605e-01
<MEAN> 39
 -4.037855e+00 -3.767792e+00 6.377502e+00 -1.113042e+01 -1.920094e+01 -1.116829e+01 -6.882843e-01 -7.045437e+00 -6.986804e+00 2.029179e+00 -4.027629e+00 -9.956495e-01 7.098230e+01 -9.241793e-02 4.237780e-01 5.900649e-01 8.456457e-02 -2.635423e-01 2.882505e-01 -2.739194e-01 -8.572102e-01 -3.506973e-01 3.552037e-01 -1.120729e-01 2.483685e-02 -3.092127e-01 4.226791e-02 1.036646e-01 -1.129366e-01 2.986634e-01 2.213405e-01 -7.974180e-02 -1.853127e-01 1.023345e-01 3.982736e-02 -2.145818e-01 -1.335065e-02 4.745441e-02 -1.490026e-01
<VARIANCE> 39
 1.985481e+01 3.189958e+01 3.332504e+01 8.336809e+01 2.504412e+01 5.453531e+01 3.862366e+01 4.368376e+01 4.160889e+01 3.708788e+01 4.448549e+01 2.398276e+01 1.930144e+01 2.921057e-01 7.178830e-01 1.194611e+00 1.116223e+00 1.071880e+00 1.396067e+00 1.541045e+00 1.970078e+00 1.555677e+00 1.840107e+00 1.611322e+00 1.161379e+00 2.850867e-01 7.494473e-02 1.389203e-01 1.894310e-01 2.093669e-01 2.387459e-01 2.642680e-01 3.144112e-01 3.272494e-01 2.770917e-01 2.972268e-01 2.781932e-01 2.157375e-01 6.552827e-02
<GCONST> 9.778061e+01
<MIXTURE> 3 3.504587e-01
<MEAN> 39
 -5.893929e+00 -2.687224e+00 1.217728e+01 -7.961534e+00 -1.801911e+01 -1.976059e+00 -8.365765e+00 3.023706e+00 -7.849880e+00 7.307782e-01 7.625440e+00 -7.036655e+00 7.460288e+01 -6.374659e-02 2.896857e-01 7.351357e-01 -2.137101e-02 -7.098630e-02 3.597127e-01 -1.463788e-01 -7.483096e-01 -8.011141e-01 2.665955e-01 -3.267723e-02 -2.864806e-01 -2.779476e-01 7.310948e-02 1.176861e-02 -5.422688e-02 1.603947e-01 1.512904e-01 -3.924083e-02 -8.732460e-02 1.745137e-02 -3.868525e-02 -1.433265e-01 -1.857859e-01 1.337200e-01 -1.197503e-01
<VARIANCE> 39
 8.800321e+00 1.805549e+01 3.446228e+01 2.059925e+01 2.168297e+01 5.093266e+01 3.306060e+01 4.764928e+01 3.415421e+01 2.701356e+01 3.956268e+01 1.977510e+01 1.434473e+01 1.492768e-01 2.764072e-01 7.334758e-01 4.738668e-01 6.570573e-01 7.453222e-01 9.446369e-01 1.273857e+00 1.257236e+00 1.167614e+00 1.045427e+00 8.979472e-01 1.487206e-01 2.970613e-02 4.586911e-02 9.736968e-02 8.321539e-02 1.259541e-01 1.425873e-01 1.773892e-01 2.086153e-01 1.774303e-01 1.698899e-01 1.996970e-01 1.411765e-01 3.353902e-02
<GCONST> 7.827850e+01
<STATE> 4
<NUMMIXES> 3
<MIXTURE> 1 2.107420e-01
<MEAN> 39
 -5.402780e+00 3.909525e-02 1.873881e+01 -3.039354e+00 -1.715015e+01 -1.941095e+00 -1.118212e+01 4.358575e-01 -1.656579e+01 3.335987e-01 7.712841e+00 -7.015193e+00 6.965797e+01 -1.064458e-01 2.108803e+00 -1.101871e+00 2.534163e+00 2.482127e+00 -6.577082e-01 2.119037e+00 -6.959893e-01 1.425403e+00 -5.344409e-01 -1.606662e+00 1.421645e+00 -2.891493e+00 -5.839608e-01 3.149102e-01 -1.025631e+00 2.090057e-01 8.073295e-01 5.974034e-02 4.854390e-01 5.498507e-02 1.187942e+00 -4.489518e-02 -1.832574e-01 4.628987e-01 -4.270533e-01
<VARIANCE> 39
 6.395910e+00 1.955270e+01 1.979858e+01 1.927834e+01 1.714184e+01 2.469324e+01 2.330184e+01 2.688708e+01 1.865001e+01 2.483269e+01 2.176165e+01 1.703037e+01 1.642125e+01 1.831215e+00 1.416143e+00 2.426209e+00 1.424761e+00 2.387738e+00 2.303089e+00 2.115556e+00 2.372807e+00 3.400314e+00 2.489860e+00 2.078221e+00 2.142610e+00 2.367975e+00 3.110651e-01 3.934823e-01 2.797988e-01 3.413640e-01 3.699149e-01 4.118034e-01 4.104219e-01 4.745915e-01 4.108743e-01 4.218755e-01 3.923329e-01 3.189962e-01 3.410491e-01
<GCONST> 1.069205e+02
<MIXTURE> 2 5.286388e-01
<MEAN> 39
 -4.163261e+00 -2.390599e+00 7.019814e+00 -7.236096e+00 -1.843105e+01 -1.147952e+01 -3.264673e+00 -7.394915e+00 -7.636871e+00 6.335586e-01 -3.600192e+00 -5.313560e-01 6.926485e+01 2.915340e-01 7.176141e-01 -7.239675e-01 1.606334e+00 1.335107e+00 -3.252977e-02 -7.791017e-01 3.785346e-01 1.952180e-01 -1.017354e+00 -8.004746e-02 -2.890387e-02 -1.150635e+00 -1.503512e-01 2.900212e-01 -3.297347e-01 2.087860e-01 7.008879e-01 3.436075e-01 -1.240630e-01 2.469397e-01 2.817582e-01 -1.471812e-01 1.260579e-01 -2.071978e-01 -3.180189e-01
<VARIANCE> 39
 2.036269e+01 4.008234e+01 4.694605e+01 8.578286e+01 3.708523e+01 6.751317e+01 4.142072e+01 7.986681e+01 5.442315e+01 4.626384e+01 5.596525e+01 3.221370e+01 2.567458e+01 9.840949e-01 1.975945e+00 2.957148e+00 2.983768e+00 3.253300e+00 3.181418e+00 2.972406e+00 3.602512e+00 3.132959e+00 2.841806e+00 2.785577e+00 2.033962e+00 1.554664e+00 2.985915e-01 3.144184e-01 3.418534e-01 5.343369e-01 4.891664e-01 5.700807e-01 4.964580e-01 9.307703e-01 5.482731e-01 6.213233e-01 5.187691e-01 3.648149e-01 2.604769e-01
<GCONST> 1.228970e+02
<MIXTURE> 3 2.606189e-01
<MEAN> 39
 -3.537014e+00 -6.451686e-01 1.049081e+01 -5.823619e-01 -1.591590e+01 -8.262089e+00 -8.520994e+00 -2.494290e+00 -9.431019e+00 -1.418013e+00 3.357291e+00 -2.577320e+00 6.664735e+01 -9.833369e-02 1.923330e+00 -1.299909e+00 1.828951e+00 3.119321e+00 3.744649e-01 4.413902e-01 1.537543e-01 8.822737e-01 -8.536071e-01 -7.393484e-01 2.021340e-01 -2.665464e+00 -4.867958e-01 1.902556e-01 -3.785761e-01 -3.095626e-01 5.192156e-01 4.434054e-01 4.024875e-01 -4.225075e-02 3.593113e-01 1.546682e-01 -1.736622e-01 2.058617e-02 -1.338483e-01
<VARIANCE> 39
 1.639742e+01 3.753584e+01 3.413218e+01 5.584380e+01 4.365564e+01 6.024752e+01 4.259595e+01 6.751657e+01 4.259803e+01 4.449822e+01 5.097039e+01 3.262698e+01 3.394503e+01 2.197212e+00 3.055747e+00 3.713368e+00 3.234623e+00 4.052802e+00 3.650132e+00 3.694987e+00 5.103399e+00 4.665873e+00 3.686359e+00 3.802881e+00 2.398232e+00 2.698689e+00 3.395240e-01 5.726451e-01 4.700093e-01 5.526255e-01 7.771242e-01 6.135181e-01 6.382686e-01 7.621490e-01 6.198289e-01 5.863048e-01 5.322848e-01 3.595471e-01 5.107020e-01
<GCONST> 1.282643e+02
<TRANSP> 5
 0.000000e+00 1.000000e+00 0.000000e+00 0.000000e+00 0.000000e+00
 0.000000e+00 6.631065e-01 3.368935e-01 0.000000e+00 0.000000e+00
 0.000000e+00 0.000000e+00 8.438150e-01 1.561851e-01 0.000000e+00
 0.000000e+00 0.000000e+00 0.000000e+00 6.422830e-01 3.577170e-01
 0.000000e+00 0.000000e+00 0.000000e+00 0.000000e+00 0.000000e+00
<ENDHMM>
~h "hh"
<BEGINHMM>
<NUMSTATES> 5
<STATE> 2
<NUMMIXES> 3
<MIXTURE> 1 1.743612e-01
<MEAN> 39
 -4.125298e+00 8.501250e-01 1.633093e+00 -1.345068e+00 -9.086018e+00 -3.496508e+00 -5.996947e+00 -9.991800e-01 -2.556012e+00 -2.893354e+00 -1.451593e+00 -2.076818e+00 6.477570e+01 -1.107921e+00 1.134068e+00 3.626356e-01 1.453778e+00 1.426418e+00 9.964737e-01 1.360512e+00 -1.845542e-01 1.672676e-01 1.018272e-02 -1.563062e-01 2.829306e-01 -1.549441e+00 -4.456639e-01 -1.305578e-01 -1.510342e-01 -1.461497e-01 4.967888e-01 1.948889e-01 2.841471e-01 1.311369e-01 -1.607803e-02 6.023119e-02 3.572023e-02 -6.815534e-03 -8.790140e-02
<VARIANCE> 39
 3.059845e+01 4.614027e+01 5.931207e+01 5.554865e+01 6.076474e+01 1.042386e+02 7.061308e+01 8.747599e+01 5.412279e+01 5.273966e+01 3.946941e+01 3.801326e+01 4.575652e+01 3.889420e+00 4.118333e+00 4.210093e+00 3.940893e+00 6.009821e+00 5.679610e+00 4.545738e+00 5.602417e+00 5.410597e+00 3.964673e+00 3.587511e+00 3.125628e+00 3.096890e+00 3.425133e-01 7.509691e-01 4.979796e-01 6.430945e-01 8.960346e-01 7.595465e-01 8.181485e-01 9.923776e-01 7.754361e-01 8.108079e-01 5.703998e-01 5.785478e-01 4.808579e-01
<GCONST> 1.371746e+02
<MIXTURE> 2 4.644316e-01
<MEAN> 39
 -8.511300e+00 -3.316004e+00 -7.121254e-01 -2.763536e+00 -2.203632e+00 9.232873e-01 -1.379023e+00 1.169385e+00 -3.776753e+00 -3.935207e+00 -3.200016e+00 -2.343297e+00 6.595776e+01 -3.457139e-01 -8.864108e-01 -1.905510e-01 4.876420e-03 3.848445e-01 6.741356e-01 4.741644e-01 -1.693514e-02 1.057290e-01 -1.327352e-01 -1.801269e-01 -1.740304e-01 2.194176e-01 3.456976e-01 2.834456e-01 -6.586000e-02 -1.285674e-01 -3.137138e-01 -3.318562e-01 -3.337060e-01 -3.289671e-01 1.128202e-02 6.159452e-02 2.072515e-02 4.556587e-03 -2.574982e-02
<VARIANCE> 39
 6.360550e+01 4.282704e+01 7.095966e+01 6.380939e+01 7.379679e+01 9.679865e+01 7.198427e+01 7.710560e+01 6.240883e+01 4.588175e+01 5.043469e+01 3.551131e+01 3.069051e+01 3.066078e+00 2.551860e+00 2.935064e+00 3.011081e+00 4.590830e+00 4.721389e+00 4.288226e+00 4.179597e+00 3.565918e+00 3.388169e+00 3.201534e+00 2.479913e+00 1.042204e+00 4.625617e-01 4.423192e-01 5.217941e-01 6.597760e-01 7.543969e-01 7.418385e-01 7.780240e-01 8.429541e-01 8.015894e-01 6.822700e-01 6.910291e-01 5.051921e-01 1.904403e-01
<GCONST> 1.322087e+02
<MIXTURE> 3 3.612072e-01
<MEAN> 39
 -1.014128e+01 1.369311e+00 2.898811e-02 -6.075816e-01 -2.671206e+00 5.496404e-01 -1.651903e+00 1.346423e+00 -1.339248e+00 -1.725176e+00 -6.691815e-01 -9.552435e-01 6.138921e+01 -5.596758e-01 -8.189241e-01 -1.342448e-01 1.404812e-01 4.102245e-01 6.172679e-01 5.599958e-01 3.993630e-01 2.488925e-01 -2.312157e-02 -1.181285e-02 1.071918e-01 -8.327205e-03 2.614745e-01 -1.673220e-01 -9.440151e-02 -2.118599e-01 -2.402068e-01 -1.917283e-01 -2.340922e-01 -1.541096e-01 -1.132464e-01 -6.098730e-02 -4.315337e-03 -7.167427e-02 2.753263e-01
<VARIANCE> 39
 7.220473e+01 4.961615e+01 5.835035e+01 4.803301e+01 4.826535e+01 7.480177e+01 4.672897e+01 5.512296e+01 4.103445e+01 2.924802e+01 2.575561e+01 2.795645e+01 4.902875e+01 5.048742e+00 3.398764e+00 3.761051e+00 3.705592e+00 4.818600e+00 4.507642e+00 4.153725e+00 4.066584e+00 3.916289e+00 2.928319e+00 2.744931e+00 2.443373e+00 2.766296e+00 5.341169e-01 6.749282e-01 5.169150e-01 6.570100e-01 7.323828e-01 6.967676e-01 6.719140e-01 7.533345e-01 7.045999e-01 5.429320e-01 4.829113e-01 4.824939e-01 5.252287e-01
<GCONST> 1.316338e+02
<STATE> 3
<NUMMIXES> 3
<MIXTURE> 1 2.342199e-01
<MEAN> 39
 -1.265112e+01 -7.284945e-02 -1.153022e+00 1.110116e+00 5.831717e-01 1.692344e+00 7.390210e-01 1.696185e+00 4.334957e-01 -6.867824e-01 3.540383e-02 1.846723e-01 5.331798e+01 4.258977e-01 1.508971e-01 6.026590e-02 6.833906e-02 -1.280290e-01 1.113858e-01 1.088258e-01 -2.772371e-01 -2.493084e-01 -9.242480e-02 -4.970092e-02 -1.394816e-01 -4.173142e-02 1.225669e-01 -1.658939e-01 2.223304e-02 -2.702312e-01 -3.214241e-01 -2.001192e-01 -2.274468e-01 -4.334251e-02 -1.406756e-01 -1.245108e-01 -2.086918e-02 -4.649587e-02 5.526955e-01
<VARIANCE> 39
 1.600434e+01 3.089985e+01 2.226630e+01 1.674559e+01 2.077542e+01 2.708191e+01 2.675430e+01 2.385957e+01 2.125813e+01 1.838663e+01 1.652106e+01 1.690098e+01 3.160734e+01 3.101829e+00 4.583383e+00 2.484756e+00 2.332342e+00 2.701271e+00 2.864429e+00 3.155053e+00 3.259814e+00 2.768641e+00 2.428885e+00 2.416605e+00 2.076502e+00 2.762241e+00 4.107949e-01 6.873953e-01 4.463044e-01 4.080227e-01 4.587241e-01 5.118725e-01 6.131321e-01 5.473219e-01 5.450761e-01 4.478717e-01 4.276952e-01 3.851027e-01 3.384596e-01
<GCONST> 1.151648e+02
<MIXTURE> 2 2.788065e-01
<MEAN> 39
 -1.293339e+01 -5.395576e+00 -1.964340e-01 -2.056689e+00 -2.336636e+00 3.069583e+00 9.641795e-01 2.050462e+00 -2.116030e+00 -3.077394e+00 -1.098618e+00 -9.584808e-01 6.342750e+01 9.579618e-02 -2.274503e-01 -2.461490e-01 -2.359337e-01 -2.070160e-01 -8.766907e-02 -1.594742e-01 -3.257883e-01 -3.643458e-02 -2.365270e-01 -2.094762e-01 -1.835870e-01 3.236703e-01 3.924194e-01 3.698283e-01 -4.104534e-02 -3.260521e-02 -1.520319e-01 -2.474152e-01 -2.823218e-01 -1.938477e-01 -1.037407e-02 -3.297924e-02 -4.011134e-02 -9.205321e-02 9.570224e-04
<VARIANCE> 39
 4.937359e+01 5.467005e+01 4.621165e+01 3.883566e+01 5.368612e+01 6.934966e+01 5.698010e+01 4.897761e+01 4.387592e+01 3.321684e+01 3.377000e+01 2.781152e+01 3.048449e+01 8.531697e-01 1.550693e+00 1.316555e+00 1.599741e+00 1.962126e+00 2.336382e+00 2.234099e+00 2.437687e+00 2.321602e+00 2.261654e+00 2.075815e+00 1.675686e+00 9.767025e-01 2.321311e-01 3.011093e-01 3.015512e-01 4.123280e-01 5.165818e-01 4.945416e-01 5.566727e-01 4.849848e-01 5.372896e-01 4.767305e-01 4.393827e-01 3.878962e-01 1.264560e-01
<GCONST> 1.152784e+02
<MIXTURE> 3 4.869737e-01
<MEAN> 39
 -1.574715e+01 -6.429647e+00 -3.831949e-01 -1.190959e+00 -1.522143e+00 -1.373265e+00 2.463101e-01 3.824938e+00 3.670574e-01 -2.341542e+00 1.306909e+00 4.917003e-01 5.804660e+01 6.860170e-02 6.003773e-02 5.550852e-03 4.125924e-02 3.868026e-02 1.346403e-01 1.853242e-02 -6.544609e-02 4.579808e-02 5.969510e-02 -3.773691e-02 -3.275314e-02 -1.474621e-01 4.651329e-02 5.771490e-02 -1.591497e-02 2.534097e-02 3.444676e-02 4.709718e-02 9.663512e-03 -1.581817e-02 -1.026539e-02 1.151417e-02 -2.223472e-02 -4.820531e-03 -5.827597e-02
<VARIANCE> 39
 1.655200e+01 3.165647e+01 1.443158e+01 1.598371e+01 1.874795e+01 2.084805e+01 2.296914e+01 1.891436e+01 2.157369e+01 1.933987e+01 1.800905e+01 1.509752e+01 4.404185e+01 2.191313e-01 4.831195e-01 4.785544e-01 6.866726e-01 8.931873e-01 1.129259e+00 1.252425e+00 1.286647e+00 1.380738e+00 1.415738e+00 1.330583e+00 1.220237e+00 2.997485e-01 3.006004e-02 7.516193e-02 8.734605e-02 1.292254e-01 1.686474e-01 2.142207e-01 2.386856e-01 2.472811e-01 2.693917e-01 2.791661e-01 2.652298e-01 2.443724e-01 2.650132e-02
<GCONST> 8.224201e+01
<STATE> 4
<NUMMIXES> 3
<MIXTURE> 1 1.363217e-01
<MEAN> 39
 -7.922057e+00 -8.197678e-01 -2.172698e+00 -2.849500e+00 -4.929243e+00 -1.499204e+00 -6.566158e+00 -1.054819e+00 -1.161235e+00 -7.467215e-01 3.012763e-01 -1.102248e+00 6.481043e+01 -2.140885e-01 6.467145e-01 2.016015e-01 4.590057e-01 5.325707e-01 2.527937e-01 4.330902e-01 -2.471963e-01 -1.234642e-01 -3.873870e-02 2.662462e-01 2.082528e-01 -3.784996e-01 -3.299459e-02 1.449801e-01 1.711539e-01 4.915177e-02 -1.148760e-02 8.523047e-03 2.006011e-01 2.765354e-03 -1.600461e-01 -1.937173e-01 -1.804913e-01 -9.175351e-02 -1.533990e-01
<VARIANCE> 39
 9.257224e+01 6.285472e+01 6.155366e+01 5.826727e+01 6.752074e+01 9.178197e+01 7.548907e+01 6.156760e+01 5.646457e+01 4.158362e+01 3.823208e+01 3.188812e+01 5.174009e+01 5.806318e+00 6.275114e+00 3.898144e+00 4.887324e+00 4.828697e+00 4.761045e+00 5.742072e+00 4.784537e+00 4.610555e+00 4.556402e+00 3.298912e+00 3.174969e+00 6.021209e+00 9.966165e-01 1.219420e+00 7.149246e-01 9.262944e-01 9.822180e-01 1.042766e+00 1.214728e+00 1.011216e+00 9.369282e-01 8.615997e-01 7.375113e-01 6.673266e-01 1.127743e+00
<GCONST> 1.439100e+02
<MIXTURE> 2 4.326828e-01
<MEAN> 39
 -9.511517e+00 -2.862043e+00 4.752829e-01 -2.224596e+00 -8.754512e-01 -5.984185e-01 -4.009489e-01 -3.713605e+00 -5.325358e+00 -5.883874e+00 -5.942853e+00 -2.224608e+00 6.475112e+01 2.842879e+00 9.206662e-01 -3.258722e-01 -1.376865e+00 -1.885071e+00 -1.584877e+00 -1.943568e+00 -1.632869e+00 -1.030374e+00 -9.086813e-01 -1.038168e+00 -7.137339e-01 1.248232e+00 3.298898e-01 -1.037327e-01 -4.200271e-01 -4.384273e-01 -4.263658e-01 -2.217728e-01 -2.766807e-01 2.360677e-01 1.230402e-01 2.184437e-01 1.740891e-01 1.376113e-02 2.553371e-01
<VARIANCE> 39
 3.640530e+01 4.144909e+01 5.690144e+01 3.973650e+01 6.624900e+01 8.797662e+01 7.417930e+01 5.437986e+01 4.682577e+01 5.090277e+01 3.892941e+01 3.560993e+01 2.734248e+01 2.692181e+00 2.158536e+00 3.516282e+00 2.974649e+00 3.387618e+00 4.098552e+00 4.518726e+00 4.232053e+00 4.552132e+00 3.500048e+00 3.222414e+00 2.783040e+00 1.275604e+00 4.578088e-01 4.964966e-01 4.053309e-01 4.482758e-01 6.076165e-01 6.895405e-01 7.507504e-01 7.199706e-01 6.063708e-01 5.892760e-01 5.349258e-01 4.819643e-01 1.680022e-01
<GCONST> 1.280661e+02
<MIXTURE> 3 4.309959e-01
<MEAN> 39
 -8.035005e+00 2.363036e-01 -4.060953e-01 -1.001617e+00 -5.358651e+00 2.618097e+00 -1.227755e+00 9.234015e-01 -1.786770e+00 -2.105621e+00 -8.141859e-01 -2.604078e+00 6.254974e+01 1.463607e+00 -5.603505e-01 -3.839066e-01 -8.892701e-01 -1.340403e+00 -4.462394e-01 -9.674325e-01 -2.620656e-01 5.610548e-02 -1.958237e-01 5.632857e-02 -4.108881e-01 1.855154e+00 1.970585e-01 -2.822905e-01 1.126398e-02 -2.176297e-01 -1.068786e-01 -1.458030e-01 -2.804840e-01 -1.285899e-01 -3.909683e-02 -4.976494e-02 2.168893e-02 5.504927e-04 3.552478e-01
<VARIANCE> 39
 6.048425e+01 4.689722e+01 6.265652e+01 4.723729e+01 5.913522e+01 6.529321e+01 4.339302e+01 4.594219e+01 3.677227e+01 2.953885e+01 2.600664e+01 2.377625e+01 5.650822e+01 3.523614e+00 3.478268e+00 3.528208e+00 3.080022e+00 3.793129e+00 3.809748e+00 3.611417e+00 3.646489e+00 3.448534e+00 2.827646e+00 2.517392e+00 2.402914e+00 2.739323e+00 6.028999e-01 6.647403e-01 5.165580e-01 5.852360e-01 8.103631e-01 6.288264e-01 6.268339e-01 6.461007e-01 6.162661e-01 5.045304e-01 4.528204e-01 4.327817e-01 5.307930e-01
<GCONST> 1.290340e+02
<TRANSP> 5
 0.000000e+00 1.000000e+00 0.000000e+00 0.000000e+00 0.000000e+00
 0.000000e+00 6.698156e-01 3.301844e-01 0.000000e+00 0.000000e+00
 0.000000e+00 0.000000e+00 8.517783e-01 1.482217e-01 0.000000e+00
 0.000000e+00 0.000000e+00 0.000000e+00 6.098833e-01 3.901167e-01
 0.000000e+00 0.000000e+00 0.000000e+00 0.000000e+00 0.000000e+00
<ENDHMM>
~h "ih"
<BEGINHMM>
<NUMSTATES> 5
<STATE> 2
<NUMMIXES> 3
<MIXTURE> 1 1.964897e-01
<MEAN> 39
 -2.367627e+00 -4.587864e+00 2.513059e+00 -4.690472e+00 -1.102026e+01 -3.310588e+00 -1.870222e+01 4.818326e+00 7.952733e-01 -3.216347e+00 2.152894e+00 -4.786572e+00 7.305775e+01 5.454808e-03 -9.057472e-01 1.854673e+00 5.181987e-02 -2.398845e+00 -9.292209e-01 -2.534902e-01 2.242687e+00 -2.677694e-01 -7.704731e-01 4.497759e-01 9.635489e-02 1.284254e+00 -2.588719e-01 8.740003e-01 4.113593e-02 1.897347e-01 5.465301e-01 3.846173e-01 1.370465e+00 -7.722872e-01 -9.721665e-01 4.791523e-02 1.164000e-01 2.750736e-01 -9.681438e-01
<VARIANCE> 39
 1.233025e+01 2.053123e+01 3.953614e+01 2.974435e+01 3.588012e+01 4.243354e+01 5.256492e+01 6.959528e+01 5.516368e+01 5.226212e+01 4.564895e+01 3.050635e+01 1.212164e+01 2.736787e+00 1.825162e+00 3.134250e+00 4.175498e+00 3.139510e+00 4.602254e+00 7.859070e+00 4.228229e+00 5.917501e+00 3.833963e+00 5.283103e+00 3.914434e+00 2.389630e+00 5.292866e-01 2.764967e-01 4.776841e-01 5.921419e-01 6.960474e-01 5.255241e-01 7.615293e-01 1.026822e+00 1.101658e+00 1.014476e+00 8.269974e-01 5.922554e-01 2.952538e-01
<GCONST> 1.286320e+02
<MIXTURE> 2 4.053299e-01
<MEAN> 39
 -5.454288e+00 8.676627e-01 4.485820e+00 -6.288615e+00 -1.262775e+01 -1.368757e+01 -6.996544e+00 -4.739583e+00 -7.174321e+00 -3.030103e+00 -3.918137e+00 1.119247e+00 6.862135e+01 3.156979e+00 -1.356104e+00 9.275835e-01 -1.458558e+00 -2.589274e+00 -1.571694e+00 -1.362677e+00 -5.601918e-01 -7.698771e-01 1.632814e-01 -5.723968e-01 1.000850e-01 1.649386e+00 -6.611251e-01 3.634311e-02 -3.392541e-01 3.107157e-01 6.348858e-01 9.444315e-01 4.090101e-01 3.177379e-01 3.445835e-01 2.347534e-01 2.410968e-01 -2.235976e-01 -4.826271e-01
<VARIANCE> 39
 3.029058e+01 3.560271e+01 4.935597e+01 4.793979e+01 3.817337e+01 6.636059e+01 4.328913e+01 4.052399e+01 4.537677e+01 3.148008e+01 3.617785e+01 3.299968e+01 1.946581e+01 5.417080e+00 3.368774e+00 4.273238e+00 4.204662e+00 4.328629e+00 6.409150e+00 6.428208e+00 5.061390e+00 4.548325e+00 3.542171e+00 4.367765e+00 3.804742e+00 2.243234e+00 7.916961e-01 5.879450e-01 4.314723e-01 5.232633e-01 6.062101e-01 7.767879e-01 6.671171e-01 7.084055e-01 6.461440e-01 5.155023e-01 5.659577e-01 5.087644e-01 4.012244e-01
<GCONST> 1.310372e+02
<MIXTURE> 3 3.981802e-01
<MEAN> 39
 -3.330299e+00 -3.456685e+00 4.584022e+00 -1.816843e+00 -1.334704e+01 -7.729784e+00 -1.000744e+01 1.390814e+00 -3.982931e+00 -5.105398e+00 9.125364e-01 -9.689806e-01 7.003168e+01 7.118562e-01 -1.157775e+00 1.336952e+00 -8.146628e-01 -2.401595e+00 -7.668947e-02 -6.337562e-01 6.870056e-01 -4.326210e-01 -1.413910e-01 1.159401e+00 -3.159414e-01 1.803272e+00 -2.886044e-01 4.468139e-01 -1.493352e-01 -2.001146e-02 6.025761e-01 4.776631e-01 3.908733e-01 -3.596137e-01 -1.374347e-01 3.551853e-01 -2.697280e-02 -2.234174e-01 -5.261048e-01
<VARIANCE> 39
 2.306816e+01 3.343055e+01 6.100209e+01 4.954356e+01 4.258273e+01 7.026878e+01 5.365392e+01 5.615141e+01 5.868266e+01 3.411695e+01 4.619662e+01 2.866179e+01 2.628825e+01 4.151738e+00 2.578424e+00 4.144362e+00 3.386122e+00 4.831336e+00 3.785691e+00 8.646917e+00 4.918123e+00 6.119333e+00 3.321574e+00 3.376475e+00 3.383884e+00 3.100767e+00 5.004210e-01 3.933560e-01 4.425171e-01 4.611705e-01 6.231945e-01 6.543425e-01 6.630343e-01 7.806559e-01 7.723030e-01 4.988853e-01 5.193669e-01 4.512938e-01 3.291834e-01
<GCONST> 1.303749e+02
<STATE> 3
<NUMMIXES> 3
<MIXTURE> 1 1.625369e-01
<MEAN> 39
 -3.883742e+00 -4.082285e+00 8.585006e+00 -3.429421e+00 -1.553645e+01 -4.045948e+00 -1.654749e+01 4.911666e+00 -5.221739e+00 -4.193042e+00 6.092576e+00 -3.350488e+00 7.313429e+01 4.904067e-01 4.612080e-01 1.222640e+00 2.788622e-01 -4.720931e-01 4.966124e-01 3.249733e-01 -1.454539e-01 -1.131342e+00 4.991515e-01 4.180755e-01 -6.409993e-01 -2.655586e-01 -5.588272e-01 1.000801e+00 -6.665364e-01 4.070483e-01 1.417371e+00 2.254397e-01 1.346846e+00 -7.724959e-01 1.025723e-01 3.209468e-01 -6.405698e-01 2.524299e-01 -1.314428e+00
<VARIANCE> 39
 1.137008e+01 2.155022e+01 4.028310e+01 2.581293e+01 3.481712e+01 3.693175e+01 4.636254e+01 5.992139e+01 6.115966e+01 3.332476e+01 3.191382e+01 2.343666e+01 1.407984e+01 2.091701e+00 2.542424e+00 3.814546e+00 3.961705e+00 3.816001e+00 3.330622e+00 6.229409e+00 3.967852e+00 5.852254e+00 3.415873e+00 3.638806e+00 3.660868e+00 3.508928e+00 6.585525e-01 3.664115e-01 4.805440e-01 4.946869e-01 5.664211e-01 6.332052e-01 7.957393e-01 1.064521e+00 1.114573e+00 6.238690e-01 7.121592e-01 4.969724e-01 3.200107e-01
<GCONST> 1.264812e+02
<MIXTURE> 2 4.238727e-01
<MEAN> 39
 -2.982272e+00 -4.741820e+00 3.218852e+00 -8.059582e+00 -1.447036e+01 -1.412219e+01 -4.515445e+00 -2.407780e+00 -6.059037e+00 -2.513393e+00 -4.971315e+00 1.131290e+00 7.096745e+01 6.834356e-02 5.503958e-02 1.971955e-01 -2.317378e-01 -2.889739e-01 3.235731e-01 5.170522e-01 -3.314578e-01 -3.272189e-01 2.977629e-01 -1.477224e-01 -2.823423e-01 -9.781849e-02 -2.719400e-01 6.695529e-01 -2.047825e-01 4.998253e-01 6.534650e-01 5.971996e-01 -1.613260e-01 -3.209259e-01 3.243917e-02 1.067345e-02 1.195768e-01 -2.797089e-01 -6.429637e-01
<VARIANCE> 39
 2.251933e+01 2.996214e+01 4.586473e+01 6.865981e+01 4.189767e+01 5.840131e+01 6.013381e+01 5.502271e+01 6.884153e+01 4.374185e+01 4.384472e+01 3.642871e+01 1.839723e+01 9.729280e-01 1.458295e+00 2.861935e+00 2.462815e+00 2.518065e+00 3.008717e+00 3.443724e+00 3.323158e+00 3.781206e+00 3.002018e+00 2.435212e+00 2.223787e+00 9.037161e-01 5.012108e-01 3.870864e-01 4.058327e-01 5.148780e-01 6.116974e-01 7.073720e-01 6.453056e-01 8.546417e-01 7.032532e-01 6.090591e-01 6.005645e-01 4.787285e-01 2.729348e-01
<GCONST> 1.232028e+02
<MIXTURE> 3 4.135895e-01
<MEAN> 39
 -4.906147e+00 -2.278075e+00 1.083731e+01 -5.259586e+00 -1.649339e+01 -2.266729e+00 -1.250539e+01 4.633532e+00 -7.218371e+00 -3.780914e+00 7.277821e+00 -4.333869e+00 7.401479e+01 1.489073e-01 -1.544779e-01 -6.285217e-02 -6.229263e-02 8.896200e-02 -2.111642e-02 1.982901e-03 3.007932e-01 1.568201e-01 5.763411e-02 1.256284e-01 -1.414239e-01 1.093457e-01 -1.797414e-02 3.288378e-01 -2.458408e-01 3.665697e-01 6.578157e-01 -2.453403e-02 3.156286e-01 -3.489708e-01 1.317346e-02 4.475124e-02 -5.026526e-01 1.543141e-01 -5.929226e-01
<VARIANCE> 39
 1.039252e+01 2.322791e+01 4.058427e+01 2.073289e+01 2.393674e+01 4.463950e+01 4.446934e+01 5.064869e+01 4.104773e+01 2.901797e+01 2.546898e+01 2.868579e+01 1.694650e+01 4.486859e-01 8.056499e-01 1.793414e+00 1.300867e+00 1.706880e+00 1.820924e+00 1.812733e+00 1.920568e+00 2.422466e+00 1.632156e+00 1.880044e+00 1.546330e+00 8.623539e-01 2.198538e-01 1.983839e-01 2.847463e-01 2.247803e-01 3.490915e-01 3.214820e-01 4.801935e-01 4.935409e-01 4.701014e-01 3.074558e-01 3.220792e-01 2.820025e-01 2.125818e-01
<GCONST> 1.042144e+02
<STATE> 4
<NUMMIXES> 3
<MIXTURE> 1 2.016038e-01
<MEAN> 39
 -2.313313e+00 -3.209893e+00 6.534524e+00 -3.739839e-01 -1.208576e+01 -7.373005e+00 -1.558994e+01 3.193302e+00 -3.295587e+00 -4.088672e+00 3.036840e+00 -4.122276e-01 7.004034e+01 -1.095535e+00 3.078594e+00 -2.351817e-01 1.913916e+00 2.653867e+00 1.865720e-01 2.500982e+00 -1.074025e+00 3.194887e-01 1.242162e-01 -1.364927e+00 5.660114e-01 -2.900376e+00 -9.881531e-01 6.171581e-01 -2.537849e-01 -3.876767e-03 6.853174e-01 4.553311e-01 8.773657e-01 -2.795095e-01 7.963453e-02 2.012094e-01 -4.851982e-02 4.264076e-02 -5.575593e-01
<VARIANCE> 39
 1.384107e+01 2.686957e+01 3.346990e+01 3.116930e+01 3.587870e+01 3.640336e+01 3.841698e+01 4.540572e+01 5.266035e+01 3.011793e+01 3.539833e+01 2.393970e+01 1.970256e+01 2.396818e+00 1.598057e+00 2.830180e+00 2.001716e+00 2.592602e+00 2.885714e+00 3.181353e+00 3.995078e+00 3.859857e+00 2.530624e+00 2.485644e+00 2.374309e+00 3.028160e+00 4.005744e-01 4.446469e-01 4.733215e-01 4.588321e-01 5.497754e-01 4.997267e-01 5.517491e-01 5.462781e-01 7.796226e-01 4.608603e-01 5.455011e-01 4.331108e-01 3.298709e-01
<GCONST> 1.197521e+02
<MIXTURE> 2 4.495991e-01
<MEAN> 39
 -3.282386e+00 -1.925818e+00 5.286868e+00 -7.945949e+00 -1.442184e+01 -8.093309e+00 -5.160112e+00 -4.293351e+00 -7.261303e+00 -1.685385e+00 -3.604183e+00 -2.529867e+00 6.962612e+01 3.633154e-01 6.726801e-01 -5.662891e-01 3.478643e-01 6.796789e-01 6.915716e-01 -2.288174e-01 -6.731179e-01 -9.242977e-02 3.226461e-01 -2.736191e-01 -4.160952e-01 -7.931926e-01 1.349154e-02 2.996687e-01 -2.286095e-01 4.119945e-01 4.544456e-01 1.355004e-01 -2.268972e-01 -1.372803e-01 7.025160e-02 -8.010895e-02 9.275016e-02 8.246575e-02 -3.933044e-01
<VARIANCE> 39
 2.590438e+01 3.668581e+01 8.124030e+01 8.195271e+01 5.124587e+01 1.031772e+02 7.349831e+01 8.287113e+01 7.896426e+01 4.914984e+01 6.645765e+01 4.048800e+01 2.144982e+01 7.081791e-01 1.818971e+00 2.649505e+00 3.119105e+00 2.725354e+00 4.108341e+00 3.009755e+00 4.736479e+00 3.750302e+00 3.616663e+00 2.803631e+00 2.477318e+00 1.272507e+00 2.176261e-01 2.684221e-01 4.706874e-01 5.150933e-01 5.955570e-01 6.730899e-01 6.642547e-01 8.056376e-01 8.480852e-01 5.562419e-01 6.766826e-01 4.328476e-01 2.064404e-01
<GCONST> 1.267233e+02
<MIXTURE> 3 3.487972e-01
<MEAN> 39
 -2.659515e+00 -2.488072e+00 5.027482e+00 -3.055451e+00 -1.371211e+01 -8.250878e+00 -1.023465e+01 5.379345e-01 -5.209019e+00 -3.275054e+00 9.404588e-01 -2.695023e+00 6.966975e+01 5.513494e-02 1.699911e+00 1.646901e-01 1.052175e+00 1.460572e+00 8.991430e-01 6.286269e-01 -1.173902e+00 -7.207894e-01 4.744846e-01 -2.424518e-01 -4.199944e-01 -1.995187e+00 -3.545474e-01 4.622986e-01 -2.101295e-01 1.768702e-01 7.739336e-01 3.420103e-01 3.578044e-01 -3.345177e-01 3.232861e-02 7.552327e-02 -1.418410e-01 8.537837e-02 -5.651836e-01
<VARIANCE> 39
 1.842987e+01 3.223372e+01 6.551638e+01 5.557280e+01 4.551513e+01 9.623988e+01 6.158041e+01 7.944704e+01 8.195760e+01 5.139355e+01 6.593349e+01 4.672669e+01 2.695692e+01 1.705806e+00 2.087925e+00 3.483792e+00 3.488791e+00 3.375443e+00 3.717186e+00 4.641719e+00 4.711818e+00 5.978507e+00 3.914719e+00 3.603830e+00 3.015089e+00 2.248703e+00 5.098411e-01 3.812424e-01 6.894956e-01 5.317279e-01 7.996228e-01 8.589013e-01 7.333066e-01 1.062143e+00 1.221715e+00 7.763932e-01 8.265827e-01 7.017114e-01 3.785292e-01
<GCONST> 1.337128e+02
<TRANSP> 5
 0.000000e+00 1.000000e+00 0.000000e+00 0.000000e+00 0.000000e+00
 0.000000e+00 3.574545e-01 6.425455e-01 0.000000e+00 0.000000e+00
 0.000000e+00 0.000000e+00 5.865858e-01 4.134142e-01 0.000000e+00
 0.000000e+00 0.000000e+00 0.000000e+00 3.567503e-01 6.432497e-01
 0.000000e+00 0.000000e+00 0.000000e+00 0.000000e+00 0.000000e+00
<ENDHMM>
~h "iy"
<BEGINHMM>
<NUMSTATES> 5
<STATE> 2
<NUMMIXES> 3
<MIXTURE> 1 1.996271e-01
<MEAN> 39
 -3.409532e+00 -3.475600e+00 5.423839e+00 6.493980e-01 -1.428802e+01 -1.014216e+01 -1.384594e+01 1.720806e+00 -3.829561e+00 -7.787023e+00 2.060104e+00 3.112901e-01 7.075372e+01 -9.436170e-01 -2.654418e-01 3.728835e+00 -5.897628e-02 -4.084088e+00 -2.963600e-01 2.031956e+00 3.662628e-01 -2.897434e+00 -3.933049e-01 1.229533e+00 3.491649e-01 9.290439e-01 -3.927309e-02 7.944990e-01 3.956231e-02 -5.915424e-01 5.429544e-01 1.117666e+00 5.518062e-01 -1.312773e+00 -6.525607e-01 7.265770e-01 9.297147e-03 -4.473990e-01 -6.446445e-01
<VARIANCE> 39
 1.759216e+01 2.501803e+01 4.200727e+01 6.106775e+01 3.526263e+01 7.031704e+01 6.732257e+01 6.664616e+01 5.576525e+01 4.188332e+01 5.908456e+01 2.825717e+01 1.791765e+01 1.375789e+00 1.674629e+00 2.838043e+00 3.318112e+00 3.534762e+00 3.508471e+00 5.565342e+00 4.740282e+00 5.077539e+00 3.377060e+00 2.521994e+00 3.274902e+00 2.327914e+00 2.250808e-01 2.621215e-01 4.430479e-01 5.931524e-01 5.830375e-01 5.839359e-01 8.848165e-01 8.113121e-01 9.713700e-01 5.829173e-01 5.908039e-01 4.743021e-01 1.889453e-01
<GCONST> 1.254839e+02
<MIXTURE> 2 3.982703e-01
<MEAN> 39
 -6.940993e+00 2.784775e+00 1.163024e+01 -7.261988e+00 -1.627669e+01 -9.949637e+00 -5.824899e+00 -1.070903e+01 -1.272199e+01 -5.479703e-02 -4.770302e+00 -2.005784e+00 6.719577e+01 1.561035e+00 1.182379e-01 2.121583e+00 -1.629479e+00 -2.282785e+00 5.470071e-01 -1.249392e+00 -2.215051e+00 -1.161960e+00 7.612665e-01 -1.116801e+00 -5.746628e-01 8.254276e-01 -5.354958e-01 -2.908949e-03 -6.140407e-01 2.762228e-01 7.916847e-01 4.761606e-01 8.441912e-02 6.028718e-01 6.496458e-01 -9.093170e-02 1.123727e-01 5.908238e-02 -3.058523e-01
<VARIANCE> 39
 2.914833e+01 3.375094e+01 3.553861e+01 6.274326e+01 3.117652e+01 7.423026e+01 4.061742e+01 3.936245e+01 4.222666e+01 3.817662e+01 4.100457e+01 3.151440e+01 1.957691e+01 5.727515e+00 2.755733e+00 3.722538e+00 4.356114e+00 4.619429e+00 5.948313e+00 4.829320e+00 4.560323e+00 4.818561e+00 4.609838e+00 3.761033e+00 3.342198e+00 1.897262e+00 7.072480e-01 5.020044e-01 3.757066e-01 5.477889e-01 5.801694e-01 7.080491e-01 8.573077e-01 6.455716e-01 5.208404e-01 6.018470e-01 4.988278e-01 4.505198e-01 2.971207e-01
<GCONST> 1.291846e+02
<MIXTURE> 3 4.021031e-01
<MEAN> 39
 -5.180099e+00 -2.223348e+00 1.362299e+01 -7.725050e-01 -1.923029e+01 -6.631470e+00 -8.542070e+00 -2.216780e+00 -1.164592e+01 -4.901386e+00 5.621074e+00 -2.640820e+00 7.062959e+01 -5.828004e-01 5.670417e-01 2.672911e+00 -1.216669e+00 -2.054673e+00 1.712301e+00 3.349601e-01 -1.668510e+00 -1.497149e+00 9.075108e-01 4.874347e-01 -1.199214e+00 4.701396e-01 5.561182e-02 4.422627e-01 -7.220896e-01 1.536937e-02 1.186534e+00 2.563745e-01 -1.799690e-01 -2.197445e-01 6.700061e-01 2.429620e-01 -6.648687e-01 -8.647224e-02 -6.313052e-01
<VARIANCE> 39
 1.587614e+01 2.350579e+01 3.531570e+01 5.797856e+01 2.443005e+01 8.793297e+01 5.583812e+01 6.877007e+01 3.955960e+01 4.077281e+01 4.081311e+01 3.301736e+01 1.859056e+01 1.217262e+00 1.501815e+00 2.076793e+00 2.753731e+00 2.654758e+00 2.589883e+00 4.375291e+00 3.299844e+00 4.262893e+00 3.279773e+00 2.361817e+00 2.406231e+00 1.795281e+00 2.880194e-01 2.536233e-01 3.612748e-01 4.018932e-01 4.386316e-01 5.753371e-01 8.248032e-01 7.441745e-01 5.662894e-01 4.222663e-01 3.569195e-01 4.159691e-01 2.516927e-01
<GCONST> 1.194401e+02
<STATE> 3
<NUMMIXES> 3
<MIXTURE> 1 1.938017e-01
<MEAN> 39
 -6.874464e+00 1.305653e+00 1.969530e+01 -4.056238e+00 -1.815532e+01 1.191021e+00 -1.268021e+01 -4.333856e+00 -1.391774e+01 -3.731456e+00 4.231866e+00 -8.477228e+00 6.955007e+01 2.320417e-01 6.369198e-01 -1.777166e-01 6.852074e-01 7.208181e-01 -4.415165e-01 8.069475e-01 -2.304037e-01 -1.243730e-01 5.468255e-01 -4.107975e-01 5.760539e-02 -8.966966e-01 -8.344756e-02 3.352042e-01 -1.091851e+00 4.951542e-01 1.047245e+00 -4.641694e-01 4.755463e-01 2.324634e-01 7.337500e-01 2.974726e-02 -2.649049e-01 5.957632e-01 -6.112816e-01
<VARIANCE> 39
 1.190101e+01 2.247716e+01 4.251973e+01 4.067822e+01 2.685254e+01 5.264518e+01 3.590980e+01 5.918429e+01 4.295043e+01 3.544481e+01 4.337508e+01 2.705129e+01 1.501775e+01 1.216482e+00 2.002209e+00 3.074331e+00 2.543974e+00 2.459879e+00 3.726646e+00 3.331147e+00 3.640225e+00 2.867009e+00 2.633481e+00 2.264328e+00 2.426007e+00 1.681633e+00 3.345623e-01 2.908051e-01 4.133021e-01 4.128190e-01 4.877221e-01 5.230776e-01 6.494292e-01 6.548027e-01 6.637046e-01 5.039323e-01 4.856632e-01 4.111273e-01 2.474104e-01
<GCONST> 1.182229e+02
<MIXTURE> 2 4.617925e-01
<MEAN> 39
 -6.013373e+00 3.338747e+00 1.289785e+01 -1.039153e+01 -1.769839e+01 -7.696377e+00 -6.590816e+00 -1.377224e+01 -1.169767e+01 3.148014e+00 -8.359026e+00 -7.549183e-01 6.700014e+01 -2.590502e-02 2.530674e-01 1.336657e-03 1.596538e-01 -6.998957e-02 3.037027e-01 -1.896431e-02 -2.387740e-01 1.065398e-01 1.225749e-01 -1.841443e-01 6.142767e-03 -2.368603e-01 3.273832e-02 -9.147470e-02 -4.116440e-01 4.567063e-01 2.782738e-01 -2.826143e-01 1.175581e-01 4.639286e-01 1.150213e-01 -3.292235e-01 3.323342e-01 5.995942e-03 -9.741163e-02
<VARIANCE> 39
 2.447024e+01 2.888043e+01 3.192258e+01 8.783635e+01 3.269341e+01 5.438959e+01 4.252701e+01 3.149067e+01 3.836363e+01 3.976257e+01 4.743181e+01 2.535162e+01 1.825220e+01 4.336917e-01 1.146542e+00 1.359698e+00 1.800359e+00 1.352233e+00 2.173831e+00 1.868036e+00 2.090006e+00 1.621745e+00 1.567608e+00 1.952832e+00 1.237631e+00 4.734510e-01 1.513511e-01 1.923641e-01 2.888499e-01 3.872297e-01 4.164286e-01 3.599398e-01 4.064544e-01 4.279414e-01 3.694886e-01 3.849624e-01 3.371152e-01 2.534197e-01 1.146488e-01
<GCONST> 1.059408e+02
<MIXTURE> 3 3.444051e-01
<MEAN> 39
 -7.388032e+00 2.952723e+00 2.040816e+01 -5.569061e+00 -1.740948e+01 3.856272e+00 -1.233975e+01 -5.578253e+00 -1.127812e+01 -4.527162e+00 4.561272e+00 -8.435655e+00 7.011719e+01 1.842308e-02 1.432334e-01 1.383262e-01 -4.708752e-03 1.130039e-01 5.460668e-02 2.278190e-01 -3.087817e-01 2.273233e-02 2.741604e-01 -2.519684e-01 -1.349583e-01 -2.352896e-01 9.385050e-02 -8.158073e-02 -4.057984e-01 2.815149e-01 2.024894e-01 -3.763764e-01 1.770989e-01 2.078727e-01 5.447931e-02 3.731429e-02 -3.374944e-02 2.511963e-01 -1.112542e-01
<VARIANCE> 39
 1.024127e+01 2.093107e+01 2.732769e+01 3.482152e+01 2.455378e+01 4.814715e+01 3.525951e+01 5.821458e+01 3.651055e+01 3.317787e+01 3.268584e+01 2.391290e+01 1.897102e+01 2.153752e-01 6.543170e-01 1.238802e+00 9.285162e-01 9.247054e-01 1.426963e+00 1.080772e+00 1.619381e+00 1.334421e+00 1.084940e+00 1.143219e+00 1.040012e+00 4.709985e-01 6.155279e-02 9.922690e-02 1.798343e-01 1.596812e-01 2.658511e-01 2.400807e-01 2.604212e-01 2.779934e-01 3.184117e-01 2.301771e-01 2.185659e-01 1.966979e-01 9.486496e-02
<GCONST> 9.197529e+01
<STATE> 4
<NUMMIXES> 3
<MIXTURE> 1 1.470162e-01
<MEAN> 39
 -6.555965e+00 5.724938e+00 1.893543e+01 5.710325e-01 -1.345166e+01 -1.203839e+00 -7.797085e+00 -5.513807e+00 -1.359795e+01 -1.049475e+00 3.099693e+00 -6.491271e+00 6.471042e+01 -5.522762e-01 1.882402e+00 -3.050818e+00 2.128742e+00 3.189338e+00 -1.598658e+00 2.562248e+00 2.461065e-01 2.220851e+00 5.843194e-01 -1.121189e+00 2.220397e+00 -2.531939e+00 -5.782698e-01 -1.551332e-01 -7.998629e-01 -1.060308e-01 6.019508e-01 3.556291e-01 -4.233630e-03 4.798507e-01 6.260098e-01 -3.310705e-01 1.874124e-02 2.353860e-01 -1.264043e-01
<VARIANCE> 39
 1.188799e+01 2.450505e+01 2.023253e+01 2.503001e+01 2.480548e+01 3.152525e+01 2.966348e+01 3.853999e+01 2.862700e+01 2.770905e+01 2.385729e+01 1.953947e+01 2.140371e+01 2.428100e+00 1.909686e+00 2.139414e+00 1.595358e+00 2.443546e+00 2.968928e+00 2.434346e+00 3.531221e+00 3.193433e+00 2.844738e+00 2.445144e+00 2.412092e+00 2.540310e+00 2.409481e-01 5.498456e-01 3.592872e-01 3.600166e-01 5.040091e-01 5.537329e-01 4.742987e-01 5.944867e-01 5.422740e-01 4.306069e-01 4.434496e-01 3.887935e-01 2.607281e-01
<GCONST> 1.138093e+02
<MIXTURE> 2 4.977188e-01
<MEAN> 39
 -4.950201e+00 4.512572e-02 7.374804e+00 -4.008158e+00 -1.598573e+01 -9.270796e+00 -5.289612e+00 -6.616822e+00 -9.442845e+00 -5.295835e-01 -2.453769e+00 -1.153113e+00 6.707710e+01 5.863531e-01 -1.275234e-01 -1.949782e+00 8.800052e-01 1.354920e+00 -4.620947e-01 -2.705493e-01 1.208348e+00 1.085406e+00 -6.837566e-01 2.645142e-01 8.221230e-02 -4.331317e-01 -3.217772e-02 2.388196e-01 -1.924134e-01 -2.993958e-02 5.070918e-01 3.530803e-01 -1.924847e-01 -3.611524e-02 2.273994e-01 -8.806472e-02 -5.921710e-02 -1.247177e-01 -1.805609e-01
<VARIANCE> 39
 3.034645e+01 3.697367e+01 5.901501e+01 9.110956e+01 5.838198e+01 8.323891e+01 5.744320e+01 8.063360e+01 6.336165e+01 5.052246e+01 6.811414e+01 3.498576e+01 3.555479e+01 1.151849e+00 2.191300e+00 3.119466e+00 3.912408e+00 3.801613e+00 4.003489e+00 3.866497e+00 4.333858e+00 4.398120e+00 3.943052e+00 3.225065e+00 2.232328e+00 1.833535e+00 2.416779e-01 3.255178e-01 4.563072e-01 5.886521e-01 6.715957e-01 7.403854e-01 6.254337e-01 8.859724e-01 7.166741e-01 6.366890e-01 6.249828e-01 4.321127e-01 2.815926e-01
<GCONST> 1.295332e+02
<MIXTURE> 3 3.552664e-01
<MEAN> 39
 -5.593170e+00 4.734057e+00 1.079722e+01 1.416744e+00 -1.380504e+01 -8.518666e+00 -5.403417e+00 -8.495103e+00 -9.793213e+00 -1.838436e+00 -1.509111e+00 -1.489515e+00 6.237901e+01 -8.248931e-01 1.233133e+00 -2.064199e+00 1.305211e+00 3.251766e+00 2.697827e-01 7.776681e-01 1.440374e+00 1.233948e+00 -6.121453e-01 3.538405e-01 1.552168e-01 -1.847501e+00 -5.093681e-01 -1.357279e-01 -3.159721e-01 -3.369998e-01 4.677077e-01 4.787948e-01 1.078046e-01 3.184387e-01 2.605050e-01 3.603624e-02 5.425349e-03 1.931360e-03 3.021081e-02
<VARIANCE> 39
 2.545090e+01 3.302234e+01 3.177050e+01 6.746449e+01 5.077894e+01 5.400512e+01 4.389151e+01 5.589359e+01 3.450637e+01 4.596488e+01 4.560374e+01 2.733604e+01 3.321296e+01 3.136912e+00 3.656025e+00 3.095128e+00 4.444189e+00 3.982265e+00 4.548493e+00 3.845949e+00 5.456420e+00 4.008670e+00 4.289319e+00 3.762194e+00 2.492452e+00 2.671417e+00 3.943860e-01 5.729716e-01 5.144449e-01 5.137014e-01 8.927419e-01 6.108972e-01 6.122941e-01 8.169568e-01 5.772066e-01 5.941728e-01 5.120428e-01 3.906274e-01 3.506990e-01
<GCONST> 1.290257e+02
<TRANSP> 5
 0.000000e+00 1.000000e+00 0.000000e+00 0.000000e+00 0.000000e+00
 0.000000e+00 6.140876e-01 3.859124e-01 0.000000e+00 0.000000e+00
 0.000000e+00 0.000000e+00 7.967619e-01 2.032381e-01 0.000000e+00
 0.000000e+00 0.000000e+00 0.000000e+00 6.287679e-01 3.712321e-01
 0.000000e+00 0.000000e+00 0.000000e+00 0.000000e+00 0.000000e+00
<ENDHMM>
~h "jh"
<BEGINHMM>
<NUMSTATES> 5
<STATE> 2
<NUMMIXES> 3
<MIXTURE> 1 1.994541e-01
<MEAN> 39
 -2.368845e+00 7.115468e+00 8.729834e+00 5.411320e+00 -4.769086e+00 -8.283258e+00 -7.561364e+00 2.181203e+00 -2.159871e+00 -6.981915e+00 -3.017515e+00 -2.609011e-01 5.930312e+01 -1.502330e+00 2.948847e+00 1.009917e-01 1.342868e+00 2.671124e+00 1.650924e+00 2.428511e+00 -1.360965e+00 2.437163e-01 1.599914e-01 -1.382045e+00 -9.695734e-01 -3.636820e+00 -1.154781e+00 -1.173908e+00 -6.769067e-01 -1.090764e+00 -1.139680e-01 9.783629e-01 -2.745876e-01 3.649887e-01 8.125164e-02 5.613140e-01 5.317733e-01 -3.043699e-01 1.269309e+00
<VARIANCE> 39
 1.157827e+01 2.243296e+01 2.085695e+01 3.340980e+01 2.848912e+01 2.911461e+01 2.607506e+01 2.936594e+01 2.732483e+01 2.053427e+01 2.071391e+01 1.880135e+01 1.944702e+01 2.236226e+00 2.530255e+00 3.358540e+00 3.085557e+00 2.620524e+00 3.766062e+00 3.193712e+00 3.221797e+00 3.319854e+00 2.727073e+00 2.543355e+00 2.460281e+00 2.073929e+00 4.545250e-01 5.361249e-01 3.056511e-01 3.849774e-01 4.592581e-01 5.380853e-01 6.714131e-01 5.205456e-01 5.974277e-01 4.155113e-01 5.228964e-01 4.039459e-01 5.014448e-01
<GCONST> 1.162262e+02
<MIXTURE> 2 4.351560e-01
<MEAN> 39
 -9.948919e+00 4.776134e+00 6.264328e+00 2.306073e+00 -1.690182e+00 8.111737e-01 -3.465776e+00 -2.428719e+00 -3.007953e+00 -3.890536e+00 -2.643354e+00 -3.246992e+00 5.645001e+01 -4.176517e+00 -2.038630e+00 -1.838535e-01 -1.259847e+00 1.109473e-01 2.194778e+00 2.195507e-01 2.756062e-01 8.967650e-01 3.237063e-01 1.143162e+00 3.321793e-01 2.061288e+00 -6.271968e-01 -2.990248e-01 1.764072e-01 -4.071918e-01 -8.875020e-01 -5.236486e-01 -2.755133e-01 9.250141e-02 -4.570942e-02 -6.192989e-02 3.397375e-01 3.341223e-01 1.188537e+00
<VARIANCE> 39
 2.598239e+01 3.967045e+01 3.314064e+01 2.529712e+01 3.678548e+01 2.948303e+01 3.203457e+01 3.393810e+01 2.564779e+01 2.216325e+01 1.941893e+01 1.650495e+01 3.699232e+01 5.605813e+00 4.628441e+00 3.494279e+00 3.093117e+00 3.929633e+00 3.729315e+00 3.753161e+00 3.301720e+00 3.628595e+00 2.674722e+00 2.714592e+00 2.252695e+00 3.070063e+00 6.837681e-01 7.481275e-01 5.408581e-01 4.438828e-01 6.826127e-01 6.760667e-01 6.662197e-01 5.584858e-01 5.452712e-01 4.713293e-01 4.068389e-01 3.886996e-01 5.551413e-01
<GCONST> 1.234432e+02
<MIXTURE> 3 3.653901e-01
<MEAN> 39
 -4.470438e+00 9.315370e+00 7.694363e+00 3.430435e+00 -4.986282e+00 -5.140299e+00 -5.203428e+00 -2.719351e+00 -4.003465e+00 -5.584003e+00 -4.772117e+00 -4.023999e+00 5.608363e+01 -2.620341e+00 1.780564e-01 -3.135737e-01 1.566350e-01 2.116220e+00 2.615065e+00 8.072400e-01 1.329854e-01 5.989513e-01 3.949486e-01 1.986887e-01 -6.010078e-01 -9.817694e-01 -1.174976e+00 -1.371284e+00 -2.145015e-01 -8.965270e-01 -5.087920e-01 2.807891e-01 -3.566321e-01 2.309267e-01 3.393018e-02 2.877363e-01 6.690011e-01 4.480411e-01 1.623789e+00
<VARIANCE> 39
 1.626798e+01 1.881033e+01 2.074686e+01 2.924473e+01 4.128418e+01 2.725518e+01 2.405140e+01 2.821330e+01 2.812183e+01 2.277697e+01 2.237926e+01 1.848391e+01 1.961938e+01 4.300180e+00 5.494913e+00 3.889464e+00 3.712538e+00 3.443599e+00 4.146972e+00 3.219438e+00 3.124631e+00 3.847283e+00 2.650444e+00 2.613530e+00 2.667261e+00 3.620117e+00 4.987631e-01 5.733269e-01 4.720155e-01 4.668085e-01 7.696337e-01 6.161324e-01 7.012148e-01 6.581400e-01 6.156678e-01 5.352632e-01 4.938268e-01 4.365425e-01 4.674171e-01
<GCONST> 1.214798e+02
<STATE> 3
<NUMMIXES> 3
<MIXTURE> 1 2.261722e-01
<MEAN> 39
 -2.012271e+01 1.872831e-01 3.859503e+00 -2.953617e+00 -9.613073e-01 4.816547e+00 -6.030917e+00 6.064206e-01 -1.716284e+00 -2.550557e+00 1.603575e+00 -1.810945e+00 6.423317e+01 -5.323423e+00 -1.077047e+00 -8.331937e-02 -1.746285e+00 -9.001576e-01 1.480052e+00 1.108843e-01 5.907191e-01 4.787474e-01 3.802729e-01 1.579439e+00 7.536119e-01 3.122705e+00 9.428685e-01 5.954786e-01 5.884345e-01 5.484013e-01 -9.026436e-01 -1.141656e+00 9.954666e-02 -1.189468e-01 -2.476740e-01 -3.293840e-01 -2.636582e-01 1.103683e-01 -1.258513e-01
<VARIANCE> 39
 2.879915e+01 6.050301e+01 2.592335e+01 2.118970e+01 3.113060e+01 2.575071e+01 2.918636e+01 3.441193e+01 2.605128e+01 1.906179e+01 1.699760e+01 1.439800e+01 2.132193e+01 3.010178e+00 3.089991e+00 2.810451e+00 2.255490e+00 3.056883e+00 3.050906e+00 2.768796e+00 2.431423e+00 2.983990e+00 2.283375e+00 1.735752e+00 1.722650e+00 2.206069e+00 9.514008e-01 9.721767e-01 5.143874e-01 4.495783e-01 7.073174e-01 7.145487e-01 6.849549e-01 5.654603e-01 5.292931e-01 4.329596e-01 3.918182e-01 3.779033e-01 4.355416e-01
<GCONST> 1.184496e+02
<MIXTURE> 2 4.134977e-01
<MEAN> 39
 -2.737896e+01 1.826739e+00 1.030367e+01 -7.814675e-01 -7.871358e+00 2.461164e+00 -1.985800e+00 -8.492761e-01 -5.958848e-01 -4.130835e+00 1.429649e+00 -1.034578e+00 6.762931e+01 1.963070e+00 2.020545e-01 9.496629e-01 6.097771e-01 -2.350984e+00 -2.841246e+00 -8.104089e-01 -5.197384e-01 -9.051673e-01 -5.809644e-01 1.900133e-01 3.362889e-01 8.799696e-01 2.628492e+00 -1.559437e-01 -3.632610e-01 -2.309420e-03 -1.583548e-01 -9.491365e-01 -7.705765e-01 -1.638806e-01 -4.312473e-01 -1.000769e-01 -1.285097e-01 -5.429205e-02 -4.136717e-01
<VARIANCE> 39
 1.992031e+01 2.551492e+01 2.358555e+01 2.806173e+01 2.377736e+01 3.337764e+01 2.874237e+01 3.443053e+01 2.742056e+01 1.731448e+01 1.927044e+01 1.459188e+01 1.332448e+01 9.916410e+00 2.219958e+00 2.491188e+00 2.132558e+00 2.651483e+00 3.038546e+00 3.379415e+00 2.607043e+00 2.426097e+00 1.921162e+00 1.967422e+00 1.582754e+00 1.283602e+00 7.357059e-01 4.537979e-01 5.406892e-01 5.970795e-01 5.698016e-01 6.539363e-01 6.393889e-01 5.611671e-01 5.714138e-01 4.311613e-01 4.321573e-01 3.877681e-01 3.073027e-01
<GCONST> 1.157106e+02
<MIXTURE> 3 3.603301e-01
<MEAN> 39
 -2.436112e+01 1.671281e+00 5.640624e+00 -2.132571e+00 -4.250499e+00 3.840792e+00 -2.932821e+00 -2.278198e-01 -8.170351e-01 -3.444182e+00 1.267955e+00 -9.387478e-01 6.540017e+01 -2.469543e+00 -3.905069e-01 6.219883e-01 -1.848605e-01 -1.185406e+00 -1.838595e-01 4.328752e-01 2.101869e-01 4.489882e-01 -8.072694e-02 5.284186e-01 4.651490e-01 1.472751e+00 1.555535e+00 2.682034e-01 1.086098e-01 4.006518e-01 -3.110392e-01 -9.468821e-01 -2.835870e-01 -1.093866e-01 -2.854221e-01 -7.876331e-02 -2.173820e-01 -4.134859e-02 -4.350083e-01
<VARIANCE> 39
 4.748168e+01 4.450670e+01 3.725602e+01 2.649668e+01 3.593777e+01 3.562870e+01 3.126562e+01 4.237450e+01 2.963453e+01 2.243452e+01 2.153919e+01 1.732787e+01 2.618278e+01 6.697839e+00 2.592440e+00 2.778418e+00 2.232910e+00 2.988033e+00 2.652805e+00 2.860805e+00 2.600890e+00 2.299468e+00 1.914229e+00 1.781750e+00 1.583683e+00 3.606058e+00 1.308409e+00 6.693822e-01 5.092310e-01 5.249357e-01 6.793804e-01 9.082994e-01 6.975273e-01 5.169716e-01 5.231607e-01 4.686342e-01 4.317763e-01 3.776017e-01 4.703061e-01
<GCONST> 1.218890e+02
<STATE> 4
<NUMMIXES> 3
<MIXTURE> 1 2.435802e-01
<MEAN> 39
 -1.726933e+01 -1.317122e+00 3.212887e+00 2.258398e-01 -6.667439e+00 -1.923294e+00 -4.808707e+00 3.515666e+00 -4.186051e-01 -2.407859e+00 2.240181e+00 1.784112e-01 6.330874e+01 2.140064e+00 8.041435e-02 -7.002269e-01 2.944140e-01 5.905112e-01 -4.960214e-01 -4.107157e-01 6.621581e-02 2.080928e-01 4.494378e-01 -1.646748e-01 -2.369152e-01 -1.092198e+00 3.414416e-01 2.913628e-01 -2.012862e-02 -9.642983e-02 3.322993e-01 3.639843e-01 7.702076e-02 -3.001967e-01 -1.190651e-01 5.668978e-02 -1.118916e-01 -1.705573e-01 -2.289350e-01
<VARIANCE> 39
 8.801563e+01 4.677408e+01 4.313960e+01 3.682940e+01 4.766283e+01 4.904227e+01 5.931573e+01 4.173268e+01 3.585568e+01 2.613356e+01 2.895338e+01 2.710643e+01 5.267870e+01 5.808877e+00 3.268044e+00 3.192416e+00 3.282958e+00 4.336589e+00 4.143267e+00 4.939294e+00 4.376912e+00 3.425315e+00 2.647977e+00 2.415121e+00 2.056439e+00 6.030160e+00 1.134907e+00 7.102115e-01 4.745179e-01 5.981694e-01 7.921935e-01 7.484714e-01 1.002962e+00 7.781376e-01 6.375305e-01 4.936540e-01 5.528471e-01 4.791247e-01 9.496461e-01
<GCONST> 1.324922e+02
<MIXTURE> 2 3.984731e-01
<MEAN> 39
 -1.480720e+01 4.127415e+00 1.160341e+01 -1.326335e+00 -1.511759e+01 -8.056524e+00 -7.432755e+00 -6.298127e+00 -5.811432e+00 -6.190466e+00 9.580632e-01 -8.042574e-01 6.942578e+01 5.956207e+00 -1.134254e+00 -4.526337e-01 -6.820716e-01 -2.368685e+00 -3.691743e+00 -1.696022e+00 -4.619219e-01 -1.579986e+00 -2.533872e-01 2.177661e-01 5.187027e-01 6.258295e-01 2.528695e-01 -6.618553e-01 -5.943300e-01 -3.875655e-01 8.211537e-01 5.630447e-01 1.262724e-01 6.234846e-01 3.663581e-01 3.002922e-01 -1.411796e-01 -7.381742e-02 -1.728852e-01
<VARIANCE> 39
 3.701643e+01 1.550609e+01 1.623558e+01 3.475423e+01 2.676585e+01 3.220577e+01 2.582434e+01 3.054406e+01 2.610057e+01 1.666876e+01 1.717649e+01 1.476709e+01 1.299849e+01 3.210258e+00 2.061321e+00 3.673190e+00 3.344524e+00 2.780273e+00 3.202644e+00 3.515878e+00 3.410861e+00 3.102304e+00 2.554027e+00 2.892471e+00 2.333127e+00 1.015212e+00 1.279008e+00 2.959765e-01 3.755985e-01 3.399730e-01 4.315003e-01 5.173580e-01 5.528221e-01 5.049239e-01 4.290863e-01 4.068999e-01 3.481411e-01 3.415725e-01 1.858287e-01
<GCONST> 1.136718e+02
<MIXTURE> 3 3.579467e-01
<MEAN> 39
 -5.949337e+00 -1.975350e+00 9.374701e+00 -7.912487e-02 -1.543520e+01 -9.121215e+00 -1.077875e+01 -1.467023e+00 -5.213859e+00 -5.840117e+00 4.468653e+00 6.820478e-01 7.084861e+01 4.255413e+00 -2.231778e+00 -7.555560e-01 -9.795509e-01 -6.374286e-01 -1.617127e+00 -2.116443e+00 1.250769e+00 3.874129e-01 1.452845e-01 3.897764e-01 -1.183340e-01 1.426232e+00 -1.161270e+00 2.862692e-02 -4.319406e-01 -3.590599e-01 9.940063e-01 1.072334e+00 4.970343e-01 4.599186e-01 6.169783e-01 3.414626e-01 -4.993173e-01 -3.802468e-01 -1.905537e-01
<VARIANCE> 39
 2.618824e+01 2.664163e+01 2.809514e+01 3.861999e+01 2.512389e+01 3.659201e+01 3.021409e+01 3.914840e+01 4.605892e+01 1.817773e+01 3.146157e+01 1.890546e+01 1.567776e+01 4.273430e+00 1.666840e+00 4.055690e+00 2.575263e+00 3.527572e+00 3.047599e+00 5.697211e+00 3.914279e+00 4.220530e+00 3.527548e+00 3.278188e+00 2.575976e+00 1.286286e+00 7.487522e-01 3.182680e-01 3.751002e-01 3.641490e-01 4.114712e-01 5.047537e-01 6.018494e-01 5.117255e-01 5.178931e-01 3.915431e-01 5.103897e-01 3.526177e-01 1.625395e-01
<GCONST> 1.185573e+02
<TRANSP> 5
 0.000000e+00 1.000000e+00 0.000000e+00 0.000000e+00 0.000000e+00
 0.000000e+00 6.764532e-01 3.235468e-01 0.000000e+00 0.000000e+00
 0.000000e+00 0.000000e+00 7.630364e-01 2.369636e-01 0.000000e+00
 0.000000e+00 0.000000e+00 0.000000e+00 6.088572e-01 3.911428e-01
 0.000000e+00 0.000000e+00 0.000000e+00 0.000000e+00 0.000000e+00
<ENDHMM>
~h "ng"
<BEGINHMM>
<NUMSTATES> 5
<STATE> 2
<NUMMIXES> 3
<MIXTURE> 1 1.941539e-01
<MEAN> 39
 -7.579993e-01 2.904499e+00 1.129654e+01 -7.391482e+00 -8.678048e+00 5.809227e+00 -2.968778e+00 -4.997430e-01 -1.766293e+01 3.328053e+00 3.253992e+00 -9.677107e+00 6.692436e+01 1.471380e+00 9.719172e-01 -1.885581e+00 1.644946e+00 2.749549e+00 -2.301609e+00 2.087201e+00 -1.834210e+00 -1.771406e+00 9.615678e-01 -1.328832e+00 9.438964e-01 -1.652956e+00 -2.620186e-01 -2.292922e-02 -1.482352e-01 3.728554e-01 -4.223649e-01 -4.596006e-01 4.218064e-03 8.281987e-02 7.798550e-01 -4.600540e-01 -9.131788e-02 4.220750e-01 2.365252e-01
<VARIANCE> 39
 5.913453e+00 1.152930e+01 1.413608e+01 1.436999e+01 2.229660e+01 3.010301e+01 2.032162e+01 2.279499e+01 2.574340e+01 2.268380e+01 1.667498e+01 1.844300e+01 9.039783e+00 3.406633e-01 8.606508e-01 1.031353e+00 1.063719e+00 1.968784e+00 1.602064e+00 1.283723e+00 3.483716e+00 2.133264e+00 1.545430e+00 1.828503e+00 1.914315e+00 4.362058e-01 8.076818e-02 9.465350e-02 2.291791e-01 2.011906e-01 4.196378e-01 4.832503e-01 3.587429e-01 3.824950e-01 5.251233e-01 3.228342e-01 2.402719e-01 2.851625e-01 5.248703e-02
<GCONST> 9.235417e+01
<MIXTURE> 2 4.528854e-01
<MEAN> 39
 -2.521003e+00 -2.633318e-01 4.267873e+00 -9.135103e+00 -1.491115e+01 -3.890098e+00 1.884045e-01 -1.033998e+01 -1.303572e+01 2.311788e+00 -7.028710e+00 -4.153124e+00 6.704938e+01 7.986842e-01 1.749090e+00 -9.677788e-01 1.505009e+00 7.850531e-01 9.281458e-01 -4.352593e-01 -2.425050e+00 6.681819e-02 7.304532e-01 -8.108214e-01 5.770921e-01 -1.719427e+00 1.522400e-01 -1.348743e-01 -4.285945e-01 5.237153e-01 3.821494e-01 -3.094929e-01 -5.185673e-01 3.835403e-01 6.599197e-01 -7.280721e-01 2.456311e-01 2.584031e-01 -1.086630e-01
<VARIANCE> 39
 2.233499e+01 2.740980e+01 4.069041e+01 1.113084e+02 4.236851e+01 4.665423e+01 5.891685e+01 5.432948e+01 4.658719e+01 4.347816e+01 7.961703e+01 3.464807e+01 1.776590e+01 8.707795e-01 1.418689e+00 3.446687e+00 3.236989e+00 3.656348e+00 4.195367e+00 4.284888e+00 4.242579e+00 4.353791e+00 3.965161e+00 3.304635e+00 2.275676e+00 8.361497e-01 1.787507e-01 2.280839e-01 3.990040e-01 8.215722e-01 5.951307e-01 6.282722e-01 6.465166e-01 6.496188e-01 6.834521e-01 6.121527e-01 7.545814e-01 4.129073e-01 1.415189e-01
<GCONST> 1.233684e+02
<MIXTURE> 3 3.529605e-01
<MEAN> 39
 -3.796196e+00 5.851249e-01 1.302226e+01 -8.450239e+00 -1.619445e+01 6.850166e+00 -5.072909e+00 1.861738e+00 -1.249387e+01 -5.379495e-02 5.234673e+00 -1.016063e+01 7.015876e+01 9.327567e-01 1.175863e+00 -3.294259e-01 2.833397e-01 1.551930e+00 3.217853e-01 1.199051e+00 -1.919403e+00 -1.701500e+00 1.409367e+00 -1.064725e+00 -5.688427e-02 -1.683834e+00 2.404547e-01 7.801270e-02 -7.233168e-01 5.868320e-01 7.621740e-01 -8.722440e-01 1.393927e-01 -1.862740e-01 2.081821e-01 -2.024950e-01 -3.858334e-01 5.964316e-01 -2.493206e-01
<VARIANCE> 39
 1.110426e+01 1.633523e+01 3.679023e+01 2.612353e+01 2.744796e+01 4.475187e+01 2.774969e+01 4.198867e+01 2.683844e+01 2.514977e+01 2.399979e+01 1.880831e+01 1.591247e+01 6.104552e-01 1.040855e+00 2.258792e+00 1.649418e+00 2.987891e+00 3.017941e+00 2.384653e+00 3.277876e+00 2.871902e+00 2.445363e+00 1.675557e+00 1.895659e+00 6.127656e-01 9.115573e-02 1.226946e-01 2.700555e-01 2.521430e-01 4.270179e-01 4.494904e-01 3.676547e-01 4.660640e-01 6.443689e-01 3.137422e-01 4.034154e-01 3.747061e-01 9.473491e-02
<GCONST> 1.046068e+02
<STATE> 3
<NUMMIXES> 3
<MIXTURE> 1 2.342677e-01
<MEAN> 39
 1.253833e+00 5.108317e+00 7.290394e+00 -2.750288e+00 -6.388831e+00 -5.543572e-01 2.802685e+00 -4.101343e+00 -1.920398e+01 4.379277e+00 3.091796e-01 -7.228558e+00 6.383425e+01 8.709802e-02 1.086328e+00 -7.542157e-01 1.304245e+00 9.457046e-01 -9.063260e-01 6.341725e-01 -1.072737e+00 7.640218e-01 -4.549280e-01 -1.242850e+00 1.277419e+00 -1.057470e+00 -5.853899e-01 -2.477264e-01 2.315231e-01 -7.098587e-02 -3.560928e-01 4.539461e-01 -7.805009e-01 7.062697e-01 9.984434e-01 -5.884987e-01 2.049361e-01 3.193565e-02 2.594111e-01
<VARIANCE> 39
 5.867217e+00 1.436617e+01 1.292822e+01 1.518256e+01 2.011426e+01 2.111403e+01 1.815790e+01 3.159298e+01 2.197847e+01 2.531348e+01 2.350675e+01 2.088152e+01 1.061441e+01 7.527081e-01 1.331885e+00 1.734080e+00 1.474143e+00 3.184969e+00 2.069237e+00 2.766584e+00 3.320911e+00 3.072223e+00 2.272137e+00 1.823195e+00 2.112278e+00 9.282503e-01 1.481411e-01 2.396613e-01 3.308655e-01 2.890107e-01 6.767070e-01 3.903867e-01 4.051207e-01 7.830467e-01 4.627393e-01 3.976946e-01 3.889065e-01 3.681551e-01 1.508126e-01
<GCONST> 1.032430e+02
<MIXTURE> 2 4.242101e-01
<MEAN> 39
 1.568471e+00 3.420621e+00 -1.234679e+00 -6.146924e+00 -1.248848e+01 -6.084244e-01 -5.203132e+00 -1.594523e+01 -8.445003e+00 -1.013046e+00 -9.452631e+00 -5.601374e-01 6.335851e+01 1.885660e-01 5.617333e-01 -3.021544e-01 1.088898e+00 4.455035e-01 6.959841e-02 -4.701794e-01 -1.176516e-01 5.270846e-01 -7.580743e-01 4.746216e-01 1.605593e-01 -7.089652e-01 -4.365507e-01 -1.758737e-01 3.304355e-01 -2.086980e-01 1.677737e-01 -3.371128e-01 2.989331e-01 6.812944e-01 -1.749698e-01 5.306804e-02 1.886467e-01 -2.074966e-01 2.056652e-01
<VARIANCE> 39
 1.940487e+01 1.746203e+01 2.105394e+01 2.858161e+01 2.409380e+01 3.311195e+01 3.870037e+01 3.925834e+01 2.525090e+01 3.723055e+01 3.614954e+01 2.766678e+01 1.118123e+01 9.861064e-01 1.248260e+00 2.072406e+00 2.781946e+00 2.500789e+00 2.783542e+00 2.968416e+00 3.064524e+00 2.418278e+00 2.508614e+00 2.095051e+00 1.645630e+00 8.328602e-01 1.897480e-01 2.272092e-01 3.606441e-01 4.762715e-01 5.777843e-01 4.981712e-01 4.837447e-01 6.680128e-01 4.092383e-01 4.848611e-01 4.362341e-01 3.348890e-01 1.154492e-01
<GCONST> 1.100637e+02
<MIXTURE> 3 3.415215e-01
<MEAN> 39
 1.018114e+00 3.404437e+00 3.795808e+00 1.510716e+00 -1.100169e+01 -1.735681e+00 -1.335182e-01 -1.130157e+01 -1.102149e+01 3.627005e-01 -6.251762e-01 -2.128965e+00 6.219011e+01 -1.979792e-02 7.062432e-01 -3.999840e-02 3.158962e-01 5.538447e-01 -3.010646e-01 -9.236161e-02 -1.350475e-01 8.148749e-02 -1.091894e-01 -3.171267e-01 1.610193e-01 -6.240081e-01 -2.185687e-01 -7.633051e-02 -2.386489e-02 -2.902482e-01 1.872300e-01 6.340821e-02 -1.943768e-01 5.337075e-01 2.275043e-01 -2.015322e-01 2.284065e-02 -1.966389e-01 1.225874e-01
<VARIANCE> 39
 1.238247e+01 2.507413e+01 2.092399e+01 6.668879e+01 2.592155e+01 4.770823e+01 2.800109e+01 4.502560e+01 2.799330e+01 2.845406e+01 3.315747e+01 2.096960e+01 1.765550e+01 3.967166e-01 1.039789e+00 1.322048e+00 1.279680e+00 2.046742e+00 1.823834e+00 2.135872e+00 2.873349e+00 2.220040e+00 1.757901e+00 1.408670e+00 1.555803e+00 5.810605e-01 1.106572e-01 1.807420e-01 3.140952e-01 3.157618e-01 4.234540e-01 3.374740e-01 4.572492e-01 5.568778e-01 4.587154e-01 3.494097e-01 3.021865e-01 3.080341e-01 9.957280e-02
<GCONST> 1.033384e+02
<STATE> 4
<NUMMIXES> 3
<MIXTURE> 1 2.061707e-01
<MEAN> 39
 -2.007234e+00 1.001415e+01 6.620952e+00 2.121083e+00 -3.199781e+00 -1.983836e+00 -4.460717e-01 -5.088400e+00 -1.058588e+01 -2.644919e+00 -2.507970e+00 -2.773555e+00 5.776448e+01 -2.046959e+00 3.190996e-01 -4.947550e-01 1.329966e+00 2.299454e+00 4.446817e-01 -2.423045e-01 1.370590e+00 2.437109e+00 -9.993420e-01 -3.242976e-01 6.635884e-01 -1.682274e+00 -5.414369e-01 -1.002249e+00 -3.079999e-01 -3.307313e-01 -3.034253e-01 3.003924e-01 -3.949730e-02 4.805657e-01 2.685898e-01 3.654165e-01 3.643360e-01 -1.799344e-01 4.082979e-01
<VARIANCE> 39
 1.291664e+01 1.149434e+01 1.782374e+01 2.000088e+01 2.251166e+01 2.465127e+01 2.676578e+01 2.916348e+01 2.685702e+01 2.330688e+01 1.859538e+01 1.889931e+01 1.549214e+01 1.267359e+00 2.248094e+00 2.175519e+00 2.678396e+00 2.492913e+00 2.991063e+00 3.514953e+00 4.396031e+00 3.490337e+00 3.190575e+00 2.813199e+00 2.515159e+00 1.348525e+00 2.555567e-01 3.689941e-01 3.088309e-01 3.915177e-01 5.415857e-01 4.705698e-01 5.772998e-01 5.467684e-01 5.618911e-01 5.071842e-01 3.716388e-01 4.461088e-01 2.760263e-01
<GCONST> 1.114629e+02
<MIXTURE> 2 4.657528e-01
<MEAN> 39
 -4.570920e+00 -2.183845e-01 2.287915e+00 -3.951691e+00 -9.679411e+00 -2.153167e+00 -3.944590e+00 -2.599027e+00 -6.811860e+00 -1.221400e+00 -2.084380e+00 -3.915627e+00 6.533368e+01 -4.325391e-01 -5.058912e-01 -1.080012e-01 -3.352244e-01 1.082569e-01 -2.918308e-01 -1.719631e-01 1.237919e+00 6.856654e-01 -3.316597e-01 2.778027e-01 -2.628977e-01 5.117354e-01 -4.936866e-03 5.085737e-02 -1.613325e-02 3.287268e-02 1.692192e-01 5.844279e-02 4.413712e-02 -4.196675e-02 5.656163e-02 -6.332365e-02 1.074297e-02 2.779708e-02 -4.964033e-02
<VARIANCE> 39
 4.909612e+01 3.909442e+01 5.266259e+01 6.472744e+01 5.883425e+01 6.651500e+01 6.616428e+01 1.048428e+02 6.333006e+01 4.116926e+01 5.695639e+01 3.677113e+01 3.767089e+01 2.261077e+00 3.245286e+00 3.058993e+00 3.673845e+00 4.952526e+00 4.008272e+00 4.945264e+00 6.503454e+00 4.818934e+00 3.457722e+00 3.022985e+00 2.751214e+00 2.896610e+00 4.455152e-01 5.509617e-01 4.860220e-01 7.115149e-01 7.924361e-01 7.461907e-01 8.312297e-01 1.116923e+00 8.633003e-01 6.279777e-01 6.432116e-01 5.009595e-01 5.086665e-01
<GCONST> 1.350093e+02
<MIXTURE> 3 3.280761e-01
<MEAN> 39
 -3.487748e+00 5.920420e+00 2.235495e+00 1.033777e+00 -5.693137e+00 -2.173764e+00 -1.347612e+00 -7.343268e+00 -9.032378e+00 -2.279970e+00 -3.097671e+00 -2.385114e+00 5.906485e+01 -1.670946e+00 1.074444e-01 -2.322427e-01 6.080450e-01 1.819147e+00 -1.250700e-01 -2.807360e-01 1.719883e+00 1.071733e+00 -3.546951e-01 2.464941e-01 -2.039052e-01 -5.371845e-01 -4.149409e-01 -6.035435e-01 -1.631537e-01 -2.849806e-01 -1.273152e-01 4.152305e-02 -1.247835e-01 5.182440e-01 3.924358e-01 1.440075e-01 2.141927e-01 -4.444490e-02 4.915983e-01
<VARIANCE> 39
 3.959782e+01 2.177304e+01 2.432515e+01 3.938361e+01 4.472769e+01 3.910707e+01 3.469368e+01 6.209875e+01 4.295650e+01 3.283012e+01 3.878216e+01 2.453612e+01 2.812078e+01 2.682614e+00 3.188571e+00 2.735190e+00 3.970737e+00 5.671523e+00 3.515079e+00 4.546685e+00 5.398503e+00 4.002653e+00 3.239453e+00 3.123454e+00 2.796537e+00 2.029406e+00 6.019138e-01 4.751734e-01 4.336025e-01 4.685770e-01 9.138831e-01 5.740957e-01 7.811455e-01 9.693380e-01 7.042627e-01 5.997307e-01 5.417270e-01 5.050285e-01 3.210178e-01
<GCONST> 1.269890e+02
<TRANSP> 5
 0.000000e+00 1.000000e+00 0.000000e+00 0.000000e+00 0.000000e+00
 0.000000e+00 5.902488e-01 4.097512e-01 0.000000e+00 0.000000e+00
 0.000000e+00 0.000000e+00 7.432706e-01 2.567294e-01 0.000000e+00
 0.000000e+00 0.000000e+00 0.000000e+00 6.579466e-01 3.420534e-01
 0.000000e+00 0.000000e+00 0.000000e+00 0.000000e+00 0.000000e+00
<ENDHMM>
~h "ow"
<BEGINHMM>
<NUMSTATES> 5
<STATE> 2
<NUMMIXES> 3
<MIXTURE> 1 1.873433e-01
<MEAN> 39
 -4.048108e-01 -2.874784e+00 -5.111731e+00 -8.965931e+00 -8.639126e+00 1.588766e+00 -1.546950e+01 -4.981957e+00 1.392614e+00 2.018685e+00 2.123394e+00 -4.805688e+00 7.094724e+01 3.408959e+00 -1.657099e+00 -1.228786e-01 -2.139515e+00 -2.441167e+00 1.000250e+00 -1.906849e+00 -8.999034e-01 4.738067e-01 1.057931e+00 1.282342e+00 -1.120893e+00 2.600187e+00 -1.226435e+00 3.142728e-01 -5.439058e-03 3.842630e-01 7.242762e-01 1.070322e-01 1.139735e+00 5.966205e-01 -2.451221e-01 -1.295432e-01 4.905492e-02 3.718781e-01 -6.057475e-01
<VARIANCE> 39
 1.596696e+01 1.799232e+01 2.437826e+01 3.359933e+01 2.312696e+01 7.745695e+01 5.054927e+01 4.321799e+01 3.536753e+01 3.411913e+01 5.485981e+01 2.534901e+01 1.970659e+01 4.281981e+00 2.534090e+00 2.718295e+00 3.878211e+00 3.547678e+00 5.207041e+00 5.981844e+00 4.965423e+00 4.284493e+00 3.672406e+00 4.320092e+00 3.627869e+00 1.880759e+00 4.634647e-01 4.557630e-01 4.340314e-01 4.815260e-01 4.189058e-01 6.910965e-01 6.823831e-01 5.541763e-01 6.612749e-01 5.472047e-01 7.972897e-01 5.201441e-01 3.200866e-01
<GCONST> 1.253584e+02
<MIXTURE> 2 3.787676e-01
<MEAN> 39
 1.837315e-01 -3.941923e+00 -6.855834e+00 -1.193108e+01 -8.353257e+00 -4.039473e+00 -8.795356e+00 -2.133444e+00 -2.033354e+00 -2.632844e+00 -4.953081e+00 -2.621829e+00 7.072024e+01 6.700706e-01 -7.300037e-01 -1.063621e+00 -1.476263e+00 -2.582885e-02 8.009937e-01 -3.043990e-01 1.296578e-01 5.694218e-01 2.748801e-01 -2.849268e-01 -7.102358e-01 7.874803e-01 -4.371487e-01 3.657067e-01 1.953147e-01 4.194818e-01 2.956821e-01 3.275090e-01 1.065506e-01 -2.250424e-01 -2.324615e-01 8.036754e-02 2.619665e-01 -4.650725e-02 -4.903464e-01
<VARIANCE> 39
 1.791253e+01 3.587489e+01 4.045813e+01 5.030087e+01 4.829084e+01 1.166609e+02 6.177792e+01 6.092952e+01 5.480824e+01 5.972928e+01 7.814062e+01 3.891864e+01 1.849232e+01 1.482981e+00 2.031531e+00 2.586123e+00 2.680883e+00 3.928565e+00 3.875501e+00 3.522706e+00 4.117899e+00 3.892591e+00 3.383651e+00 3.276343e+00 3.027987e+00 1.245194e+00 4.464621e-01 3.919832e-01 3.559391e-01 4.756963e-01 5.658331e-01 7.451767e-01 6.323235e-01 9.738606e-01 8.080842e-01 6.082662e-01 7.717511e-01 4.832480e-01 1.820582e-01
<GCONST> 1.269231e+02
<MIXTURE> 3 4.338890e-01
<MEAN> 39
 5.523671e-01 -6.127573e+00 -5.949736e+00 -8.537189e+00 -9.174822e+00 2.704660e+00 -1.222892e+01 -1.502993e+00 1.609986e+00 4.566608e+00 3.357966e+00 -8.199977e+00 7.357015e+01 3.335766e-01 -2.028786e-01 -5.308799e-01 -1.138398e+00 -1.463359e-01 1.298700e+00 5.556326e-01 -3.998482e-01 -6.196930e-01 5.724197e-01 8.898329e-01 -3.713742e-01 2.344271e-01 -2.327057e-01 5.044082e-01 1.620125e-01 2.230507e-01 2.313672e-01 -6.381490e-02 2.549857e-01 -1.322194e-01 -5.525262e-01 -5.452853e-01 -6.692927e-02 6.328975e-01 -5.784066e-01
<VARIANCE> 39
 1.371409e+01 1.727118e+01 2.539418e+01 3.412304e+01 2.570115e+01 7.384273e+01 6.093959e+01 6.081466e+01 4.271911e+01 3.773496e+01 6.027077e+01 3.473329e+01 1.607558e+01 5.609154e-01 1.187417e+00 1.999146e+00 1.588436e+00 1.772597e+00 3.228976e+00 2.683905e+00 3.204812e+00 3.965301e+00 3.087256e+00 3.614800e+00 3.329938e+00 8.377073e-01 2.400859e-01 1.908524e-01 2.776643e-01 3.156945e-01 4.677632e-01 4.988124e-01 5.914064e-01 7.120354e-01 6.659778e-01 5.456797e-01 6.991885e-01 4.887957e-01 1.917083e-01
<GCONST> 1.153706e+02
<STATE> 3
<NUMMIXES> 3
<MIXTURE> 1 1.761189e-01
<MEAN> 39
 1.234016e+00 -4.034081e+00 -4.020869e+00 -1.130590e+01 -7.680043e+00 6.160110e+00 -1.530757e+01 5.344812e-01 -1.125110e+00 5.260312e+00 7.315422e+00 -7.354473e+00 7.429488e+01 2.863601e-01 6.281964e-01 6.329343e-02 -5.075526e-01 -6.568111e-02 8.363015e-01 -2.257928e-01 -5.744202e-01 -1.483106e+00 -4.542881e-01 1.010606e+00 1.195264e+00 -4.565747e-01 1.651496e-04 2.494445e-01 8.656596e-02 1.204787e-01 2.823145e-02 -3.985527e-02 -8.058496e-02 -2.396782e-02 -1.141728e-01 -4.579346e-01 -2.030496e-01 3.413282e-01 -1.760176e-01
<VARIANCE> 39
 7.580055e+00 1.482654e+01 1.216303e+01 2.442862e+01 1.133628e+01 5.469146e+01 4.128391e+01 2.639665e+01 3.164199e+01 3.775764e+01 3.973283e+01 3.689575e+01 1.087029e+01 2.116483e-01 4.799577e-01 5.798387e-01 7.874680e-01 7.143532e-01 1.277115e+00 1.588021e+00 1.563762e+00 1.965313e+00 2.623737e+00 1.961058e+00 2.513721e+00 1.714498e-01 3.291740e-02 9.136640e-02 9.096267e-02 1.350101e-01 1.376594e-01 2.727281e-01 2.072485e-01 2.717850e-01 3.594920e-01 3.270555e-01 4.611273e-01 3.668377e-01 3.892065e-02
<GCONST> 8.796872e+01
<MIXTURE> 2 4.224809e-01
<MEAN> 39
 1.703095e+00 -1.234506e+00 -1.022125e+01 -1.597123e+01 -8.378313e+00 -7.631748e-01 -8.604543e+00 -5.624924e+00 -4.406253e+00 -1.702828e+00 -2.861479e+00 -3.273011e+00 6.897063e+01 4.494485e-02 6.829084e-01 2.036798e-01 -1.103450e-01 -2.226748e-01 5.961313e-02 -2.379979e-01 -1.518595e-01 -2.725252e-01 -3.144507e-01 -6.902305e-02 2.419401e-01 -3.982893e-01 -1.006146e-01 1.228950e-01 2.115940e-01 3.188110e-01 5.588128e-02 -1.794120e-01 -6.889817e-02 -2.670616e-03 2.681237e-02 -4.921708e-02 -5.401157e-02 3.931757e-02 -1.321840e-01
<VARIANCE> 39
 1.555148e+01 4.141508e+01 2.585458e+01 5.460806e+01 4.641512e+01 8.767191e+01 8.419706e+01 4.485327e+01 6.250442e+01 6.213289e+01 6.415987e+01 3.964819e+01 1.796626e+01 3.091718e-01 9.415244e-01 8.831107e-01 1.664155e+00 1.497532e+00 2.415443e+00 2.285622e+00 2.478876e+00 2.445993e+00 2.500363e+00 2.363046e+00 1.936301e+00 3.720052e-01 6.911755e-02 1.855502e-01 1.711042e-01 2.481787e-01 2.693595e-01 3.704293e-01 3.978208e-01 3.897219e-01 4.073083e-01 4.200700e-01 4.203246e-01 3.656604e-01 7.868117e-02
<GCONST> 1.075887e+02
<MIXTURE> 3 4.014007e-01
<MEAN> 39
 2.585685e+00 -1.588652e+00 -5.925982e+00 -1.395818e+01 -1.068417e+01 6.643620e+00 -9.393605e+00 -2.150523e+00 -2.556725e+00 -2.930880e+00 4.217978e+00 -1.261406e+00 7.071819e+01 1.135870e-02 6.552550e-01 3.170627e-01 -1.605092e-01 -3.284106e-02 2.864734e-02 -4.173564e-01 -6.938903e-02 -4.077554e-02 -4.637183e-01 -2.057665e-01 2.651708e-01 -3.622190e-01 -5.859766e-02 7.786863e-02 5.155341e-02 1.987362e-01 1.460966e-01 -1.383184e-01 -5.549880e-02 -1.168619e-01 6.063784e-02 1.369682e-01 -1.421134e-01 -1.474157e-01 -8.031351e-02
<VARIANCE> 39
 9.612595e+00 3.270517e+01 2.299056e+01 4.774946e+01 3.807774e+01 7.284315e+01 7.205013e+01 5.844713e+01 4.275308e+01 5.648615e+01 5.894913e+01 3.949136e+01 1.465015e+01 1.642713e-01 5.856848e-01 5.389955e-01 8.427396e-01 8.343517e-01 1.238335e+00 1.300941e+00 1.512215e+00 1.537222e+00 1.856593e+00 1.486174e+00 1.595660e+00 1.958582e-01 2.995132e-02 1.152906e-01 8.432534e-02 1.363012e-01 1.476292e-01 2.202905e-01 2.053153e-01 2.522448e-01 2.704324e-01 3.039149e-01 2.765995e-01 2.913725e-01 4.347260e-02
<GCONST> 9.211617e+01
<STATE> 4
<NUMMIXES> 3
<MIXTURE> 1 1.463475e-01
<MEAN> 39
 -1.308249e+00 2.695801e+00 -1.700577e-01 -6.311299e+00 -4.831580e+00 4.277549e+00 -2.221241e+01 -7.781981e+00 -1.425779e+00 2.004751e+00 3.922480e+00 -3.606815e+00 6.844740e+01 -2.685613e+00 2.239612e+00 9.813655e-01 3.036594e+00 2.494422e+00 -2.689426e+00 2.274754e+00 9.622266e-01 5.385770e-01 -5.390522e-01 -1.839785e+00 5.184088e-01 -1.296317e+00 -1.097244e+00 2.936839e-01 -1.818292e-01 1.266439e-01 3.097530e-01 -2.333523e-01 1.184977e+00 8.617455e-01 -1.846654e-01 -1.645211e-01 1.305207e-02 3.826230e-01 -1.558445e-01
<VARIANCE> 39
 1.370500e+01 2.337288e+01 2.038705e+01 4.891656e+01 3.199463e+01 6.101793e+01 6.219987e+01 4.593837e+01 3.037197e+01 4.107860e+01 4.358200e+01 2.599245e+01 1.636457e+01 3.025291e+00 3.014553e+00 1.526081e+00 4.355465e+00 3.844483e+00 3.202217e+00 4.600991e+00 4.828177e+00 4.484717e+00 3.904096e+00 3.020226e+00 2.721610e+00 1.933036e+00 3.002312e-01 4.774454e-01 2.507812e-01 7.314973e-01 4.566844e-01 6.779206e-01 6.097977e-01 6.040687e-01 6.132891e-01 5.817081e-01 4.976536e-01 4.264159e-01 2.001121e-01
<GCONST> 1.221874e+02
<MIXTURE> 2 5.056789e-01
<MEAN> 39
 1.512835e+00 1.148048e+00 -6.642294e+00 -1.282022e+01 -9.781512e+00 1.055376e+00 -1.086932e+01 -4.829587e+00 -4.681571e+00 -2.221025e+00 1.555867e-01 -2.366007e+00 6.774246e+01 -3.266432e-01 7.483330e-01 9.673896e-01 1.128292e+00 2.919438e-01 -3.939838e-01 -2.984521e-01 -5.601681e-01 -1.514563e-01 -1.590810e-01 -4.040118e-01 -4.782804e-02 -7.723490e-01 -2.955120e-01 7.376473e-02 2.697466e-01 5.221913e-01 3.253940e-01 -1.231934e-01 2.401571e-01 1.294635e-03 9.651545e-03 7.290781e-03 -6.609613e-02 -8.988445e-02 -1.671860e-01
<VARIANCE> 39
 1.725990e+01 4.241063e+01 3.568185e+01 5.843976e+01 4.335759e+01 9.477789e+01 8.888561e+01 5.858122e+01 5.757032e+01 6.003539e+01 7.760973e+01 4.270837e+01 2.600004e+01 6.364492e-01 2.270062e+00 1.801561e+00 2.971870e+00 2.366423e+00 3.286428e+00 3.174899e+00 3.551014e+00 3.637905e+00 4.010684e+00 3.425841e+00 3.054743e+00 1.020704e+00 1.888389e-01 3.964961e-01 3.111761e-01 4.554478e-01 4.573778e-01 5.913488e-01 6.938100e-01 6.013402e-01 7.185269e-01 7.338982e-01 7.226074e-01 5.691330e-01 2.118457e-01
<GCONST> 1.240670e+02
<MIXTURE> 3 3.479736e-01
<MEAN> 39
 2.034909e+00 2.169105e+00 -4.446253e+00 -1.003559e+01 -8.660993e+00 5.573845e+00 -1.395611e+01 -5.829163e+00 -6.720397e+00 -5.014638e-01 5.099142e+00 -1.083833e+00 6.730293e+01 -7.384125e-01 1.569067e+00 1.172759e+00 2.289927e+00 1.552004e+00 -8.163483e-01 1.105670e+00 -3.927260e-01 -1.625460e-01 -3.887185e-01 -1.289441e+00 -2.669420e-01 -2.105083e+00 -5.630648e-01 9.673275e-04 2.338061e-01 6.043271e-01 4.026176e-01 -5.287095e-01 6.365426e-01 3.533372e-01 4.274468e-01 8.832559e-03 -3.115896e-01 -1.297555e-01 -3.062483e-01
<VARIANCE> 39
 1.076571e+01 3.904074e+01 2.271529e+01 6.845893e+01 3.921086e+01 7.767642e+01 8.028918e+01 7.382421e+01 6.876550e+01 6.359074e+01 5.975927e+01 3.777478e+01 2.813470e+01 1.334197e+00 3.634253e+00 1.832669e+00 4.469038e+00 3.665900e+00 4.186713e+00 5.723204e+00 4.131249e+00 5.137573e+00 4.994418e+00 3.926526e+00 3.123736e+00 2.503280e+00 2.556871e-01 5.626303e-01 2.844500e-01 7.908357e-01 7.076995e-01 6.916089e-01 8.081937e-01 9.266222e-01 1.025987e+00 9.206486e-01 7.284379e-01 6.193619e-01 3.115901e-01
<GCONST> 1.310101e+02
<TRANSP> 5
 0.000000e+00 1.000000e+00 0.000000e+00 0.000000e+00 0.000000e+00
 0.000000e+00 6.806392e-01 3.193608e-01 0.000000e+00 0.000000e+00
 0.000000e+00 0.000000e+00 8.413768e-01 1.586232e-01 0.000000e+00
 0.000000e+00 0.000000e+00 0.000000e+00 6.731030e-01 3.268970e-01
 0.000000e+00 0.000000e+00 0.000000e+00 0.000000e+00 0.000000e+00
<ENDHMM>
~h "oy"
<BEGINHMM>
<NUMSTATES> 5
<STATE> 2
<NUMMIXES> 3
<MIXTURE> 1 1.928370e-01
<MEAN> 39
 3.443208e+00 -1.097078e+00 -2.914404e+00 -1.859334e+01 -1.317818e+01 9.277315e+00 -1.015349e+01 2.275042e+00 -6.954929e-02 -7.776156e+00 2.581398e+00 1.379480e+00 7.074566e+01 2.878483e-02 -4.591611e-01 -1.610740e-01 2.696686e-01 -1.839862e-01 2.308137e-01 2.428893e-01 2.317810e-01 -3.700648e-01 1.637777e-01 1.458820e-01 2.098353e-01 1.430417e-01 -1.064374e-01 3.536542e-02 -1.465719e-01 3.061900e-01 4.024370e-01 -4.926763e-02 -1.390627e-02 -4.106969e-01 -4.441216e-01 4.110511e-01 2.825342e-01 -1.299363e-01 -5.202210e-02
<VARIANCE> 39
 7.314943e+00 1.761043e+01 1.152548e+01 3.198366e+01 2.207890e+01 4.242811e+01 2.543909e+01 3.713178e+01 3.224321e+01 2.881630e+01 3.084739e+01 5.261853e+01 1.022080e+01 1.805503e-01 6.591716e-01 7.507659e-01 7.666090e-01 1.204090e+00 1.090896e+00 9.457422e-01 9.812365e-01 2.365366e+00 1.590180e+00 1.855064e+00 1.116047e+00 2.462900e-01 3.712305e-02 1.931709e-01 1.188629e-01 1.418467e-01 1.772215e-01 2.320906e-01 2.777927e-01 2.130168e-01 3.233273e-01 4.994274e-01 4.356579e-01 4.676977e-01 8.841045e-02
<GCONST> 8.997895e+01
<MIXTURE> 2 3.732251e-01
<MEAN> 39
 1.753978e+00 2.683014e+00 -7.780874e+00 -1.222550e+01 -1.299124e+01 2.176930e+00 -4.523726e+00 -4.177492e+00 -4.363881e+00 -5.251590e+00 -2.575416e+00 -3.204109e+00 6.622413e+01 1.869330e+00 -7.126933e-01 -1.020411e+00 -2.075565e+00 -1.235700e+00 1.094705e+00 -7.071771e-01 -7.972669e-01 -8.262663e-01 -4.009455e-01 1.470752e-03 -1.692240e-01 1.634427e+00 -9.019608e-01 -5.072275e-01 2.517197e-01 6.587954e-01 7.064725e-01 4.649849e-02 -6.475180e-03 3.173162e-01 2.357600e-01 3.146021e-01 2.014120e-01 1.965923e-01 -1.624106e-01
<VARIANCE> 39
 1.436046e+01 3.174956e+01 2.205070e+01 4.175320e+01 4.319703e+01 7.514762e+01 6.867210e+01 4.745489e+01 5.609422e+01 5.639501e+01 5.242320e+01 3.653019e+01 1.800421e+01 2.897143e+00 3.217039e+00 2.279299e+00 5.701942e+00 6.618496e+00 4.742115e+00 3.782005e+00 3.847745e+00 5.585750e+00 4.665338e+00 4.132510e+00 3.266496e+00 1.868788e+00 3.231403e-01 4.896478e-01 4.265465e-01 5.902050e-01 9.093652e-01 7.878054e-01 8.553683e-01 7.304387e-01 1.000219e+00 9.583688e-01 6.141456e-01 5.824699e-01 2.063042e-01
<GCONST> 1.300401e+02
<MIXTURE> 3 4.339376e-01
<MEAN> 39
 3.162968e+00 -6.151139e-01 -9.635358e+00 -1.491051e+01 -1.225950e+01 3.662613e+00 -5.433703e+00 -3.638324e+00 -7.204252e+00 -4.729729e+00 -6.892229e-01 3.685978e-01 6.846310e+01 -4.438373e-02 -8.940763e-01 -3.632346e-01 8.343002e-03 3.311855e-01 7.603110e-01 -5.217516e-02 -3.223127e-01 -3.671561e-01 7.347113e-01 6.035072e-01 -2.116885e-01 4.764183e-01 -2.201346e-01 -1.681858e-01 1.760878e-01 5.269852e-01 3.983275e-01 -3.670733e-01 -4.017991e-01 -1.331289e-01 4.392861e-01 4.962358e-01 -1.788713e-01 -4.726503e-01 -8.095111e-02
<VARIANCE> 39
 9.249261e+00 2.733360e+01 2.696044e+01 4.552332e+01 3.711897e+01 6.911224e+01 6.060570e+01 5.128753e+01 5.315916e+01 4.580965e+01 5.746293e+01 4.525969e+01 1.310003e+01 3.028980e-01 1.472468e+00 7.866927e-01 1.686748e+00 2.176134e+00 1.888877e+00 2.539335e+00 2.644047e+00 2.557127e+00 3.409243e+00 2.795483e+00 2.616281e+00 4.677065e-01 1.233250e-01 2.018599e-01 1.764459e-01 3.058675e-01 3.493008e-01 5.000041e-01 4.492780e-01 4.472739e-01 5.664496e-01 5.101001e-01 4.949672e-01 4.570121e-01 1.184252e-01
<GCONST> 1.098131e+02
<STATE> 3
<NUMMIXES> 3
<MIXTURE> 1 2.007633e-01
<MEAN> 39
 3.012645e+00 -4.775764e+00 -7.527447e+00 -1.393570e+01 -1.042615e+01 9.973022e+00 -8.744416e+00 -3.618098e+00 -7.365193e+00 -1.811610e+00 6.880858e+00 -2.201872e-01 7.208949e+01 -4.924936e-01 -1.437841e+00 -1.765686e-01 2.048734e+00 1.525685e+00 -6.719506e-01 -2.506072e+00 -1.137270e+00 9.002918e-01 3.913105e+00 5.660442e-01 -3.096916e+00 6.971068e-01 -2.125019e-01 1.250414e-01 5.981554e-01 4.939710e-01 -3.005008e-01 -1.178872e+00 -4.961327e-01 9.115395e-01 1.045054e+00 -7.203309e-02 -1.168115e+00 -6.580970e-01 -5.832196e-02
<VARIANCE> 39
 7.005599e+00 1.563678e+01 2.312482e+01 2.858217e+01 1.824156e+01 4.527260e+01 4.249616e+01 4.364246e+01 3.373804e+01 4.492334e+01 5.372595e+01 3.083952e+01 8.000425e+00 1.922456e-01 5.444796e-01 7.183372e-01 1.105731e+00 1.516662e+00 1.812689e+00 1.980784e+00 2.330992e+00 2.083633e+00 2.283262e+00 3.068182e+00 3.673361e+00 1.510959e-01 2.939383e-02 9.268523e-02 1.256782e-01 1.240773e-01 2.008250e-01 3.357508e-01 3.283272e-01 4.040594e-01 3.126830e-01 7.032427e-01 3.181029e-01 5.097620e-01 2.899275e-02
<GCONST> 9.441325e+01
<MIXTURE> 2 3.510089e-01
<MEAN> 39
 1.455508e+00 -4.213309e+00 -1.226871e+01 -1.228078e+01 -6.956000e+00 4.696610e+00 -9.225508e+00 -7.654863e+00 -6.534220e+00 8.957210e-01 -5.149806e-01 -4.523836e+00 6.927403e+01 -5.772540e-01 -1.748537e+00 9.561712e-01 1.707775e+00 9.980557e-01 -1.807833e+00 -2.313948e+00 1.695638e-01 2.428205e+00 2.045971e+00 -1.700860e+00 -1.919841e+00 6.205187e-01 -2.607318e-01 2.324421e-01 8.704017e-01 3.605269e-01 -7.256925e-01 -1.165382e+00 4.613974e-01 1.095924e+00 3.246909e-01 -6.636043e-01 -7.134353e-01 1.770461e-01 -1.804016e-01
<VARIANCE> 39
 1.201772e+01 2.935368e+01 2.670996e+01 3.888590e+01 2.911412e+01 7.936695e+01 5.372304e+01 3.336049e+01 4.622264e+01 4.657728e+01 4.768395e+01 3.414176e+01 1.251800e+01 3.916596e-01 1.110508e+00 1.376178e+00 2.858864e+00 2.116870e+00 4.236931e+00 3.064206e+00 2.898005e+00 1.907965e+00 2.208627e+00 2.336504e+00 2.269938e+00 4.796902e-01 9.936080e-02 2.456363e-01 3.369692e-01 3.673661e-01 6.989402e-01 4.732038e-01 7.280000e-01 4.584624e-01 5.845441e-01 4.961947e-01 4.149542e-01 4.576325e-01 9.453952e-02
<GCONST> 1.113455e+02
<MIXTURE> 3 4.482278e-01
<MEAN> 39
 1.237094e+00 -7.211957e+00 -8.229237e+00 -8.621013e+00 -7.422487e+00 7.381448e-01 -1.378628e+01 -3.956511e+00 8.020996e-01 5.862477e+00 -1.945939e+00 -9.447066e+00 7.151130e+01 -8.020907e-01 -9.289479e-01 1.843819e+00 2.084892e+00 -4.725387e-01 -3.607490e+00 -1.128411e+00 2.648369e+00 1.969222e+00 -1.129710e-01 -2.467602e+00 -1.079628e+00 3.962854e-01 -1.538825e-01 4.321219e-01 7.045452e-01 -1.840787e-01 -8.952777e-01 -4.681015e-01 1.050752e+00 6.899819e-01 -8.969630e-01 -1.282023e+00 2.708249e-01 1.182567e+00 -1.536911e-01
<VARIANCE> 39
 1.015291e+01 2.271232e+01 2.645931e+01 3.632404e+01 3.040234e+01 7.881589e+01 5.797480e+01 3.970388e+01 3.812962e+01 3.614623e+01 7.498413e+01 2.652603e+01 1.400831e+01 3.263090e-01 8.151564e-01 1.452198e+00 1.388240e+00 1.529076e+00 2.790082e+00 2.613466e+00 2.344054e+00 1.967182e+00 3.167561e+00 1.862324e+00 3.287047e+00 2.120008e-01 5.256389e-02 1.347888e-01 2.311715e-01 2.784492e-01 4.044593e-01 4.192667e-01 6.351539e-01 5.101624e-01 5.762135e-01 5.492285e-01 6.570536e-01 5.169657e-01 4.583086e-02
<GCONST> 1.057957e+02
<STATE> 4
<NUMMIXES> 3
<MIXTURE> 1 1.964278e-01
<MEAN> 39
 -1.103803e+00 -8.528423e+00 -1.691485e+00 -5.591004e+00 -1.048184e+01 -4.213221e+00 -1.623912e+01 6.123393e+00 2.202561e-01 7.239380e-01 -5.237054e+00 -7.908728e+00 7.307325e+01 -1.077845e+00 -1.521446e-01 3.364856e+00 1.256828e+00 -2.461764e+00 -3.469932e+00 1.961333e+00 2.756704e+00 -1.652671e+00 -2.090544e+00 2.197007e-01 1.850361e+00 1.449947e-01 4.134503e-02 6.119440e-01 2.874519e-01 -6.804340e-01 -4.699209e-01 7.543038e-01 1.194314e+00 -1.052854e+00 -1.370751e+00 -1.810116e-01 1.260317e+00 6.632682e-01 -3.023549e-01
<VARIANCE> 39
 9.410022e+00 1.955281e+01 3.008770e+01 2.693026e+01 2.279396e+01 5.065183e+01 4.186457e+01 4.892234e+01 3.026531e+01 3.446380e+01 7.309856e+01 2.285155e+01 8.526419e+00 2.712772e-01 7.165768e-01 1.422021e+00 1.319187e+00 1.834760e+00 2.124513e+00 2.427282e+00 2.579997e+00 3.142471e+00 2.041054e+00 3.452899e+00 2.147313e+00 2.543495e-01 5.736201e-02 1.806807e-01 2.366976e-01 2.772150e-01 3.762395e-01 3.631378e-01 5.665739e-01 5.722557e-01 4.493904e-01 5.659631e-01 3.554605e-01 4.878677e-01 6.825801e-02
<GCONST> 1.032429e+02
<MIXTURE> 2 5.242746e-01
<MEAN> 39
 -4.338238e+00 -4.049632e+00 7.051382e+00 -7.969242e+00 -1.793492e+01 -1.029745e+01 -4.317478e+00 -8.691760e-01 -8.816072e+00 -2.705529e-01 -1.341527e+00 -1.813933e+00 6.978193e+01 -4.158653e-01 1.820082e+00 1.242150e+00 3.562173e-01 7.261914e-02 9.756608e-02 7.800916e-01 -1.811790e+00 -8.917628e-01 1.723856e-01 6.073254e-01 4.535087e-01 -1.353186e+00 6.330141e-02 3.456911e-01 -8.248481e-01 4.007314e-01 1.122396e+00 3.691117e-01 -4.169893e-01 -1.831648e-01 6.127743e-01 -2.554174e-02 -4.038839e-01 -2.147423e-01 -4.619884e-01
<VARIANCE> 39
 1.497245e+01 3.323722e+01 3.860903e+01 5.619220e+01 2.452754e+01 5.877231e+01 4.001044e+01 7.181652e+01 4.463180e+01 2.832217e+01 5.664142e+01 2.905002e+01 2.011397e+01 7.928723e-01 1.568851e+00 3.187395e+00 3.363994e+00 4.054276e+00 1.948818e+00 3.164889e+00 2.901386e+00 3.746588e+00 3.113333e+00 3.031313e+00 1.738456e+00 1.357099e+00 2.639287e-01 3.117031e-01 3.901056e-01 6.133867e-01 6.092288e-01 4.782660e-01 6.434761e-01 1.130967e+00 5.961375e-01 6.425035e-01 5.873561e-01 3.994888e-01 2.292935e-01
<GCONST> 1.202932e+02
<MIXTURE> 3 2.792973e-01
<MEAN> 39
 -1.373282e+00 -7.676553e+00 -2.424838e+00 -4.811062e+00 -1.282586e+01 -1.132684e+01 -7.474914e+00 2.828465e+00 -7.468419e-01 -1.657988e+00 -6.449139e+00 -3.505060e+00 7.082662e+01 -9.753038e-01 6.148707e-01 2.824242e+00 3.281163e-01 -2.330823e+00 -1.761404e+00 1.947292e+00 6.904179e-01 -1.916225e+00 -9.395998e-01 1.215756e+00 1.414602e+00 -1.812503e-01 3.212325e-02 6.165508e-01 -7.842647e-02 -5.168625e-01 2.295823e-01 1.022243e+00 1.700385e-01 -1.026573e+00 -6.135390e-01 3.839644e-01 6.724471e-01 -3.185187e-02 -3.298351e-01
<VARIANCE> 39
 1.508484e+01 3.174590e+01 3.703907e+01 4.446533e+01 3.253872e+01 4.914698e+01 3.117636e+01 3.339441e+01 5.454436e+01 3.758028e+01 5.943164e+01 2.264050e+01 1.510833e+01 4.129106e-01 8.437945e-01 2.226973e+00 2.116555e+00 2.443203e+00 2.891514e+00 3.749588e+00 3.165244e+00 3.759385e+00 2.389546e+00 3.520518e+00 1.513483e+00 4.076839e-01 8.795220e-02 2.180212e-01 2.946498e-01 3.304937e-01 5.415213e-01 3.821166e-01 5.684876e-01 6.248538e-01 6.122479e-01 4.876297e-01 5.013138e-01 3.708988e-01 1.211994e-01
<GCONST> 1.111269e+02
<TRANSP> 5
 0.000000e+00 1.000000e+00 0.000000e+00 0.000000e+00 0.000000e+00
 0.000000e+00 8.294580e-01 1.705420e-01 0.000000e+00 0.000000e+00
 0.000000e+00 0.000000e+00 7.162151e-01 2.837849e-01 0.000000e+00
 0.000000e+00 0.000000e+00 0.000000e+00 8.170318e-01 1.829682e-01
 0.000000e+00 0.000000e+00 0.000000e+00 0.000000e+00 0.000000e+00
<ENDHMM>
~h "sh"
<BEGINHMM>
<NUMSTATES> 5
<STATE> 2
<NUMMIXES> 3
<MIXTURE> 1 2.505774e-01
<MEAN> 39
 -7.625171e+00 2.557178e+00 1.162373e+01 -3.210837e+00 -1.613659e+01 -7.857538e+00 -8.052591e+00 -5.423584e+00 -8.153577e+00 -5.010511e+00 -4.739640e-01 -3.309436e-01 6.837559e+01 -5.162825e+00 1.969462e+00 1.007660e+00 2.430103e+00 1.994417e+00 2.451446e+00 1.384405e+00 4.390958e-01 1.606587e+00 -3.963166e-01 1.404604e-01 6.474720e-02 -1.593754e-01 -1.285257e+00 -7.722310e-01 -4.466532e-01 -1.894525e-01 5.831585e-01 6.203709e-01 3.101178e-01 6.569006e-01 5.195698e-01 3.677993e-01 2.109353e-01 -2.333370e-02 3.111617e-01
<VARIANCE> 39
 2.641568e+01 2.470990e+01 3.084890e+01 4.958932e+01 2.271065e+01 4.061845e+01 2.667073e+01 5.684754e+01 3.185575e+01 3.243645e+01 3.420922e+01 2.457151e+01 1.460503e+01 2.225960e+00 2.049180e+00 3.496686e+00 2.379826e+00 2.645809e+00 3.771455e+00 4.619611e+00 4.101821e+00 3.365676e+00 3.350745e+00 3.369240e+00 3.377774e+00 8.571693e-01 3.202789e-01 3.205854e-01 2.654583e-01 4.044091e-01 3.589500e-01 3.637490e-01 4.920740e-01 4.787158e-01 3.525431e-01 4.357222e-01 3.438384e-01 3.445196e-01 7.906378e-02
<GCONST> 1.150440e+02
<MIXTURE> 2 5.091861e-01
<MEAN> 39
 -2.435142e+01 1.977688e-01 9.425182e+00 1.891074e+00 -5.676915e+00 2.731554e+00 -2.547689e+00 1.440221e+00 -7.123194e-01 -3.236894e+00 1.855106e+00 -3.025328e-01 6.773406e+01 -4.060078e+00 -1.176020e+00 -4.269714e-01 -3.534913e-01 4.303534e-01 1.459529e+00 1.172334e+00 6.489010e-01 1.133050e+00 3.095149e-01 4.545576e-01 2.584173e-01 4.278975e-01 1.132341e+00 -3.002911e-01 -3.633628e-01 -4.344490e-01 -5.809457e-01 -5.975134e-01 -3.583474e-01 -2.602667e-01 -2.953329e-01 -3.233010e-02 -3.583825e-02 -6.387699e-02 -7.403393e-02
<VARIANCE> 39
 3.629998e+01 3.442300e+01 3.337609e+01 4.209757e+01 2.896956e+01 3.536597e+01 2.964973e+01 3.255521e+01 3.122184e+01 2.371782e+01 2.364021e+01 1.989912e+01 2.668591e+01 3.908729e+00 2.243729e+00 3.025451e+00 2.143059e+00 3.064150e+00 3.240844e+00 2.813030e+00 2.944010e+00 3.063101e+00 2.353484e+00 2.191376e+00 1.825230e+00 1.320971e+00 4.548218e-01 5.350608e-01 4.114056e-01 5.991032e-01 5.124524e-01 5.798762e-01 6.792241e-01 5.394004e-01 5.274779e-01 4.387193e-01 4.362780e-01 4.474893e-01 2.478372e-01
<GCONST> 1.184719e+02
<MIXTURE> 3 2.402364e-01
<MEAN> 39
 -1.669537e+01 3.963251e+00 1.238804e+01 2.268951e+00 -9.501307e+00 -3.357172e+00 -6.725485e+00 -3.644562e+00 -4.606333e+00 -5.894864e+00 -7.214141e-01 -1.614613e+00 6.842584e+01 -5.781292e+00 -1.417935e-01 4.170687e-01 1.141465e+00 2.082628e+00 2.729259e+00 2.032482e+00 1.426847e+00 1.847924e+00 6.513145e-01 6.788226e-01 2.406248e-01 1.493144e-01 1.267324e-01 -9.828764e-01 -7.279020e-01 -7.673699e-01 -2.558019e-01 -4.073499e-02 6.966466e-02 1.991217e-01 1.329277e-01 3.895928e-01 1.282996e-01 1.193853e-01 1.083710e-01
<VARIANCE> 39
 5.059787e+01 2.387825e+01 3.608564e+01 4.151482e+01 2.789733e+01 4.045791e+01 2.893819e+01 4.030912e+01 3.369038e+01 2.583002e+01 2.522440e+01 2.242780e+01 2.356711e+01 4.025578e+00 2.676948e+00 3.617162e+00 2.879328e+00 3.072452e+00 4.630386e+00 3.522986e+00 4.574610e+00 3.946737e+00 2.974180e+00 2.740178e+00 2.676979e+00 1.465642e+00 6.834624e-01 3.319192e-01 3.464905e-01 4.402193e-01 4.849569e-01 5.991263e-01 6.267372e-01 6.580706e-01 4.881978e-01 4.907709e-01 4.223745e-01 4.687215e-01 1.886757e-01
<GCONST> 1.212351e+02
<STATE> 3
<NUMMIXES> 3
<MIXTURE> 1 1.659613e-01
<MEAN> 39
 -1.696110e+01 -2.462876e+00 2.311488e+00 -5.311270e-01 -2.478674e+00 6.712904e-01 4.663301e-01 3.387539e+00 -6.697402e-01 -2.001463e+00 1.181092e+00 3.835903e-01 5.868970e+01 -3.813356e-01 -6.723738e-02 1.210897e-01 -8.299410e-02 -1.213268e-01 5.840474e-02 5.098112e-02 -7.224934e-02 4.811130e-02 -2.848972e-02 6.419349e-02 2.088808e-03 2.140525e-01 4.288481e-02 1.746612e-02 3.758153e-02 -1.670458e-02 -6.847554e-02 -2.931981e-02 -2.683191e-02 -2.216037e-02 -1.929129e-02 4.316113e-03 1.392952e-02 -7.970668e-03 9.205072e-02
<VARIANCE> 39
 4.463160e+01 4.528752e+01 3.694505e+01 2.057750e+01 2.642737e+01 2.351904e+01 2.577657e+01 2.451035e+01 2.518163e+01 2.143822e+01 2.270828e+01 1.692852e+01 5.137220e+01 2.727844e+00 1.862004e+00 1.713328e+00 1.416924e+00 1.785696e+00 1.488282e+00 1.716906e+00 1.915709e+00 1.996804e+00 1.781222e+00 1.828237e+00 1.409026e+00 2.676006e+00 4.083673e-01 2.698238e-01 3.408852e-01 2.514808e-01 3.409291e-01 2.963536e-01 3.514406e-01 3.454100e-01 4.053568e-01 3.473588e-01 3.352051e-01 2.871077e-01 3.739479e-01
<GCONST> 1.085166e+02
<MIXTURE> 2 4.090908e-01
<MEAN> 39
 -2.994821e+01 -3.420241e+00 8.046391e+00 -7.219549e-02 -8.778726e+00 3.010017e+00 -4.354707e-01 1.539207e+00 1.295662e+00 -2.248695e+00 3.028903e+00 5.510465e-01 6.888660e+01 3.294795e-01 -4.482551e-01 -6.575485e-01 -2.626330e-01 -5.001056e-01 -3.765472e-01 1.830726e-01 2.682260e-01 2.391086e-01 -7.306990e-02 -1.169630e-01 2.839016e-02 -3.873667e-01 1.547413e+00 3.705544e-01 1.873083e-02 -1.042414e-01 -2.390517e-01 -6.068177e-01 -6.103159e-01 -3.333524e-01 -4.609546e-01 -2.860558e-01 -2.859589e-01 -1.917968e-01 -1.469673e-01
<VARIANCE> 39
 9.368114e+00 2.010461e+01 1.264847e+01 2.442636e+01 2.038312e+01 2.995698e+01 2.009460e+01 2.335361e+01 2.548648e+01 1.990113e+01 1.988456e+01 1.484265e+01 1.174172e+01 4.377189e+00 1.456320e+00 1.293875e+00 1.705495e+00 1.515779e+00 2.281244e+00 1.847619e+00 1.776380e+00 2.060179e+00 1.861946e+00 1.706469e+00 1.469384e+00 5.437052e-01 2.539963e-01 2.145410e-01 2.871250e-01 2.979113e-01 3.806233e-01 4.246821e-01 3.994536e-01 4.070284e-01 4.086028e-01 3.876888e-01 3.746966e-01 3.074971e-01 1.108695e-01
<GCONST> 1.011109e+02
<MIXTURE> 3 4.249479e-01
<MEAN> 39
 -2.956559e+01 -2.976390e+00 7.354975e+00 -1.386864e+00 -8.536303e+00 2.508201e+00 -4.733726e-01 7.194205e-01 4.416806e-01 -3.334720e+00 3.298325e+00 -2.508360e-01 6.862769e+01 -5.138214e-02 -3.254117e-01 -2.373488e-01 -2.750587e-02 -3.181350e-01 -1.503047e-01 3.317694e-01 -6.168945e-03 2.228330e-01 5.481944e-02 8.349688e-02 2.738514e-02 -7.440458e-02 6.589544e-01 1.465800e-01 4.993162e-02 1.692932e-01 -9.357847e-04 -1.694126e-01 -9.122058e-02 6.652782e-02 -8.322319e-02 -7.041652e-03 -8.539271e-02 6.011577e-03 -1.592596e-01
<VARIANCE> 39
 1.796534e+01 2.493157e+01 1.508855e+01 2.394958e+01 2.010616e+01 3.509821e+01 2.428545e+01 2.529195e+01 2.314311e+01 1.952488e+01 2.078931e+01 1.384411e+01 1.427644e+01 6.889138e-01 6.479601e-01 7.020317e-01 1.007761e+00 1.158886e+00 1.326912e+00 1.364578e+00 1.401003e+00 1.461391e+00 1.492753e+00 1.324552e+00 1.274243e+00 2.748903e-01 2.170417e-01 1.431570e-01 1.597024e-01 1.858379e-01 2.230100e-01 2.739931e-01 2.778266e-01 2.812314e-01 2.899944e-01 2.898325e-01 2.541176e-01 2.486651e-01 6.329515e-02
<GCONST> 9.069205e+01
<STATE> 4
<NUMMIXES> 3
<MIXTURE> 1 2.496622e-01
<MEAN> 39
 -1.398109e+01 2.442538e-01 6.665656e+00 -3.534651e-02 -1.475684e+01 -1.716410e+00 -3.757948e+00 2.058944e+00 -3.853086e+00 -5.231463e+00 3.041187e+00 -6.102473e-01 6.624296e+01 6.238328e+00 -7.317901e-03 1.012977e+00 -6.914126e-01 -9.151334e-01 -1.536384e+00 -2.941049e+00 5.227185e-01 -1.095860e+00 -8.366727e-01 1.814118e-01 -8.040061e-01 1.145638e+00 -2.764140e-01 -5.244789e-01 2.649801e-01 -3.045914e-01 4.335800e-01 4.318085e-01 -3.154652e-01 4.320002e-01 1.070293e-01 5.430491e-02 1.623734e-01 -1.584188e-01 5.402570e-01
<VARIANCE> 39
 6.382307e+01 1.461254e+01 1.626908e+01 1.850414e+01 1.600969e+01 2.596080e+01 3.158322e+01 2.225127e+01 2.143105e+01 1.557812e+01 1.442478e+01 1.228379e+01 1.833485e+01 1.162350e+00 1.567614e+00 2.320623e+00 2.130240e+00 1.919612e+00 2.491881e+00 2.735779e+00 3.154211e+00 3.246425e+00 2.134562e+00 2.284484e+00 1.785025e+00 1.138130e+00 1.052269e+00 1.927914e-01 3.064571e-01 2.851468e-01 3.157947e-01 3.192080e-01 6.233702e-01 3.449228e-01 4.130625e-01 3.011354e-01 3.120800e-01 2.758373e-01 1.807223e-01
<GCONST> 1.059813e+02
<MIXTURE> 2 3.405128e-01
<MEAN> 39
 -2.210417e+01 -1.165181e+00 8.319006e+00 -2.079054e+00 -1.004510e+01 -1.375808e+00 -2.232472e+00 -1.323624e+00 -2.566038e-01 -5.647305e+00 -8.297538e-01 -1.137738e+00 6.691191e+01 6.658228e+00 8.815145e-01 -5.051519e-01 -1.234879e+00 -1.610988e+00 -3.030161e+00 -2.386409e+00 -1.649058e+00 -2.096455e+00 -1.303337e+00 -1.642366e+00 -3.422199e-01 -3.136912e-01 8.423196e-01 -2.042428e-01 -2.843465e-01 -4.187094e-01 -1.007506e-01 -3.185467e-01 -2.987956e-01 -1.570730e-01 -2.587952e-01 2.411632e-01 -1.769556e-01 1.763117e-01 3.168249e-01
<VARIANCE> 39
 5.464417e+01 2.209920e+01 1.479138e+01 2.625952e+01 2.557227e+01 3.830241e+01 3.387258e+01 2.918395e+01 3.143667e+01 2.797540e+01 2.134198e+01 1.556242e+01 1.355803e+01 2.605166e+00 1.878750e+00 2.519848e+00 2.975572e+00 2.735802e+00 3.402495e+00 2.840113e+00 3.223663e+00 3.468868e+00 2.757954e+00 2.509399e+00 2.568669e+00 6.217610e-01 9.976248e-01 2.788726e-01 2.748432e-01 4.861957e-01 4.701366e-01 6.758988e-01 7.079805e-01 5.871199e-01 5.614818e-01 5.445920e-01 4.863791e-01 4.320624e-01 1.230922e-01
<GCONST> 1.152493e+02
<MIXTURE> 3 4.098253e-01
<MEAN> 39
 -2.267601e+01 -4.583227e+00 3.787164e+00 2.648193e+00 -7.726516e+00 -1.014353e+00 -2.235249e+00 2.785328e+00 2.495924e+00 -1.833561e+00 1.747474e+00 -4.282543e-02 6.440226e+01 4.556743e+00 9.128727e-01 -6.132630e-01 -4.607984e-01 -1.532770e-01 -7.828860e-01 -1.893674e+00 -1.138744e+00 -6.150320e-01 -1.082316e-01 -3.857369e-01 -6.644113e-01 -5.641019e-01 1.151721e+00 2.003464e-01 1.904314e-01 -5.025859e-01 -1.978060e-01 1.691770e-01 -5.568361e-01 -5.692976e-01 -4.877628e-01 -9.225135e-02 1.243471e-01 -1.844884e-01 4.003955e-01
<VARIANCE> 39
 3.784762e+01 2.857439e+01 3.985758e+01 3.348104e+01 3.351359e+01 3.328446e+01 3.551866e+01 3.091997e+01 3.227200e+01 2.465841e+01 2.490456e+01 1.961370e+01 2.403105e+01 5.008622e+00 2.293037e+00 3.277724e+00 3.985933e+00 3.416339e+00 3.544081e+00 3.737674e+00 3.702281e+00 3.586701e+00 2.607634e+00 2.412557e+00 2.094884e+00 2.598490e+00 6.264295e-01 4.114528e-01 4.951590e-01 7.742899e-01 5.422869e-01 7.144499e-01 7.677846e-01 6.746603e-01 7.819809e-01 5.711648e-01 6.649722e-01 5.231150e-01 3.623035e-01
<GCONST> 1.240733e+02
<TRANSP> 5
 0.000000e+00 1.000000e+00 0.000000e+00 0.000000e+00 0.000000e+00
 0.000000e+00 7.081054e-01 2.918946e-01 0.000000e+00 0.000000e+00
 0.000000e+00 0.000000e+00 8.451421e-01 1.548579e-01 0.000000e+00
 0.000000e+00 0.000000e+00 0.000000e+00 6.038764e-01 3.961235e-01
 0.000000e+00 0.000000e+00 0.000000e+00 0.000000e+00 0.000000e+00
<ENDHMM>
~h "sp"
<BEGINHMM>
<NUMSTATES> 3
<STATE> 2
~s "silst"
<TRANSP> 3
 0.000000e+00 7.000000e-01 3.000000e-01
 0.000000e+00 9.000000e-01 9.999999e-02
 0.000000e+00 0.000000e+00 0.000000e+00
<ENDHMM>
~h "th"
<BEGINHMM>
<NUMSTATES> 5
<STATE> 2
<NUMMIXES> 3
<MIXTURE> 1 2.079345e-01
<MEAN> 39
 -7.687805e+00 5.885641e+00 -4.540070e-01 -1.227798e+00 -5.501265e+00 -7.039068e+00 -6.781240e+00 -4.007211e+00 -1.110971e+00 -5.035795e+00 -6.322372e+00 -8.351582e-01 6.574910e+01 -3.362140e+00 2.489301e+00 3.598435e-01 2.708245e+00 1.996688e+00 2.691482e+00 2.463796e+00 2.783511e-01 6.523242e-01 4.664589e-01 1.357891e+00 6.887689e-01 -2.620298e+00 -1.765998e-01 -8.714932e-01 -5.419688e-01 -1.788151e-01 8.000299e-03 2.871747e-02 1.229996e-01 7.590327e-01 -3.840056e-02 5.275721e-01 5.902574e-01 -8.288370e-02 -2.635719e-01
<VARIANCE> 39
 2.711902e+01 2.149842e+01 3.316392e+01 3.535686e+01 2.893473e+01 8.107436e+01 4.737729e+01 4.108355e+01 5.534357e+01 3.659781e+01 3.491281e+01 3.444534e+01 1.614164e+01 1.916050e+00 3.252393e+00 3.399057e+00 3.788402e+00 2.805305e+00 8.029568e+00 4.698316e+00 4.501227e+00 5.185293e+00 3.710814e+00 4.583898e+00 3.810358e+00 2.157992e+00 4.651591e-01 4.354375e-01 5.847186e-01 6.043670e-01 5.958559e-01 7.996515e-01 6.689833e-01 6.522135e-01 7.893504e-01 6.413854e-01 5.568510e-01 5.193883e-01 3.137735e-01
<GCONST> 1.277835e+02
<MIXTURE> 2 4.709692e-01
<MEAN> 39
 -1.383895e+01 5.782036e+00 -9.188676e-01 2.671254e+00 -1.497698e+00 4.442261e-01 -5.411536e-03 -1.662223e-01 -1.572979e+00 -1.644150e+00 -7.781168e-01 -1.048013e+00 5.643478e+01 -1.807398e+00 -1.091301e+00 -7.521338e-01 2.975490e-01 3.405992e-01 7.755247e-01 6.037151e-01 1.230070e+00 9.102013e-01 7.528108e-01 8.788124e-01 4.427570e-01 -1.001240e+00 5.418044e-01 -4.602714e-01 -1.844530e-01 -6.331788e-01 -5.696803e-01 -5.301723e-01 -5.259770e-01 -2.432065e-01 -4.637371e-02 -1.181440e-01 -9.489647e-02 6.347187e-02 8.539317e-01
<VARIANCE> 39
 2.820915e+01 2.043871e+01 2.539074e+01 2.614207e+01 2.682108e+01 3.045277e+01 2.869044e+01 2.680115e+01 3.043113e+01 2.384167e+01 2.316925e+01 2.153392e+01 2.791094e+01 3.014867e+00 1.910454e+00 2.951773e+00 2.814770e+00 2.511935e+00 3.007864e+00 3.182282e+00 3.608855e+00 3.095369e+00 2.571160e+00 3.092686e+00 2.406901e+00 2.641217e+00 4.843281e-01 4.972330e-01 6.073493e-01 7.105033e-01 6.569963e-01 7.056640e-01 7.500225e-01 6.075551e-01 6.094182e-01 5.285128e-01 6.068767e-01 5.117680e-01 6.447037e-01
<GCONST> 1.208353e+02
<MIXTURE> 3 3.210963e-01
<MEAN> 39
 -1.034033e+01 8.383921e+00 -1.517413e+00 2.817333e+00 -1.996252e+00 -1.198730e-01 -1.798882e+00 -8.327265e-01 -9.835755e-01 -1.913429e+00 -5.107807e-01 -1.583259e+00 5.946508e+01 -3.014736e+00 8.992936e-02 4.758939e-01 2.170224e+00 1.543597e+00 7.344939e-01 1.560709e+00 1.235539e+00 3.163191e-01 1.139173e+00 2.884837e-01 4.110478e-01 -2.535070e+00 2.073722e-01 -1.076291e+00 -4.109396e-01 -9.142757e-01 -5.045057e-01 -1.199838e-01 -4.861349e-01 5.808918e-02 1.261237e-01 -3.646958e-02 1.168543e-01 3.800315e-02 6.055868e-01
<VARIANCE> 39
 3.212063e+01 2.414700e+01 2.360584e+01 3.340317e+01 2.363609e+01 4.729744e+01 3.208680e+01 3.560263e+01 3.773055e+01 3.076967e+01 2.453760e+01 2.263020e+01 2.280045e+01 3.467671e+00 2.879908e+00 3.581105e+00 6.536903e+00 2.880059e+00 5.352502e+00 5.007925e+00 4.612147e+00 4.534697e+00 3.597278e+00 3.991613e+00 2.760483e+00 2.286009e+00 3.936677e-01 5.524456e-01 4.123863e-01 6.220762e-01 5.231904e-01 6.110377e-01 7.515994e-01 5.363563e-01 5.811714e-01 4.482638e-01 4.692781e-01 4.815307e-01 4.492618e-01
<GCONST> 1.243446e+02
<STATE> 3
<NUMMIXES> 3
<MIXTURE> 1 1.603224e-01
<MEAN> 39
 -1.440876e+01 -3.660708e+00 -1.162978e+00 7.091321e-01 -6.355593e-01 -1.102046e+00 3.158659e-02 3.661244e+00 2.502117e-01 -2.661864e+00 2.650313e-01 1.494861e+00 5.584089e+01 2.543101e-01 7.064077e-01 3.114674e-01 4.678437e-01 5.620667e-01 6.305391e-01 4.162488e-01 -5.793428e-02 2.137288e-01 2.217619e-01 -1.362233e-01 -1.294626e-01 -8.398577e-01 -3.021394e-02 1.616047e-01 9.453888e-02 5.073505e-02 3.234904e-02 1.290593e-01 4.574992e-02 -1.274852e-02 5.126812e-02 1.423301e-01 9.178953e-02 -9.691776e-02 -2.064183e-02
<VARIANCE> 39
 1.080960e+01 3.934070e+01 1.883020e+01 1.528378e+01 1.607162e+01 2.720965e+01 2.649198e+01 2.168080e+01 2.054884e+01 2.096894e+01 1.689638e+01 1.701210e+01 3.286792e+01 6.635761e-01 1.384946e+00 1.048928e+00 9.825639e-01 1.148380e+00 1.580505e+00 1.578467e+00 1.735757e+00 1.594475e+00 1.718284e+00 1.498129e+00 1.478481e+00 1.005006e+00 8.806426e-02 1.942861e-01 2.044401e-01 2.242146e-01 2.533733e-01 3.498925e-01 3.544792e-01 3.759728e-01 3.275638e-01 3.555962e-01 3.325800e-01 3.404566e-01 1.336282e-01
<GCONST> 9.647305e+01
<MIXTURE> 2 4.830458e-01
<MEAN> 39
 -1.590483e+01 3.600817e+00 -2.307259e+00 2.876107e+00 -1.127143e+00 1.501571e+00 -2.563595e-01 1.556270e+00 5.619115e-01 -1.322706e-01 1.150014e+00 4.261544e-02 5.501979e+01 -6.485826e-01 -1.331212e+00 -8.791059e-01 -6.889610e-01 -7.238124e-01 -4.623128e-01 -3.330705e-01 1.417982e-01 1.351381e-01 -2.950131e-02 2.818570e-01 4.062245e-01 1.336689e+00 5.990831e-01 -2.025506e-01 5.721870e-02 -3.934935e-01 -4.150079e-01 -5.202439e-01 -3.561800e-01 -1.783374e-01 -8.790717e-02 -2.137789e-01 -2.600103e-01 -5.409617e-02 8.349059e-01
<VARIANCE> 39
 2.016763e+01 2.129980e+01 1.816648e+01 1.868471e+01 1.960353e+01 2.187512e+01 2.005878e+01 1.751970e+01 1.864994e+01 1.613750e+01 1.481641e+01 1.400732e+01 2.826281e+01 2.507938e+00 2.389646e+00 2.189896e+00 2.464995e+00 2.325370e+00 2.247239e+00 2.680031e+00 2.617415e+00 2.524980e+00 2.138832e+00 2.069256e+00 1.997784e+00 4.059785e+00 6.082596e-01 4.531313e-01 5.144109e-01 5.092129e-01 5.285286e-01 6.152510e-01 6.003947e-01 5.590143e-01 5.151190e-01 4.361164e-01 5.246311e-01 4.451004e-01 6.718100e-01
<GCONST> 1.132703e+02
<MIXTURE> 3 3.566319e-01
<MEAN> 39
 -1.624905e+01 -4.315149e-01 -1.259013e+00 1.128063e+00 -9.366216e-01 1.811319e-01 3.014040e-01 3.475035e+00 8.943121e-01 -7.414812e-01 1.398808e+00 4.442726e-01 5.606623e+01 -1.918839e-01 -2.240126e-01 -5.727609e-02 -8.854210e-02 -8.548661e-02 -1.005446e-01 -9.868837e-02 -1.278033e-02 -6.846992e-02 4.678378e-03 1.053407e-02 -4.159007e-03 -1.946022e-02 1.341826e-01 1.515216e-02 -3.285041e-02 -2.605544e-02 -4.714009e-02 -6.018274e-02 -7.608867e-02 -1.070925e-01 -6.361592e-02 -8.790749e-02 -6.758970e-02 -8.514544e-03 1.788131e-01
<VARIANCE> 39
 2.283396e+01 4.439376e+01 1.809973e+01 2.057420e+01 1.738788e+01 2.544495e+01 2.130669e+01 1.910925e+01 1.907966e+01 1.852235e+01 1.421408e+01 1.383352e+01 4.432835e+01 5.690321e-01 8.413367e-01 8.245123e-01 9.453458e-01 1.010973e+00 1.256975e+00 1.314062e+00 1.515217e+00 1.501691e+00 1.563792e+00 1.390106e+00 1.316395e+00 8.458458e-01 1.677940e-01 2.049649e-01 2.118393e-01 2.076460e-01 2.305648e-01 2.696654e-01 2.874098e-01 3.337404e-01 3.310600e-01 3.105262e-01 2.759396e-01 2.687964e-01 2.506231e-01
<GCONST> 9.491771e+01
<STATE> 4
<NUMMIXES> 3
<MIXTURE> 1 2.164418e-01
<MEAN> 39
 -1.732121e+01 -1.134731e+00 -6.766023e+00 2.995828e+00 -6.108136e-01 -4.457959e+00 -3.311832e+00 1.454037e+00 2.375937e+00 1.381663e+00 1.204631e+00 2.401322e+00 6.243725e+01 8.400205e-01 5.462933e-02 8.626234e-01 5.065181e-01 1.354261e+00 -8.760729e-02 7.720551e-01 7.513226e-01 2.794904e-01 5.172292e-01 -1.218450e-01 3.679005e-01 -1.226904e+00 5.196326e-01 5.512754e-01 6.316428e-01 -1.699489e-01 -1.426250e-01 5.198529e-01 3.423036e-01 -6.497650e-02 -3.558057e-01 -1.727598e-01 -6.844752e-02 -3.654156e-01 -8.929616e-01
<VARIANCE> 39
 2.164132e+01 2.716261e+01 2.298983e+01 4.216461e+01 3.954529e+01 3.830771e+01 3.149350e+01 2.717513e+01 3.291597e+01 3.248231e+01 2.008100e+01 1.896300e+01 2.067174e+01 2.235267e+00 2.854059e+00 2.640744e+00 2.771008e+00 3.880150e+00 3.300665e+00 3.333874e+00 2.912983e+00 3.107603e+00 2.365002e+00 2.192609e+00 2.139574e+00 4.753116e+00 5.675435e-01 5.309734e-01 4.454562e-01 1.123623e+00 9.810572e-01 6.859966e-01 8.071237e-01 7.396622e-01 8.071259e-01 6.574242e-01 5.052619e-01 5.094029e-01 6.045969e-01
<GCONST> 1.234195e+02
<MIXTURE> 2 3.906874e-01
<MEAN> 39
 -1.312586e+01 -1.260169e-01 -2.653656e+00 7.566060e-01 -4.572377e+00 -3.366508e+00 -2.438107e+00 2.828506e-01 -2.424953e-01 -2.212875e+00 -9.384650e-01 -2.942095e-01 6.161847e+01 3.572910e+00 -9.001764e-01 -2.220809e-01 -1.427869e+00 -1.939109e+00 -2.768490e+00 -2.479738e+00 -9.120397e-01 -3.890947e-01 -8.809597e-01 -1.345737e+00 -5.263865e-01 2.794846e+00 6.701131e-01 -8.933356e-02 8.729251e-02 -3.565847e-01 -1.963365e-01 -2.843390e-01 -3.496897e-01 2.437188e-02 -1.256432e-01 5.037410e-02 -9.940438e-02 -1.024922e-01 2.785119e-01
<VARIANCE> 39
 3.598765e+01 3.137932e+01 2.626435e+01 3.262531e+01 2.844103e+01 4.411508e+01 2.945257e+01 2.515064e+01 2.639256e+01 2.197066e+01 2.520027e+01 2.099682e+01 3.187503e+01 3.280917e+00 3.564732e+00 4.072595e+00 4.522154e+00 4.967422e+00 5.703119e+00 4.598604e+00 4.657435e+00 5.383378e+00 2.745253e+00 3.993037e+00 3.124416e+00 4.669677e+00 7.332852e-01 4.887362e-01 7.985305e-01 7.402454e-01 7.528899e-01 1.074987e+00 8.035822e-01 6.955743e-01 7.495676e-01 5.288357e-01 6.804963e-01 5.061063e-01 7.203409e-01
<GCONST> 1.291722e+02
<MIXTURE> 3 3.928707e-01
<MEAN> 39
 -1.689565e+01 -2.811125e+00 -3.149897e+00 -1.163065e+00 -6.264256e+00 -1.355656e+00 -1.675118e+00 2.251339e+00 1.610587e+00 6.411455e-01 1.793520e+00 5.255709e-01 6.381875e+01 1.140173e+00 -1.106599e+00 5.467013e-01 4.019015e-01 -3.635301e-01 -1.095513e+00 -8.008150e-01 -1.404979e-01 2.256302e-01 1.312605e-01 -1.494726e-01 -4.670426e-01 1.029773e+00 9.607567e-01 4.900163e-01 1.741688e-01 3.920884e-01 5.187618e-01 -1.665020e-01 -4.361332e-01 -3.813726e-01 -2.789596e-01 -2.661924e-01 -2.463389e-01 -1.543583e-01 -5.268704e-01
<VARIANCE> 39
 3.208245e+01 3.609068e+01 4.105976e+01 2.832576e+01 2.640754e+01 3.002637e+01 3.607082e+01 3.141691e+01 3.034154e+01 2.514934e+01 2.413014e+01 2.386127e+01 2.210680e+01 5.118877e+00 3.132619e+00 3.686232e+00 5.632452e+00 4.379369e+00 3.126216e+00 4.193447e+00 3.782614e+00 3.400809e+00 2.472409e+00 2.380961e+00 2.767097e+00 5.163472e+00 6.756945e-01 5.584758e-01 1.170902e+00 8.892104e-01 6.581182e-01 7.215480e-01 1.122323e+00 8.562912e-01 6.779048e-01 5.338736e-01 5.379212e-01 6.132408e-01 5.844972e-01
<GCONST> 1.280516e+02
<TRANSP> 5
 0.000000e+00 1.000000e+00 0.000000e+00 0.000000e+00 0.000000e+00
 0.000000e+00 6.122727e-01 3.877272e-01 0.000000e+00 0.000000e+00
 0.000000e+00 0.000000e+00 8.052625e-01 1.947375e-01 0.000000e+00
 0.000000e+00 0.000000e+00 0.000000e+00 6.594517e-01 3.405483e-01
 0.000000e+00 0.000000e+00 0.000000e+00 0.000000e+00 0.000000e+00
<ENDHMM>
~h "uh"
<BEGINHMM>
<NUMSTATES> 5
<STATE> 2
<NUMMIXES> 3
<MIXTURE> 1 1.785850e-01
<MEAN> 39
 1.258900e+00 -1.209536e+00 -3.742613e+00 -7.611767e+00 -9.525179e+00 7.432451e+00 -1.940181e+01 -3.726769e+00 -4.054502e+00 3.199652e+00 6.507846e+00 -2.931753e+00 7.170997e+01 1.158896e+00 -8.317404e-01 1.006959e+00 -1.045802e+00 -1.432176e+00 1.682691e-02 -2.806444e+00 4.623720e-01 2.748738e-01 1.000700e+00 6.108347e-01 -1.653333e+00 2.171256e+00 -1.003875e+00 -1.441997e-01 1.220615e-01 8.677143e-01 5.640350e-01 -6.614700e-01 9.360445e-01 5.410743e-01 5.677677e-01 -2.402602e-01 -5.719468e-01 1.378955e-01 -7.557161e-01
<VARIANCE> 39
 1.012692e+01 1.491708e+01 2.401986e+01 4.258740e+01 1.198678e+01 4.084834e+01 3.224867e+01 3.360221e+01 2.075047e+01 3.317838e+01 3.073458e+01 3.910762e+01 9.672027e+00 2.705806e+00 1.413573e+00 1.435599e+00 2.812108e+00 2.317188e+00 4.675683e+00 3.021231e+00 2.144456e+00 2.287268e+00 2.692454e+00 2.271162e+00 2.766995e+00 1.616202e+00 3.207212e-01 4.316458e-01 3.243074e-01 3.983407e-01 3.758565e-01 6.102455e-01 6.502006e-01 4.442422e-01 3.500940e-01 6.693585e-01 4.382058e-01 9.541398e-01 2.711653e-01
<GCONST> 1.134606e+02
<MIXTURE> 2 4.589849e-01
<MEAN> 39
 6.386542e-02 -1.048929e-01 -4.131324e+00 -5.912291e+00 -9.779971e+00 -7.426673e+00 -1.289951e+01 -6.226507e+00 -6.656031e+00 -4.609671e+00 -2.831971e+00 -3.429599e+00 6.797749e+01 2.847969e+00 1.077319e-01 -8.511152e-01 -2.169127e+00 -1.210264e+00 -4.322707e-01 -1.937768e+00 -5.638921e-01 -8.422624e-01 4.386464e-02 -4.189721e-01 -2.557053e-01 1.299741e+00 -1.021736e+00 -4.100438e-01 4.692166e-02 2.572585e-01 2.918396e-01 5.161884e-01 5.274607e-01 5.475259e-01 4.106479e-01 3.300717e-01 3.435890e-01 1.795725e-01 -1.434013e-01
<VARIANCE> 39
 2.219482e+01 3.707598e+01 5.059283e+01 6.391542e+01 5.071192e+01 1.071900e+02 6.107657e+01 5.336679e+01 6.314665e+01 5.374311e+01 6.036777e+01 3.672651e+01 1.833712e+01 5.165414e+00 3.342247e+00 3.478837e+00 4.214304e+00 6.695878e+00 6.380093e+00 7.199111e+00 6.368848e+00 5.627603e+00 4.601501e+00 5.476576e+00 4.337531e+00 1.947755e+00 5.620837e-01 4.746539e-01 3.897411e-01 7.344602e-01 6.224257e-01 1.149960e+00 9.315067e-01 8.902231e-01 7.465998e-01 7.467671e-01 7.030507e-01 5.855347e-01 1.932569e-01
<GCONST> 1.358971e+02
<MIXTURE> 3 3.624301e-01
<MEAN> 39
 1.065650e+00 -1.890585e+00 -6.529881e+00 -7.992247e+00 -1.017952e+01 4.770819e-01 -1.796932e+01 -7.271221e+00 -3.272779e+00 2.579241e+00 3.726120e+00 -6.047563e+00 7.145528e+01 -3.580845e-01 -1.313549e+00 8.118607e-01 1.345225e+00 -9.309359e-01 -1.559698e+00 -8.495278e-01 1.138134e+00 1.886124e+00 3.058301e-01 -1.027430e+00 -6.189756e-01 8.154969e-01 -1.971457e-01 4.980534e-01 5.037907e-01 3.766705e-01 1.784100e-01 -2.723415e-01 9.620368e-01 4.202300e-01 -2.777739e-01 -9.166430e-01 -6.113955e-01 5.472746e-01 -8.112545e-01
<VARIANCE> 39
 1.212520e+01 3.258322e+01 3.319384e+01 4.783745e+01 3.638195e+01 7.680183e+01 7.616636e+01 6.077442e+01 5.987561e+01 5.572214e+01 8.185285e+01 4.298193e+01 1.585452e+01 7.842029e-01 1.584492e+00 2.740454e+00 5.217899e+00 3.355018e+00 5.234773e+00 3.572298e+00 4.991251e+00 5.076797e+00 4.273688e+00 4.629377e+00 3.742132e+00 8.918000e-01 2.566589e-01 5.338716e-01 3.432184e-01 4.903005e-01 6.549312e-01 8.649598e-01 1.326960e+00 7.982696e-01 9.862240e-01 1.071963e+00 1.075105e+00 8.290836e-01 4.112667e-01
<GCONST> 1.296541e+02
<STATE> 3
<NUMMIXES> 3
<MIXTURE> 1 1.886900e-01
<MEAN> 39
 -1.441220e+00 -3.825571e+00 2.589883e+00 -2.222793e+00 -1.270172e+01 -1.147497e-01 -2.496346e+01 2.990483e+00 7.118427e-01 5.223968e-01 3.334750e+00 -6.482837e+00 7.350555e+01 -4.057814e-01 6.934888e-01 2.111775e+00 2.174326e+00 -9.332877e-02 -2.259501e+00 1.803135e+00 8.508375e-01 7.489060e-01 -2.271546e+00 -1.758962e+00 1.498473e+00 -1.457136e+00 -1.060030e-01 1.232034e+00 -1.409771e-01 1.796773e-01 1.089722e+00 1.382606e-01 1.804983e+00 -8.532262e-01 -5.652644e-01 -3.862328e-01 -3.378272e-01 7.977513e-01 -1.515301e+00
<VARIANCE> 39
 7.929310e+00 1.294695e+01 1.711230e+01 1.345304e+01 1.902925e+01 2.200888e+01 1.833808e+01 3.061722e+01 3.136748e+01 3.135990e+01 1.890279e+01 2.195485e+01 8.457263e+00 6.694556e-01 2.083248e+00 1.647335e+00 2.274284e+00 3.998468e+00 3.339164e+00 4.111134e+00 3.460117e+00 3.299479e+00 2.785607e+00 3.159743e+00 2.018524e+00 2.182782e+00 3.732550e-01 3.012576e-01 2.287147e-01 3.672278e-01 4.383400e-01 5.719886e-01 6.159790e-01 5.675339e-01 8.256232e-01 7.859297e-01 5.805625e-01 5.821641e-01 3.155333e-01
<GCONST> 1.111545e+02
<MIXTURE> 2 5.530599e-01
<MEAN> 39
 1.187060e+00 -3.203342e+00 -6.625714e+00 -1.122489e+01 -9.373603e+00 -3.433254e+00 -1.173211e+01 -1.738129e+00 -4.550982e+00 -2.732950e+00 -4.047645e+00 -3.358397e+00 7.049544e+01 -5.551689e-02 -3.052504e-01 1.911017e-01 2.790358e-01 -3.135756e-01 -5.053459e-01 9.954446e-02 6.179961e-01 -5.296476e-03 -3.178373e-01 -2.519070e-02 7.036036e-01 4.313052e-02 -1.908241e-01 2.913643e-01 2.605194e-01 4.408130e-01 2.104518e-01 1.834858e-01 8.686751e-02 -2.751677e-01 -2.300012e-02 -4.585650e-02 3.565926e-01 3.260537e-02 -4.080418e-01
<VARIANCE> 39
 1.797546e+01 5.176183e+01 2.573298e+01 4.719548e+01 4.318980e+01 1.491932e+02 6.362774e+01 4.629408e+01 7.398346e+01 6.132639e+01 9.643755e+01 3.659992e+01 1.768161e+01 4.808798e-01 1.310918e+00 2.295049e+00 1.977372e+00 2.676600e+00 2.774658e+00 2.685447e+00 2.716443e+00 3.137268e+00 2.948351e+00 3.057605e+00 2.652327e+00 5.812039e-01 2.949626e-01 3.266262e-01 2.809872e-01 4.334809e-01 3.730859e-01 7.188251e-01 5.451648e-01 5.371754e-01 6.853918e-01 4.714387e-01 6.739566e-01 4.691081e-01 2.468229e-01
<GCONST> 1.199840e+02
<MIXTURE> 3 2.582501e-01
<MEAN> 39
 -3.804770e-01 -4.928522e+00 -2.833715e+00 -5.308432e+00 -1.143484e+01 -1.734388e+00 -1.781120e+01 -3.262126e+00 1.044379e+00 2.783237e+00 1.692314e+00 -4.799897e+00 7.258990e+01 -9.887394e-02 -2.013681e-02 8.548214e-01 8.931773e-01 -3.322258e-01 -5.679309e-01 -3.964187e-02 4.321139e-01 5.429863e-01 -4.829679e-01 -8.295528e-01 2.296979e-01 -5.181215e-01 -2.811901e-01 7.419969e-01 1.986316e-01 2.518432e-01 5.746295e-01 1.530469e-01 8.600801e-01 3.254257e-02 -4.828216e-01 -4.801744e-01 -1.499300e-01 3.686362e-01 -9.305753e-01
<VARIANCE> 39
 1.103606e+01 1.938409e+01 3.863139e+01 5.723523e+01 4.072940e+01 8.700015e+01 5.634233e+01 8.313828e+01 4.252256e+01 4.896016e+01 5.317801e+01 3.638297e+01 2.168824e+01 7.845392e-01 1.568697e+00 3.116200e+00 3.991512e+00 3.436197e+00 4.671916e+00 3.431338e+00 3.852735e+00 3.238900e+00 3.913122e+00 4.080486e+00 3.222261e+00 1.521155e+00 3.780809e-01 3.201953e-01 3.368882e-01 4.715082e-01 6.610892e-01 6.662515e-01 7.129083e-01 8.953863e-01 7.636758e-01 6.335600e-01 6.658965e-01 6.457750e-01 3.886772e-01
<GCONST> 1.255407e+02
<STATE> 4
<NUMMIXES> 3
<MIXTURE> 1 1.584959e-01
<MEAN> 39
 -9.685739e-01 2.460196e+00 -2.219933e+00 -5.780231e+00 -4.130182e+00 -7.031995e-01 -1.924110e+01 -4.783637e+00 -3.180102e+00 2.054948e+00 -2.107031e-01 -3.703676e+00 6.564756e+01 -1.609806e+00 2.929243e+00 1.616213e+00 3.063447e+00 2.007501e+00 -1.221340e+00 3.391811e+00 -2.525378e-01 3.722095e-01 -7.303810e-01 -5.100722e-01 1.292244e+00 -3.992668e+00 -7.484549e-01 -3.312118e-01 2.037407e-02 1.690692e-01 -9.205902e-02 1.833162e-01 1.175686e+00 2.579563e-01 2.644042e-01 -6.523272e-02 4.068773e-01 1.688715e-01 -2.963279e-01
<VARIANCE> 39
 1.181440e+01 2.815919e+01 4.635715e+01 6.244419e+01 2.975933e+01 6.901156e+01 4.550695e+01 6.101311e+01 6.258298e+01 3.957233e+01 5.136132e+01 2.632938e+01 2.496496e+01 2.151736e+00 1.607051e+00 2.007907e+00 2.625353e+00 2.334374e+00 3.961970e+00 5.115785e+00 4.045195e+00 3.090584e+00 4.710240e+00 5.612346e+00 2.849059e+00 2.413643e+00 3.132745e-01 4.623806e-01 4.841601e-01 6.189502e-01 5.057981e-01 1.182269e+00 7.077682e-01 8.480265e-01 1.319902e+00 7.004275e-01 6.866890e-01 5.061243e-01 3.439404e-01
<GCONST> 1.273772e+02
<MIXTURE> 2 4.644277e-01
<MEAN> 39
 3.555986e-01 -2.330204e+00 -3.355338e+00 -7.323370e+00 -1.143351e+01 -7.669788e+00 -1.280564e+01 -2.828771e+00 -6.009920e+00 -4.087587e+00 -2.707971e+00 9.049655e-01 6.960838e+01 -2.261968e-01 1.004112e+00 7.911727e-01 1.155874e+00 7.327805e-01 4.180800e-01 2.154271e-01 -6.889365e-01 2.811596e-02 -4.029089e-01 3.659000e-01 -5.750318e-02 -1.248581e+00 -2.854850e-01 4.280855e-01 9.436295e-02 3.539595e-01 5.212831e-01 3.884811e-01 2.365147e-01 -1.557221e-01 2.359922e-01 6.476255e-02 3.461114e-02 -5.211712e-01 -5.050104e-01
<VARIANCE> 39
 2.493092e+01 3.227320e+01 8.264727e+01 5.476384e+01 5.220076e+01 1.220391e+02 6.088289e+01 5.441078e+01 5.934992e+01 6.191842e+01 1.104506e+02 4.845069e+01 1.693390e+01 1.167361e+00 3.195184e+00 5.279793e+00 4.024695e+00 3.282515e+00 4.055797e+00 4.086835e+00 3.176631e+00 4.967857e+00 4.766452e+00 3.802151e+00 3.331270e+00 2.509851e+00 3.630775e-01 3.717472e-01 5.081451e-01 5.930207e-01 6.712930e-01 9.706484e-01 6.804998e-01 6.281648e-01 8.961243e-01 7.897985e-01 8.183731e-01 8.633613e-01 3.866054e-01
<GCONST> 1.332988e+02
<MIXTURE> 3 3.770764e-01
<MEAN> 39
 -1.058990e+00 -3.480237e+00 3.898290e+00 2.169302e+00 -1.531494e+01 -6.297328e+00 -1.527892e+01 -4.337724e+00 6.357232e-01 -3.327064e+00 -2.585460e+00 4.333321e-01 6.829852e+01 -1.427764e-01 2.985333e+00 1.608720e+00 2.174939e+00 2.342813e+00 -5.720096e-01 2.925486e+00 -1.091223e-01 -1.819585e-01 -1.196041e+00 -1.527474e+00 -1.326867e-01 -3.989769e+00 -2.873249e-01 7.348156e-01 -5.022847e-01 -4.978026e-01 1.119631e+00 5.509515e-01 4.450669e-01 -4.085092e-02 -4.645868e-01 3.835447e-01 2.801986e-01 -4.976490e-01 -6.582068e-01
<VARIANCE> 39
 9.223704e+00 3.058737e+01 4.204013e+01 4.078030e+01 3.394470e+01 4.251091e+01 3.760547e+01 7.522588e+01 3.696088e+01 4.001190e+01 4.450882e+01 2.362970e+01 2.350267e+01 1.069712e+00 2.376449e+00 2.092198e+00 1.901726e+00 3.799852e+00 5.195225e+00 4.240520e+00 4.974370e+00 3.748117e+00 3.262330e+00 4.304817e+00 4.738816e+00 1.442203e+00 1.695267e-01 6.134038e-01 5.036467e-01 5.803471e-01 6.698722e-01 6.099215e-01 6.637993e-01 7.767726e-01 7.987875e-01 6.501012e-01 6.384962e-01 5.171138e-01 4.506013e-01
<GCONST> 1.240224e+02
<TRANSP> 5
 0.000000e+00 1.000000e+00 0.000000e+00 0.000000e+00 0.000000e+00
 0.000000e+00 5.293699e-01 4.706301e-01 0.000000e+00 0.000000e+00
 0.000000e+00 0.000000e+00 5.902317e-01 4.097683e-01 0.000000e+00
 0.000000e+00 0.000000e+00 0.000000e+00 4.226142e-01 5.773858e-01
 0.000000e+00 0.000000e+00 0.000000e+00 0.000000e+00 0.000000e+00
<ENDHMM>
~h "uw"
<BEGINHMM>
<NUMSTATES> 5
<STATE> 2
<NUMMIXES> 3
<MIXTURE> 1 2.278185e-01
<MEAN> 39
 -2.855477e+00 -1.195531e+00 1.120222e+01 -6.085186e-01 -1.339185e+01 1.062702e-01 -1.707219e+01 2.639346e+00 -1.057917e+01 -6.536273e+00 6.571606e+00 -5.107504e+00 7.118750e+01 6.418324e-01 -4.631805e-01 1.685839e-01 -3.510002e-03 -5.576065e-01 3.523753e-01 -1.922626e+00 5.345345e-01 -5.651139e-02 -2.799904e-02 7.054231e-01 -1.003187e+00 6.638899e-01 -3.939112e-01 5.179242e-01 -5.504592e-01 1.561960e-01 8.196709e-01 -1.918050e-02 8.392126e-01 -4.426122e-01 1.393543e-01 4.077839e-01 -5.134826e-01 2.223539e-01 -7.035609e-01
<VARIANCE> 39
 1.482117e+01 1.638866e+01 6.894533e+01 2.887387e+01 4.499610e+01 3.105334e+01 5.461823e+01 4.600421e+01 6.200836e+01 3.157109e+01 2.236203e+01 1.964422e+01 1.172211e+01 1.908588e+00 1.401023e+00 2.993025e+00 1.614009e+00 4.356228e+00 2.205420e+00 3.673434e+00 3.449539e+00 3.709897e+00 2.459436e+00 2.892992e+00 2.239538e+00 1.450010e+00 6.230481e-01 2.669009e-01 4.752626e-01 3.280313e-01 6.332774e-01 4.046487e-01 6.508583e-01 6.072835e-01 9.468060e-01 4.753558e-01 3.861786e-01 4.165935e-01 1.558008e-01
<GCONST> 1.173482e+02
<MIXTURE> 2 4.060429e-01
<MEAN> 39
 -4.898333e+00 1.032818e+00 5.273865e+00 -4.229610e+00 -1.487258e+01 -1.070186e+01 -1.143217e+01 -6.972550e+00 -1.234801e+01 -5.280869e+00 -3.284372e+00 -1.320266e+00 6.734566e+01 3.496746e+00 -2.203158e-01 1.985102e-01 -5.821946e-01 -1.708368e+00 -1.287202e+00 -2.018714e+00 -1.360936e+00 -1.138897e+00 -5.086982e-01 -1.034801e+00 1.417477e-02 6.879697e-01 -9.239331e-01 -7.666887e-02 -4.844159e-01 -3.737124e-02 8.613372e-01 8.618712e-01 3.193531e-01 6.133991e-01 7.969695e-01 3.078347e-01 2.493075e-01 1.057063e-01 -2.697074e-01
<VARIANCE> 39
 3.477322e+01 3.531784e+01 6.420781e+01 7.053685e+01 5.429494e+01 6.049095e+01 3.769866e+01 3.480151e+01 4.026135e+01 3.814088e+01 3.876545e+01 3.307131e+01 1.991842e+01 6.045396e+00 3.807251e+00 3.726125e+00 5.647174e+00 6.347899e+00 5.551548e+00 6.073438e+00 6.666102e+00 5.250878e+00 4.020949e+00 4.259191e+00 4.038346e+00 1.388259e+00 7.376200e-01 5.471832e-01 4.691227e-01 6.730564e-01 7.877427e-01 6.474261e-01 7.500989e-01 8.124967e-01 6.055804e-01 6.106602e-01 5.432597e-01 5.019473e-01 2.783208e-01
<GCONST> 1.328364e+02
<MIXTURE> 3 3.661388e-01
<MEAN> 39
 -2.741688e+00 -2.929495e+00 7.185114e+00 3.916142e+00 -1.586878e+01 -9.245094e+00 -1.372069e+01 -3.526903e+00 -7.415828e+00 -9.249092e+00 6.745243e-01 -1.019111e+00 6.978771e+01 1.145718e+00 -2.262637e-01 -1.330552e+00 2.299435e-01 5.795652e-01 1.876000e-01 -2.035554e+00 -3.068914e-01 1.047234e+00 9.802625e-02 -4.810572e-01 -3.495786e-01 1.477775e-01 -4.909016e-01 5.479233e-01 -2.783180e-01 -4.626921e-01 7.928384e-01 7.236216e-01 4.346988e-01 -3.277164e-01 -3.597026e-02 7.323678e-01 -1.101112e-01 -2.774005e-01 -5.610000e-01
<VARIANCE> 39
 1.632807e+01 2.457827e+01 4.825957e+01 7.391234e+01 3.161412e+01 5.452891e+01 4.681731e+01 5.319745e+01 6.828288e+01 5.436442e+01 4.559047e+01 4.021915e+01 1.779262e+01 1.810626e+00 1.374276e+00 3.298079e+00 2.305885e+00 5.245754e+00 2.840290e+00 3.823216e+00 3.803682e+00 3.252099e+00 3.910531e+00 2.348651e+00 2.743369e+00 1.296793e+00 5.634204e-01 2.840888e-01 4.742070e-01 5.497968e-01 6.708671e-01 5.970796e-01 6.488057e-01 9.701799e-01 8.609598e-01 6.605930e-01 4.845269e-01 4.894535e-01 2.041469e-01
<GCONST> 1.245743e+02
<STATE> 3
<NUMMIXES> 3
<MIXTURE> 1 2.050970e-01
<MEAN> 39
 -3.335260e-01 3.008038e-01 2.406903e+00 -1.243490e+00 -7.974039e+00 -1.218964e+00 -2.183943e+01 -5.995359e+00 -8.364380e+00 -1.743647e+00 1.725661e+00 -7.256682e+00 6.800065e+01 7.580278e-01 1.533368e+00 -1.338185e+00 -1.211859e+00 1.537435e+00 1.783198e+00 8.025144e-01 -2.025631e+00 -7.316087e-01 1.282305e+00 3.261756e-01 2.976256e-01 -1.176227e+00 -6.533620e-01 3.733837e-01 2.499855e-01 7.593173e-02 -7.598072e-02 -1.050085e-01 1.576382e+00 4.012000e-01 -1.164004e-01 -4.478210e-01 -2.755388e-02 6.878621e-01 -5.013915e-01
<VARIANCE> 39
 1.219045e+01 2.460180e+01 5.023011e+01 5.118153e+01 3.636333e+01 7.988526e+01 4.945724e+01 5.926859e+01 4.849750e+01 5.163831e+01 5.200516e+01 3.770732e+01 1.427015e+01 1.503244e+00 1.589273e+00 3.258725e+00 4.281648e+00 3.958088e+00 4.552698e+00 4.948219e+00 3.896004e+00 5.484973e+00 4.138011e+00 3.212888e+00 3.600487e+00 1.753989e+00 4.205020e-01 3.987538e-01 4.729613e-01 5.790426e-01 9.042098e-01 8.422896e-01 6.121769e-01 9.976854e-01 9.587598e-01 8.511145e-01 6.679019e-01 5.074423e-01 2.743780e-01
<GCONST> 1.283198e+02
<MIXTURE> 2 3.690105e-01
<MEAN> 39
 -1.222897e+00 -1.305521e+00 2.253340e+00 -3.207012e+00 -1.352310e+01 -1.108153e+01 -1.429335e+01 -4.839517e+00 -8.409408e+00 -4.981847e+00 -6.737930e+00 -2.094172e-01 6.804710e+01 2.351049e-01 5.007222e-01 -7.798712e-01 -3.110186e-02 8.127405e-01 5.970310e-01 -7.575729e-01 -5.660067e-01 7.190072e-01 2.754133e-01 -4.259165e-01 -2.621073e-01 -4.055666e-01 -2.929370e-01 2.849420e-01 1.196311e-01 2.831568e-02 2.542692e-01 2.895294e-01 3.776636e-01 -1.627905e-01 -9.488234e-02 7.106045e-02 2.890219e-01 -1.076656e-01 -1.932053e-01
<VARIANCE> 39
 1.740883e+01 3.585794e+01 4.751830e+01 8.659447e+01 4.004586e+01 5.645475e+01 7.126933e+01 4.562082e+01 5.265080e+01 4.783821e+01 5.075968e+01 4.632105e+01 1.949953e+01 5.202938e-01 9.564080e-01 1.853044e+00 1.723275e+00 2.521888e+00 2.499067e+00 2.555587e+00 2.961898e+00 2.349648e+00 3.075914e+00 2.066365e+00 2.021391e+00 4.037066e-01 2.519058e-01 2.894704e-01 2.865016e-01 3.156867e-01 5.189007e-01 4.123167e-01 5.847030e-01 6.043889e-01 5.269667e-01 4.389482e-01 4.411562e-01 3.809841e-01 1.036926e-01
<GCONST> 1.145222e+02
<MIXTURE> 3 4.258923e-01
<MEAN> 39
 -5.489254e-01 1.251887e+00 4.357090e+00 -1.215835e+00 -9.999044e+00 1.241102e+00 -1.867864e+01 -5.344935e+00 -8.758930e+00 -4.031856e+00 3.259996e+00 -5.389245e+00 6.909714e+01 7.902838e-02 2.962741e-01 -1.430928e-01 -1.158792e-01 3.896893e-01 4.141294e-01 -6.978749e-02 -5.126078e-01 -3.847065e-02 2.556565e-01 -2.721764e-01 4.468968e-02 -3.200869e-01 -9.737183e-02 6.173325e-02 7.790276e-02 7.932223e-02 5.903396e-02 -1.567789e-01 3.525644e-01 4.362534e-02 2.850509e-02 -9.782892e-02 -1.100424e-01 2.272413e-01 -9.257649e-02
<VARIANCE> 39
 1.557232e+01 2.423334e+01 7.006332e+01 5.479432e+01 3.498621e+01 7.366746e+01 8.552244e+01 6.856046e+01 4.164616e+01 4.895892e+01 4.293781e+01 3.857725e+01 1.597130e+01 2.505158e-01 4.958908e-01 1.044937e+00 1.024354e+00 1.308530e+00 1.392824e+00 1.754460e+00 1.696615e+00 1.908736e+00 1.723378e+00 1.366416e+00 1.347150e+00 2.147207e-01 6.090204e-02 1.108069e-01 1.729568e-01 1.594571e-01 2.400185e-01 2.508115e-01 3.488916e-01 3.034558e-01 3.020411e-01 2.814683e-01 2.421783e-01 2.362591e-01 5.741376e-02
<GCONST> 9.830569e+01
<STATE> 4
<NUMMIXES> 3
<MIXTURE> 1 1.841344e-01
<MEAN> 39
 -3.044297e+00 1.132345e+00 8.026220e+00 4.148902e+00 -9.040986e+00 -4.933465e+00 -1.823548e+01 -4.812021e+00 -5.036631e+00 -6.085021e+00 -9.618575e-01 -2.359612e+00 6.676588e+01 -1.839803e+00 2.505910e+00 -2.518207e-01 8.266569e-01 2.333890e+00 -1.121979e+00 2.900951e+00 7.260154e-01 9.090443e-01 6.292335e-01 -9.994941e-01 1.128233e+00 -1.803130e+00 -8.814895e-01 3.785470e-01 -2.822881e-01 -2.336160e-01 5.239184e-01 2.171201e-01 7.995268e-01 5.231124e-01 -1.531769e-01 1.377321e-01 2.350515e-01 1.241995e-02 -3.145866e-01
<VARIANCE> 39
 1.547014e+01 2.499479e+01 2.930470e+01 3.700896e+01 5.435430e+01 5.303805e+01 4.366068e+01 3.754123e+01 3.555775e+01 3.772837e+01 3.191104e+01 3.176184e+01 1.836619e+01 2.197799e+00 1.993844e+00 2.308792e+00 3.592206e+00 3.832900e+00 4.436068e+00 4.297036e+00 4.957001e+00 3.688593e+00 3.917153e+00 2.252989e+00 3.541603e+00 3.124923e+00 3.024212e-01 4.770491e-01 3.078575e-01 3.769285e-01 7.585508e-01 5.036836e-01 5.883508e-01 5.005613e-01 4.426653e-01 5.695615e-01 3.738318e-01 5.026999e-01 2.384683e-01
<GCONST> 1.216398e+02
<MIXTURE> 2 5.308703e-01
<MEAN> 39
 2.196899e+00 4.837732e+00 -5.081455e+00 -9.796923e+00 -7.948585e+00 1.799176e+00 -1.224457e+01 -1.006489e+01 -1.295562e+01 -1.788055e+00 1.595072e+00 -1.871819e+00 6.487364e+01 1.884773e-03 3.944725e-02 -1.753090e-01 -3.378155e-01 -1.258893e-02 1.130139e-01 9.813893e-01 4.183588e-01 3.951632e-01 -3.630465e-01 -1.284875e-01 4.051243e-01 -1.833683e-01 -2.998851e-01 -3.425612e-01 3.243257e-01 5.308800e-01 -5.158409e-05 -5.308705e-01 -6.399493e-02 5.064424e-01 5.815128e-01 -9.379243e-02 -2.771744e-01 -1.312661e-01 9.054164e-02
<VARIANCE> 39
 1.212381e+01 3.583169e+01 2.922468e+01 6.000000e+01 3.254794e+01 7.261522e+01 7.954758e+01 5.131246e+01 4.880205e+01 5.433540e+01 6.114217e+01 3.758212e+01 1.793890e+01 4.940523e-01 2.711649e+00 1.463131e+00 3.093278e+00 2.109738e+00 3.688040e+00 5.221748e+00 3.584074e+00 4.978122e+00 4.553644e+00 3.629359e+00 3.166987e+00 1.247831e+00 1.138822e-01 2.757866e-01 2.761907e-01 3.304038e-01 4.533141e-01 5.546548e-01 7.533984e-01 7.029274e-01 6.491844e-01 8.592975e-01 6.232169e-01 5.298432e-01 1.540178e-01
<GCONST> 1.209464e+02
<MIXTURE> 3 2.849960e-01
<MEAN> 39
 -1.918472e+00 2.127595e+00 1.654369e+00 -8.228265e-01 -9.677567e+00 -6.664353e+00 -1.260095e+01 -8.303596e+00 -6.598582e+00 -4.241537e+00 -3.327302e+00 -1.210464e+00 6.440445e+01 -1.063092e+00 1.004169e+00 5.412571e-01 9.978117e-01 1.191546e+00 -1.194933e-01 1.524554e+00 6.980878e-01 7.497093e-01 -3.005799e-01 -4.105971e-01 -6.530195e-02 -1.257911e+00 -5.577008e-01 1.190576e-01 1.474044e-01 1.057969e-02 2.526960e-01 1.144296e-01 3.702424e-01 4.119119e-01 -1.095484e-01 2.277998e-02 1.906057e-01 -7.724997e-02 -1.072833e-01
<VARIANCE> 39
 2.419505e+01 4.447556e+01 4.916839e+01 6.719231e+01 5.955087e+01 8.225507e+01 7.016136e+01 5.610244e+01 5.589510e+01 5.157087e+01 6.825296e+01 4.520012e+01 2.813863e+01 1.999533e+00 3.917260e+00 2.618436e+00 3.515470e+00 4.451995e+00 5.414395e+00 5.765399e+00 4.990288e+00 4.959526e+00 3.849436e+00 3.755581e+00 3.407431e+00 2.853687e+00 4.904798e-01 5.763221e-01 3.897469e-01 5.454026e-01 7.198591e-01 6.761724e-01 8.970035e-01 7.515486e-01 9.364930e-01 7.265614e-01 6.386735e-01 6.167974e-01 3.024815e-01
<GCONST> 1.338019e+02
<TRANSP> 5
 0.000000e+00 1.000000e+00 0.000000e+00 0.000000e+00 0.000000e+00
 0.000000e+00 5.237032e-01 4.762968e-01 0.000000e+00 0.000000e+00
 0.000000e+00 0.000000e+00 7.259161e-01 2.740839e-01 0.000000e+00
 0.000000e+00 0.000000e+00 0.000000e+00 6.189252e-01 3.810749e-01
 0.000000e+00 0.000000e+00 0.000000e+00 0.000000e+00 0.000000e+00
<ENDHMM>
~h "zh"
<BEGINHMM>
<NUMSTATES> 5
<STATE> 2
<NUMMIXES> 3
<MIXTURE> 1 2.701808e-01
<MEAN> 39
 -8.013918e+00 2.142336e+00 1.368654e+01 -2.969774e+00 -1.258479e+01 -3.587809e+00 -1.066321e+01 3.260417e+00 -4.946120e+00 -4.505629e+00 5.564928e+00 1.806254e+00 7.392150e+01 -3.514964e+00 3.164393e+00 6.814793e-01 1.774100e+00 1.179739e+00 2.474738e+00 1.391400e+00 -1.365852e+00 1.226422e+00 5.901242e-03 -1.118387e+00 8.224027e-01 -1.356562e+00 -1.092974e+00 -3.913219e-01 -4.442292e-01 -1.099555e-01 4.723440e-01 8.075770e-01 8.146142e-01 4.531779e-01 3.523817e-01 1.754488e-01 -3.242840e-01 -5.421810e-01 1.609181e-01
<VARIANCE> 39
 1.647182e+01 3.410999e+01 1.233864e+01 1.218485e+01 1.496563e+01 1.645412e+01 1.333814e+01 2.135000e+01 2.491565e+01 9.518164e+00 9.522311e+00 8.657357e+00 1.387328e+01 2.827183e+00 9.419103e-01 1.241034e+00 6.120111e-01 1.581631e+00 2.913682e+00 2.999750e+00 1.559902e+00 1.777767e+00 1.097828e+00 1.814363e+00 1.601407e+00 2.357925e-01 2.264141e-01 8.386955e-01 1.646364e-01 1.578790e-01 2.089352e-01 3.331556e-01 3.443052e-01 2.059290e-01 2.601663e-01 1.895533e-01 2.735670e-01 2.124228e-01 6.008657e-02
<GCONST> 9.146657e+01
<MIXTURE> 2 3.957571e-01
<MEAN> 39
 -5.677559e+00 -1.721685e+00 8.217072e+00 -3.806510e+00 -1.650656e+01 -1.170636e+01 -1.059572e+01 -8.818542e+00 -8.370348e+00 -7.626448e+00 -3.638910e+00 -1.800426e+00 7.087019e+01 -2.565663e+00 1.893468e+00 1.169661e+00 1.870552e+00 -2.586419e-01 7.840763e-01 3.784038e-01 -4.197904e-01 3.143475e-01 -6.516044e-01 3.230168e-01 -1.802645e-01 2.457412e-02 -8.897526e-01 9.088099e-02 4.322121e-03 1.338929e-01 4.276554e-01 4.649548e-01 1.966851e-01 2.942460e-01 6.235378e-02 3.738344e-01 1.990868e-02 -2.449736e-01 1.918499e-01
<VARIANCE> 39
 4.077159e+01 3.573695e+01 3.833852e+01 5.422682e+01 3.619744e+01 3.970491e+01 3.667096e+01 5.589746e+01 3.190273e+01 3.163627e+01 2.805569e+01 4.251654e+01 2.646089e+01 3.219921e+00 2.223547e+00 1.856055e+00 2.696805e+00 2.689271e+00 2.733847e+00 3.116567e+00 3.893507e+00 1.857633e+00 2.763695e+00 1.535213e+00 2.644367e+00 5.270925e-01 5.998398e-01 6.432050e-01 2.486066e-01 3.146423e-01 3.910533e-01 3.707779e-01 4.018939e-01 5.855297e-01 2.971462e-01 3.878969e-01 2.795507e-01 4.808983e-01 1.022459e-01
<GCONST> 1.159143e+02
<MIXTURE> 3 3.340621e-01
<MEAN> 39
 -1.108510e+01 2.002076e+00 1.023945e+01 7.074455e+00 -1.298625e+01 -8.170443e+00 -8.084434e+00 -3.713924e+00 -3.404468e+00 -6.154542e+00 -8.022371e-02 3.624727e-01 6.936085e+01 -4.990226e+00 1.961183e+00 1.417007e+00 1.036079e+00 1.178827e+00 1.629584e+00 2.401854e+00 7.772603e-01 2.249448e-01 4.113287e-01 5.883824e-01 -4.350209e-01 -2.319106e-01 -4.036245e-01 -7.229940e-01 -3.362025e-01 -4.263772e-01 4.965878e-01 7.690759e-01 6.255989e-02 2.992368e-01 3.125619e-01 2.111274e-01 -1.254797e-01 -2.740566e-01 2.062452e-02
<VARIANCE> 39
 4.296087e+01 2.903943e+01 2.039410e+01 5.289835e+01 2.392765e+01 2.333390e+01 3.126165e+01 2.832749e+01 4.578376e+01 3.663250e+01 2.091602e+01 1.797753e+01 1.814773e+01 1.950986e+00 3.301670e+00 4.375889e+00 3.020157e+00 2.913251e+00 5.097092e+00 3.850657e+00 4.425396e+00 2.483185e+00 3.247291e+00 2.288786e+00 3.768005e+00 1.414788e+00 5.217121e-01 3.908535e-01 2.572924e-01 4.322591e-01 4.775315e-01 5.681120e-01 6.600416e-01 5.327399e-01 2.989056e-01 3.988566e-01 3.971692e-01 3.655173e-01 1.076911e-01
<GCONST> 1.172994e+02
<STATE> 3
<NUMMIXES> 3
<MIXTURE> 1 2.644950e-01
<MEAN> 39
 -2.032841e+01 6.185748e+00 1.466208e+01 3.234434e+00 -9.698937e+00 4.407879e-01 -5.698296e+00 -3.518604e+00 -3.555551e+00 -5.256155e+00 -2.521843e-01 -1.404167e+00 7.059624e+01 -4.229585e+00 -4.657745e-01 1.075178e-01 8.466766e-01 2.031252e+00 3.081685e+00 2.078347e+00 7.561181e-01 8.499537e-01 4.219784e-01 -1.776537e-01 -5.693683e-01 -2.161024e-01 8.548749e-01 -1.238756e+00 -7.324812e-01 -4.391860e-01 -3.377388e-01 -4.771713e-01 -1.765478e-01 2.872223e-01 -3.252595e-02 1.028816e-01 2.153009e-01 9.969291e-03 9.369843e-02
<VARIANCE> 39
 2.297871e+01 2.620763e+01 2.135171e+01 4.649182e+01 2.732854e+01 4.940025e+01 2.807199e+01 4.341122e+01 3.128387e+01 2.360369e+01 2.496081e+01 1.981849e+01 2.279157e+01 3.001797e+00 1.886653e+00 1.520137e+00 2.063033e+00 1.772754e+00 2.239974e+00 1.398811e+00 2.199963e+00 1.669986e+00 1.188820e+00 1.782706e+00 1.706837e+00 4.620709e-01 3.299900e-01 3.534575e-01 3.012421e-01 3.261600e-01 3.279677e-01 6.288584e-01 4.451176e-01 4.542376e-01 3.836218e-01 3.322815e-01 3.713526e-01 3.924150e-01 1.078227e-01
<GCONST> 1.077737e+02
<MIXTURE> 2 4.167450e-01
<MEAN> 39
 -2.719246e+01 -2.860728e+00 9.471845e+00 4.709638e+00 -8.630869e+00 3.460716e+00 9.178202e-02 1.006654e+00 -6.844050e-01 -3.592691e+00 1.071589e+00 -2.386810e+00 7.022173e+01 9.775687e-01 -8.446444e-01 -1.244879e+00 -1.859951e-01 -1.290919e+00 -1.462031e+00 4.751526e-03 -1.050846e-01 -2.166411e-01 1.152428e-01 1.454627e-01 -1.155595e-01 -2.155807e-01 2.021636e+00 5.166607e-01 -1.247543e-01 -1.453357e-01 -4.562046e-01 -1.167224e+00 -1.001490e+00 -3.486513e-01 -2.835871e-01 -2.274750e-01 2.806639e-02 2.642358e-01 3.839973e-02
<VARIANCE> 39
 1.228386e+01 2.470471e+01 2.329184e+01 3.323761e+01 2.122928e+01 3.304571e+01 2.130251e+01 3.063892e+01 2.937832e+01 2.236569e+01 2.877788e+01 1.919908e+01 2.447987e+01 4.792371e+00 1.822960e+00 1.180498e+00 2.367975e+00 1.742262e+00 3.506603e+00 2.137661e+00 2.509957e+00 1.976387e+00 1.790030e+00 1.931442e+00 1.181294e+00 1.894294e-01 2.738131e-01 3.134162e-01 3.410076e-01 4.903213e-01 5.442621e-01 4.831026e-01 4.570467e-01 6.504560e-01 4.052902e-01 3.952831e-01 3.775077e-01 3.851744e-01 8.351834e-02
<GCONST> 1.071535e+02
<MIXTURE> 3 3.187599e-01
<MEAN> 39
 -2.609804e+01 4.424820e+00 7.307920e+00 3.262131e+00 -5.112625e+00 2.542229e+00 -2.032472e+00 6.253378e-01 -8.636994e-01 -3.533906e+00 2.495835e+00 7.852002e-01 6.904013e+01 -1.795781e+00 -1.498143e+00 -9.418459e-01 -6.250177e-02 3.256956e-01 7.116035e-01 1.145186e+00 7.561583e-01 4.376120e-01 3.897436e-01 3.821593e-01 -1.536802e-01 -1.190902e-01 1.292982e+00 -2.846833e-01 -1.794821e-01 -2.709871e-01 -7.318548e-01 -9.101673e-01 -4.275345e-01 -1.697664e-01 -3.483005e-01 -1.380056e-01 -3.542537e-02 -5.285274e-02 4.798262e-02
<VARIANCE> 39
 4.416750e+01 4.164843e+01 9.362914e+01 3.374298e+01 2.312705e+01 7.082874e+01 2.308139e+01 2.479014e+01 2.384833e+01 2.200480e+01 1.565844e+01 1.942599e+01 1.389219e+01 3.049892e+00 1.398304e+00 1.935426e+00 1.498017e+00 1.751884e+00 2.892892e+00 1.908515e+00 2.649137e+00 2.006450e+00 1.374574e+00 1.456980e+00 1.746123e+00 2.110918e-01 3.696263e-01 2.974474e-01 3.934247e-01 3.297850e-01 4.300663e-01 6.457839e-01 3.957491e-01 3.807666e-01 3.363751e-01 2.995532e-01 3.137372e-01 2.815616e-01 6.213117e-02
<GCONST> 1.068427e+02
<STATE> 4
<NUMMIXES> 3
<MIXTURE> 1 2.281375e-01
<MEAN> 39
 -2.162828e+01 -3.046792e+00 5.736069e+00 4.135498e+00 -1.228715e+01 -6.429962e-01 -1.948112e-02 3.356044e+00 -9.076541e-01 -2.879490e+00 3.953776e+00 -1.827008e-01 6.909086e+01 5.667531e+00 4.298745e-01 -9.453529e-01 2.767190e-01 -5.453397e-01 -3.379542e+00 -2.555571e+00 3.325473e-01 -7.274995e-01 -9.355416e-01 7.364277e-01 2.831914e-01 1.222404e-01 1.306969e+00 -4.711242e-02 3.616502e-01 -4.091593e-01 8.832159e-01 7.188796e-02 -1.383429e+00 1.565176e-01 4.859979e-02 -6.438712e-01 4.526482e-02 7.053269e-02 3.471523e-01
<VARIANCE> 39
 3.446413e+01 4.407281e+01 1.842152e+01 3.228847e+01 1.303862e+01 1.903455e+01 2.774929e+01 2.089446e+01 1.404222e+01 1.448300e+01 1.519928e+01 1.414206e+01 2.028492e+01 1.841774e+00 1.941343e+00 1.998653e+00 1.841755e+00 2.084360e+00 2.875733e+00 2.924220e+00 2.211578e+00 1.955702e+00 1.559493e+00 1.218211e+00 1.477236e+00 7.623361e-01 9.670731e-01 4.485428e-01 2.488094e-01 2.391309e-01 1.614615e-01 4.895059e-01 8.471736e-01 6.958385e-01 3.693783e-01 3.985367e-01 2.915727e-01 3.209631e-01 7.796926e-02
<GCONST> 1.050699e+02
<MIXTURE> 2 4.671384e-01
<MEAN> 39
 -1.574162e+01 1.351306e+00 7.480530e+00 8.675712e-01 -1.343663e+01 -6.700584e+00 -6.099899e+00 -4.008393e+00 -5.080615e+00 -5.374265e+00 -9.667093e-01 -2.373761e+00 7.035159e+01 4.933375e+00 -7.110431e-01 -1.401657e+00 -1.565851e+00 -1.236061e+00 -1.908532e+00 -1.565422e+00 -6.968324e-01 -3.804780e-01 2.962214e-01 -4.686397e-02 3.868104e-01 -9.499067e-02 4.640403e-01 -3.435670e-01 -7.286448e-02 -2.141872e-01 3.662502e-01 2.735455e-01 -9.664006e-02 9.110455e-02 1.996302e-02 1.127825e-01 -8.769475e-02 1.253344e-01 2.238772e-02
<VARIANCE> 39
 7.048808e+01 2.352367e+01 4.446975e+01 5.735068e+01 5.253519e+01 5.791915e+01 3.876742e+01 6.055819e+01 3.647884e+01 2.765660e+01 2.709648e+01 1.996947e+01 1.989021e+01 5.609473e+00 2.910483e+00 3.284091e+00 2.918707e+00 3.479563e+00 5.020882e+00 3.377708e+00 7.504691e+00 2.618936e+00 2.112324e+00 3.006099e+00 2.368114e+00 7.867499e-01 1.265989e+00 3.140832e-01 3.538307e-01 5.896735e-01 5.774424e-01 7.828873e-01 5.051054e-01 1.319800e+00 5.168750e-01 3.388423e-01 6.480979e-01 3.637245e-01 1.047243e-01
<GCONST> 1.243641e+02
<MIXTURE> 3 3.047242e-01
<MEAN> 39
 -8.721946e+00 -2.168750e+00 4.647911e+00 6.773412e+00 -1.336076e+01 -9.363108e+00 -7.518480e+00 1.173483e+00 -3.590562e+00 -6.059669e+00 5.074960e+00 3.414939e-01 6.879492e+01 6.831533e+00 -8.805339e-01 -1.363019e+00 -5.343021e-01 1.214006e+00 -3.334293e+00 -4.627057e+00 5.107005e-01 3.964149e-01 -2.298699e+00 1.014282e-01 1.349921e+00 6.716323e-01 -5.354778e-01 -5.767342e-01 1.737643e-01 -3.621669e-01 8.453808e-01 7.771702e-01 -2.560993e-01 2.387668e-01 7.427783e-01 3.500052e-03 -2.618555e-01 -2.055070e-02 1.616037e-01
<VARIANCE> 39
 5.566355e+01 1.366471e+01 1.847067e+01 2.585872e+01 2.495947e+01 3.156713e+01 3.709675e+01 1.738708e+01 1.733492e+01 1.938220e+01 1.083071e+01 1.661378e+01 2.783123e+01 1.527024e+00 2.480275e+00 2.135527e+00 2.001902e+00 2.926432e+00 2.765574e+00 4.997593e+00 4.588125e+00 2.122504e+00 3.031719e+00 1.820983e+00 1.884499e+00 6.954614e-01 1.267779e+00 2.267344e-01 2.715965e-01 2.960545e-01 4.296740e-01 3.429354e-01 7.281237e-01 5.629984e-01 2.644844e-01 4.312131e-01 2.780690e-01 3.274425e-01 6.627318e-02
<GCONST> 1.088387e+02
<TRANSP> 5
 0.000000e+00 1.000000e+00 0.000000e+00 0.000000e+00 0.000000e+00
 0.000000e+00 6.551070e-01 3.448930e-01 0.000000e+00 0.000000e+00
 0.000000e+00 0.000000e+00 8.004785e-01 1.995216e-01 0.000000e+00
 0.000000e+00 0.000000e+00 0.000000e+00 6.096340e-01 3.903660e-01
 0.000000e+00 0.000000e+00 0.000000e+00 0.000000e+00 0.000000e+00
<ENDHMM>
~h "sil"
<BEGINHMM>
<NUMSTATES> 5
<STATE> 2
<NUMMIXES> 3
<MIXTURE> 1 4.365784e-02
<MEAN> 39
 -1.471718e+01 4.685814e+00 1.143863e+00 6.412072e+00 8.319162e+00 1.015765e+01 7.981828e+00 5.112309e+00 5.312598e+00 8.496669e+00 1.151965e+01 1.088943e+01 2.817345e+01 1.505308e-04 -2.031341e-03 2.460703e-04 2.474647e-03 1.868568e-02 -5.469907e-03 -1.860831e-02 9.325061e-03 -1.056384e-02 5.248775e-03 -3.525704e-03 -1.844454e-02 1.187799e-04 1.997818e-03 -8.754372e-04 1.127393e-03 -3.809640e-03 -8.223172e-03 -6.163795e-03 -6.579015e-03 1.140870e-04 -7.985311e-03 -1.818671e-02 -1.898953e-02 -1.619157e-02 1.939252e-03
<VARIANCE> 39
 9.606216e-01 1.005587e+00 1.784225e+00 2.852682e+00 3.923733e+00 4.235854e+00 5.709907e+00 6.600963e+00 6.309120e+00 6.937180e+00 6.834450e+00 7.698418e+00 1.216556e+01 4.859972e-02 1.092704e-01 1.826468e-01 3.159884e-01 3.500430e-01 4.397741e-01 6.068583e-01 7.229410e-01 6.945342e-01 7.324338e-01 6.073736e-01 6.950087e-01 3.764693e-02 7.011225e-03 2.227365e-02 3.562082e-02 6.313266e-02 7.181525e-02 8.992841e-02 1.302328e-01 1.503567e-01 1.417276e-01 1.590660e-01 1.287851e-01 1.421587e-01 6.111041e-03
<GCONST> 3.761928e+01
<MIXTURE> 2 3.472380e-01
<MEAN> 39
 -1.238792e+01 1.508804e+00 -1.082659e+00 1.586208e+00 2.671542e-01 -1.984082e-01 7.153860e-01 1.428347e+00 6.313952e-01 -2.754697e-01 -2.560754e-01 -4.423904e-01 5.223288e+01 -7.858413e-02 1.112352e-01 -6.537027e-02 8.288930e-02 1.508593e-01 2.208278e-01 6.826662e-02 -1.185887e-01 5.820479e-03 -1.640691e-02 -5.563760e-02 -7.122136e-02 -2.946038e-01 4.782861e-02 8.941581e-03 4.322739e-02 -7.233855e-02 -5.078850e-02 -6.034789e-02 -9.486739e-02 -2.900658e-02 -4.218755e-02 -2.821685e-02 -2.823865e-03 -2.614651e-02 1.406234e-01
<VARIANCE> 39
 1.824804e+01 1.885785e+01 1.792799e+01 1.848413e+01 2.306269e+01 2.485137e+01 2.269662e+01 2.352550e+01 2.291533e+01 2.249375e+01 1.944491e+01 1.778192e+01 2.811765e+01 8.330793e-01 1.048860e+00 1.179671e+00 1.427372e+00 1.843695e+00 1.952929e+00 1.920797e+00 2.054414e+00 2.112630e+00 1.987380e+00 1.788229e+00 1.519418e+00 8.461667e-01 1.454235e-01 1.557818e-01 1.824455e-01 2.290890e-01 2.786253e-01 3.452020e-01 3.406152e-01 3.549009e-01 3.599154e-01 3.598582e-01 3.202727e-01 2.912777e-01 1.039790e-01
<GCONST> 9.859099e+01
<MIXTURE> 3 6.091065e-01
<MEAN> 39
 -1.288518e+01 3.163836e+00 -6.635153e-02 2.417071e+00 1.647563e+00 1.561837e+00 1.211362e+00 1.032107e+00 9.969797e-01 7.372916e-02 4.333481e-01 -2.046200e-01 4.855468e+01 -1.698882e-02 2.975445e-02 3.882208e-02 1.486815e-02 -7.496043e-03 1.456064e-02 -3.965681e-03 4.365304e-03 7.456278e-03 3.223570e-02 3.302392e-02 7.968205e-03 -2.824532e-02 6.841592e-03 -7.162886e-03 -3.990114e-03 -6.042424e-03 -1.307603e-02 -1.782211e-02 -2.964491e-04 3.761333e-03 -4.076136e-03 -8.258324e-03 -3.274091e-03 2.290886e-03 2.153832e-02
<VARIANCE> 39
 4.384804e+00 3.704744e+00 5.929542e+00 7.429544e+00 9.137621e+00 1.020856e+01 1.085703e+01 1.139817e+01 1.199817e+01 1.198452e+01 1.226388e+01 1.088596e+01 6.459408e+00 9.665091e-02 2.036498e-01 3.545583e-01 5.350961e-01 7.327540e-01 9.151581e-01 9.989011e-01 1.152069e+00 1.248950e+00 1.219686e+00 1.183516e+00 1.046483e+00 4.008847e-02 1.956542e-02 3.950346e-02 6.893411e-02 1.041921e-01 1.468916e-01 1.800566e-01 1.978344e-01 2.264051e-01 2.534529e-01 2.400220e-01 2.337584e-01 2.087144e-01 8.671225e-03
<GCONST> 6.149376e+01
<STATE> 3
~s "silst"
<STATE> 4
<NUMMIXES> 3
<MIXTURE> 1 1.756111e-01
<MEAN> 39
 -1.050598e+01 6.028611e+00 2.047800e+00 2.924531e+00 -1.264954e+00 -3.657650e+00 -3.572122e+00 -4.476767e-01 -1.819295e+00 -2.457052e+00 -7.143508e-01 -1.321908e+00 5.927492e+01 -2.093267e+00 6.177121e-01 -4.536040e-01 6.588394e-01 1.347492e+00 8.046979e-01 1.478740e+00 1.674534e-01 1.298822e-01 3.465011e-01 3.346754e-02 4.848978e-01 -1.072286e+00 5.942965e-02 -7.161736e-01 -2.322008e-01 -5.450734e-01 -4.118584e-01 5.877299e-02 -2.189689e-01 1.482747e-01 4.035464e-02 4.144734e-02 2.176525e-01 -8.075476e-02 4.975025e-01
<VARIANCE> 39
 8.359724e+01 3.585347e+01 4.530230e+01 2.771840e+01 3.690121e+01 4.701931e+01 5.626516e+01 4.202583e+01 4.247856e+01 2.990779e+01 2.319141e+01 2.631057e+01 5.790836e+01 5.927135e+00 6.169851e+00 4.740880e+00 4.318148e+00 4.641677e+00 4.621515e+00 5.735618e+00 5.011670e+00 4.935383e+00 3.009692e+00 3.219886e+00 2.776885e+00 4.948458e+00 9.840589e-01 6.964961e-01 5.887386e-01 5.663542e-01 7.268833e-01 8.442625e-01 9.976593e-01 7.561281e-01 7.320683e-01 5.328764e-01 5.173582e-01 4.789167e-01 6.819535e-01
<GCONST> 1.342299e+02
<MIXTURE> 2 3.804366e-01
<MEAN> 39
 -4.491333e+00 -2.516759e+00 -2.326302e-01 -5.856238e+00 -8.114889e+00 -4.574631e+00 -7.922379e+00 -1.262159e+00 -3.721417e+00 -3.100029e+00 -1.284942e-02 -3.994749e+00 6.751990e+01 9.236605e-01 -2.805973e-01 1.974393e-01 -4.715773e-01 -7.842657e-01 -5.433735e-01 -8.102038e-01 2.880451e-02 -1.063400e-01 -2.460099e-01 -9.294924e-02 -3.521414e-01 1.130128e+00 -2.610163e-01 2.507232e-01 6.346422e-02 2.941794e-01 2.811502e-01 1.657374e-01 3.002515e-01 7.666431e-02 6.222968e-02 -4.059806e-03 -1.000023e-02 4.644251e-02 -3.526433e-01
<VARIANCE> 39
 5.627547e+01 5.094166e+01 8.787814e+01 6.174209e+01 6.020867e+01 9.645319e+01 7.216646e+01 7.534281e+01 7.742197e+01 4.744330e+01 6.782613e+01 4.193648e+01 4.511311e+01 5.097863e+00 4.763409e+00 4.602907e+00 5.922707e+00 5.891099e+00 5.287827e+00 6.318830e+00 5.950000e+00 6.380467e+00 4.190800e+00 4.752167e+00 3.788052e+00 6.041417e+00 6.958797e-01 6.753814e-01 6.279524e-01 7.344084e-01 8.505998e-01 8.335673e-01 1.060635e+00 1.019826e+00 1.040864e+00 7.712998e-01 8.346519e-01 6.659916e-01 5.521612e-01
<GCONST> 1.438172e+02
<MIXTURE> 3 4.439504e-01
<MEAN> 39
 -5.582334e+00 -1.954662e+00 5.977962e-01 -3.848754e+00 -6.458202e+00 -9.065180e-01 -4.528712e+00 9.071289e-01 -2.360380e+00 -2.923602e+00 1.458930e+00 -3.933382e+00 6.478912e+01 4.219260e-02 1.294466e-01 3.124688e-03 1.263562e-01 1.093556e-01 -3.429459e-02 8.631793e-02 -1.643422e-01 -4.925810e-02 -2.116487e-02 -7.766882e-02 5.926662e-02 -1.961930e-01 -2.088472e-02 1.156211e-01 -4.082864e-03 1.003912e-01 7.357451e-02 -5.318327e-02 -1.545690e-03 -2.783779e-02 4.558625e-03 2.552275e-02 -2.371109e-02 5.140987e-02 -9.155535e-02
<VARIANCE> 39
 7.182511e+01 5.582723e+01 8.985227e+01 5.470378e+01 5.969850e+01 7.273203e+01 7.377321e+01 6.000920e+01 6.709754e+01 3.802542e+01 4.220429e+01 3.269719e+01 8.831868e+01 7.528356e-01 1.372495e+00 1.457043e+00 1.413005e+00 1.712560e+00 1.833324e+00 2.192066e+00 2.330760e+00 2.471713e+00 1.853473e+00 1.887895e+00 1.607578e+00 8.656339e-01 2.518175e-01 2.643123e-01 2.592752e-01 2.607897e-01 3.485341e-01 3.500421e-01 4.848107e-01 4.685021e-01 4.843287e-01 3.441818e-01 3.312460e-01 3.050361e-01 1.967146e-01
<GCONST> 1.161191e+02
<TRANSP> 5
 0.000000e+00 1.000000e+00 0.000000e+00 0.000000e+00 0.000000e+00
 0.000000e+00 8.962964e-01 4.035678e-02 6.334685e-02 0.000000e+00
 0.000000e+00 0.000000e+00 7.671836e-01 2.328164e-01 0.000000e+00
 0.000000e+00 2.640834e-02 0.000000e+00 8.516839e-01 1.219077e-01
 0.000000e+00 0.000000e+00 0.000000e+00 0.000000e+00 0.000000e+00
<ENDHMM>
