~o
<STREAMINFO> 1 39
<VECSIZE> 39<NULLD><MFCC_D_A_0><DIAGC>
~s "silst"
<MEAN> 39
 -1.435091e+01 2.569638e+00 -6.183043e-01 1.912228e+00 1.446179e+00 3.847149e-01 6.898273e-01 1.477456e+00 3.164437e-01 -2.754596e-01 1.003408e-01 -3.697154e-01 5.247185e+01 8.244321e-01 -3.479834e-01 -3.716080e-02 -5.111629e-01 -5.967816e-01 -3.890263e-01 -6.482703e-01 -4.513979e-01 -4.157217e-01 -3.470793e-01 -2.464750e-01 -2.291113e-01 9.054217e-01 2.978757e-01 -1.088879e-01 -2.617740e-02 -2.789867e-01 -3.061175e-01 -1.749155e-01 -2.721929e-01 -1.214109e-01 -9.864919e-02 -8.321898e-02 -1.557195e-02 -7.008602e-02 4.927695e-01
<VARIANCE> 39
 3.399964e+01 2.199712e+01 2.517244e+01 2.074542e+01 2.370215e+01 2.383532e+01 1.966130e+01 2.249181e+01 2.046454e+01 1.858338e+01 1.782652e+01 1.630486e+01 3.288932e+01 3.043353e+00 2.847477e+00 2.503712e+00 3.129017e+00 3.471449e+00 3.503965e+00 3.229876e+00 2.996665e+00 2.851504e+00 2.305526e+00 2.402383e+00 2.025869e+00 4.447952e+00 4.523314e-01 4.282610e-01 3.771320e-01 5.297365e-01 5.440060e-01 5.584389e-01 5.435717e-01 4.701112e-01 5.044305e-01 4.169661e-01 4.112344e-01 3.618196e-01 6.088197e-01
<GCONST> 1.162635e+02
~h "b"
<BEGINHMM>
<NUMSTATES> 5
<STATE> 2
<MEAN> 39
 -8.452032e+00 3.998876e+00 1.572186e+00 1.695018e+00 1.840775e-02 -7.536075e-01 -2.075431e+00 -1.252282e+00 -2.116629e+00 -2.820618e+00 -1.406902e+00 -1.887912e+00 5.426503e+01 -6.077576e-01 4.683572e-01 3.203498e-01 6.231729e-01 5.049693e-01 2.599263e-01 6.317129e-01 1.548117e-01 -1.200521e-02 -8.270581e-02 -1.769020e-01 -1.033697e-01 -8.984624e-01 -3.104730e-02 -5.106782e-01 -1.763449e-01 -3.192180e-01 -3.157319e-01 -1.078097e-01 -2.784944e-01 1.162089e-01 7.536094e-02 8.043542e-02 1.206984e-01 9.823755e-02 6.316774e-01
<VARIANCE> 39
 4.327006e+01 6.745764e+01 2.209889e+01 2.005405e+01 1.827246e+01 2.535716e+01 3.054562e+01 4.183584e+01 3.231077e+01 2.158277e+01 2.157673e+01 2.035324e+01 2.745779e+01 1.638673e+00 3.225492e+00 1.963528e+00 2.331230e+00 2.036780e+00 2.213514e+00 2.790092e+00 2.377287e+00 2.400002e+00 2.175395e+00 1.999571e+00 1.693654e+00 2.413717e+00 2.370673e-01 6.858555e-01 3.864369e-01 4.263130e-01 4.516956e-01 4.493123e-01 5.749128e-01 5.182715e-01 5.063182e-01 4.501574e-01 4.107406e-01 3.593533e-01 5.712789e-01
<GCONST> 1.149468e+02
<STATE> 3
<MEAN> 39
 -7.930677e+00 6.939285e+00 2.928850e+00 3.459594e+00 7.256995e-01 5.497909e-02 -2.116458e+00 -2.796825e+00 -3.334467e+00 -3.099000e+00 -2.145442e+00 -2.763049e+00 5.323006e+01 -1.143013e-01 -2.403384e+00 -1.160245e+00 -1.245130e+00 -1.664777e+00 -7.961203e-01 -1.411890e+00 3.248581e-01 3.330049e-01 4.861517e-01 7.178946e-01 5.234396e-01 2.956930e+00 7.488437e-01 -7.609923e-01 -4.122422e-01 -9.920653e-01 -9.458987e-01 -3.762725e-01 -7.640457e-01 -1.437535e-01 1.283024e-02 2.695042e-01 2.431164e-01 7.603937e-02 1.466671e+00
<VARIANCE> 39
 2.417196e+01 2.423750e+01 1.823284e+01 1.889983e+01 1.715260e+01 2.179490e+01 2.796306e+01 2.826155e+01 2.894343e+01 2.168715e+01 1.779796e+01 1.614495e+01 2.523351e+01 3.249478e+00 3.144772e+00 3.619026e+00 3.869624e+00 3.921229e+00 3.498591e+00 4.199203e+00 3.610586e+00 3.551837e+00 3.172546e+00 2.690247e+00 2.369744e+00 3.636199e+00 3.793690e-01 6.960681e-01 9.026199e-01 6.914416e-01 6.423157e-01 8.112109e-01 8.061782e-01 7.526070e-01 8.199619e-01 6.193540e-01 6.408787e-01 5.385739e-01 4.561796e-01
<GCONST> 1.222056e+02
<STATE> 4
<MEAN> 39
 -4.957522e+00 -2.107467e+00 -3.290908e+00 -4.275292e+00 -6.763014e+00 -3.107683e+00 -8.191735e+00 -2.677087e+00 -1.484668e+00 -1.424298e-03 2.394293e-01 -2.108642e+00 6.662852e+01 1.691574e+00 -2.371251e+00 -1.024668e+00 -2.597768e+00 -2.171951e+00 -5.529699e-01 -1.544069e+00 1.495508e-01 3.777422e-01 7.614350e-01 2.462013e-01 -1.892018e-01 4.003080e+00 1.042538e-01 5.184610e-01 4.299301e-01 1.636021e-01 3.642704e-01 2.114827e-01 3.925266e-01 1.564213e-02 -1.100126e-01 -2.239465e-01 -3.306031e-01 -1.804585e-01 -5.650667e-01
<VARIANCE> 39
 4.651977e+01 3.508041e+01 4.134328e+01 5.721640e+01 3.789032e+01 6.012410e+01 4.545833e+01 4.228560e+01 3.346964e+01 3.900693e+01 3.661034e+01 3.080480e+01 3.930463e+01 4.129287e+00 4.381168e+00 6.447972e+00 5.705887e+00 6.090058e+00 6.760968e+00 7.304860e+00 5.979417e+00 5.861595e+00 4.398623e+00 5.366054e+00 4.563693e+00 4.738977e+00 7.522874e-01 6.132972e-01 5.584478e-01 9.297059e-01 8.154235e-01 8.039197e-01 8.603085e-01 8.897524e-01 7.483005e-01 7.642103e-01 6.792184e-01 6.065843e-01 6.844783e-01
<GCONST> 1.380654e+02
<TRANSP> 5
 0.000000e+00 1.000000e+00 0.000000e+00 0.000000e+00 0.000000e+00
 0.000000e+00 7.955910e-01 2.044090e-01 0.000000e+00 0.000000e+00
 0.000000e+00 0.000000e+00 5.094662e-01 4.905338e-01 0.000000e+00
 0.000000e+00 0.000000e+00 0.000000e+00 4.998316e-01 5.001684e-01
 0.000000e+00 0.000000e+00 0.000000e+00 0.000000e+00 0.000000e+00
<ENDHMM>
~h "d"
<BEGINHMM>
<NUMSTATES> 5
<STATE> 2
<MEAN> 39
 -2.923280e+00 5.017215e+00 5.281201e+00 1.354904e+00 -6.843041e+00 -6.257140e+00 -6.793310e+00 -2.921918e+00 -4.782157e+00 -4.697380e+00 -3.643936e+00 -1.982301e+00 6.035225e+01 -8.137078e-01 1.316302e+00 2.883339e-01 1.097903e+00 1.535364e+00 6.639664e-01 9.062024e-01 -1.110304e-01 2.083420e-01 -1.892558e-01 -3.384739e-01 -5.136129e-01 -1.826634e+00 -3.572605e-01 -6.232511e-01 -3.163786e-01 -4.978310e-01 -1.152793e-01 1.908842e-01 -5.359173e-02 2.267809e-01 4.391418e-02 1.860594e-01 3.193782e-01 5.145159e-02 6.087769e-01
<VARIANCE> 39
 2.607063e+01 4.826600e+01 4.470731e+01 5.539166e+01 5.019307e+01 5.296276e+01 4.639053e+01 5.560951e+01 4.980973e+01 3.455843e+01 3.965134e+01 3.006119e+01 4.163025e+01 2.600867e+00 5.407989e+00 3.453358e+00 4.847497e+00 4.683415e+00 4.362327e+00 4.971136e+00 5.247455e+00 4.379622e+00 3.110614e+00 3.648906e+00 3.244401e+00 4.697191e+00 3.557573e-01 9.014515e-01 4.874441e-01 7.805991e-01 8.432972e-01 7.350451e-01 8.144740e-01 8.438061e-01 8.227330e-01 6.079039e-01 6.700287e-01 5.298137e-01 8.314187e-01
<GCONST> 1.341334e+02
<STATE> 3
<MEAN> 39
 -6.156271e+00 7.213961e+00 5.389272e+00 3.759452e+00 -1.918448e+00 -3.084324e+00 -4.160769e+00 -2.899827e+00 -4.247868e+00 -4.613222e+00 -3.684046e+00 -3.051889e+00 5.574863e+01 -1.727518e+00 -1.306014e+00 -5.208959e-01 -6.577477e-01 4.947986e-01 8.553963e-01 3.393818e-01 4.523301e-01 2.237241e-01 4.885680e-01 8.169035e-01 1.287785e-01 6.782465e-01 -1.272690e-02 -8.491642e-01 -2.851402e-01 -7.106560e-01 -8.270815e-01 -3.528166e-01 -4.756493e-01 1.889068e-01 9.348452e-03 2.123008e-01 4.003566e-01 3.528308e-01 1.250656e+00
<VARIANCE> 39
 2.547835e+01 3.458120e+01 2.512113e+01 2.879242e+01 3.357197e+01 3.603300e+01 3.270736e+01 3.013507e+01 2.984756e+01 2.192608e+01 2.251582e+01 1.866891e+01 3.686279e+01 3.202381e+00 4.947645e+00 3.180499e+00 4.418116e+00 4.628442e+00 4.429118e+00 4.434564e+00 4.141580e+00 4.304379e+00 2.856211e+00 3.075223e+00 2.609252e+00 4.894564e+00 5.852574e-01 8.161433e-01 5.924510e-01 7.343853e-01 8.225626e-01 8.232849e-01 8.307094e-01 8.077520e-01 7.348199e-01 5.525594e-01 6.241470e-01 5.387595e-01 7.106551e-01
<GCONST> 1.279892e+02
<STATE> 4
<MEAN> 39
 -1.139056e+01 -2.595329e-02 2.016649e+00 -1.060947e+00 -4.657192e+00 -3.195925e+00 -4.572848e+00 -1.584961e-01 -2.966693e+00 -2.274682e+00 -3.862977e-04 -7.468270e-01 6.327435e+01 -2.858454e-02 -8.306160e-01 -3.472765e-01 -7.362124e-01 -8.453876e-01 -5.371659e-01 -6.365879e-01 3.328013e-01 1.413151e-01 2.503105e-01 4.880670e-01 3.071976e-01 1.399478e+00 5.112737e-01 1.778122e-01 2.031875e-02 3.192717e-02 -1.596156e-01 -1.670679e-01 -1.396132e-01 -5.971821e-02 -3.164453e-02 -7.593539e-02 -1.317553e-01 -4.450471e-02 -5.226810e-02
<VARIANCE> 39
 7.110339e+01 5.419328e+01 5.114928e+01 5.106551e+01 5.834698e+01 5.788112e+01 5.803023e+01 4.635178e+01 4.125360e+01 2.936320e+01 3.031858e+01 2.611775e+01 6.109424e+01 6.662496e+00 4.533394e+00 3.917460e+00 4.398689e+00 5.871160e+00 5.502018e+00 5.744705e+00 4.429887e+00 4.463719e+00 3.148251e+00 3.504022e+00 2.928067e+00 6.617465e+00 1.142046e+00 8.115706e-01 6.618581e-01 8.034049e-01 1.060445e+00 1.007993e+00 1.029868e+00 8.010648e-01 7.411853e-01 5.919578e-01 6.197280e-01 5.692474e-01 9.325751e-01
<GCONST> 1.387685e+02
<TRANSP> 5
 0.000000e+00 1.000000e+00 0.000000e+00 0.000000e+00 0.000000e+00
 0.000000e+00 4.338238e-01 5.661762e-01 0.000000e+00 0.000000e+00
 0.000000e+00 0.000000e+00 4.032182e-01 5.967818e-01 0.000000e+00
 0.000000e+00 0.000000e+00 0.000000e+00 6.699631e-01 3.300370e-01
 0.000000e+00 0.000000e+00 0.000000e+00 0.000000e+00 0.000000e+00
<ENDHMM>
~h "f"
<BEGINHMM>
<NUMSTATES> 5
<STATE> 2
<MEAN> 39
 -1.441310e+01 1.781024e+00 -4.973327e-01 3.181257e+00 -1.090185e+00 -1.589943e-01 -2.086240e+00 2.003412e+00 -4.929744e-01 -1.160388e+00 -9.223690e-01 -9.004277e-01 6.012078e+01 -2.323194e+00 -2.768449e-01 -3.751127e-01 6.818736e-01 5.878770e-01 5.827509e-01 6.788813e-01 7.145216e-01 4.893015e-01 4.542816e-01 4.159430e-01 4.335110e-01 -9.829516e-01 4.613920e-01 -2.974527e-01 -1.247346e-01 -4.485155e-01 -3.786518e-01 -1.610604e-01 -2.932980e-01 -2.108123e-01 -1.251751e-01 1.314531e-02 3.915107e-02 -2.904892e-02 2.766869e-01
<VARIANCE> 39
 4.752651e+01 3.148266e+01 2.860265e+01 2.896462e+01 2.774350e+01 3.979721e+01 3.132128e+01 3.030581e+01 2.679689e+01 2.491786e+01 2.233406e+01 2.124520e+01 3.130161e+01 4.984058e+00 3.276076e+00 3.297828e+00 3.408142e+00 3.187586e+00 3.491156e+00 3.345159e+00 3.489268e+00 3.300253e+00 2.826967e+00 2.447071e+00 2.274384e+00 2.283919e+00 6.156196e-01 6.609994e-01 4.880667e-01 5.785027e-01 5.832508e-01 5.496738e-01 6.052800e-01 6.091974e-01 5.878338e-01 5.167825e-01 4.287498e-01 4.405547e-01 4.209023e-01
<GCONST> 1.225121e+02
<STATE> 3
<MEAN> 39
 -1.671003e+01 -2.132570e+00 -1.438549e+00 1.903128e+00 -8.277084e-01 4.376215e-01 -7.052318e-01 3.072804e+00 2.357166e-01 -7.143142e-01 8.278490e-01 3.438112e-01 5.690769e+01 -7.077323e-02 -1.554047e-01 -1.557519e-01 -2.033635e-02 -2.231418e-02 8.630016e-02 -1.572061e-02 -5.310602e-02 -1.795565e-02 7.925063e-02 5.765197e-02 1.644929e-02 -5.747573e-02 3.119203e-01 -5.132067e-04 6.532604e-03 -1.227744e-01 -7.168791e-02 -1.115442e-01 -1.015173e-01 -8.845682e-02 -4.756775e-02 -6.107574e-02 -5.667762e-02 -5.339788e-02 1.650731e-01
<VARIANCE> 39
 2.125352e+01 3.531141e+01 1.495275e+01 1.960005e+01 1.738008e+01 2.406524e+01 2.270553e+01 1.893599e+01 1.879173e+01 2.026394e+01 1.613087e+01 1.499500e+01 3.736987e+01 8.214484e-01 1.301527e+00 9.400241e-01 1.107015e+00 1.182461e+00 1.429776e+00 1.475542e+00 1.552745e+00 1.601731e+00 1.581255e+00 1.470550e+00 1.338972e+00 1.000375e+00 3.502623e-01 2.372173e-01 1.995843e-01 2.651854e-01 2.747314e-01 3.320539e-01 3.255427e-01 3.434503e-01 3.446583e-01 3.339317e-01 3.120613e-01 2.819659e-01 1.939241e-01
<GCONST> 9.795285e+01
<STATE> 4
<MEAN> 39
 -1.450223e+01 -2.010790e+00 -3.457278e+00 1.225152e+00 -2.428821e+00 1.172598e-01 -3.391931e+00 1.059269e+00 -3.863532e-01 2.658816e-02 3.241495e-01 -4.172463e-01 6.049101e+01 3.171551e+00 -2.515033e-01 -4.706165e-01 -1.692189e+00 -1.322882e+00 -1.124817e+00 -1.286365e+00 -9.461222e-01 -4.448371e-01 -5.057235e-01 -4.363940e-01 -5.441870e-01 1.492688e+00 7.760031e-01 1.165667e-01 9.057155e-02 -3.637497e-01 -3.345232e-01 -2.151413e-01 -3.274873e-01 -1.316098e-01 -8.857744e-02 -1.604603e-01 -1.106988e-01 -1.670931e-01 3.894178e-01
<VARIANCE> 39
 5.465606e+01 3.175539e+01 3.351469e+01 2.902941e+01 3.212899e+01 3.780238e+01 3.150702e+01 2.595056e+01 2.384359e+01 2.344746e+01 2.057647e+01 1.920800e+01 2.963754e+01 7.308243e+00 4.132210e+00 3.695280e+00 4.099013e+00 4.443264e+00 4.594183e+00 4.366284e+00 3.375598e+00 3.584679e+00 2.931490e+00 2.940847e+00 2.426819e+00 3.572665e+00 1.001536e+00 6.410345e-01 5.176109e-01 6.552278e-01 7.276933e-01 7.706590e-01 7.225960e-01 6.146922e-01 6.203019e-01 5.351320e-01 5.406085e-01 4.613341e-01 4.767216e-01
<GCONST> 1.267963e+02
<TRANSP> 5
 0.000000e+00 1.000000e+00 0.000000e+00 0.000000e+00 0.000000e+00
 0.000000e+00 6.704059e-01 3.295942e-01 0.000000e+00 0.000000e+00
 0.000000e+00 0.000000e+00 8.585864e-01 1.414136e-01 0.000000e+00
 0.000000e+00 0.000000e+00 0.000000e+00 6.751499e-01 3.248501e-01
 0.000000e+00 0.000000e+00 0.000000e+00 0.000000e+00 0.000000e+00
<ENDHMM>
~h "g"
<BEGINHMM>
<NUMSTATES> 5
<STATE> 2
<MEAN> 39
 -3.244706e+00 6.947912e+00 5.820400e+00 1.310253e+00 -7.007070e+00 -7.174118e+00 -5.090523e+00 -4.046934e+00 -7.549155e+00 -1.911668e+00 -2.917518e+00 -3.981088e+00 5.890872e+01 -5.546888e-01 1.544999e+00 1.888214e-01 1.047474e+00 1.402391e+00 7.634004e-01 8.278393e-01 -4.253798e-01 7.450500e-01 -5.181572e-01 -5.324304e-01 -2.614783e-01 -2.169410e+00 -2.899433e-01 -9.249412e-01 -5.471563e-01 -3.856735e-01 1.595641e-01 1.770960e-01 -2.822442e-01 3.509809e-01 2.181623e-01 1.350586e-01 1.866715e-01 2.109693e-01 7.376934e-01
<VARIANCE> 39
 2.577191e+01 4.046289e+01 4.598072e+01 4.655539e+01 5.833047e+01 5.543396e+01 4.682164e+01 5.026489e+01 4.816442e+01 3.621122e+01 4.807416e+01 2.610584e+01 3.698530e+01 2.445435e+00 5.065923e+00 4.184611e+00 4.159412e+00 6.115980e+00 5.890692e+00 5.474459e+00 5.606902e+00 5.033840e+00 4.222614e+00 4.126370e+00 2.968652e+00 4.118181e+00 3.437932e-01 1.086831e+00 6.320965e-01 6.623710e-01 9.299234e-01 8.117992e-01 9.011047e-01 9.501064e-01 9.881132e-01 9.335525e-01 6.854051e-01 5.301368e-01 8.674477e-01
<GCONST> 1.361828e+02
<STATE> 3
<MEAN> 39
 -7.422992e+00 5.873654e+00 3.966600e+00 3.634575e+00 -7.662067e-01 -2.658981e+00 -3.451172e+00 -3.180276e+00 -4.941246e+00 -2.348624e+00 -3.082440e+00 -2.829976e+00 5.550062e+01 -1.111016e+00 -2.387544e+00 -1.447427e+00 -7.121033e-01 6.464427e-01 3.442780e-01 -3.991002e-01 4.544028e-01 4.764986e-02 9.872005e-01 3.159312e-01 6.497141e-01 1.563544e+00 3.567698e-01 -4.874509e-01 -1.385678e-01 -6.447621e-01 -8.455672e-01 -5.888038e-01 -5.357999e-01 1.943290e-03 -3.088716e-01 3.708697e-01 3.115189e-01 1.031673e-01 1.129900e+00
<VARIANCE> 39
 2.670032e+01 4.534680e+01 3.924788e+01 2.695473e+01 4.248603e+01 3.953041e+01 3.506960e+01 3.151792e+01 2.924944e+01 2.420090e+01 2.379211e+01 1.818803e+01 3.252632e+01 3.003178e+00 5.323633e+00 5.539026e+00 3.950402e+00 7.575614e+00 5.387397e+00 4.690878e+00 4.380914e+00 3.819844e+00 4.087903e+00 3.086127e+00 2.664766e+00 4.448961e+00 6.478741e-01 1.296189e+00 9.496281e-01 7.497660e-01 1.132955e+00 1.052727e+00 8.618755e-01 9.921860e-01 7.291113e-01 7.843080e-01 7.568193e-01 5.612094e-01 6.402289e-01
<GCONST> 1.328705e+02
<STATE> 4
<MEAN> 39
 -6.885664e+00 -1.634581e+00 1.167168e-01 -3.214548e+00 -6.138572e+00 -5.856339e+00 -7.547597e+00 -3.105541e+00 -6.696287e+00 2.257540e+00 -5.267699e-01 -1.201030e+00 6.606997e+01 1.148296e+00 -6.703605e-01 -2.819840e-01 -1.502355e+00 -1.820204e+00 -1.138529e+00 -9.790488e-01 1.469977e-01 -2.399281e-02 5.021958e-01 8.803154e-01 -1.975294e-01 2.221681e+00 3.461570e-01 3.820707e-01 2.012660e-01 1.100304e-01 -6.114921e-02 2.740869e-02 2.158543e-01 1.591419e-01 2.891356e-01 -5.009513e-01 -1.045413e-01 -2.632043e-01 -2.732787e-01
<VARIANCE> 39
 4.448972e+01 4.362326e+01 1.083714e+02 5.328235e+01 1.173008e+02 7.376684e+01 5.528650e+01 6.699233e+01 4.520047e+01 4.013379e+01 5.359491e+01 3.134265e+01 3.878870e+01 3.803585e+00 4.263595e+00 5.081217e+00 4.778520e+00 7.395769e+00 5.701478e+00 6.404743e+00 5.955387e+00 5.185206e+00 4.796196e+00 5.065384e+00 3.904231e+00 3.327879e+00 7.586309e-01 1.063320e+00 1.231503e+00 7.825527e-01 1.763574e+00 1.228837e+00 1.085143e+00 1.077661e+00 9.695778e-01 8.945884e-01 9.252432e-01 7.109899e-01 4.427372e-01
<GCONST> 1.438413e+02
<TRANSP> 5
 0.000000e+00 1.000000e+00 0.000000e+00 0.000000e+00 0.000000e+00
 0.000000e+00 5.675218e-01 4.324782e-01 0.000000e+00 0.000000e+00
 0.000000e+00 0.000000e+00 6.100075e-01 3.899924e-01 0.000000e+00
 0.000000e+00 0.000000e+00 0.000000e+00 6.246358e-01 3.753643e-01
 0.000000e+00 0.000000e+00 0.000000e+00 0.000000e+00 0.000000e+00
<ENDHMM>
~h "k"
<BEGINHMM>
<NUMSTATES> 5
<STATE> 2
<MEAN> 39
 -6.986119e+00 4.536922e+00 3.327230e+00 2.539366e+00 -4.077565e+00 -5.544360e+00 -2.214720e+00 -4.939359e-02 -4.704290e+00 -7.318889e-01 -1.060519e+00 -2.231690e+00 5.688817e+01 -1.614639e+00 6.872603e-01 -5.505826e-01 9.367726e-01 1.972960e+00 1.404622e+00 1.023334e+00 1.529121e-01 1.370282e+00 1.255892e-01 2.131464e-01 5.153892e-01 -2.975870e+00 -2.403359e-01 -1.037050e+00 -6.192417e-01 -6.172760e-01 -1.585190e-01 1.248462e-01 -2.694801e-01 1.584170e-01 2.174857e-01 2.471874e-02 2.731336e-02 1.008941e-01 9.793948e-01
<VARIANCE> 39
 2.728351e+01 2.811325e+01 3.751171e+01 3.384425e+01 6.301453e+01 5.108751e+01 5.251188e+01 6.188459e+01 4.865096e+01 3.316758e+01 3.557917e+01 2.526032e+01 3.566341e+01 3.153535e+00 5.075110e+00 4.543465e+00 3.882953e+00 5.515444e+00 5.341069e+00 5.758132e+00 6.018837e+00 5.116441e+00 3.862837e+00 4.165425e+00 2.772220e+00 4.054430e+00 3.904492e-01 7.442299e-01 6.077400e-01 5.571482e-01 1.030168e+00 8.641843e-01 9.027644e-01 9.105192e-01 1.007654e+00 8.004437e-01 6.429060e-01 5.050908e-01 9.109417e-01
<GCONST> 1.347284e+02
<STATE> 3
<MEAN> 39
 -1.207424e+01 1.636398e+00 -2.679128e-01 2.527792e+00 2.916073e-01 -1.088898e+00 -6.628582e-01 1.285110e+00 -4.623999e-01 2.152328e-01 1.470480e-01 -4.166713e-01 5.251630e+01 -1.003831e+00 -2.127426e+00 -1.584075e+00 -7.464245e-01 2.838010e-01 2.641740e-01 -2.484424e-01 4.547144e-01 1.914474e-01 6.389819e-01 1.384336e-01 4.565908e-01 1.308731e+00 1.735710e-01 -2.487937e-01 -6.626895e-02 -4.191606e-01 -4.797249e-01 -4.671065e-01 -3.885372e-01 -2.028759e-02 -3.600069e-01 1.050731e-01 -3.031931e-02 -1.848518e-02 1.163339e+00
<VARIANCE> 39
 1.426110e+01 3.243088e+01 2.490445e+01 2.100990e+01 2.776951e+01 2.673426e+01 2.873307e+01 2.591779e+01 2.356298e+01 1.997286e+01 1.913655e+01 1.531368e+01 2.597722e+01 2.750594e+00 4.540850e+00 5.182854e+00 3.482650e+00 5.035297e+00 4.660204e+00 4.583724e+00 4.274978e+00 4.138078e+00 3.324481e+00 2.797261e+00 2.433224e+00 5.356137e+00 4.567319e-01 8.400036e-01 7.718427e-01 5.849059e-01 7.555971e-01 7.651058e-01 7.950435e-01 7.059452e-01 6.386409e-01 5.646124e-01 5.428556e-01 4.153904e-01 7.779855e-01
<GCONST> 1.245156e+02
<STATE> 4
<MEAN> 39
 -1.387614e+01 -4.719873e+00 -4.989902e+00 -2.669037e+00 -1.089219e+00 -2.140757e+00 -2.774367e+00 1.656759e+00 -1.819168e+00 2.443482e+00 1.973229e-01 4.538633e-01 6.303268e+01 5.139276e-01 1.679179e-01 6.764239e-02 -6.563436e-01 -7.690526e-01 -2.408987e-01 -2.552183e-01 -3.109525e-01 -2.962335e-01 -3.650545e-01 -2.092133e-01 -2.759387e-01 1.289476e+00 5.519173e-01 5.361364e-01 4.160582e-01 8.970801e-02 -2.557485e-01 -4.325072e-02 -3.918330e-02 -2.185519e-01 -8.951908e-02 -3.860037e-01 -1.099903e-01 -2.488807e-01 -1.839125e-01
<VARIANCE> 39
 3.916858e+01 4.482406e+01 7.539574e+01 4.223105e+01 6.036093e+01 6.222182e+01 5.222056e+01 4.800900e+01 3.885347e+01 3.611871e+01 3.328160e+01 2.450282e+01 2.693828e+01 5.722228e+00 3.931371e+00 4.309274e+00 4.112961e+00 4.970980e+00 5.131472e+00 4.755949e+00 4.909122e+00 4.070245e+00 4.150914e+00 3.758836e+00 2.844095e+00 3.591425e+00 6.545499e-01 8.830450e-01 9.204023e-01 7.976380e-01 9.400876e-01 9.931270e-01 9.874825e-01 9.123162e-01 8.228356e-01 7.572739e-01 7.384930e-01 5.557043e-01 6.552366e-01
<GCONST> 1.365516e+02
<TRANSP> 5
 0.000000e+00 1.000000e+00 0.000000e+00 0.000000e+00 0.000000e+00
 0.000000e+00 5.457066e-01 4.542935e-01 0.000000e+00 0.000000e+00
 0.000000e+00 0.000000e+00 6.251323e-01 3.748678e-01 0.000000e+00
 0.000000e+00 0.000000e+00 0.000000e+00 7.621704e-01 2.378296e-01
 0.000000e+00 0.000000e+00 0.000000e+00 0.000000e+00 0.000000e+00
<ENDHMM>
~h "l"
<BEGINHMM>
<NUMSTATES> 5
<STATE> 2
<MEAN> 39
 2.986060e-01 3.146197e-01 -7.193177e+00 -1.398157e+01 -5.669975e+00 2.792662e+00 -8.717967e+00 -6.097781e+00 -3.055050e+00 -2.055209e+00 6.323736e-01 -2.955317e+00 6.910995e+01 7.294670e-01 9.156689e-01 -3.693088e-01 -1.494545e+00 -1.096170e-01 9.758084e-01 1.332308e-01 -4.260795e-01 -8.327461e-01 -7.915395e-01 8.737978e-01 6.631801e-01 -2.804028e-01 -2.441873e-01 1.960289e-02 2.076615e-01 4.166015e-01 -5.058238e-02 -3.238280e-01 1.118305e-01 3.856691e-01 7.163239e-02 -1.503694e-01 -1.934730e-01 7.578311e-02 -1.424655e-01
<VARIANCE> 39
 1.835112e+01 4.855667e+01 3.638497e+01 6.197705e+01 4.944492e+01 8.739939e+01 8.266681e+01 6.843277e+01 5.471824e+01 4.594825e+01 6.337436e+01 4.761940e+01 2.922455e+01 1.626875e+00 2.335482e+00 1.824038e+00 3.250751e+00 3.214557e+00 3.697647e+00 4.217902e+00 4.209770e+00 4.013402e+00 4.247132e+00 4.329190e+00 3.727118e+00 1.801072e+00 2.881110e-01 4.429485e-01 3.010130e-01 5.571699e-01 5.991210e-01 5.692950e-01 6.907234e-01 7.581332e-01 8.520254e-01 7.655349e-01 8.239627e-01 7.173951e-01 1.972851e-01
<GCONST> 1.289488e+02
<STATE> 3
<MEAN> 39
 1.612429e+00 6.231932e+00 -6.189390e+00 -1.707997e+01 -7.536018e+00 4.205143e+00 -7.573312e+00 -4.913536e+00 -5.574837e+00 -6.951611e+00 2.099111e+00 3.109896e-01 6.563712e+01 -1.719415e-01 5.329784e-02 1.028613e-01 4.058853e-01 3.616199e-01 -3.339418e-01 -2.501503e-01 3.855383e-02 1.884075e-01 2.972460e-01 -7.600012e-02 -3.146795e-01 -7.609551e-02 -2.793778e-01 -3.675350e-01 9.389216e-02 5.333259e-01 2.009046e-01 -2.058522e-01 -9.963409e-02 6.805757e-02 2.977939e-01 3.997703e-01 -1.519338e-01 -2.624564e-01 9.973548e-02
<VARIANCE> 39
 1.390215e+01 3.520043e+01 3.145964e+01 5.793642e+01 4.736103e+01 6.521015e+01 6.323778e+01 6.615989e+01 4.649105e+01 4.173222e+01 4.251342e+01 3.412438e+01 2.195695e+01 6.718993e-01 3.612262e+00 1.450503e+00 3.058828e+00 2.478797e+00 2.428815e+00 3.715671e+00 2.976861e+00 3.399688e+00 3.559363e+00 2.605303e+00 2.466475e+00 2.085504e+00 2.135457e-01 4.059514e-01 2.609401e-01 6.351764e-01 4.900521e-01 5.395560e-01 6.469910e-01 6.927169e-01 6.939512e-01 5.900723e-01 6.134973e-01 4.970271e-01 2.499920e-01
<GCONST> 1.215136e+02
<STATE> 4
<MEAN> 39
 -1.164542e+00 8.943390e-01 -5.623828e+00 -1.079700e+01 -4.502203e+00 -3.878046e-01 -1.158539e+01 -3.915627e+00 -6.834999e-01 -1.590005e+00 -5.900016e-01 -4.286372e+00 6.808728e+01 -9.949937e-01 -8.755651e-01 1.151600e+00 2.091374e+00 -3.355648e-01 -1.526069e+00 -2.483170e-02 1.585647e+00 1.063139e+00 7.077996e-02 -1.225879e+00 -2.603613e-01 2.059380e-01 -2.111650e-01 1.525170e-01 3.810126e-01 1.948291e-01 -3.718888e-01 -5.156144e-02 5.942819e-01 1.496984e-01 -4.756893e-01 -3.811873e-01 9.751998e-02 3.597372e-01 -2.300538e-01
<VARIANCE> 39
 1.961894e+01 4.873691e+01 4.032315e+01 6.319791e+01 4.274142e+01 8.490747e+01 8.692668e+01 8.701154e+01 6.847489e+01 5.274532e+01 6.219883e+01 4.749099e+01 4.136745e+01 1.743527e+00 4.655804e+00 2.957291e+00 5.464594e+00 6.660187e+00 4.184854e+00 7.052370e+00 6.240526e+00 7.393224e+00 5.581499e+00 4.851834e+00 4.598871e+00 3.732527e+00 3.004465e-01 5.641738e-01 4.425990e-01 7.235086e-01 7.700376e-01 7.742407e-01 1.019697e+00 1.195087e+00 1.439305e+00 9.947781e-01 1.037367e+00 7.731497e-01 3.473289e-01
<GCONST> 1.393952e+02
<TRANSP> 5
 0.000000e+00 1.000000e+00 0.000000e+00 0.000000e+00 0.000000e+00
 0.000000e+00 5.976488e-01 4.023512e-01 0.000000e+00 0.000000e+00
 0.000000e+00 0.000000e+00 7.358747e-01 2.641253e-01 0.000000e+00
 0.000000e+00 0.000000e+00 0.000000e+00 5.654505e-01 4.345495e-01
 0.000000e+00 0.000000e+00 0.000000e+00 0.000000e+00 0.000000e+00
<ENDHMM>
~h "m"
<BEGINHMM>
<NUMSTATES> 5
<STATE> 2
<MEAN> 39
 -1.193643e-02 -3.917095e-01 7.977650e-01 -2.674021e+00 -4.793128e+00 -8.314073e-01 -7.832151e+00 -5.599229e+00 -7.124134e+00 -3.513014e+00 -6.332633e-01 -5.800003e+00 6.573864e+01 2.203607e-01 9.228009e-01 9.144155e-01 1.000179e+00 4.820348e-01 -1.434056e-01 -3.872520e-02 -1.552664e+00 -1.592410e+00 -3.799148e-02 6.386418e-01 1.274955e-01 -7.663229e-01 -2.083132e-01 -7.624680e-02 3.999047e-02 -6.798884e-02 -1.039837e-01 -7.148208e-02 3.070345e-02 2.783027e-01 1.481815e-01 -5.668115e-02 -1.100466e-01 9.802319e-02 1.298820e-01
<VARIANCE> 39
 2.746152e+01 4.376111e+01 9.171178e+01 5.953285e+01 4.120503e+01 8.228127e+01 4.875230e+01 6.702570e+01 6.306612e+01 3.635895e+01 5.471266e+01 4.182828e+01 3.974942e+01 1.200418e+00 2.649589e+00 3.493656e+00 3.160266e+00 3.121071e+00 3.230020e+00 3.448405e+00 5.082927e+00 5.355988e+00 3.385574e+00 3.406892e+00 2.889196e+00 2.216087e+00 2.015403e-01 3.470116e-01 4.602770e-01 4.795990e-01 4.485555e-01 4.971083e-01 5.250304e-01 7.322602e-01 7.468565e-01 5.244996e-01 5.506710e-01 4.513668e-01 2.445081e-01
<GCONST> 1.270985e+02
<STATE> 3
<MEAN> 39
 9.994725e-01 2.695070e+00 4.181005e+00 1.334134e+00 -3.692433e+00 -2.978622e+00 -7.333077e+00 -9.996934e+00 -1.221384e+01 -4.139688e+00 4.435761e-01 -4.182286e+00 6.319286e+01 -9.752663e-02 1.979866e-02 5.007508e-02 -6.363817e-02 -1.328397e-01 -2.379625e-02 1.827477e-02 2.316601e-01 1.561847e-01 -1.271284e-01 -2.389227e-01 -7.065510e-02 1.496483e-01 -1.502490e-01 -4.139220e-01 -4.190081e-01 -5.241786e-01 -2.868970e-01 7.112845e-02 4.713782e-02 8.243778e-01 7.955585e-01 6.102622e-03 -2.671346e-01 -4.633093e-02 3.809352e-01
<VARIANCE> 39
 1.431079e+01 2.577198e+01 3.905021e+01 4.502064e+01 3.341984e+01 7.259550e+01 4.913503e+01 5.554379e+01 3.924134e+01 4.087002e+01 5.798142e+01 4.045259e+01 1.881382e+01 5.086609e-01 1.996334e+00 1.831392e+00 1.973223e+00 1.789465e+00 2.058716e+00 2.323753e+00 3.016567e+00 3.451594e+00 2.113007e+00 2.345021e+00 2.133209e+00 1.326384e+00 1.587243e-01 2.941260e-01 3.853777e-01 4.255715e-01 4.599676e-01 4.530903e-01 5.606709e-01 7.117317e-01 7.269333e-01 5.958276e-01 6.207839e-01 5.205520e-01 1.856518e-01
<GCONST> 1.162616e+02
<STATE> 4
<MEAN> 39
 4.513755e-02 -5.465649e-01 5.126426e-02 -2.633630e+00 -5.547961e+00 -2.492401e+00 -7.751832e+00 -4.760779e+00 -5.786662e+00 -3.900995e+00 -2.083876e+00 -5.400823e+00 6.620978e+01 -5.728454e-01 -1.199652e+00 -9.040227e-01 -1.461742e+00 -8.956807e-01 6.836715e-02 2.869205e-01 2.387396e+00 2.048353e+00 -2.199925e-01 -7.369168e-01 2.304456e-02 1.310043e+00 -2.256899e-01 -3.507823e-02 5.948424e-02 -1.076620e-01 -3.734970e-02 1.384594e-02 1.880766e-01 1.973442e-01 -6.135537e-02 -1.754060e-02 1.045045e-01 1.466094e-01 4.324184e-02
<VARIANCE> 39
 2.114599e+01 4.630307e+01 5.197579e+01 6.308446e+01 4.066347e+01 7.939272e+01 5.114511e+01 6.808698e+01 6.195654e+01 3.555263e+01 4.908439e+01 3.493164e+01 4.140738e+01 1.464556e+00 3.481072e+00 3.441998e+00 4.280897e+00 4.495232e+00 3.738945e+00 4.716336e+00 5.666291e+00 5.767238e+00 4.407316e+00 4.366998e+00 3.446374e+00 2.986875e+00 2.236867e-01 5.011590e-01 4.753222e-01 6.364287e-01 5.771908e-01 5.530527e-01 6.974808e-01 8.619114e-01 9.449243e-01 5.999016e-01 6.123853e-01 4.976383e-01 3.354433e-01
<GCONST> 1.313468e+02
<TRANSP> 5
 0.000000e+00 1.000000e+00 0.000000e+00 0.000000e+00 0.000000e+00
 0.000000e+00 6.083267e-01 3.916733e-01 0.000000e+00 0.000000e+00
 0.000000e+00 0.000000e+00 6.985030e-01 3.014971e-01 0.000000e+00
 0.000000e+00 0.000000e+00 0.000000e+00 5.451388e-01 4.548612e-01
 0.000000e+00 0.000000e+00 0.000000e+00 0.000000e+00 0.000000e+00
<ENDHMM>
~h "n"
<BEGINHMM>
<NUMSTATES> 5
<STATE> 2
<MEAN> 39
 -1.398198e+00 -2.148079e+00 2.800400e+00 -4.477693e+00 -9.090189e+00 -3.320912e+00 -6.528189e+00 1.301448e-01 -6.028175e+00 -4.580934e+00 -2.900508e+00 -4.077654e+00 6.853511e+01 3.614028e-01 1.042394e+00 6.581072e-01 8.826840e-01 2.996356e-01 -1.808086e-01 4.058616e-01 -1.329342e+00 -1.168301e+00 3.620704e-01 -3.627725e-01 3.884484e-01 -1.106204e+00 -1.091101e-01 1.450598e-01 -1.191399e-02 4.744251e-02 6.668009e-02 2.981995e-02 8.521470e-02 -1.855936e-01 6.726958e-03 4.120243e-02 -9.553544e-04 6.459036e-02 -1.026710e-01
<VARIANCE> 39
 2.127518e+01 3.677993e+01 7.241835e+01 5.375994e+01 4.251613e+01 7.261226e+01 4.444810e+01 9.335934e+01 6.980370e+01 3.943084e+01 6.363525e+01 4.294822e+01 3.043505e+01 8.224397e-01 2.616793e+00 3.199777e+00 2.520939e+00 2.976622e+00 3.129415e+00 3.552116e+00 5.766930e+00 5.438869e+00 2.961977e+00 2.851193e+00 2.281421e+00 2.154064e+00 1.594175e-01 2.988965e-01 4.149359e-01 3.955670e-01 4.630471e-01 4.447525e-01 5.032659e-01 8.285921e-01 7.288188e-01 4.590164e-01 4.453440e-01 3.870067e-01 2.429298e-01
<GCONST> 1.241723e+02
<STATE> 3
<MEAN> 39
 3.352949e-01 3.812436e+00 5.296612e+00 -2.485552e-01 -8.540991e+00 -4.678370e+00 -3.558219e+00 -7.796982e+00 -1.120090e+01 -3.073492e+00 -5.311652e+00 -6.315325e-01 6.285323e+01 -7.024948e-02 1.032599e+00 3.242545e-01 5.177886e-01 3.920240e-01 8.811086e-02 2.609260e-01 -9.155937e-01 -4.526606e-01 5.594987e-02 -1.532742e-01 2.330142e-01 -8.641036e-01 -3.673215e-01 -3.614158e-01 -2.575670e-01 -2.788539e-01 1.157310e-01 1.071417e-01 -2.206843e-01 7.855667e-01 6.426423e-01 -2.495811e-01 2.048415e-01 -2.044006e-01 3.355826e-01
<VARIANCE> 39
 1.561239e+01 2.369363e+01 4.016645e+01 4.409895e+01 2.831968e+01 3.447450e+01 3.389316e+01 7.312675e+01 4.684607e+01 3.494564e+01 5.237329e+01 4.607476e+01 1.890841e+01 6.158620e-01 2.417104e+00 1.773090e+00 1.861157e+00 2.192375e+00 2.096933e+00 2.546550e+00 4.310289e+00 3.769157e+00 2.175036e+00 2.194949e+00 1.982700e+00 1.496908e+00 2.074594e-01 3.616627e-01 4.461097e-01 4.319405e-01 5.200675e-01 4.573880e-01 5.616512e-01 7.161689e-01 8.096389e-01 4.967632e-01 4.835040e-01 4.522157e-01 2.193094e-01
<GCONST> 1.168573e+02
<STATE> 4
<MEAN> 39
 -3.515027e+00 3.545755e+00 4.262036e+00 8.747143e-02 -5.967301e+00 -3.765997e+00 -4.105596e+00 -4.502200e+00 -7.648119e+00 -4.001368e+00 -4.255992e+00 -1.772853e+00 6.139367e+01 -1.193173e+00 -2.568944e-01 -3.777820e-01 -1.177711e-01 7.442068e-01 4.138893e-01 -8.249199e-02 1.138330e+00 1.061489e+00 -2.653210e-01 3.752110e-01 -2.621841e-01 7.987737e-02 -3.765372e-01 -4.503473e-01 -3.301942e-01 -2.694035e-01 -5.505125e-02 1.135969e-01 -3.916240e-03 4.475873e-01 3.783229e-01 4.702320e-02 2.119956e-01 -6.747518e-02 4.312298e-01
<VARIANCE> 39
 4.278386e+01 4.693517e+01 3.900923e+01 4.260869e+01 4.270224e+01 4.073058e+01 4.152272e+01 7.489653e+01 5.336115e+01 3.517039e+01 4.223952e+01 3.255510e+01 4.221299e+01 3.141034e+00 4.235062e+00 3.230241e+00 3.732476e+00 4.729692e+00 3.160273e+00 3.996005e+00 5.380135e+00 5.029785e+00 3.163424e+00 3.137999e+00 3.118020e+00 3.461245e+00 6.015422e-01 6.715574e-01 5.840807e-01 5.897000e-01 7.378322e-01 5.892630e-01 7.232990e-01 9.920965e-01 9.476206e-01 5.868279e-01 5.691494e-01 4.949767e-01 4.867109e-01
<GCONST> 1.321366e+02
<TRANSP> 5
 0.000000e+00 1.000000e+00 0.000000e+00 0.000000e+00 0.000000e+00
 0.000000e+00 6.259104e-01 3.740896e-01 0.000000e+00 0.000000e+00
 0.000000e+00 0.000000e+00 6.164119e-01 3.835881e-01 0.000000e+00
 0.000000e+00 0.000000e+00 0.000000e+00 5.410364e-01 4.589636e-01
 0.000000e+00 0.000000e+00 0.000000e+00 0.000000e+00 0.000000e+00
<ENDHMM>
~h "p"
<BEGINHMM>
<NUMSTATES> 5
<STATE> 2
<MEAN> 39
 -7.623687e+00 6.600682e+00 1.751701e+00 1.863272e+00 -2.121015e-01 -1.418173e+00 -2.772051e+00 -2.095114e+00 -1.750053e+00 -1.331221e+00 -9.747887e-01 -2.148507e+00 5.341863e+01 -1.889583e+00 2.332080e-01 1.258204e-01 8.016913e-01 8.177302e-01 7.074211e-01 1.559869e+00 8.814035e-01 7.278850e-01 3.190605e-01 1.262103e-01 3.153883e-01 -2.280236e+00 -4.889674e-02 -9.109808e-01 -4.186591e-01 -4.710561e-01 -4.668043e-01 -1.125181e-01 -3.605891e-01 1.247476e-01 7.113711e-02 1.242225e-01 1.413845e-01 9.482663e-02 1.045515e+00
<VARIANCE> 39
 2.968589e+01 1.765008e+01 2.422760e+01 2.152655e+01 2.278947e+01 2.940294e+01 3.182079e+01 2.842827e+01 3.061339e+01 2.384862e+01 2.274486e+01 2.018099e+01 2.022354e+01 3.973708e+00 3.949119e+00 3.355217e+00 3.052646e+00 2.997871e+00 3.601306e+00 3.468175e+00 3.332822e+00 3.410210e+00 2.675592e+00 2.638604e+00 2.158300e+00 3.563194e+00 5.014696e-01 5.790505e-01 5.172103e-01 4.628246e-01 5.244169e-01 5.763600e-01 6.770750e-01 5.699607e-01 5.700796e-01 5.102340e-01 4.665612e-01 4.105933e-01 5.410697e-01
<GCONST> 1.200504e+02
<STATE> 3
<MEAN> 39
 -1.262100e+01 1.553450e+00 -5.406196e-01 1.256997e+00 2.305473e-01 2.576045e-01 -2.313190e-01 1.340382e+00 8.080553e-01 -1.242565e-01 6.118231e-01 -3.171308e-01 5.206539e+01 -3.521519e-01 -1.174071e+00 -6.739344e-01 -2.493816e-01 -3.181929e-01 -1.709140e-02 -3.302463e-01 1.419757e-01 1.560672e-01 2.089269e-01 2.939536e-01 2.036820e-01 1.109088e+00 3.520264e-01 -2.088226e-01 -1.387984e-01 -2.022814e-01 -1.911907e-01 -1.205561e-01 -3.849504e-01 -1.508818e-01 -1.427799e-01 -6.119777e-02 -1.713659e-02 -4.263352e-02 7.389619e-01
<VARIANCE> 39
 1.185445e+01 3.009158e+01 1.348408e+01 1.484110e+01 1.643656e+01 1.921354e+01 1.902028e+01 1.918370e+01 1.850996e+01 1.725871e+01 1.574275e+01 1.437086e+01 2.783508e+01 1.577186e+00 2.925831e+00 1.992407e+00 1.735039e+00 2.190729e+00 2.245099e+00 2.930838e+00 2.327952e+00 2.370247e+00 2.142089e+00 2.011291e+00 1.770708e+00 3.932658e+00 3.455531e-01 3.729623e-01 3.704426e-01 4.065382e-01 4.565394e-01 5.397741e-01 6.140832e-01 4.739969e-01 4.685485e-01 4.081473e-01 3.998961e-01 3.388438e-01 7.047755e-01
<GCONST> 1.089896e+02
<STATE> 4
<MEAN> 39
 -1.190375e+01 -3.959373e+00 -4.886757e+00 -1.196537e+00 -1.547354e+00 1.449735e+00 -2.915829e+00 5.602461e-01 3.385208e-01 9.195713e-01 1.598704e+00 -2.435920e-01 6.207201e+01 1.361949e+00 -4.381375e-01 -7.288068e-01 -8.950387e-01 -5.428787e-01 2.216242e-02 -7.166290e-01 -4.027603e-01 -4.172721e-01 -3.425009e-01 -2.895337e-01 -3.886567e-01 1.650801e+00 5.726233e-01 5.149996e-01 2.217707e-01 -1.644547e-01 -1.799451e-01 -2.654697e-01 -1.370090e-01 -1.974802e-01 -2.266990e-01 -2.824849e-01 -2.227518e-01 -1.989197e-01 -1.439432e-01
<VARIANCE> 39
 3.427398e+01 4.445480e+01 4.133138e+01 3.595468e+01 4.286934e+01 6.162194e+01 4.555398e+01 3.586481e+01 3.036432e+01 3.196290e+01 2.776541e+01 2.286521e+01 2.997050e+01 4.878542e+00 5.404410e+00 3.900249e+00 3.963670e+00 5.372869e+00 6.491971e+00 5.837347e+00 4.677400e+00 4.172976e+00 3.785566e+00 3.582193e+00 2.742249e+00 4.866612e+00 5.629094e-01 8.156502e-01 5.498310e-01 6.769925e-01 9.116335e-01 1.082837e+00 9.892685e-01 8.496985e-01 8.042093e-01 7.045721e-01 6.397560e-01 5.195102e-01 7.844026e-01
<GCONST> 1.339498e+02
<TRANSP> 5
 0.000000e+00 1.000000e+00 0.000000e+00 0.000000e+00 0.000000e+00
 0.000000e+00 6.082077e-01 3.917923e-01 0.000000e+00 0.000000e+00
 0.000000e+00 0.000000e+00 7.627401e-01 2.372600e-01 0.000000e+00
 0.000000e+00 0.000000e+00 0.000000e+00 7.281580e-01 2.718419e-01
 0.000000e+00 0.000000e+00 0.000000e+00 0.000000e+00 0.000000e+00
<ENDHMM>
~h "r"
<BEGINHMM>
<NUMSTATES> 5
<STATE> 2
<MEAN> 39
 -3.934760e-01 -2.516277e+00 -8.216290e+00 -5.375689e-01 -1.473854e+00 -6.090085e+00 -1.145734e+01 -2.369793e+00 -2.173464e+00 -2.056614e+00 1.184514e-01 -6.764510e-01 6.480107e+01 1.497629e+00 -1.280412e-01 -5.632168e-01 -3.863766e-02 2.062661e-01 -1.164544e+00 -1.432642e+00 1.288835e-01 2.899894e-01 -4.327617e-01 -2.567327e-01 1.768469e-01 5.153835e-01 -2.391503e-01 -1.567490e-01 3.949447e-01 -3.503636e-03 -3.637922e-01 -7.683974e-02 3.080016e-01 3.253563e-01 -5.809251e-02 -1.002802e-01 2.774626e-02 -3.870817e-02 1.345793e-01
<VARIANCE> 39
 6.329396e+01 4.614329e+01 4.812591e+01 4.033592e+01 3.933020e+01 8.668307e+01 6.389484e+01 6.498836e+01 6.887342e+01 3.810675e+01 4.426146e+01 2.878388e+01 3.474930e+01 6.381183e+00 3.455425e+00 3.570120e+00 3.567361e+00 3.779326e+00 6.591571e+00 5.477503e+00 4.621955e+00 5.617292e+00 3.780185e+00 3.546609e+00 2.441409e+00 2.732816e+00 6.401032e-01 5.923142e-01 5.666205e-01 4.810258e-01 6.460407e-01 8.771973e-01 9.835760e-01 9.043154e-01 8.192007e-01 6.579716e-01 5.844105e-01 4.650466e-01 3.925461e-01
<GCONST> 1.347576e+02
<STATE> 3
<MEAN> 39
 3.632546e+00 -6.292912e+00 -9.684666e+00 1.073366e-01 -1.941586e+00 -1.263513e+01 -1.663109e+01 2.788357e+00 7.222714e-01 -3.363908e+00 -1.351348e+00 -4.189230e-01 6.840974e+01 8.244482e-02 -4.895197e-01 1.203752e+00 3.694828e-01 -1.147250e+00 -1.421611e+00 3.397337e-01 1.431685e+00 -2.288029e-01 -8.415570e-01 -1.564921e-02 8.369816e-02 5.407304e-01 -6.889653e-01 2.099606e-01 7.219464e-01 -1.096442e-01 -4.519735e-01 6.268136e-01 1.108115e+00 -2.016956e-01 -5.689424e-01 8.926690e-02 2.503976e-01 -1.195527e-01 -2.502959e-01
<VARIANCE> 39
 1.413102e+01 2.468313e+01 4.268550e+01 3.181070e+01 3.313530e+01 1.103112e+02 6.588338e+01 6.432397e+01 8.892548e+01 3.982652e+01 4.982490e+01 2.763446e+01 1.907782e+01 2.742095e+00 3.393310e+00 3.554265e+00 3.287294e+00 4.474187e+00 5.610468e+00 4.828116e+00 5.706954e+00 5.395476e+00 3.543846e+00 3.683788e+00 2.690581e+00 3.092465e+00 4.840576e-01 3.947155e-01 3.940470e-01 3.738246e-01 5.519758e-01 8.804139e-01 7.961853e-01 8.716197e-01 8.410527e-01 6.100389e-01 5.683209e-01 4.450883e-01 2.159865e-01
<GCONST> 1.290191e+02
<STATE> 4
<MEAN> 39
 8.701836e-01 -5.900635e+00 -2.938153e+00 4.763798e-01 -7.430608e+00 -1.365100e+01 -1.081159e+01 4.375233e+00 -3.559427e+00 -5.079572e+00 -1.836052e-01 -6.054610e-01 6.817126e+01 -1.088307e+00 7.713436e-01 2.301638e+00 -1.396354e-01 -1.356851e+00 9.259825e-01 1.888341e+00 -5.827322e-01 -1.130332e+00 -1.668927e-02 2.670584e-01 -3.898488e-01 -4.316807e-01 -4.031640e-01 3.729466e-01 -2.677814e-02 -2.899256e-01 3.141240e-01 8.613889e-01 1.920166e-01 -6.037817e-01 5.501598e-02 3.923706e-01 -9.692226e-02 -1.913407e-01 -2.834257e-01
<VARIANCE> 39
 1.843423e+01 3.805626e+01 6.617284e+01 5.170158e+01 4.744087e+01 1.176402e+02 6.887872e+01 6.490483e+01 9.333955e+01 4.489239e+01 5.425628e+01 3.441484e+01 3.105789e+01 2.466737e+00 4.155295e+00 4.098322e+00 3.594489e+00 5.716012e+00 5.016006e+00 4.848485e+00 5.706320e+00 5.431105e+00 3.420782e+00 3.708505e+00 2.957072e+00 3.721442e+00 4.710488e-01 5.429966e-01 5.214775e-01 6.300505e-01 7.391989e-01 9.935344e-01 9.049394e-01 1.044144e+00 9.264598e-01 6.674737e-01 6.774033e-01 5.581601e-01 3.750079e-01
<GCONST> 1.357576e+02
<TRANSP> 5
 0.000000e+00 1.000000e+00 0.000000e+00 0.000000e+00 0.000000e+00
 0.000000e+00 5.628513e-01 4.371487e-01 0.000000e+00 0.000000e+00
 0.000000e+00 0.000000e+00 4.732684e-01 5.267316e-01 0.000000e+00
 0.000000e+00 0.000000e+00 0.000000e+00 4.888450e-01 5.111550e-01
 0.000000e+00 0.000000e+00 0.000000e+00 0.000000e+00 0.000000e+00
<ENDHMM>
~h "s"
<BEGINHMM>
<NUMSTATES> 5
<STATE> 2
<MEAN> 39
 -1.905994e+01 8.755357e+00 -1.908241e+00 1.129444e+00 1.328874e-01 -4.694686e+00 -2.183268e+00 3.728022e-01 -2.060187e+00 -3.149353e+00 -1.495353e+00 2.291307e-01 6.554712e+01 -4.374543e+00 1.115989e+00 -1.429108e+00 3.293488e-01 1.859369e+00 1.074942e+00 1.774463e+00 1.032696e+00 3.514870e-01 5.911654e-01 8.740966e-01 3.955883e-01 -1.413895e-01 5.382850e-01 -6.392274e-01 -1.760037e-01 -3.724160e-01 -3.960469e-01 -6.286216e-02 -2.776573e-01 -5.501853e-02 1.115023e-02 1.170771e-01 2.402620e-02 -1.042112e-02 -3.186400e-02
<VARIANCE> 39
 6.813474e+01 3.337584e+01 4.876677e+01 3.702970e+01 3.544761e+01 5.325470e+01 4.598795e+01 3.933065e+01 3.641961e+01 2.958531e+01 2.835000e+01 2.699427e+01 2.395936e+01 4.243886e+00 4.248988e+00 4.336731e+00 4.378464e+00 3.877642e+00 4.897923e+00 4.628869e+00 3.893180e+00 3.577265e+00 3.317706e+00 3.138428e+00 3.118260e+00 1.820431e+00 1.039884e+00 6.605825e-01 7.336674e-01 6.038517e-01 7.077191e-01 8.514949e-01 8.121147e-01 6.672435e-01 5.691586e-01 5.628865e-01 5.171560e-01 5.549243e-01 2.805933e-01
<GCONST> 1.298070e+02
<STATE> 3
<MEAN> 39
 -2.622611e+01 6.554084e+00 -7.309003e+00 2.338498e-02 2.292548e+00 -2.692335e+00 1.193908e+00 2.783376e+00 -2.565856e-01 -7.448357e-01 1.173333e+00 1.719370e+00 6.370348e+01 -1.261346e-01 -2.977335e-01 -2.109579e-02 -3.871142e-01 1.580742e-02 -6.278951e-02 -1.936888e-02 1.747816e-01 1.140190e-01 1.112001e-01 2.918212e-03 9.475490e-02 -2.012226e-01 7.871880e-01 -1.669721e-01 4.376286e-01 -3.677579e-02 -2.729675e-01 -1.471563e-01 -3.220524e-01 -1.423481e-01 -4.989312e-02 -1.195425e-01 -1.645242e-01 -1.023966e-01 -7.756323e-02
<VARIANCE> 39
 3.205400e+01 4.342994e+01 3.346277e+01 2.649394e+01 2.233640e+01 2.538058e+01 2.556690e+01 2.180784e+01 1.972371e+01 1.855622e+01 1.604280e+01 1.553833e+01 2.414129e+01 1.977725e+00 1.558397e+00 2.210333e+00 1.670315e+00 1.531951e+00 1.877401e+00 1.832856e+00 1.831532e+00 1.758132e+00 1.739942e+00 1.625646e+00 1.506835e+00 1.178679e+00 5.382726e-01 2.928379e-01 3.303602e-01 3.501060e-01 3.716888e-01 4.362507e-01 4.799299e-01 4.031678e-01 3.654698e-01 3.715014e-01 3.592128e-01 3.201205e-01 2.200049e-01
<GCONST> 1.067095e+02
<STATE> 4
<MEAN> 39
 -1.970126e+01 4.246544e+00 -2.520291e+00 -2.468883e+00 2.906245e-02 -4.399235e+00 -3.030698e+00 2.282266e+00 -3.549085e-01 -1.293246e+00 -6.283512e-01 9.277051e-01 6.271796e+01 3.985076e+00 -1.188715e+00 1.336245e+00 -3.168273e-01 -1.692915e+00 -5.434808e-01 -1.729457e+00 -9.515486e-01 -7.879280e-02 -3.435425e-01 -5.524672e-01 -5.908402e-01 -2.081760e-01 4.749579e-01 -1.364160e-01 -1.049510e-01 6.168228e-02 -2.535423e-01 7.413400e-02 -7.695474e-02 -1.939989e-01 -5.447105e-02 8.323883e-03 2.477262e-02 -1.197393e-01 2.031392e-01
<VARIANCE> 39
 8.017998e+01 3.242438e+01 3.549433e+01 3.139713e+01 4.214886e+01 5.870526e+01 5.211050e+01 3.778342e+01 3.150410e+01 2.710792e+01 2.544333e+01 2.377200e+01 3.928443e+01 6.955423e+00 3.194548e+00 3.536979e+00 4.435597e+00 4.721587e+00 6.484669e+00 6.603050e+00 4.288140e+00 3.412300e+00 2.961396e+00 3.419889e+00 2.906140e+00 5.450606e+00 1.290843e+00 5.953351e-01 5.170856e-01 6.922029e-01 7.494546e-01 9.454776e-01 1.164424e+00 7.898110e-01 6.049808e-01 5.369576e-01 5.582717e-01 5.100094e-01 6.799216e-01
<GCONST> 1.332199e+02
<TRANSP> 5
 0.000000e+00 1.000000e+00 0.000000e+00 0.000000e+00 0.000000e+00
 0.000000e+00 6.340655e-01 3.659345e-01 0.000000e+00 0.000000e+00
 0.000000e+00 0.000000e+00 8.298603e-01 1.701397e-01 0.000000e+00
 0.000000e+00 0.000000e+00 0.000000e+00 6.475556e-01 3.524444e-01
 0.000000e+00 0.000000e+00 0.000000e+00 0.000000e+00 0.000000e+00
<ENDHMM>
~h "t"
<BEGINHMM>
<NUMSTATES> 5
<STATE> 2
<MEAN> 39
 -8.241756e+00 5.653295e+00 3.232096e+00 2.242635e+00 -2.729432e+00 -3.607027e+00 -3.920141e+00 -1.156423e+00 -1.954044e+00 -2.312244e+00 -1.890624e+00 -1.594100e+00 5.582469e+01 -1.184112e+00 2.662965e-02 -2.040226e-01 3.880939e-01 1.177032e+00 1.154889e+00 1.030711e+00 1.444489e-01 3.055910e-01 2.580111e-01 3.200102e-01 1.429936e-02 -1.584044e+00 -2.710995e-01 -7.574034e-01 -3.119377e-01 -6.395285e-01 -4.759884e-01 -6.172016e-02 -1.859801e-01 1.990046e-01 -9.876972e-02 1.071877e-01 2.620624e-01 1.484745e-01 1.118699e+00
<VARIANCE> 39
 4.215649e+01 3.008105e+01 3.535628e+01 3.276100e+01 4.021409e+01 4.435389e+01 4.155260e+01 3.791190e+01 3.803803e+01 2.767193e+01 2.744916e+01 2.402600e+01 3.854633e+01 5.011398e+00 5.089781e+00 3.909787e+00 3.967568e+00 4.427543e+00 4.156464e+00 4.167249e+00 4.366887e+00 4.120412e+00 3.075733e+00 3.222386e+00 2.827532e+00 4.900321e+00 5.196518e-01 7.134762e-01 5.522546e-01 6.272587e-01 7.941878e-01 7.418993e-01 7.729748e-01 6.773935e-01 6.997047e-01 5.808188e-01 5.714521e-01 5.136731e-01 8.815282e-01
<GCONST> 1.304803e+02
<STATE> 3
<MEAN> 39
 -1.403759e+01 7.110490e-01 7.164355e-01 1.997680e-01 -7.676386e-01 -1.795309e-01 -7.841743e-01 1.395219e+00 -7.806592e-01 -9.866337e-01 5.312803e-01 -2.481084e-01 5.592889e+01 -1.021095e+00 -9.730385e-01 -3.824508e-01 -8.214271e-01 -4.264055e-01 2.665018e-02 -1.044630e-01 2.721571e-01 -9.159903e-02 1.861580e-01 5.150981e-01 3.466010e-01 1.396796e+00 1.097481e-01 1.447186e-03 2.956142e-02 -1.695278e-01 -4.141281e-01 -3.774815e-01 -2.927263e-01 1.291186e-03 -1.246694e-01 -9.205407e-02 -4.335988e-02 5.259139e-02 6.788825e-01
<VARIANCE> 39
 3.766691e+01 4.496511e+01 2.549661e+01 2.756499e+01 2.771469e+01 3.130834e+01 3.068538e+01 2.811989e+01 2.467120e+01 2.168126e+01 1.947924e+01 1.664845e+01 5.016038e+01 4.376112e+00 3.452558e+00 2.720334e+00 3.364426e+00 3.187786e+00 3.259261e+00 3.312786e+00 3.047011e+00 2.962089e+00 2.390989e+00 2.513217e+00 2.101757e+00 5.639185e+00 6.590890e-01 5.780697e-01 4.922786e-01 6.026322e-01 6.462959e-01 6.642404e-01 6.745250e-01 5.865344e-01 5.411301e-01 4.844002e-01 4.951670e-01 4.199398e-01 9.901858e-01
<GCONST> 1.232335e+02
<STATE> 4
<MEAN> 39
 -1.588835e+01 -1.144514e+00 6.066997e-01 -2.566720e+00 -5.189993e+00 -2.999046e+00 -3.311017e+00 2.013782e+00 -1.890685e+00 -1.206161e+00 9.110498e-01 6.344153e-01 6.512649e+01 1.102596e+00 -4.008354e-01 1.040239e-01 -1.313287e-01 -1.039677e+00 -8.411008e-01 -7.702658e-01 -1.903224e-02 -2.751154e-01 -3.804036e-01 -2.676013e-01 -3.843371e-02 1.147691e+00 7.955474e-01 1.830238e-01 3.881128e-02 1.445368e-01 -3.580175e-03 -6.672180e-02 -2.077309e-01 -2.296393e-01 -4.187234e-02 -1.001587e-01 -1.985590e-01 -2.096603e-01 -2.846638e-01
<VARIANCE> 39
 8.622137e+01 4.678273e+01 4.522387e+01 4.708941e+01 5.017437e+01 5.563887e+01 5.373368e+01 4.479593e+01 3.773161e+01 3.031193e+01 3.161969e+01 2.608620e+01 3.892677e+01 9.602221e+00 3.662000e+00 3.899305e+00 4.356003e+00 5.583265e+00 5.672299e+00 5.810831e+00 4.743340e+00 4.090433e+00 3.419039e+00 3.772509e+00 2.966612e+00 5.652320e+00 1.305633e+00 7.166030e-01 6.449573e-01 8.772185e-01 9.451056e-01 9.520645e-01 1.011914e+00 8.725772e-01 7.444977e-01 6.546697e-01 7.013304e-01 5.533364e-01 9.478843e-01
<GCONST> 1.381473e+02
<TRANSP> 5
 0.000000e+00 1.000000e+00 0.000000e+00 0.000000e+00 0.000000e+00
 0.000000e+00 5.049869e-01 4.950131e-01 0.000000e+00 0.000000e+00
 0.000000e+00 0.000000e+00 6.180816e-01 3.819184e-01 0.000000e+00
 0.000000e+00 0.000000e+00 0.000000e+00 6.688479e-01 3.311521e-01
 0.000000e+00 0.000000e+00 0.000000e+00 0.000000e+00 0.000000e+00
<ENDHMM>
~h "v"
<BEGINHMM>
<NUMSTATES> 5
<STATE> 2
<MEAN> 39
 4.520462e-01 -3.083999e-01 -3.209338e+00 -2.969034e+00 -4.602160e+00 -2.471110e+00 -1.096059e+01 -5.499485e+00 -4.469168e-01 1.189718e+00 8.060873e-03 -3.986480e+00 6.496202e+01 -8.675700e-01 2.237157e+00 4.575039e-01 1.642516e+00 1.708986e+00 8.004120e-01 9.292566e-01 -9.926550e-01 -9.859570e-01 -2.873030e-01 2.584773e-01 1.453338e-01 -2.244925e+00 -5.331492e-01 5.165488e-02 2.774223e-01 5.501762e-03 -7.742998e-02 -6.936397e-02 3.492149e-01 4.495125e-01 -6.254612e-02 -2.770624e-01 -2.770555e-01 7.564405e-02 1.798603e-02
<VARIANCE> 39
 1.883338e+01 3.715260e+01 3.911042e+01 5.433640e+01 2.683175e+01 6.533384e+01 4.158761e+01 4.605821e+01 4.381921e+01 3.589582e+01 4.337472e+01 3.134624e+01 3.031955e+01 1.893263e+00 3.263265e+00 2.340265e+00 3.548686e+00 3.349461e+00 3.676670e+00 3.854037e+00 4.071510e+00 3.749540e+00 2.611803e+00 3.028870e+00 2.550538e+00 2.547773e+00 2.803913e-01 4.643575e-01 3.213781e-01 4.729911e-01 4.548588e-01 4.956737e-01 5.483691e-01 5.692028e-01 5.351424e-01 4.429938e-01 5.044547e-01 4.031974e-01 3.288764e-01
<GCONST> 1.226464e+02
<STATE> 3
<MEAN> 39
 -4.397130e+00 6.995437e+00 1.434707e+00 3.592990e+00 -6.728232e-02 -1.622362e+00 -6.867763e+00 -5.651706e+00 -4.409811e+00 -2.191868e+00 -1.578735e+00 -3.295342e+00 5.789405e+01 -2.054374e+00 1.097777e+00 7.969761e-01 1.087824e+00 7.668632e-01 4.964988e-01 1.378795e+00 7.086118e-01 -3.040937e-01 -5.904280e-01 -5.835286e-01 8.083832e-02 -1.237497e+00 1.160281e-01 -1.083567e+00 -3.310941e-01 -7.527728e-01 -8.025888e-01 -3.039612e-01 -3.691975e-01 4.776608e-01 3.936237e-01 1.702890e-01 1.205684e-01 1.143167e-01 1.034758e+00
<VARIANCE> 39
 2.216417e+01 2.035785e+01 2.879242e+01 2.273634e+01 2.160967e+01 3.107018e+01 2.802768e+01 2.758359e+01 2.567396e+01 2.151915e+01 2.455659e+01 1.878163e+01 2.092738e+01 2.191865e+00 3.415355e+00 2.300352e+00 2.686032e+00 2.551463e+00 3.158733e+00 3.196716e+00 2.976861e+00 2.753143e+00 2.210532e+00 2.400806e+00 1.910310e+00 2.323239e+00 4.646992e-01 4.645072e-01 4.823117e-01 5.177740e-01 5.672910e-01 6.965662e-01 6.686269e-01 7.031718e-01 6.478186e-01 4.558638e-01 5.252815e-01 3.983568e-01 3.948377e-01
<GCONST> 1.169515e+02
<STATE> 4
<MEAN> 39
 -9.578334e+00 3.843360e+00 5.571406e-02 2.560609e+00 -1.389563e+00 -1.028651e+00 -4.880679e+00 -1.917134e+00 -2.796157e+00 -1.970832e+00 -1.132382e+00 -1.850027e+00 5.967384e+01 5.995336e-02 -1.334677e+00 -7.213953e-01 -1.092455e+00 -1.004520e+00 -5.034371e-01 -3.467884e-01 4.909135e-01 4.505633e-01 2.534997e-01 3.579157e-01 3.033860e-01 1.313178e+00 6.593640e-01 -3.966258e-01 -1.695782e-01 -5.251732e-01 -3.925474e-01 -2.486242e-01 -3.699418e-01 -7.532132e-02 8.913349e-02 9.645940e-02 1.280188e-01 -1.087897e-02 5.210972e-01
<VARIANCE> 39
 4.921075e+01 3.477149e+01 3.497744e+01 3.326391e+01 2.876754e+01 3.834650e+01 3.823153e+01 3.247602e+01 2.898375e+01 2.304272e+01 2.313060e+01 1.927930e+01 3.969291e+01 5.547765e+00 3.518889e+00 3.312773e+00 4.259580e+00 4.070123e+00 3.674446e+00 4.730525e+00 3.809452e+00 3.198784e+00 2.557902e+00 2.661771e+00 2.166960e+00 4.001306e+00 7.434215e-01 7.529830e-01 6.366237e-01 7.924544e-01 6.866222e-01 7.096803e-01 8.465796e-01 6.930752e-01 6.276436e-01 5.038987e-01 5.475652e-01 4.347338e-01 6.413067e-01
<GCONST> 1.275056e+02
<TRANSP> 5
 0.000000e+00 1.000000e+00 0.000000e+00 0.000000e+00 0.000000e+00
 0.000000e+00 5.347560e-01 4.652439e-01 0.000000e+00 0.000000e+00
 0.000000e+00 0.000000e+00 5.174299e-01 4.825702e-01 0.000000e+00
 0.000000e+00 0.000000e+00 0.000000e+00 6.061971e-01 3.938028e-01
 0.000000e+00 0.000000e+00 0.000000e+00 0.000000e+00 0.000000e+00
<ENDHMM>
~h "w"
<BEGINHMM>
<NUMSTATES> 5
<STATE> 2
<MEAN> 39
 -4.086649e-01 6.423440e+00 -2.528122e+00 -6.041790e+00 -6.557613e+00 -9.251763e-01 -5.440936e+00 -4.444919e+00 -5.728286e+00 -3.232556e+00 -7.772424e-01 -2.202044e+00 5.970287e+01 1.162763e+00 7.178347e-01 -3.376585e-01 -1.388563e+00 -9.582043e-01 1.454841e-01 1.440857e-01 -2.009357e-01 -5.076852e-01 -5.175999e-01 -5.465670e-02 -3.082185e-02 3.360628e-01 -1.605472e-01 -4.265493e-01 -6.608323e-02 -1.127052e-01 -2.511033e-02 1.365017e-01 -2.462482e-01 1.756679e-01 1.026494e-01 9.617227e-02 1.270068e-01 4.580082e-02 4.030311e-01
<VARIANCE> 39
 4.252810e+01 4.701423e+01 2.882068e+01 4.753422e+01 4.876011e+01 4.460950e+01 4.080808e+01 4.086439e+01 4.081491e+01 2.851746e+01 3.026460e+01 2.115769e+01 2.934598e+01 3.699380e+00 4.003592e+00 3.175965e+00 5.312335e+00 4.374640e+00 4.167942e+00 4.719664e+00 4.244032e+00 4.729487e+00 3.365452e+00 3.105492e+00 2.522962e+00 3.286116e+00 3.947768e-01 7.343214e-01 5.581938e-01 8.543608e-01 8.126103e-01 8.733792e-01 9.146595e-01 7.737418e-01 8.898776e-01 7.553888e-01 6.398470e-01 4.952937e-01 3.599916e-01
<GCONST> 1.307070e+02
<STATE> 3
<MEAN> 39
 3.511941e+00 4.385811e+00 -5.623494e+00 -1.374283e+01 -1.062210e+01 3.328412e+00 -6.810696e+00 -3.575805e+00 -8.243798e+00 -5.821499e+00 7.074652e-01 -1.316169e+00 6.551625e+01 2.485048e-01 -1.963118e+00 -1.006217e+00 -7.426660e-01 3.717390e-01 1.183519e+00 -1.565688e+00 -3.087624e-01 -2.034113e-01 8.169280e-01 1.168838e+00 1.878667e-01 1.931230e+00 -4.960746e-01 -4.370257e-01 2.596246e-01 8.263692e-01 5.026112e-01 -4.364905e-01 -3.159956e-01 2.346705e-02 6.014792e-01 5.952399e-01 -1.336144e-01 -3.469714e-01 1.658182e-02
<VARIANCE> 39
 1.223793e+01 3.498830e+01 3.190615e+01 4.147779e+01 3.604494e+01 6.292038e+01 5.155512e+01 5.630655e+01 4.960544e+01 3.279398e+01 4.243160e+01 3.280440e+01 2.134468e+01 1.273143e+00 2.610315e+00 2.183125e+00 4.013291e+00 3.871541e+00 4.908133e+00 6.128366e+00 4.436187e+00 4.467153e+00 5.251752e+00 3.909926e+00 3.461745e+00 1.707142e+00 2.833247e-01 4.013214e-01 4.366191e-01 6.076497e-01 6.247075e-01 8.576360e-01 8.170446e-01 9.877589e-01 1.012133e+00 8.061465e-01 7.940233e-01 7.078289e-01 2.220535e-01
<GCONST> 1.276086e+02
<STATE> 4
<MEAN> 39
 1.578754e+00 -3.315619e+00 -6.610146e+00 -9.954977e+00 -6.400957e+00 2.150264e+00 -1.351998e+01 -4.573967e+00 -3.931213e+00 1.434866e+00 1.809770e+00 -4.886486e+00 7.096480e+01 -7.658503e-01 -1.590741e+00 6.051828e-01 1.267378e+00 1.444541e-01 -1.740606e+00 -1.251664e+00 1.183057e+00 2.164046e+00 9.118927e-01 -1.197365e+00 -1.118402e+00 1.210469e+00 -2.157637e-01 5.147643e-01 4.722734e-01 2.432533e-01 -3.144451e-01 -4.898031e-01 7.526966e-01 4.949522e-01 4.765875e-02 -7.287182e-01 -5.169379e-01 2.140489e-01 -4.808626e-01
<VARIANCE> 39
 1.605888e+01 3.421978e+01 4.042356e+01 4.926651e+01 3.442741e+01 9.951023e+01 8.323898e+01 6.360922e+01 6.599949e+01 5.603862e+01 7.418578e+01 4.628233e+01 2.529095e+01 8.379391e-01 2.285304e+00 2.717323e+00 3.249909e+00 3.792100e+00 4.873374e+00 5.802391e+00 5.676287e+00 4.961497e+00 6.212984e+00 5.098932e+00 4.258583e+00 1.333667e+00 2.352803e-01 3.415633e-01 4.077782e-01 5.939744e-01 6.651576e-01 9.924135e-01 1.155903e+00 9.563326e-01 1.234107e+00 1.016451e+00 1.108282e+00 9.158646e-01 1.922525e-01
<GCONST> 1.322558e+02
<TRANSP> 5
 0.000000e+00 1.000000e+00 0.000000e+00 0.000000e+00 0.000000e+00
 0.000000e+00 7.599638e-01 2.400362e-01 0.000000e+00 0.000000e+00
 0.000000e+00 0.000000e+00 5.995966e-01 4.004034e-01 0.000000e+00
 0.000000e+00 0.000000e+00 0.000000e+00 5.740771e-01 4.259230e-01
 0.000000e+00 0.000000e+00 0.000000e+00 0.000000e+00 0.000000e+00
<ENDHMM>
~h "y"
<BEGINHMM>
<NUMSTATES> 5
<STATE> 2
<MEAN> 39
 -8.425997e+00 4.320845e+00 1.315998e+01 -2.665926e+00 -1.140570e+01 -2.961898e+00 -8.582472e+00 -5.342262e+00 -1.013449e+01 -3.550696e+00 -5.386374e-01 -3.342877e+00 6.477705e+01 1.009669e+00 7.065610e-02 1.845204e+00 -4.835020e-01 -1.929627e+00 -1.042410e-01 -5.556604e-01 -9.567765e-01 -1.519431e+00 -1.798043e-01 2.007656e-01 -6.693587e-01 8.024797e-01 -2.062973e-02 -2.779466e-01 -4.966658e-01 3.098548e-02 1.515661e-01 -5.718883e-02 1.051206e-01 2.777661e-01 2.679263e-01 1.278343e-01 1.225299e-01 -2.529380e-02 5.205327e-02
<VARIANCE> 39
 4.699392e+01 3.882460e+01 5.855065e+01 6.765878e+01 5.097622e+01 6.054434e+01 4.491814e+01 6.043086e+01 4.597969e+01 3.780074e+01 4.805888e+01 3.063701e+01 3.001336e+01 6.013030e+00 3.102066e+00 4.636423e+00 4.377035e+00 5.478851e+00 6.026863e+00 5.851750e+00 4.747604e+00 6.071077e+00 4.505736e+00 3.803158e+00 3.336038e+00 2.700914e+00 5.489853e-01 4.740804e-01 6.394483e-01 7.130340e-01 8.836064e-01 8.357790e-01 8.166479e-01 8.809351e-01 8.385547e-01 6.044165e-01 5.299714e-01 5.231595e-01 3.028477e-01
<GCONST> 1.352487e+02
<STATE> 3
<MEAN> 39
 -6.891089e+00 2.545714e+00 1.812270e+01 -5.001680e+00 -1.674819e+01 -1.609220e+00 -9.906568e+00 -6.454819e+00 -1.349837e+01 -2.692484e+00 1.288731e+00 -6.235417e+00 6.851310e+01 4.210770e-01 -9.370792e-01 -5.769109e-01 3.377671e-01 -8.097605e-01 -1.011413e+00 2.657952e-01 6.974878e-01 -2.936054e-01 -1.248639e-01 6.969714e-01 -4.102754e-02 7.106425e-01 3.215190e-02 -8.758925e-02 -6.017786e-01 2.250646e-01 4.414227e-01 -3.098068e-01 1.783017e-02 3.921716e-01 3.335127e-01 -1.634780e-01 1.770192e-02 2.606574e-01 -1.040992e-01
<VARIANCE> 39
 1.607917e+01 2.477057e+01 5.054658e+01 6.286557e+01 3.229524e+01 6.694554e+01 3.925055e+01 5.619907e+01 3.824709e+01 5.011374e+01 7.726572e+01 3.524721e+01 2.150654e+01 8.941953e-01 1.298137e+00 1.972928e+00 1.842710e+00 1.934508e+00 2.943582e+00 2.501040e+00 2.745599e+00 2.118072e+00 2.111967e+00 2.037604e+00 1.638429e+00 7.598281e-01 1.983548e-01 1.614805e-01 3.516455e-01 3.157974e-01 5.408261e-01 4.299930e-01 5.182752e-01 4.291237e-01 5.510361e-01 4.840392e-01 4.148783e-01 3.236108e-01 1.435038e-01
<GCONST> 1.133057e+02
<STATE> 4
<MEAN> 39
 -3.185363e+00 -3.406758e+00 8.900606e+00 -3.395278e-01 -1.617087e+01 -1.144083e+01 -9.142582e+00 7.839257e-01 -1.159389e+01 -5.853376e+00 3.788700e+00 -2.223113e+00 7.061086e+01 8.504681e-01 -6.561251e-01 -2.262007e+00 5.060657e-01 1.436208e+00 -1.210389e+00 -1.129231e+00 1.473214e+00 1.699060e+00 -7.248802e-01 -4.046274e-01 7.973491e-01 1.290400e-01 -6.622057e-02 3.162563e-01 -7.599270e-02 -1.549786e-01 4.828294e-01 5.921795e-01 -2.785122e-01 -4.301851e-01 4.008645e-01 2.056512e-01 -4.624361e-01 -7.807536e-02 -2.868771e-01
<VARIANCE> 39
 1.847812e+01 2.918278e+01 4.930309e+01 6.411774e+01 3.335894e+01 8.877516e+01 6.315310e+01 6.112426e+01 6.026524e+01 6.015354e+01 7.894561e+01 4.083504e+01 1.992283e+01 5.257066e-01 9.178059e-01 1.899126e+00 1.372531e+00 1.932248e+00 2.713043e+00 3.253477e+00 3.361439e+00 2.955314e+00 2.789222e+00 2.406918e+00 1.660512e+00 4.722112e-01 1.353166e-01 1.446509e-01 3.140233e-01 2.955085e-01 5.104266e-01 4.593547e-01 5.455110e-01 5.732116e-01 5.619218e-01 5.813578e-01 4.199081e-01 3.387576e-01 1.180650e-01
<GCONST> 1.144370e+02
<TRANSP> 5
 0.000000e+00 1.000000e+00 0.000000e+00 0.000000e+00 0.000000e+00
 0.000000e+00 6.763309e-01 3.236691e-01 0.000000e+00 0.000000e+00
 0.000000e+00 0.000000e+00 7.387645e-01 2.612356e-01 0.000000e+00
 0.000000e+00 0.000000e+00 0.000000e+00 6.519017e-01 3.480983e-01
 0.000000e+00 0.000000e+00 0.000000e+00 0.000000e+00 0.000000e+00
<ENDHMM>
~h "z"
<BEGINHMM>
<NUMSTATES> 5
<STATE> 2
<MEAN> 39
 -1.155729e+01 1.058162e+01 9.106520e-01 1.236312e-01 -3.006347e+00 -9.740795e+00 -9.544791e+00 -3.861720e+00 -2.696129e+00 -4.451746e+00 -3.190233e+00 1.409462e+00 6.598218e+01 -4.169169e+00 2.625100e+00 -7.263163e-01 9.442664e-01 2.502239e+00 9.354272e-01 1.927538e+00 8.806674e-01 2.740079e-02 1.677012e-01 3.751211e-01 -1.777331e-01 -4.697020e-01 -2.032175e-01 -6.904685e-01 -2.460977e-01 -1.977168e-01 -5.797955e-02 4.171147e-01 3.603024e-01 3.876712e-01 -1.693884e-02 1.566951e-01 2.153941e-01 -1.263241e-01 2.254977e-02
<VARIANCE> 39
 5.433516e+01 4.490701e+01 4.345808e+01 4.534375e+01 3.948026e+01 6.319218e+01 5.009082e+01 4.170885e+01 3.903894e+01 3.335368e+01 3.195134e+01 3.417455e+01 2.517791e+01 3.485467e+00 4.403297e+00 3.444523e+00 5.019255e+00 3.875742e+00 5.549441e+00 5.497657e+00 4.940221e+00 3.554369e+00 2.898983e+00 3.042425e+00 4.068552e+00 1.554797e+00 8.312228e-01 9.049751e-01 4.962310e-01 5.767806e-01 7.011314e-01 7.816887e-01 7.522886e-01 6.416599e-01 5.642139e-01 5.095484e-01 4.718794e-01 5.991183e-01 1.767166e-01
<GCONST> 1.300555e+02
<STATE> 3
<MEAN> 39
 -2.485051e+01 1.216959e+01 -4.574134e+00 1.793862e+00 3.933633e+00 -3.369898e+00 -5.160574e-01 1.320662e+00 -1.906010e+00 -2.433129e+00 -3.046291e-01 8.687807e-01 6.437646e+01 -1.219428e+00 -9.475479e-01 -8.850539e-01 -5.241351e-01 3.672493e-01 4.231203e-01 7.749410e-01 7.681275e-01 3.855937e-01 3.779783e-01 2.497799e-01 1.359335e-01 -2.391414e-01 1.379480e+00 -6.286612e-01 4.166110e-01 -2.834864e-01 -7.611869e-01 -3.871959e-01 -7.194929e-01 -3.206027e-01 7.257119e-02 -4.305799e-02 -1.334937e-01 1.946681e-02 -4.938259e-03
<VARIANCE> 39
 2.551716e+01 2.427986e+01 4.115462e+01 3.367719e+01 2.642949e+01 3.556647e+01 3.807010e+01 2.811752e+01 2.627045e+01 2.257616e+01 1.984670e+01 1.962860e+01 1.754642e+01 4.882057e+00 2.311572e+00 3.136184e+00 2.661886e+00 2.909570e+00 3.895939e+00 3.799632e+00 2.766138e+00 2.405401e+00 2.129119e+00 1.955562e+00 1.908244e+00 1.051246e+00 5.835320e-01 5.914108e-01 5.255015e-01 6.522236e-01 6.026253e-01 7.273144e-01 6.707011e-01 5.995021e-01 5.011968e-01 4.504592e-01 4.188611e-01 4.494777e-01 2.522596e-01
<GCONST> 1.182973e+02
<STATE> 4
<MEAN> 39
 -1.716800e+01 1.214584e+00 -1.774786e+00 -1.168377e+00 3.518814e-02 -2.809033e+00 -2.084556e+00 2.964554e+00 1.958480e-01 -1.617880e+00 1.989771e-01 7.746092e-01 6.011024e+01 1.692887e+00 -8.621326e-01 4.390238e-01 -1.285719e-01 -7.614321e-01 1.736203e-02 -4.913850e-01 -3.230164e-01 9.250923e-02 4.194233e-02 -1.039445e-01 -1.733851e-01 -3.892361e-01 2.294252e-01 4.803099e-02 3.007784e-02 4.847890e-02 -8.674078e-02 4.911838e-02 -1.856010e-02 -1.218114e-01 -1.016398e-01 -3.956535e-02 -1.089727e-02 -7.039972e-02 7.259723e-02
<VARIANCE> 39
 5.284446e+01 6.395336e+01 2.887112e+01 2.717269e+01 3.329069e+01 4.694259e+01 4.697614e+01 3.333763e+01 2.814567e+01 2.372133e+01 2.236715e+01 2.100630e+01 4.991283e+01 5.820490e+00 3.289168e+00 2.434830e+00 2.882305e+00 3.360916e+00 3.691867e+00 4.283800e+00 3.118011e+00 2.757729e+00 2.299656e+00 2.141543e+00 2.152265e+00 3.463561e+00 8.245068e-01 4.887679e-01 3.964819e-01 5.257872e-01 5.452397e-01 6.794201e-01 7.433956e-01 5.943921e-01 5.001534e-01 4.479637e-01 4.127965e-01 4.115895e-01 5.085346e-01
<GCONST> 1.241419e+02
<TRANSP> 5
 0.000000e+00 1.000000e+00 0.000000e+00 0.000000e+00 0.000000e+00
 0.000000e+00 6.568114e-01 3.431886e-01 0.000000e+00 0.000000e+00
 0.000000e+00 0.000000e+00 7.227489e-01 2.772511e-01 0.000000e+00
 0.000000e+00 0.000000e+00 0.000000e+00 8.155223e-01 1.844777e-01
 0.000000e+00 0.000000e+00 0.000000e+00 0.000000e+00 0.000000e+00
<ENDHMM>
~h "aa"
<BEGINHMM>
<NUMSTATES> 5
<STATE> 2
<MEAN> 39
 -7.400718e-01 -6.773988e+00 -8.464249e+00 -8.661462e+00 -4.446037e+00 1.438450e+00 -5.878622e+00 -5.191914e-01 -8.123963e-02 -2.756768e+00 -3.985509e+00 -6.328470e+00 7.098811e+01 1.072912e+00 -1.293526e+00 -1.337162e+00 -9.339974e-01 3.792959e-01 1.321722e+00 4.853384e-01 -7.455639e-01 2.797261e-01 -8.263601e-02 -3.590604e-01 -1.028259e+00 1.111836e+00 -4.711128e-01 1.824170e-01 2.630311e-01 3.278497e-01 2.921085e-01 -6.616816e-03 1.736551e-01 -2.117516e-01 -2.124074e-01 7.325058e-02 1.978031e-01 2.310670e-01 -3.837645e-01
<VARIANCE> 39
 2.661228e+01 2.758916e+01 3.561423e+01 4.755097e+01 4.862545e+01 1.075485e+02 6.049043e+01 7.074450e+01 5.068850e+01 4.623884e+01 6.140231e+01 3.742286e+01 2.648558e+01 2.914003e+00 2.199438e+00 2.689004e+00 2.794478e+00 4.110971e+00 4.783651e+00 4.195430e+00 5.001081e+00 4.045739e+00 3.136353e+00 3.349720e+00 2.893496e+00 1.598354e+00 5.061325e-01 4.522128e-01 3.657965e-01 4.844467e-01 6.159784e-01 7.764996e-01 7.993456e-01 1.061129e+00 7.768453e-01 6.077585e-01 6.056706e-01 5.178341e-01 2.774066e-01
<GCONST> 1.292887e+02
<STATE> 3
<MEAN> 39
 1.018262e+00 -9.963145e+00 -1.125710e+01 -1.097680e+01 -1.797724e+00 7.098291e+00 -3.188225e+00 -5.278880e+00 -1.141474e+00 -2.771291e+00 -2.776975e+00 -8.084099e+00 7.295615e+01 2.523390e-02 -1.257386e-01 -1.424632e-01 1.407090e-01 1.700517e-01 -8.595258e-02 -1.592470e-01 -1.571970e-02 9.490021e-02 -1.414908e-02 -4.021772e-02 -1.416861e-01 -1.409136e-02 -3.051577e-02 2.584715e-01 1.570650e-01 1.651832e-01 -1.554745e-01 -3.294253e-01 -1.339228e-01 2.715389e-01 2.754934e-02 -2.505435e-02 -1.872424e-02 1.030762e-01 -1.608487e-01
<VARIANCE> 39
 1.191711e+01 1.956532e+01 2.128084e+01 4.208640e+01 4.207620e+01 8.935563e+01 5.649756e+01 4.477934e+01 4.278047e+01 3.818469e+01 5.852961e+01 2.909656e+01 1.434860e+01 2.423699e-01 7.067942e-01 6.120834e-01 1.053781e+00 1.330355e+00 2.026604e+00 1.870571e+00 2.417970e+00 1.910153e+00 1.479249e+00 1.675041e+00 1.322654e+00 2.552372e-01 6.390110e-02 1.285453e-01 1.311672e-01 1.672912e-01 2.203900e-01 2.544487e-01 3.092605e-01 3.292428e-01 2.923049e-01 2.589293e-01 2.659065e-01 2.440628e-01 6.507298e-02
<GCONST> 9.642855e+01
<STATE> 4
<MEAN> 39
 7.907304e-01 -7.683154e+00 -1.017454e+01 -8.223652e+00 -3.429870e+00 1.177079e+00 -6.341082e+00 -1.567976e+00 1.460232e-01 -2.843112e+00 -4.497039e+00 -8.189463e+00 7.100775e+01 -1.828025e-01 1.795111e+00 1.210397e+00 1.397659e+00 -4.041901e-01 -1.694541e+00 -3.213530e-01 8.523438e-01 -2.833340e-01 -3.189623e-02 -4.713809e-02 6.961157e-01 -1.487755e+00 -3.104582e-01 4.885184e-01 4.341221e-01 3.288900e-01 1.747988e-01 -1.216225e-02 1.903753e-01 -2.745563e-01 -3.337440e-01 -1.625882e-02 1.211146e-01 3.223034e-01 -4.611250e-01
<VARIANCE> 39
 1.575151e+01 3.404768e+01 3.275637e+01 4.906716e+01 3.827180e+01 1.102209e+02 6.098675e+01 6.543232e+01 6.134800e+01 4.897791e+01 6.313027e+01 4.063198e+01 2.236642e+01 1.238636e+00 2.947133e+00 2.432265e+00 2.543573e+00 3.395866e+00 3.266506e+00 3.858752e+00 4.527144e+00 4.000236e+00 3.079662e+00 2.984624e+00 2.477320e+00 2.167504e+00 2.928621e-01 3.920678e-01 3.297538e-01 4.221764e-01 5.437465e-01 6.312573e-01 5.976974e-01 7.305637e-01 6.538994e-01 5.566979e-01 5.544038e-01 4.717677e-01 2.549744e-01
<GCONST> 1.248654e+02
<TRANSP> 5
 0.000000e+00 1.000000e+00 0.000000e+00 0.000000e+00 0.000000e+00
 0.000000e+00 6.851025e-01 3.148975e-01 0.000000e+00 0.000000e+00
 0.000000e+00 0.000000e+00 8.393983e-01 1.606017e-01 0.000000e+00
 0.000000e+00 0.000000e+00 0.000000e+00 6.335694e-01 3.664306e-01
 0.000000e+00 0.000000e+00 0.000000e+00 0.000000e+00 0.000000e+00
<ENDHMM>
~h "ae"
<BEGINHMM>
<NUMSTATES> 5
<STATE> 2
<MEAN> 39
 -5.203629e+00 -5.722484e+00 -4.346515e-01 -5.130002e+00 -9.887595e+00 -3.399609e+00 -1.346413e+00 4.834284e+00 -1.731559e+00 -5.150372e+00 -2.502209e+00 -3.395643e+00 6.926530e+01 1.537560e-01 -1.036516e+00 -2.137964e-01 -4.816068e-01 -6.385478e-02 1.485866e-01 7.803972e-01 5.113389e-01 -7.427390e-02 -8.533840e-01 -2.467466e-01 -1.940383e-01 1.043103e+00 -2.177744e-01 2.357745e-01 -1.832898e-02 2.135545e-01 3.895522e-01 8.446182e-02 -3.335797e-02 -3.231610e-01 -1.083139e-01 9.630739e-02 7.444540e-02 1.024329e-01 -3.331985e-01
<VARIANCE> 39
 3.690095e+01 3.766339e+01 3.783026e+01 4.613798e+01 5.068968e+01 7.213081e+01 5.195936e+01 6.471387e+01 4.936063e+01 4.361524e+01 4.339020e+01 3.476277e+01 6.476695e+01 1.724557e+00 1.871440e+00 2.117036e+00 2.024059e+00 2.847308e+00 2.993710e+00 3.190737e+00 3.103973e+00 2.937232e+00 2.635001e+00 2.402064e+00 2.209631e+00 1.758984e+00 3.771244e-01 3.880621e-01 3.081471e-01 4.132504e-01 5.020710e-01 5.279993e-01 5.813583e-01 6.381238e-01 5.718155e-01 4.722674e-01 4.470568e-01 4.092021e-01 3.987000e-01
<GCONST> 1.229813e+02
<STATE> 3
<MEAN> 39
 -7.598086e+00 -8.746963e+00 -1.397264e+00 -4.713223e+00 -6.411981e+00 -2.327150e+00 6.058856e-01 4.872184e+00 -1.856039e+00 -6.941962e+00 -2.191612e+00 -2.682952e+00 6.925820e+01 8.680011e-02 -3.637043e-02 -1.691433e-01 9.294461e-02 1.835196e-01 9.509341e-02 -6.895797e-02 -7.336023e-02 9.671237e-02 -9.063935e-02 -1.544949e-01 -4.723583e-02 -8.673722e-02 4.878429e-02 1.849657e-01 1.742790e-02 7.808643e-02 -8.770498e-03 -2.208755e-02 -1.294606e-01 -5.295831e-02 2.449789e-02 1.554233e-01 1.491401e-02 -3.063064e-02 -1.663259e-01
<VARIANCE> 39
 5.932718e+01 2.591604e+01 3.392956e+01 3.240984e+01 3.901957e+01 5.094006e+01 3.698048e+01 4.638841e+01 3.792708e+01 4.131418e+01 4.718148e+01 3.214162e+01 7.480744e+01 2.874270e-01 5.615274e-01 7.851218e-01 7.633483e-01 1.177446e+00 1.271377e+00 1.475514e+00 1.377443e+00 1.455087e+00 1.366475e+00 1.239853e+00 1.124531e+00 3.516887e-01 5.802969e-02 1.233965e-01 1.305009e-01 1.562490e-01 2.172356e-01 2.262085e-01 2.794376e-01 2.871331e-01 2.689105e-01 2.682484e-01 2.449782e-01 2.229951e-01 7.932182e-02
<GCONST> 9.636914e+01
<STATE> 4
<MEAN> 39
 -3.683417e+00 -6.734227e+00 -2.926975e+00 -4.062223e+00 -7.773536e+00 -2.843015e+00 -2.162138e+00 4.285491e+00 -3.278774e-01 -5.798509e+00 -4.356721e+00 -4.702926e+00 6.940831e+01 2.308084e-01 1.356329e+00 4.368996e-01 6.632372e-01 1.159545e-01 -2.476151e-01 -5.143788e-01 -4.822845e-01 -2.449361e-01 7.380892e-01 1.579855e-01 -1.366069e-01 -9.575899e-01 -2.567872e-01 4.625585e-01 2.445059e-01 2.651141e-01 2.425926e-01 6.257564e-02 1.425265e-01 -2.773873e-01 -2.572045e-01 7.776284e-02 1.100340e-01 1.595459e-01 -4.081092e-01
<VARIANCE> 39
 3.128963e+01 3.806128e+01 3.978544e+01 4.203202e+01 4.176287e+01 7.988216e+01 6.400224e+01 6.630447e+01 5.402821e+01 4.611605e+01 4.788156e+01 4.265812e+01 6.465142e+01 1.634299e+00 3.883739e+00 2.120355e+00 2.725674e+00 3.383168e+00 2.800277e+00 3.451965e+00 3.803151e+00 3.230300e+00 3.037689e+00 2.751061e+00 2.440347e+00 4.661648e+00 4.021918e-01 5.440722e-01 3.482275e-01 4.526909e-01 5.931652e-01 5.309789e-01 6.502669e-01 6.934897e-01 6.736707e-01 5.238155e-01 5.231547e-01 4.912480e-01 5.333384e-01
<GCONST> 1.280642e+02
<TRANSP> 5
 0.000000e+00 1.000000e+00 0.000000e+00 0.000000e+00 0.000000e+00
 0.000000e+00 6.525174e-01 3.474826e-01 0.000000e+00 0.000000e+00
 0.000000e+00 0.000000e+00 8.606941e-01 1.393059e-01 0.000000e+00
 0.000000e+00 0.000000e+00 0.000000e+00 7.126424e-01 2.873576e-01
 0.000000e+00 0.000000e+00 0.000000e+00 0.000000e+00 0.000000e+00
<ENDHMM>
~h "ah"
<BEGINHMM>
<NUMSTATES> 5
<STATE> 2
<MEAN> 39
 -5.370194e+00 -1.469001e+00 8.121697e-01 -4.652353e+00 -9.087931e+00 -6.292324e+00 -9.557836e+00 -7.139924e-01 -2.526719e+00 -2.425072e+00 -1.422702e+00 -1.720898e+00 6.866133e+01 1.521977e+00 -6.101182e-01 2.684142e-01 -6.768212e-01 -9.673891e-01 -2.602186e-01 -1.019500e+00 6.336531e-02 2.731127e-01 -6.058428e-02 -1.810569e-01 -2.646444e-01 9.562672e-01 -3.200568e-01 3.292233e-01 -4.047833e-02 2.599661e-01 4.582738e-01 3.475410e-01 4.130091e-01 -8.789339e-02 -9.436854e-02 2.712638e-02 3.160112e-02 1.168885e-02 -5.073505e-01
<VARIANCE> 39
 6.170269e+01 4.348389e+01 7.057156e+01 5.462479e+01 5.874172e+01 8.989803e+01 6.969770e+01 6.705048e+01 6.079607e+01 4.220198e+01 5.397197e+01 3.981525e+01 3.612586e+01 7.330663e+00 3.700168e+00 4.372737e+00 4.631608e+00 5.281239e+00 5.390935e+00 6.022662e+00 6.170772e+00 4.939151e+00 3.657253e+00 4.211857e+00 3.709740e+00 3.254747e+00 9.707640e-01 6.969094e-01 6.016520e-01 7.212483e-01 9.163507e-01 9.339585e-01 1.091170e+00 9.687087e-01 9.133029e-01 6.583059e-01 7.356154e-01 6.135996e-01 7.055147e-01
<GCONST> 1.410771e+02
<STATE> 3
<MEAN> 39
 -2.181180e+00 -3.999606e+00 1.052954e+00 -6.613240e+00 -1.056977e+01 -5.327713e+00 -1.149309e+01 5.317091e-01 -1.571284e+00 -2.187326e+00 -1.658407e+00 -3.227231e+00 7.132384e+01 3.791097e-01 6.138954e-01 1.102114e-01 2.712115e-01 3.711211e-01 2.820343e-01 8.161961e-02 -3.808944e-01 -1.051798e-01 -2.785366e-02 -5.867387e-02 4.882096e-02 -5.757383e-01 -4.950970e-01 6.672006e-01 -2.057590e-02 4.711953e-01 5.830804e-01 1.827825e-01 5.347378e-01 -2.527022e-01 -2.237133e-01 -2.743763e-02 2.604008e-02 1.248891e-01 -7.454687e-01
<VARIANCE> 39
 2.111675e+01 3.513588e+01 8.063084e+01 5.520563e+01 4.648160e+01 9.799817e+01 6.597926e+01 8.268093e+01 7.304109e+01 4.718174e+01 7.447838e+01 5.347042e+01 2.479945e+01 2.034095e+00 2.699265e+00 2.932360e+00 3.456119e+00 3.250543e+00 3.305891e+00 3.440764e+00 4.049953e+00 3.610109e+00 2.836819e+00 3.153358e+00 2.804629e+00 2.337340e+00 5.888716e-01 5.019783e-01 5.242935e-01 5.654916e-01 7.461954e-01 7.854979e-01 1.030284e+00 1.020718e+00 8.881258e-01 6.258026e-01 7.800589e-01 6.327756e-01 4.390763e-01
<GCONST> 1.327095e+02
<STATE> 4
<MEAN> 39
 -2.663868e+00 1.014056e+00 1.139305e+00 -3.785853e+00 -7.754737e+00 -5.064065e+00 -9.415055e+00 -3.079050e+00 -2.937116e+00 -2.475146e+00 -1.855650e+00 -1.551538e+00 6.617416e+01 -5.298055e-01 1.582292e+00 1.327148e-01 8.725758e-01 1.146000e+00 5.066295e-01 1.020635e+00 -5.223901e-01 -3.867035e-01 -1.389426e-01 -9.197381e-02 1.220173e-01 -1.529844e+00 -4.862996e-01 8.465558e-02 -6.083930e-02 9.300943e-02 2.125903e-01 1.219517e-01 3.246381e-01 8.944708e-02 -6.479593e-02 1.353772e-02 5.496524e-02 -5.568277e-03 -1.848629e-01
<VARIANCE> 39
 3.786699e+01 4.432462e+01 7.362943e+01 7.119572e+01 4.999611e+01 8.887941e+01 6.110878e+01 7.869636e+01 6.292128e+01 4.610197e+01 5.372099e+01 4.404670e+01 3.683691e+01 3.587882e+00 4.712550e+00 3.418057e+00 4.880030e+00 4.648263e+00 4.288369e+00 4.977192e+00 5.059000e+00 4.800581e+00 3.248103e+00 3.549932e+00 3.209443e+00 4.652325e+00 5.977814e-01 6.727872e-01 5.529375e-01 6.853395e-01 7.090091e-01 7.655004e-01 8.476629e-01 9.562569e-01 8.135080e-01 6.370546e-01 6.255532e-01 5.581243e-01 5.289218e-01
<GCONST> 1.374219e+02
<TRANSP> 5
 0.000000e+00 1.000000e+00 0.000000e+00 0.000000e+00 0.000000e+00
 0.000000e+00 4.841523e-01 5.158477e-01 0.000000e+00 0.000000e+00
 0.000000e+00 0.000000e+00 5.308154e-01 4.691846e-01 0.000000e+00
 0.000000e+00 0.000000e+00 0.000000e+00 4.484647e-01 5.515353e-01
 0.000000e+00 0.000000e+00 0.000000e+00 0.000000e+00 0.000000e+00
<ENDHMM>
~h "ao"
<BEGINHMM>
<NUMSTATES> 5
<STATE> 2
<MEAN> 39
 5.500314e-01 1.196514e+00 -7.161064e+00 -1.079239e+01 -9.623866e+00 3.709143e-01 -6.914277e+00 -2.670960e+00 -3.029753e+00 -2.629768e+00 -6.305909e-01 -3.952396e+00 6.633166e+01 1.660581e+00 -2.712097e-01 -7.711648e-01 -1.648792e+00 -9.673160e-01 1.322003e-01 2.614295e-01 -1.121564e-01 -4.079697e-01 -3.577607e-01 1.982647e-01 -2.759065e-01 1.129888e+00 -6.193004e-01 -2.643887e-01 4.814945e-02 4.998781e-01 4.683153e-01 8.379518e-02 3.094365e-01 1.655336e-01 -8.946997e-02 4.108581e-02 1.754626e-01 2.547330e-01 -1.759225e-01
<VARIANCE> 39
 4.061922e+01 5.428823e+01 3.915454e+01 6.177787e+01 6.601988e+01 7.637857e+01 6.943497e+01 4.986548e+01 5.949945e+01 4.137652e+01 5.165179e+01 3.499606e+01 3.513503e+01 4.368737e+00 3.721163e+00 3.066250e+00 3.962952e+00 4.886969e+00 5.691022e+00 5.514543e+00 4.165726e+00 4.957613e+00 3.594279e+00 3.810132e+00 3.233684e+00 1.905001e+00 6.958824e-01 6.176857e-01 4.958638e-01 6.434441e-01 7.536007e-01 6.621206e-01 8.857169e-01 7.874383e-01 8.465348e-01 7.189853e-01 7.097124e-01 5.557805e-01 2.967590e-01
<GCONST> 1.348077e+02
<STATE> 3
<MEAN> 39
 2.519523e+00 -3.405085e+00 -8.957723e+00 -1.412454e+01 -9.390920e+00 5.419207e+00 -1.873671e+00 -1.777831e+00 -3.820568e+00 -5.301423e+00 5.369107e-01 -4.359617e+00 7.018742e+01 8.623527e-02 -4.303238e-01 -3.473914e-01 1.304276e-01 2.328397e-01 8.576033e-02 2.505446e-01 4.540513e-02 -3.635695e-01 -1.327468e-01 3.243086e-01 1.555694e-01 1.745083e-01 -8.393265e-02 6.143323e-02 4.722230e-02 2.302290e-01 1.308706e-01 -1.099729e-01 -2.048384e-01 -4.727128e-02 3.425908e-02 1.222350e-01 4.799942e-02 2.557662e-02 -9.804432e-02
<VARIANCE> 39
 1.741085e+01 5.088718e+01 3.109169e+01 4.949994e+01 6.141120e+01 9.746259e+01 6.923254e+01 6.120250e+01 5.115445e+01 4.255136e+01 5.099717e+01 3.390945e+01 2.078686e+01 3.316799e-01 1.102847e+00 9.530166e-01 1.057419e+00 1.387142e+00 1.679969e+00 2.130774e+00 1.828333e+00 2.238691e+00 1.828501e+00 2.255327e+00 1.921897e+00 4.319230e-01 1.130321e-01 1.605833e-01 1.472782e-01 1.998751e-01 2.488227e-01 2.810439e-01 3.812654e-01 3.323023e-01 4.044448e-01 3.378369e-01 3.604070e-01 2.917727e-01 7.190324e-02
<GCONST> 1.051354e+02
<STATE> 4
<MEAN> 39
 3.228131e+00 -4.821114e+00 -1.271343e+01 -8.653032e+00 -5.611602e+00 -5.951684e-01 -7.392470e+00 -2.350146e+00 -5.368680e+00 -1.550988e+00 3.197845e+00 -2.788002e+00 6.988528e+01 -1.620876e-01 -2.958289e-01 -1.475393e-02 1.459509e+00 1.110253e+00 -1.143196e+00 -1.840328e+00 1.703852e-01 1.318232e+00 8.592120e-01 -4.862033e-01 -1.855858e-01 -8.758274e-02 -1.851173e-01 2.878145e-01 4.343216e-01 2.364473e-01 -6.993610e-02 -2.495851e-01 -1.005299e-01 2.030960e-01 3.407647e-01 -1.709312e-01 -5.067939e-01 -5.201031e-02 -2.516744e-01
<VARIANCE> 39
 2.079367e+01 2.713556e+01 3.121036e+01 5.161206e+01 5.224241e+01 1.095862e+02 7.274594e+01 4.811750e+01 1.001266e+02 5.742891e+01 9.185747e+01 4.952499e+01 1.816377e+01 6.362361e-01 2.572516e+00 1.826438e+00 2.051457e+00 2.863747e+00 2.683746e+00 3.841899e+00 3.365448e+00 4.881886e+00 3.557654e+00 4.872487e+00 2.873480e+00 9.802971e-01 2.111217e-01 2.268646e-01 2.388170e-01 3.193996e-01 4.523149e-01 4.906392e-01 7.832285e-01 6.075618e-01 1.090236e+00 7.707151e-01 9.232992e-01 6.589575e-01 1.291972e-01
<GCONST> 1.234984e+02
<TRANSP> 5
 0.000000e+00 1.000000e+00 0.000000e+00 0.000000e+00 0.000000e+00
 0.000000e+00 6.767617e-01 3.232382e-01 0.000000e+00 0.000000e+00
 0.000000e+00 0.000000e+00 8.274500e-01 1.725500e-01 0.000000e+00
 0.000000e+00 0.000000e+00 0.000000e+00 6.767197e-01 3.232804e-01
 0.000000e+00 0.000000e+00 0.000000e+00 0.000000e+00 0.000000e+00
<ENDHMM>
~h "aw"
<BEGINHMM>
<NUMSTATES> 5
<STATE> 2
<MEAN> 39
 -2.648289e+00 -1.016883e+01 -4.440532e+00 -6.723167e+00 -5.928483e+00 -3.876631e+00 -1.390257e+00 5.283284e+00 -8.215070e-01 -9.539058e+00 -7.694657e+00 -4.116160e+00 7.455004e+01 1.847541e-01 -7.537378e-01 -9.287449e-01 -1.304497e-01 1.243287e+00 8.072977e-01 -2.934945e-01 -5.021766e-01 5.308834e-01 -4.365228e-01 -7.565963e-01 -3.787400e-01 3.177976e-01 -2.947956e-02 2.709348e-01 2.404828e-03 8.275904e-02 1.450237e-01 2.156467e-01 -2.986483e-01 -4.673309e-01 -1.806038e-02 4.233659e-01 2.154367e-01 -1.333804e-01 -3.291790e-01
<VARIANCE> 39
 1.352303e+01 2.019942e+01 2.986004e+01 3.304876e+01 3.719180e+01 5.974997e+01 3.956881e+01 5.782838e+01 5.009274e+01 3.701326e+01 3.720815e+01 2.987608e+01 1.696434e+01 5.688308e-01 9.028974e-01 1.314423e+00 1.397603e+00 1.769120e+00 2.060346e+00 3.876914e+00 2.644438e+00 2.209350e+00 2.639374e+00 1.677847e+00 1.691607e+00 6.420481e-01 1.774237e-01 1.678581e-01 1.824740e-01 2.950256e-01 3.912955e-01 3.660821e-01 4.615639e-01 4.618475e-01 4.377872e-01 3.807833e-01 3.736564e-01 3.534709e-01 1.424490e-01
<GCONST> 1.072302e+02
<STATE> 3
<MEAN> 39
 -8.823893e-02 -1.083744e+01 -1.032956e+01 -9.057718e+00 -1.971522e-01 4.172202e+00 -5.723725e+00 -4.029020e+00 1.622578e+00 -4.083982e+00 -7.601032e+00 -9.633842e+00 7.295753e+01 4.762772e-01 5.059000e-01 -5.140613e-01 -7.495736e-01 -1.077254e-01 1.217921e+00 -4.286325e-02 -1.155698e+00 -5.220736e-01 1.134381e+00 1.105232e+00 -6.297982e-01 -4.640906e-01 8.625694e-03 2.475570e-01 1.920288e-01 4.195154e-02 -4.083773e-01 -2.516453e-01 2.272364e-01 2.402927e-01 -2.518056e-01 -8.028350e-02 2.514881e-01 2.991353e-01 -1.238432e-01
<VARIANCE> 39
 1.325607e+01 1.945580e+01 2.026889e+01 3.855401e+01 3.068065e+01 6.998797e+01 4.453105e+01 4.663562e+01 4.721687e+01 4.749757e+01 4.384906e+01 2.943597e+01 1.611949e+01 2.453891e-01 6.474658e-01 6.341526e-01 1.065861e+00 1.760267e+00 1.830559e+00 2.248267e+00 2.241498e+00 2.312256e+00 2.005191e+00 2.092992e+00 2.007358e+00 1.814054e-01 4.033525e-02 9.307133e-02 1.208096e-01 2.025539e-01 2.235976e-01 2.793021e-01 4.216036e-01 3.650669e-01 4.279385e-01 3.539178e-01 3.896934e-01 3.067598e-01 4.167163e-02
<GCONST> 9.754892e+01
<STATE> 4
<MEAN> 39
 2.186500e+00 -4.649831e+00 -1.071851e+01 -1.128803e+01 -5.579687e+00 4.920142e+00 -3.449394e+00 -4.638037e+00 -2.395235e+00 -9.287393e-01 -7.518940e-01 -7.409847e+00 6.842953e+01 -1.488604e-01 1.742962e+00 9.765497e-01 9.512524e-01 -5.525177e-01 -1.046883e+00 -2.566408e-01 -6.852441e-03 -2.513951e-01 2.455231e-01 4.411585e-01 8.845351e-01 -1.369524e+00 -3.817090e-01 2.029890e-01 4.211577e-01 5.792295e-01 3.632422e-01 -3.581063e-01 -8.395351e-02 7.578500e-03 1.120981e-01 -1.469651e-01 -3.818894e-01 1.239041e-01 -2.328544e-01
<VARIANCE> 39
 1.501876e+01 3.871145e+01 2.609174e+01 4.370339e+01 4.144520e+01 7.727701e+01 6.499249e+01 4.315543e+01 5.505428e+01 4.453250e+01 5.575372e+01 3.997116e+01 2.687934e+01 1.069955e+00 2.600925e+00 2.295096e+00 3.406745e+00 3.730902e+00 3.040178e+00 3.859202e+00 3.292746e+00 3.622485e+00 3.078840e+00 3.600030e+00 2.594671e+00 1.641040e+00 2.210767e-01 4.116770e-01 3.095999e-01 4.150524e-01 5.641767e-01 5.896661e-01 7.078943e-01 6.171279e-01 6.721402e-01 5.913382e-01 6.267141e-01 5.328961e-01 2.228064e-01
<GCONST> 1.231916e+02
<TRANSP> 5
 0.000000e+00 1.000000e+00 0.000000e+00 0.000000e+00 0.000000e+00
 0.000000e+00 8.151447e-01 1.848553e-01 0.000000e+00 0.000000e+00
 0.000000e+00 0.000000e+00 8.110967e-01 1.889033e-01 0.000000e+00
 0.000000e+00 0.000000e+00 0.000000e+00 7.691081e-01 2.308918e-01
 0.000000e+00 0.000000e+00 0.000000e+00 0.000000e+00 0.000000e+00
<ENDHMM>
~h "ay"
<BEGINHMM>
<NUMSTATES> 5
<STATE> 2
<MEAN> 39
 5.839845e-01 -9.617760e+00 -1.014112e+01 -1.085406e+01 -3.117247e+00 5.618563e+00 -3.267088e+00 -4.754730e+00 -6.158814e-02 -5.976299e-01 -4.044684e+00 -8.672607e+00 7.304852e+01 -2.139895e-03 -1.099308e+00 -2.376190e-01 -1.652234e-01 7.858889e-01 5.839474e-01 1.006699e-01 -3.106977e-01 5.101784e-01 -1.608275e-01 -9.688401e-01 -7.190197e-01 6.123489e-01 -3.242491e-01 3.488757e-01 2.896836e-01 4.673572e-01 -3.397610e-02 -4.288224e-01 -1.479611e-01 2.497675e-01 -4.523744e-02 -2.442923e-01 3.530125e-02 3.752216e-01 -3.802547e-01
<VARIANCE> 39
 1.290331e+01 2.065884e+01 2.308616e+01 3.405866e+01 3.908530e+01 1.018856e+02 5.384116e+01 4.542109e+01 4.009217e+01 4.910246e+01 6.423730e+01 3.192364e+01 1.434577e+01 9.878320e-01 1.264936e+00 1.446200e+00 2.103785e+00 1.912646e+00 3.203892e+00 2.752945e+00 3.235524e+00 2.557176e+00 2.329553e+00 2.721357e+00 2.224511e+00 9.240738e-01 3.413669e-01 2.279628e-01 2.207416e-01 3.619656e-01 4.898399e-01 4.745651e-01 5.393518e-01 6.673036e-01 4.958346e-01 4.538385e-01 5.030850e-01 4.104873e-01 2.050837e-01
<GCONST> 1.145232e+02
<STATE> 3
<MEAN> 39
 -4.765595e-01 -1.162277e+01 -8.692173e+00 -8.010786e+00 -1.882933e+00 1.790810e+00 -4.935215e+00 -1.235911e+00 1.579269e+00 -5.090853e+00 -8.393166e+00 -7.627303e+00 7.365630e+01 -2.435269e-01 8.538210e-02 7.406421e-01 5.926116e-01 -9.959792e-01 -1.345949e+00 2.163459e-01 1.549116e+00 -1.344909e-01 -9.049765e-01 -5.372441e-02 5.909164e-01 9.074708e-03 6.573875e-03 2.551320e-01 2.337464e-01 -2.858512e-02 -3.912085e-01 -1.694349e-01 1.221286e-01 8.357041e-02 -2.731430e-01 1.405170e-01 3.998366e-01 1.118356e-01 -1.114805e-01
<VARIANCE> 39
 1.341890e+01 1.673731e+01 2.039706e+01 2.963597e+01 3.247231e+01 9.634230e+01 4.189451e+01 5.622998e+01 4.660522e+01 5.384570e+01 4.624527e+01 3.717037e+01 1.356866e+01 2.399896e-01 5.754608e-01 9.570946e-01 1.045692e+00 2.094602e+00 2.430032e+00 2.266009e+00 3.217674e+00 2.093456e+00 1.743926e+00 2.069252e+00 1.537553e+00 1.650726e-01 4.130564e-02 1.038504e-01 1.272070e-01 1.509768e-01 2.761348e-01 2.845858e-01 3.308552e-01 4.814804e-01 3.914902e-01 3.925929e-01 4.439821e-01 3.038455e-01 4.146359e-02
<GCONST> 9.863624e+01
<STATE> 4
<MEAN> 39
 -2.500774e+00 -7.513059e+00 5.104356e-01 -6.700796e+00 -1.335533e+01 -7.487916e+00 -3.116071e+00 4.980830e+00 -3.037655e+00 -4.804843e+00 -2.922635e+00 -4.256762e+00 7.224611e+01 -5.961458e-02 1.561430e+00 1.607918e+00 5.942336e-01 -1.024857e+00 -8.975561e-01 -3.525024e-01 -6.611479e-01 -1.088230e+00 9.749804e-01 1.347947e+00 4.421545e-01 -1.128187e+00 3.552344e-05 3.456642e-01 -2.305126e-01 2.247309e-01 7.567704e-01 4.020570e-01 -1.976938e-01 -6.338924e-01 9.657221e-02 1.075210e-01 -2.270578e-01 -6.993763e-02 -4.267365e-01
<VARIANCE> 39
 1.758060e+01 2.778709e+01 5.104840e+01 4.520406e+01 4.006458e+01 6.974573e+01 5.583811e+01 8.407812e+01 5.903799e+01 5.175231e+01 5.494033e+01 3.216150e+01 2.042025e+01 6.055147e-01 1.500731e+00 2.531988e+00 2.507782e+00 4.491639e+00 2.786737e+00 3.682337e+00 4.531034e+00 3.741901e+00 3.693120e+00 3.355463e+00 2.456682e+00 1.247433e+00 1.537548e-01 2.495635e-01 3.580865e-01 3.987433e-01 5.368094e-01 5.055836e-01 7.079164e-01 8.993528e-01 6.808740e-01 7.866745e-01 6.610789e-01 4.239570e-01 1.895882e-01
<GCONST> 1.220494e+02
<TRANSP> 5
 0.000000e+00 1.000000e+00 0.000000e+00 0.000000e+00 0.000000e+00
 0.000000e+00 7.475786e-01 2.524215e-01 0.000000e+00 0.000000e+00
 0.000000e+00 0.000000e+00 8.150086e-01 1.849914e-01 0.000000e+00
 0.000000e+00 0.000000e+00 0.000000e+00 7.596836e-01 2.403164e-01
 0.000000e+00 0.000000e+00 0.000000e+00 0.000000e+00 0.000000e+00
<ENDHMM>
~h "ch"
<BEGINHMM>
<NUMSTATES> 5
<STATE> 2
<MEAN> 39
 -1.288037e+01 3.763873e+00 4.242923e+00 1.039562e+00 -1.980378e+00 -4.190014e-02 -4.038143e+00 -4.359463e-01 -1.309632e+00 -2.099533e+00 -3.118225e-01 -9.457000e-01 5.593191e+01 -3.146532e+00 -1.190646e+00 -4.775145e-01 -9.017901e-01 3.289394e-01 1.844734e+00 5.988430e-01 3.191684e-01 7.599713e-01 6.405243e-01 8.373621e-01 2.225474e-01 5.820528e-01 -4.914584e-01 -4.180062e-01 1.383249e-01 -3.765901e-01 -6.731900e-01 -2.020479e-01 -2.236762e-01 8.444081e-02 -9.994060e-02 -7.344490e-02 1.670270e-01 8.987889e-02 1.210143e+00
<VARIANCE> 39
 4.212831e+01 4.631548e+01 3.075832e+01 3.010566e+01 3.176565e+01 3.801889e+01 3.432232e+01 3.037108e+01 2.722041e+01 2.287729e+01 2.228950e+01 1.790122e+01 3.720354e+01 4.896410e+00 4.660987e+00 3.118919e+00 3.540913e+00 5.101544e+00 3.798659e+00 4.090828e+00 3.241693e+00 3.410643e+00 2.638800e+00 2.604499e+00 2.276878e+00 9.050027e+00 7.383474e-01 1.219724e+00 6.092150e-01 7.555211e-01 6.757149e-01 7.942362e-01 7.477082e-01 6.223508e-01 5.759263e-01 5.168105e-01 4.719405e-01 4.384758e-01 9.660920e-01
<GCONST> 1.283385e+02
<STATE> 3
<MEAN> 39
 -2.809695e+01 -1.510974e+00 5.746978e+00 -3.332602e+00 -6.862079e+00 3.011987e+00 -1.388062e+00 7.400444e-01 9.917533e-01 -1.290540e+00 3.250022e+00 4.307492e-01 6.675861e+01 -7.568683e-01 -4.084289e-01 2.678606e-01 3.720292e-01 -9.601377e-01 -5.876030e-01 6.119425e-01 3.156839e-01 3.708050e-02 -1.327547e-02 1.159417e-01 1.084430e-01 8.764973e-01 1.279602e+00 1.717325e-01 -1.241447e-01 3.087313e-01 8.233819e-02 -5.211925e-01 -1.939278e-01 -1.042914e-01 -2.646976e-01 -1.230266e-01 -2.807542e-01 -1.343671e-01 -5.689846e-01
<VARIANCE> 39
 2.974297e+01 3.010945e+01 2.446628e+01 2.404313e+01 3.151153e+01 3.144636e+01 2.830427e+01 2.692981e+01 2.456341e+01 1.899617e+01 1.767041e+01 1.391728e+01 2.177174e+01 7.054665e+00 1.901908e+00 1.994079e+00 1.996975e+00 2.438442e+00 2.549165e+00 2.235514e+00 2.114571e+00 1.991067e+00 1.780482e+00 1.685771e+00 1.463327e+00 3.038651e+00 7.536854e-01 4.038847e-01 3.968142e-01 4.444168e-01 4.605027e-01 5.627757e-01 6.024805e-01 4.682272e-01 4.359816e-01 4.020359e-01 3.525249e-01 3.125840e-01 3.349457e-01
<GCONST> 1.131754e+02
<STATE> 4
<MEAN> 39
 -1.853076e+01 -2.989821e+00 4.336174e+00 1.026546e+00 -9.668181e+00 -3.571147e+00 -2.051409e+00 1.250322e+00 -1.185058e+00 -2.610855e+00 1.124714e+00 -5.410736e-01 6.546095e+01 4.976548e+00 3.113418e-01 -6.105171e-01 -4.060024e-02 -2.391024e-01 -2.019240e+00 -1.850133e+00 -8.172279e-01 -1.266233e+00 -7.873344e-01 -7.581691e-01 -6.452746e-01 -1.072614e-01 5.133675e-01 5.481353e-02 -6.915445e-02 -5.450399e-01 1.525869e-01 2.371811e-01 -4.610669e-01 -2.619600e-01 -7.415999e-02 -5.442370e-03 3.947567e-02 -5.859673e-02 2.601796e-01
<VARIANCE> 39
 7.626719e+01 2.788038e+01 3.177554e+01 3.509694e+01 4.026579e+01 4.754232e+01 3.846105e+01 3.661451e+01 3.687645e+01 2.577661e+01 2.451622e+01 2.002451e+01 2.343574e+01 4.795642e+00 2.318578e+00 3.372657e+00 3.826212e+00 4.795486e+00 6.201580e+00 4.643306e+00 4.454553e+00 4.787759e+00 3.356055e+00 3.289854e+00 2.595044e+00 2.698894e+00 1.442328e+00 4.821799e-01 4.430151e-01 5.499018e-01 8.001877e-01 9.768776e-01 9.407941e-01 8.003898e-01 8.100556e-01 6.107346e-01 5.520286e-01 5.181943e-01 4.716969e-01
<GCONST> 1.296611e+02
<TRANSP> 5
 0.000000e+00 1.000000e+00 0.000000e+00 0.000000e+00 0.000000e+00
 0.000000e+00 7.510001e-01 2.489999e-01 0.000000e+00 0.000000e+00
 0.000000e+00 0.000000e+00 8.081788e-01 1.918212e-01 0.000000e+00
 0.000000e+00 0.000000e+00 0.000000e+00 6.444640e-01 3.555360e-01
 0.000000e+00 0.000000e+00 0.000000e+00 0.000000e+00 0.000000e+00
<ENDHMM>
~h "dh"
<BEGINHMM>
<NUMSTATES> 5
<STATE> 2
<MEAN> 39
 -1.396662e+01 -1.547652e+00 -2.599412e-01 4.717036e-01 -7.789969e-01 -9.308150e-01 -1.713126e-01 2.566376e+00 -2.351222e-01 -2.142169e+00 2.137420e-01 3.492099e-02 5.659962e+01 -1.074955e-01 -3.945425e-03 -6.171225e-02 9.055900e-02 1.088432e-01 1.249545e-01 9.892529e-02 1.123757e-02 2.566564e-02 -2.846964e-02 2.223886e-02 -2.877835e-02 -1.503637e-01 5.478835e-02 -1.037108e-01 -5.497693e-02 -1.177839e-01 -1.505212e-01 -9.535047e-02 -1.233526e-01 -4.833141e-03 6.231805e-04 -4.505564e-03 2.074067e-02 2.163464e-02 2.663062e-01
<VARIANCE> 39
 3.385411e+01 5.662520e+01 1.947380e+01 2.142213e+01 2.062664e+01 2.817097e+01 2.811750e+01 3.147794e+01 2.383880e+01 2.142776e+01 2.236404e+01 1.872532e+01 4.762719e+01 1.213454e+00 1.891063e+00 1.396201e+00 1.484926e+00 1.659790e+00 1.914809e+00 2.059731e+00 2.153510e+00 2.066669e+00 1.800424e+00 1.707294e+00 1.567301e+00 1.885861e+00 1.867183e-01 3.537343e-01 2.541917e-01 3.201777e-01 3.719145e-01 3.971151e-01 4.343536e-01 4.271474e-01 3.985945e-01 3.639403e-01 3.535808e-01 3.210817e-01 4.389522e-01
<GCONST> 1.079421e+02
<STATE> 3
<MEAN> 39
 -1.011064e+01 4.960101e+00 -5.571496e-01 3.086796e+00 -1.922063e+00 -1.573816e+00 -3.691322e+00 -2.055196e+00 -1.750956e+00 -2.466480e+00 -1.657240e+00 -2.060028e+00 5.790167e+01 3.225426e-01 -1.469100e+00 -8.336741e-01 -1.220113e+00 -1.850852e+00 -1.160823e+00 -1.422823e+00 1.228504e-01 3.777112e-01 -1.314011e-01 4.127572e-01 4.907297e-01 2.844243e+00 5.774983e-01 -4.788018e-01 1.626521e-01 -6.593989e-01 -7.542051e-01 -5.033694e-01 -6.655620e-01 1.000344e-01 1.353035e-01 1.329800e-01 2.899966e-02 8.968872e-02 9.693046e-01
<VARIANCE> 39
 4.270340e+01 3.170708e+01 2.887140e+01 2.563034e+01 2.694106e+01 4.171679e+01 4.101249e+01 3.468436e+01 2.488530e+01 2.164087e+01 2.683997e+01 2.171605e+01 4.242896e+01 4.389081e+00 2.951295e+00 3.055104e+00 3.168047e+00 4.098843e+00 4.625218e+00 6.071862e+00 4.921833e+00 4.324692e+00 2.704361e+00 3.377722e+00 2.957250e+00 4.212638e+00 5.537341e-01 7.289212e-01 7.114256e-01 6.622214e-01 6.878448e-01 8.759676e-01 9.718550e-01 8.476798e-01 7.020328e-01 5.256932e-01 6.932166e-01 5.813027e-01 8.210254e-01
<GCONST> 1.290904e+02
<STATE> 4
<MEAN> 39
 -6.157112e+00 -3.844875e-01 -2.008854e+00 -2.653572e+00 -9.596272e+00 -6.447787e+00 -9.779099e+00 -1.431042e+00 1.341977e-01 -2.210185e+00 -1.178095e+00 -1.081138e+00 6.823084e+01 1.427635e+00 -1.481974e+00 5.112908e-01 -1.662771e+00 -1.995190e+00 -1.433762e+00 -1.660154e+00 6.688656e-01 4.118495e-01 1.444936e-01 5.168419e-02 1.137582e-01 2.806772e+00 5.564573e-02 2.770460e-01 4.266430e-01 2.163491e-01 5.012417e-01 3.384908e-01 4.062822e-01 5.318694e-03 -2.557636e-01 2.274697e-02 -9.155741e-02 -1.757461e-01 -6.698136e-01
<VARIANCE> 39
 3.671534e+01 3.147732e+01 3.847547e+01 4.293197e+01 3.884274e+01 7.416794e+01 7.163977e+01 6.714704e+01 4.387940e+01 3.180767e+01 4.539510e+01 3.553636e+01 3.786840e+01 3.763930e+00 3.604072e+00 3.885566e+00 4.688635e+00 4.820688e+00 5.328194e+00 7.510112e+00 6.371195e+00 5.112070e+00 3.315320e+00 4.456039e+00 3.627307e+00 4.999293e+00 6.197731e-01 5.327311e-01 5.910115e-01 6.137065e-01 7.387155e-01 7.006136e-01 1.003496e+00 8.559075e-01 7.373561e-01 5.226161e-01 5.845311e-01 5.402139e-01 7.235713e-01
<GCONST> 1.353281e+02
<TRANSP> 5
 0.000000e+00 1.000000e+00 0.000000e+00 0.000000e+00 0.000000e+00
 0.000000e+00 8.633213e-01 1.366787e-01 0.000000e+00 0.000000e+00
 0.000000e+00 0.000000e+00 5.105662e-01 4.894338e-01 0.000000e+00
 0.000000e+00 0.000000e+00 0.000000e+00 4.907422e-01 5.092578e-01
 0.000000e+00 0.000000e+00 0.000000e+00 0.000000e+00 0.000000e+00
<ENDHMM>
~h "eh"
<BEGINHMM>
<NUMSTATES> 5
<STATE> 2
<MEAN> 39
 -2.978694e+00 -4.961337e+00 -2.695544e-01 -6.553242e+00 -1.215031e+01 -9.688629e+00 -7.511085e+00 2.864546e+00 -9.961568e-01 -2.858665e+00 -3.010821e+00 -2.400735e+00 7.236681e+01 1.485184e+00 -1.832748e+00 -1.017321e-01 -1.361900e+00 -1.241036e+00 -7.410040e-01 1.343385e-01 1.584644e+00 7.025312e-01 -6.959631e-01 -7.598763e-01 -4.857443e-01 1.880618e+00 -7.440968e-01 3.379823e-01 -1.925238e-01 2.644052e-01 7.348633e-01 5.737254e-01 5.958411e-01 -8.060565e-02 -1.423054e-01 -4.605306e-02 1.408409e-01 1.114611e-01 -5.840431e-01
<VARIANCE> 39
 2.144578e+01 2.784179e+01 4.570913e+01 3.865208e+01 3.586334e+01 8.070667e+01 5.898021e+01 6.611147e+01 6.217401e+01 4.253990e+01 5.744381e+01 3.897528e+01 2.347818e+01 5.197154e+00 2.404461e+00 3.199818e+00 3.018240e+00 3.931914e+00 4.386039e+00 5.688132e+00 4.523011e+00 3.918539e+00 3.398978e+00 3.914625e+00 3.161116e+00 2.204960e+00 7.381950e-01 4.175363e-01 4.141906e-01 4.548169e-01 5.330904e-01 6.948088e-01 8.221467e-01 8.824736e-01 8.045425e-01 5.990431e-01 7.724467e-01 5.608339e-01 3.383182e-01
<GCONST> 1.305089e+02
<STATE> 3
<MEAN> 39
 -2.512668e+00 -8.157701e+00 -1.788115e+00 -8.132459e+00 -1.098786e+01 -8.932814e+00 -4.008522e+00 6.995795e+00 -5.883744e-01 -6.007579e+00 -4.401732e+00 -3.011715e+00 7.454988e+01 1.272612e-01 -1.892489e-01 -3.443709e-01 3.738651e-02 3.421233e-01 4.520519e-02 -9.306692e-03 1.503957e-01 1.061815e-01 -2.970493e-01 -2.822442e-01 -3.751587e-03 -4.019091e-02 -7.490821e-03 4.128264e-01 9.184852e-02 3.014212e-01 1.827128e-01 7.804437e-02 -3.178942e-01 -4.532109e-01 -1.703201e-01 2.487888e-01 1.843693e-01 6.193115e-02 -4.131353e-01
<VARIANCE> 39
 1.779672e+01 2.078990e+01 3.384906e+01 3.455569e+01 3.325056e+01 7.891344e+01 5.427080e+01 6.149156e+01 6.230939e+01 4.144183e+01 6.039923e+01 3.482890e+01 1.694477e+01 4.641440e-01 8.420138e-01 1.638950e+00 1.217572e+00 1.675750e+00 1.842984e+00 2.761653e+00 2.155607e+00 2.132987e+00 1.907821e+00 2.016882e+00 1.592141e+00 4.167819e-01 1.665767e-01 2.080807e-01 2.373030e-01 2.595001e-01 3.075701e-01 3.499496e-01 4.477770e-01 4.687087e-01 4.184557e-01 3.617858e-01 4.532868e-01 2.870272e-01 1.573779e-01
<GCONST> 1.076199e+02
<STATE> 4
<MEAN> 39
 -1.575193e+00 -6.167008e+00 -2.599728e+00 -6.413257e+00 -1.019766e+01 -9.516743e+00 -7.533804e+00 3.537973e+00 -2.792320e-02 -4.011991e+00 -4.931053e+00 -2.815083e+00 7.201162e+01 2.857945e-02 1.846147e+00 5.973244e-01 1.342170e+00 8.365837e-01 4.321499e-01 -6.075834e-01 -1.425905e+00 -7.614019e-01 5.121828e-01 4.931567e-01 1.115799e-01 -1.873363e+00 -3.702636e-01 5.979024e-01 1.651858e-01 3.048414e-01 3.419469e-01 3.130151e-01 3.237918e-01 -2.523880e-01 -2.155829e-01 -9.763762e-04 1.371722e-01 6.477613e-02 -5.310122e-01
<VARIANCE> 39
 1.912520e+01 3.190858e+01 4.270482e+01 4.447233e+01 4.219474e+01 9.208968e+01 6.249540e+01 7.832512e+01 7.651130e+01 4.670761e+01 6.046317e+01 5.012032e+01 2.291054e+01 1.678901e+00 2.682922e+00 2.940105e+00 2.903543e+00 3.110566e+00 3.210747e+00 3.802229e+00 3.911335e+00 3.811126e+00 3.193731e+00 3.510988e+00 2.742117e+00 2.361391e+00 3.651762e-01 3.701639e-01 3.805415e-01 4.165596e-01 5.744104e-01 5.878297e-01 6.684692e-01 7.903209e-01 8.411425e-01 5.702865e-01 7.297664e-01 5.875490e-01 3.271488e-01
<GCONST> 1.277383e+02
<TRANSP> 5
 0.000000e+00 1.000000e+00 0.000000e+00 0.000000e+00 0.000000e+00
 0.000000e+00 4.955932e-01 5.044068e-01 0.000000e+00 0.000000e+00
 0.000000e+00 0.000000e+00 7.683356e-01 2.316644e-01 0.000000e+00
 0.000000e+00 0.000000e+00 0.000000e+00 5.407279e-01 4.592721e-01
 0.000000e+00 0.000000e+00 0.000000e+00 0.000000e+00 0.000000e+00
<ENDHMM>
~h "er"
<BEGINHMM>
<NUMSTATES> 5
<STATE> 2
<MEAN> 39
 1.406876e+00 -5.925032e+00 -4.827372e+00 -1.424637e-01 -6.468374e+00 -1.102469e+01 -1.467311e+01 2.174125e-01 -7.693213e-01 -3.328126e+00 3.782928e-01 -7.022626e-01 6.876737e+01 2.239890e+00 -9.934080e-01 -1.165024e+00 -9.038807e-02 5.430508e-01 -1.867594e+00 -2.100269e+00 8.901675e-01 9.929894e-01 -5.783171e-01 -8.027866e-03 3.269641e-01 8.790299e-01 -7.292452e-01 3.054858e-01 2.816523e-01 7.214677e-02 2.469022e-01 5.017788e-01 5.383529e-01 3.955340e-02 -3.656238e-02 4.269849e-02 -9.792597e-02 1.152960e-02 -3.735507e-01
<VARIANCE> 39
 2.332430e+01 2.563493e+01 6.689408e+01 3.475406e+01 4.832686e+01 9.316378e+01 6.122274e+01 5.817124e+01 7.257863e+01 4.809176e+01 4.827984e+01 2.652259e+01 2.046980e+01 4.611516e+00 2.223186e+00 3.579488e+00 2.857224e+00 4.052207e+00 5.536077e+00 5.183986e+00 4.637439e+00 5.591753e+00 3.682495e+00 3.565473e+00 2.674212e+00 1.789277e+00 7.123098e-01 4.242147e-01 6.215011e-01 4.106921e-01 7.083801e-01 7.650458e-01 8.386924e-01 7.949473e-01 7.686838e-01 6.557837e-01 5.834685e-01 4.232215e-01 2.542138e-01
<GCONST> 1.305151e+02
<STATE> 3
<MEAN> 39
 3.549163e+00 -7.250144e+00 -7.504629e+00 3.532071e-01 -2.928781e+00 -1.335382e+01 -1.801719e+01 3.359071e+00 3.143979e+00 -4.106807e+00 -7.788485e-01 1.561838e-02 6.923885e+01 -6.163262e-02 1.630235e-01 1.991566e-01 2.348320e-01 3.468322e-02 -1.469618e-01 6.290998e-02 2.011830e-01 -5.385949e-02 -2.343401e-01 -7.454025e-02 1.890115e-01 -2.594784e-01 -3.445016e-01 2.892204e-01 3.842032e-01 7.342961e-02 -2.262995e-01 3.397948e-01 5.346283e-01 -2.348587e-01 -3.501392e-01 6.517630e-02 4.788468e-02 -4.219245e-02 -2.201535e-01
<VARIANCE> 39
 1.169932e+01 2.210658e+01 5.065771e+01 2.907370e+01 3.346176e+01 1.092624e+02 6.908224e+01 5.973755e+01 9.418855e+01 4.802354e+01 4.475731e+01 2.827112e+01 1.999960e+01 4.963981e-01 1.086640e+00 2.007843e+00 1.192876e+00 2.445434e+00 2.294996e+00 2.540951e+00 3.010206e+00 2.581195e+00 2.141233e+00 1.819328e+00 1.413049e+00 6.484651e-01 2.266093e-01 2.515741e-01 2.538649e-01 2.207568e-01 3.422321e-01 5.165286e-01 5.189396e-01 5.518520e-01 5.204830e-01 4.020211e-01 3.643450e-01 2.793875e-01 1.497467e-01
<GCONST> 1.113717e+02
<STATE> 4
<MEAN> 39
 -6.297463e-02 -3.867701e+00 -1.660778e+00 2.347056e+00 -6.455732e+00 -1.241339e+01 -1.277507e+01 2.088781e+00 -1.179834e+00 -5.057359e+00 -2.327084e-01 1.020081e+00 6.575533e+01 -1.706888e+00 1.745081e+00 1.835177e+00 2.964978e-01 -3.542021e-01 1.706266e+00 2.098898e+00 -9.995852e-01 -8.693908e-01 2.787506e-01 -1.830976e-01 -2.707751e-01 -1.219841e+00 -5.203964e-01 3.172389e-01 2.379425e-02 -2.458862e-01 3.291423e-01 5.112532e-01 1.981576e-01 -1.515796e-01 4.426978e-02 2.265947e-01 -5.709493e-02 -1.923991e-01 -1.538787e-01
<VARIANCE> 39
 2.606200e+01 3.607649e+01 6.220392e+01 5.158989e+01 6.038598e+01 9.284142e+01 6.649785e+01 6.387786e+01 8.155022e+01 4.052044e+01 4.131110e+01 3.269784e+01 3.666915e+01 3.215842e+00 3.687843e+00 3.191833e+00 3.150776e+00 4.764430e+00 5.422030e+00 5.160436e+00 4.845643e+00 5.413980e+00 3.510378e+00 3.474443e+00 2.534977e+00 2.708395e+00 5.150008e-01 6.428799e-01 5.735129e-01 5.829728e-01 8.341348e-01 9.087099e-01 7.768193e-01 9.466239e-01 7.441504e-01 6.114590e-01 5.891233e-01 4.729905e-01 3.779517e-01
<GCONST> 1.340414e+02
<TRANSP> 5
 0.000000e+00 1.000000e+00 0.000000e+00 0.000000e+00 0.000000e+00
 0.000000e+00 5.740581e-01 4.259419e-01 0.000000e+00 0.000000e+00
 0.000000e+00 0.000000e+00 7.802601e-01 2.197399e-01 0.000000e+00
 0.000000e+00 0.000000e+00 0.000000e+00 6.043469e-01 3.956531e-01
 0.000000e+00 0.000000e+00 0.000000e+00 0.000000e+00 0.000000e+00
<ENDHMM>
~h "ey"
<BEGINHMM>
<NUMSTATES> 5
<STATE> 2
<MEAN> 39
 -4.063469e+00 -5.184614e+00 5.003666e+00 -7.090809e+00 -1.665824e+01 -9.525682e+00 -5.630107e+00 2.769945e+00 -4.061605e+00 -2.075284e+00 1.423125e+00 -1.947856e+00 7.342746e+01 3.952243e-02 -3.428433e-01 1.218725e+00 -8.984656e-01 -1.610477e+00 1.112621e-01 6.365912e-01 -1.803189e-01 -8.585007e-01 7.113901e-01 9.831743e-01 -5.624954e-01 7.303817e-01 -3.342289e-01 4.095684e-01 -8.266111e-02 2.411438e-01 6.020609e-01 4.135017e-01 1.231501e-02 -5.232853e-01 -7.492080e-02 2.187777e-01 -1.022935e-01 -1.138257e-01 -5.615906e-01
<VARIANCE> 39
 1.526128e+01 2.603107e+01 3.776158e+01 4.652494e+01 2.785617e+01 6.569479e+01 6.101839e+01 7.094978e+01 4.980831e+01 3.561789e+01 6.426412e+01 2.824067e+01 1.976576e+01 1.839461e+00 1.670562e+00 2.517060e+00 2.139000e+00 2.695466e+00 2.557292e+00 3.692817e+00 3.738959e+00 3.238237e+00 2.381759e+00 2.890477e+00 2.243651e+00 1.471627e+00 4.565786e-01 2.998634e-01 2.997355e-01 3.411979e-01 4.206163e-01 4.641700e-01 8.012373e-01 6.721224e-01 5.435289e-01 4.646401e-01 5.494745e-01 3.946821e-01 2.359429e-01
<GCONST> 1.197778e+02
<STATE> 3
<MEAN> 39
 -5.205889e+00 -2.720437e+00 1.049197e+01 -9.448283e+00 -1.893034e+01 -6.003852e+00 -5.503131e+00 -2.774179e+00 -8.508368e+00 1.806979e+00 2.108656e+00 -4.287802e+00 7.238030e+01 -5.094197e-03 3.571875e-01 5.954183e-01 1.914617e-01 -4.269750e-02 2.436899e-01 -2.337623e-01 -6.971762e-01 -6.150166e-01 1.590582e-01 -1.695662e-01 -6.393299e-02 -3.851905e-01 6.097692e-02 8.823125e-02 -1.805370e-01 2.944840e-01 2.749823e-01 -1.014219e-01 -3.512692e-02 1.167439e-01 8.481692e-02 -2.244853e-01 -1.259746e-01 1.253408e-01 -1.967518e-01
<VARIANCE> 39
 1.488640e+01 2.537481e+01 4.260402e+01 5.582557e+01 2.347590e+01 7.359018e+01 5.370879e+01 6.838452e+01 3.757582e+01 3.146793e+01 7.689071e+01 3.306579e+01 1.981061e+01 2.840384e-01 6.098943e-01 1.151240e+00 1.011447e+00 9.414355e-01 1.242727e+00 1.312874e+00 1.838925e+00 1.627519e+00 1.622227e+00 1.353588e+00 1.084616e+00 3.582962e-01 7.396863e-02 1.216639e-01 1.879962e-01 1.878530e-01 2.473771e-01 2.394493e-01 2.979217e-01 3.013127e-01 3.073803e-01 2.597860e-01 2.868240e-01 2.129938e-01 9.816549e-02
<GCONST> 9.778226e+01
<STATE> 4
<MEAN> 39
 -4.451431e+00 -3.473730e-01 1.116305e+01 -3.910802e+00 -1.687346e+01 -7.967125e+00 -6.667572e+00 -4.238422e+00 -1.071268e+01 -2.127998e-01 1.132881e+00 -2.702743e+00 6.798953e+01 -1.205055e-01 1.498580e+00 -1.056781e+00 2.042011e+00 2.354116e+00 -6.093455e-03 3.557682e-01 1.959246e-01 8.391473e-01 -9.338901e-01 -5.794914e-01 4.128391e-01 -2.120516e+00 -4.181111e-01 1.804755e-01 -5.395263e-01 1.314555e-02 6.690961e-01 3.397189e-01 1.734515e-01 1.629668e-01 5.521669e-01 -1.185425e-02 -1.227236e-02 2.621817e-02 -2.310848e-01
<VARIANCE> 39
 1.753733e+01 3.746280e+01 5.590438e+01 6.650272e+01 3.602426e+01 6.985044e+01 4.810957e+01 7.422623e+01 5.067853e+01 4.038210e+01 6.714178e+01 3.592747e+01 3.051494e+01 2.314548e+00 2.660363e+00 3.198500e+00 2.809567e+00 3.765649e+00 3.514589e+00 4.494647e+00 4.132378e+00 4.111095e+00 3.103480e+00 3.484417e+00 2.652866e+00 2.866883e+00 3.995933e-01 5.038139e-01 4.492764e-01 5.743067e-01 5.776218e-01 5.759930e-01 6.158090e-01 8.407336e-01 6.690594e-01 5.857763e-01 5.400855e-01 4.407290e-01 4.226839e-01
<GCONST> 1.286191e+02
<TRANSP> 5
 0.000000e+00 1.000000e+00 0.000000e+00 0.000000e+00 0.000000e+00
 0.000000e+00 6.779293e-01 3.220707e-01 0.000000e+00 0.000000e+00
 0.000000e+00 0.000000e+00 8.386138e-01 1.613862e-01 0.000000e+00
 0.000000e+00 0.000000e+00 0.000000e+00 6.410101e-01 3.589898e-01
 0.000000e+00 0.000000e+00 0.000000e+00 0.000000e+00 0.000000e+00
<ENDHMM>
~h "hh"
<BEGINHMM>
<NUMSTATES> 5
<STATE> 2
<MEAN> 39
 -1.126305e+01 -1.690037e+00 -4.916327e-02 -5.410660e-01 -1.965099e+00 1.302814e+00 -4.960671e-03 2.605911e+00 -1.794547e+00 -2.524238e+00 -1.214613e+00 -7.153535e-01 6.164056e+01 -4.405627e-01 -9.979833e-01 -2.039803e-01 9.132244e-03 2.890968e-01 5.582534e-01 4.380829e-01 1.499677e-01 1.520757e-01 -1.200883e-01 -1.132083e-01 -5.061589e-02 2.176898e-01 2.908790e-01 1.470690e-01 -5.899914e-02 -1.583293e-01 -1.929916e-01 -2.613201e-01 -2.931293e-01 -2.709891e-01 -8.883671e-02 -2.381193e-02 -2.967373e-02 -6.618707e-02 1.231929e-01
<VARIANCE> 39
 5.349622e+01 5.074722e+01 4.533885e+01 3.919594e+01 5.428519e+01 6.976128e+01 5.474402e+01 5.366024e+01 4.400532e+01 3.279354e+01 3.230420e+01 2.816369e+01 4.928185e+01 2.845090e+00 2.838219e+00 2.735916e+00 2.918852e+00 3.926419e+00 4.046472e+00 3.721830e+00 3.753394e+00 3.204483e+00 2.801897e+00 2.551167e+00 2.188854e+00 1.967073e+00 4.245207e-01 5.668050e-01 4.603884e-01 5.593265e-01 7.132023e-01 6.693197e-01 7.107593e-01 7.045057e-01 6.759095e-01 5.618325e-01 5.005749e-01 4.441017e-01 3.216105e-01
<GCONST> 1.276178e+02
<STATE> 3
<MEAN> 39
 -1.416448e+01 -5.111966e+00 -5.415418e-01 -1.238074e+00 -1.477796e+00 5.201278e-01 1.871973e-01 2.944716e+00 -4.187189e-01 -2.390574e+00 3.152257e-01 -2.241603e-01 5.932244e+01 2.299719e-01 1.351862e-01 -3.571621e-02 -3.267229e-04 -4.430632e-02 7.653768e-02 -4.759699e-02 -2.340120e-01 -3.086135e-02 -3.298155e-02 -1.143483e-01 -1.083999e-01 -6.344970e-02 1.577542e-01 1.243091e-01 -1.653119e-02 -3.963638e-02 -7.847352e-02 -7.177883e-02 -9.347007e-02 -6.786413e-02 -2.830656e-02 -1.941904e-02 -1.349660e-02 -2.800122e-02 3.672160e-02
<VARIANCE> 39
 3.200233e+01 4.258440e+01 2.528387e+01 2.412059e+01 3.160028e+01 4.260524e+01 3.454544e+01 3.044966e+01 2.905136e+01 2.404677e+01 2.448734e+01 2.039029e+01 5.215845e+01 9.277877e-01 1.255742e+00 1.033729e+00 1.228382e+00 1.521053e+00 1.782554e+00 1.847387e+00 1.960266e+00 1.856413e+00 1.820681e+00 1.700908e+00 1.494154e+00 8.113272e-01 1.707377e-01 2.398671e-01 1.998560e-01 2.579796e-01 3.275819e-01 3.597690e-01 4.015739e-01 3.673527e-01 3.870759e-01 3.556099e-01 3.336838e-01 3.068115e-01 1.076643e-01
<GCONST> 1.041019e+02
<STATE> 4
<MEAN> 39
 -7.937864e+00 -1.350318e+00 -7.928694e-01 -2.284693e+00 -3.164625e+00 1.089882e+00 -1.507045e+00 -1.196689e+00 -2.912171e+00 -3.455121e+00 -2.962275e+00 -2.517459e+00 6.338358e+01 1.631608e+00 1.982624e-01 -3.162759e-01 -8.769277e-01 -1.164145e+00 -8.080617e-01 -9.640784e-01 -6.854184e-01 -3.429401e-01 -3.657610e-01 -3.426703e-01 -4.014935e-01 1.173258e+00 1.580944e-01 -1.832243e-01 -1.019659e-01 -2.579336e-01 -2.369008e-01 -1.544421e-01 -1.837650e-01 4.811733e-02 -1.651687e-02 3.383043e-02 5.940004e-02 2.147214e-02 2.832041e-01
<VARIANCE> 39
 4.954007e+01 4.416479e+01 5.766943e+01 4.997057e+01 6.639668e+01 7.741576e+01 6.052518e+01 5.402933e+01 4.566582e+01 4.658825e+01 4.120078e+01 3.109375e+01 5.935949e+01 3.878489e+00 3.527852e+00 3.408566e+00 3.349374e+00 4.055065e+00 4.033213e+00 4.438766e+00 4.224761e+00 4.114303e+00 3.237997e+00 3.085748e+00 2.685140e+00 2.732252e+00 5.286883e-01 6.315268e-01 5.194377e-01 5.928318e-01 7.485232e-01 6.602022e-01 7.093003e-01 7.045594e-01 6.698439e-01 5.868846e-01 5.295985e-01 4.709485e-01 4.195902e-01
<GCONST> 1.324953e+02
<TRANSP> 5
 0.000000e+00 1.000000e+00 0.000000e+00 0.000000e+00 0.000000e+00
 0.000000e+00 5.990278e-01 4.009722e-01 0.000000e+00 0.000000e+00
 0.000000e+00 0.000000e+00 8.358948e-01 1.641052e-01 0.000000e+00
 0.000000e+00 0.000000e+00 0.000000e+00 6.434421e-01 3.565579e-01
 0.000000e+00 0.000000e+00 0.000000e+00 0.000000e+00 0.000000e+00
<ENDHMM>
~h "ih"
<BEGINHMM>
<NUMSTATES> 5
<STATE> 2
<MEAN> 39
 -5.198565e+00 -1.004241e+00 3.194566e+00 -3.504078e+00 -1.066011e+01 -8.343682e+00 -9.354535e+00 -8.227450e-01 -4.213453e+00 -3.650478e+00 -8.934425e-01 -7.457814e-01 6.871902e+01 1.333782e+00 -9.670752e-01 1.162306e+00 -7.938730e-01 -2.161994e+00 -7.829640e-01 -8.382001e-01 2.969407e-01 -5.542637e-01 -1.476033e-01 3.294125e-01 -6.714785e-02 1.500142e+00 -2.403741e-01 2.523217e-01 -1.007922e-01 1.079391e-01 3.810988e-01 5.012687e-01 4.026031e-01 -1.266086e-01 -8.143515e-02 2.014989e-01 8.992459e-02 -1.326536e-01 -4.380278e-01
<VARIANCE> 39
 4.481010e+01 4.356567e+01 5.544595e+01 5.186469e+01 5.262899e+01 8.267858e+01 7.120457e+01 6.414285e+01 5.606315e+01 3.769976e+01 4.850235e+01 3.275954e+01 3.637131e+01 6.720861e+00 3.751872e+00 4.388505e+00 4.666008e+00 5.857876e+00 5.736942e+00 8.023417e+00 5.827795e+00 5.556929e+00 3.816459e+00 4.680494e+00 3.742301e+00 4.002439e+00 8.621134e-01 7.080747e-01 5.437378e-01 6.379547e-01 8.732736e-01 9.211122e-01 1.018326e+00 1.001991e+00 9.351728e-01 6.361120e-01 6.889266e-01 5.450503e-01 6.575720e-01
<GCONST> 1.398865e+02
<STATE> 3
<MEAN> 39
 -3.925469e+00 -3.916966e+00 6.861758e+00 -5.859895e+00 -1.569998e+01 -8.452705e+00 -1.034245e+01 1.475074e+00 -6.264485e+00 -3.438556e+00 1.856616e+00 -1.518117e+00 7.250082e+01 2.368487e-01 1.499735e-02 4.369101e-01 -1.811699e-01 -3.983292e-01 2.824039e-01 2.432296e-01 -6.423724e-02 -3.921490e-01 3.306467e-01 1.449814e-01 -3.804649e-01 9.342924e-03 -3.011446e-01 6.380757e-01 -3.658064e-01 4.419444e-01 9.073952e-01 3.711218e-01 3.703249e-01 -4.089803e-01 8.278592e-02 1.048336e-01 -2.755065e-01 -3.432107e-02 -8.067505e-01
<VARIANCE> 39
 1.593192e+01 2.668989e+01 4.903491e+01 4.822807e+01 3.557160e+01 7.815717e+01 7.169464e+01 6.825912e+01 5.845967e+01 3.810320e+01 6.852171e+01 3.586181e+01 2.005337e+01 1.308517e+00 1.896526e+00 3.028219e+00 2.654941e+00 2.865125e+00 2.879586e+00 3.702078e+00 3.375915e+00 4.157563e+00 2.771098e+00 2.720637e+00 2.351656e+00 1.802793e+00 5.277891e-01 3.841679e-01 4.330486e-01 4.550100e-01 5.903694e-01 6.852142e-01 9.407334e-01 8.466712e-01 7.726828e-01 5.610399e-01 6.768997e-01 5.119036e-01 3.291508e-01
<GCONST> 1.255972e+02
<STATE> 4
<MEAN> 39
 -3.472783e+00 -1.375366e+00 7.026360e+00 -4.375667e+00 -1.372683e+01 -7.150936e+00 -8.916210e+00 -1.146043e+00 -7.099579e+00 -2.579737e+00 -1.885060e-01 -2.654096e+00 6.927634e+01 -1.261620e-01 1.228009e+00 -3.097066e-01 7.684127e-01 1.190025e+00 6.026098e-01 5.740822e-01 -6.826021e-01 3.477234e-02 2.392583e-01 -4.009544e-01 -1.622965e-01 -1.338036e+00 -2.908211e-01 2.584806e-01 -2.432439e-01 1.962303e-01 5.208073e-01 2.139865e-01 1.597535e-01 -1.096346e-01 1.219847e-01 -1.577716e-02 3.281813e-03 9.186437e-02 -3.533600e-01
<VARIANCE> 39
 2.170774e+01 3.780058e+01 7.765952e+01 6.254601e+01 4.918557e+01 8.814734e+01 7.345068e+01 7.712672e+01 7.501566e+01 4.734858e+01 6.882040e+01 4.285781e+01 2.832779e+01 1.895455e+00 3.223525e+00 2.937473e+00 3.425399e+00 3.793882e+00 3.807817e+00 4.471862e+00 4.471940e+00 4.367210e+00 3.174950e+00 3.139878e+00 2.640354e+00 3.472859e+00 4.516630e-01 4.533460e-01 5.249364e-01 5.073388e-01 7.073921e-01 6.801645e-01 7.944726e-01 8.233654e-01 9.011854e-01 5.996539e-01 6.738260e-01 4.943210e-01 3.742946e-01
<GCONST> 1.324123e+02
<TRANSP> 5
 0.000000e+00 1.000000e+00 0.000000e+00 0.000000e+00 0.000000e+00
 0.000000e+00 4.473100e-01 5.526900e-01 0.000000e+00 0.000000e+00
 0.000000e+00 0.000000e+00 5.404953e-01 4.595046e-01 0.000000e+00
 0.000000e+00 0.000000e+00 0.000000e+00 5.175973e-01 4.824027e-01
 0.000000e+00 0.000000e+00 0.000000e+00 0.000000e+00 0.000000e+00
<ENDHMM>
~h "iy"
<BEGINHMM>
<NUMSTATES> 5
<STATE> 2
<MEAN> 39
 -5.751216e+00 -2.697893e-01 1.151963e+01 -3.376100e+00 -1.694843e+01 -8.386735e+00 -8.039291e+00 -4.803044e+00 -1.137592e+01 -3.260024e+00 9.108918e-01 -2.270261e+00 6.908504e+01 2.610296e-01 2.505269e-01 2.601271e+00 -1.232011e+00 -2.397319e+00 9.385318e-01 -1.222520e-01 -1.643489e+00 -1.578361e+00 6.813685e-01 -2.360639e-02 -7.666131e-01 7.239488e-01 -1.935528e-01 2.990837e-01 -5.600902e-01 3.375887e-02 8.971524e-01 4.588111e-01 2.857523e-02 -6.765509e-02 5.085633e-01 1.782186e-01 -2.803580e-01 -5.692870e-02 -4.883260e-01
<VARIANCE> 39
 2.453573e+01 3.491922e+01 4.735720e+01 6.673308e+01 3.339514e+01 9.016552e+01 5.759731e+01 7.584812e+01 5.118548e+01 4.471430e+01 6.496058e+01 3.366832e+01 2.261883e+01 4.225415e+00 2.220369e+00 3.229923e+00 3.875660e+00 4.327084e+00 4.611494e+00 6.156639e+00 4.693314e+00 5.002150e+00 4.118478e+00 3.900424e+00 3.164209e+00 2.187999e+00 5.487188e-01 4.553972e-01 4.695223e-01 5.893179e-01 6.397238e-01 7.664468e-01 9.437417e-01 1.105736e+00 7.779424e-01 5.752605e-01 5.897816e-01 5.024793e-01 3.262858e-01
<GCONST> 1.323884e+02
<STATE> 3
<MEAN> 39
 -6.607846e+00 2.674972e+00 1.642633e+01 -7.507066e+00 -1.779322e+01 -2.453447e+00 -9.382743e+00 -9.247785e+00 -1.179599e+01 -6.019377e-01 -1.572293e+00 -4.640391e+00 6.853146e+01 4.233567e-02 2.619747e-01 -3.341492e-02 2.217949e-01 1.303490e-01 5.718636e-02 2.285860e-01 -2.152069e-01 4.458736e-02 2.300982e-01 -2.230156e-01 -2.556700e-02 -3.483089e-01 3.493281e-02 -9.385630e-03 -5.212184e-01 3.973721e-01 4.037764e-01 -3.260546e-01 1.698070e-01 3.530152e-01 2.057114e-01 -1.600623e-01 1.010032e-01 1.812959e-01 -1.910178e-01
<VARIANCE> 39
 1.752925e+01 2.600667e+01 4.531992e+01 7.093253e+01 2.972268e+01 8.291776e+01 4.798859e+01 6.498975e+01 3.964320e+01 5.011103e+01 8.191715e+01 3.984943e+01 2.052903e+01 4.978967e-01 1.177678e+00 1.636167e+00 1.777604e+00 1.463921e+00 2.310852e+00 1.941553e+00 2.341000e+00 1.797061e+00 1.689024e+00 1.796520e+00 1.347898e+00 7.375009e-01 1.544210e-01 2.014342e-01 3.289126e-01 3.273272e-01 4.682562e-01 3.568905e-01 4.106791e-01 4.300190e-01 4.524271e-01 3.887482e-01 3.762971e-01 3.046216e-01 1.631835e-01
<GCONST> 1.104545e+02
<STATE> 4
<MEAN> 39
 -5.574779e+00 3.302784e+00 1.032511e+01 -6.372620e-01 -1.379347e+01 -7.436591e+00 -5.640190e+00 -6.655485e+00 -1.014579e+01 -1.461970e+00 -8.312696e-01 -2.368823e+00 6.437366e+01 -2.601275e-01 7.161672e-01 -2.241506e+00 1.233253e+00 2.510540e+00 -2.392656e-01 6.129434e-01 1.180950e+00 1.404439e+00 -5.011097e-01 3.869757e-02 4.885347e-01 -1.352543e+00 -3.142840e-01 -1.326436e-02 -2.904508e-01 -2.127743e-01 4.271838e-01 4.152616e-01 -5.387674e-02 1.397693e-01 2.826877e-01 -3.732342e-02 -3.612517e-02 -1.106657e-02 -4.411028e-02
<VARIANCE> 39
 2.709961e+01 4.026797e+01 5.558636e+01 6.838494e+01 5.565275e+01 7.301440e+01 4.963633e+01 6.360195e+01 4.845235e+01 4.404300e+01 5.350779e+01 3.328845e+01 4.090526e+01 2.920664e+00 3.425737e+00 3.133210e+00 4.025875e+00 4.454281e+00 4.562913e+00 4.751605e+00 4.947651e+00 4.274110e+00 4.095442e+00 3.732291e+00 2.982058e+00 3.054674e+00 3.578206e-01 5.410254e-01 5.492817e-01 5.446116e-01 8.156673e-01 6.725766e-01 6.324109e-01 8.566461e-01 6.802177e-01 6.076201e-01 5.576764e-01 4.402365e-01 3.546671e-01
<GCONST> 1.321538e+02
<TRANSP> 5
 0.000000e+00 1.000000e+00 0.000000e+00 0.000000e+00 0.000000e+00
 0.000000e+00 6.084955e-01 3.915045e-01 0.000000e+00 0.000000e+00
 0.000000e+00 0.000000e+00 8.057043e-01 1.942957e-01 0.000000e+00
 0.000000e+00 0.000000e+00 0.000000e+00 6.431367e-01 3.568633e-01
 0.000000e+00 0.000000e+00 0.000000e+00 0.000000e+00 0.000000e+00
<ENDHMM>
~h "jh"
<BEGINHMM>
<NUMSTATES> 5
<STATE> 2
<MEAN> 39
 -7.808155e+00 6.192111e+00 6.872225e+00 2.718725e+00 -3.092476e+00 -2.155441e+00 -4.817267e+00 -1.554837e+00 -3.195712e+00 -4.744206e+00 -3.046601e+00 -2.933052e+00 5.736166e+01 -3.236704e+00 -4.563873e-01 -1.259158e-01 -3.653721e-01 1.097131e+00 2.151881e+00 7.144157e-01 4.060166e-03 6.406635e-01 3.312081e-01 4.644280e-01 -1.297185e-01 2.315120e-01 -7.590494e-01 -7.245815e-01 -7.756665e-02 -5.883539e-01 -6.289918e-01 -6.221609e-02 -2.554927e-01 1.848403e-01 -6.916538e-03 1.303282e-01 4.438255e-01 2.528597e-01 1.214207e+00
<VARIANCE> 39
 4.334803e+01 4.114632e+01 2.904730e+01 3.039164e+01 3.985286e+01 4.286770e+01 3.137738e+01 3.612008e+01 2.829140e+01 2.306011e+01 2.363577e+01 1.863038e+01 3.331498e+01 6.303684e+00 7.226002e+00 3.653820e+00 4.106778e+00 4.758279e+00 4.088710e+00 3.920276e+00 3.476765e+00 3.714962e+00 2.688537e+00 3.352794e+00 2.644051e+00 7.500502e+00 8.644186e-01 1.075579e+00 5.959731e-01 5.999227e-01 7.751558e-01 1.016399e+00 6.963752e-01 6.112230e-01 5.762022e-01 5.420498e-01 5.059548e-01 4.568533e-01 7.222888e-01
<GCONST> 1.299556e+02
<STATE> 3
<MEAN> 39
 -2.518957e+01 1.275181e+00 7.317178e+00 -1.889043e+00 -5.448631e+00 3.530643e+00 -3.029848e+00 -2.843210e-01 -7.178611e-01 -3.481902e+00 1.638012e+00 -1.013483e+00 6.627092e+01 -8.665029e-01 -1.806384e-01 6.497460e-01 -8.758525e-02 -1.706739e+00 -1.145387e+00 -1.771103e-01 -8.237164e-02 -1.851718e-01 -2.288907e-01 5.472652e-01 4.557158e-01 1.444301e+00 1.951199e+00 1.531542e-01 -5.903877e-04 2.639409e-01 -3.394238e-01 -9.887509e-01 -4.259395e-01 -1.540509e-01 -3.580455e-01 -1.413847e-01 -2.079481e-01 -3.590638e-02 -3.986472e-01
<VARIANCE> 39
 3.821367e+01 3.721650e+01 3.583034e+01 2.572215e+01 3.312586e+01 3.318126e+01 3.203542e+01 3.705064e+01 2.749850e+01 1.974271e+01 1.933451e+01 1.548185e+01 2.208261e+01 1.483045e+01 2.552612e+00 2.649445e+00 2.802703e+00 3.074751e+00 5.276016e+00 3.353169e+00 2.789307e+00 2.935693e+00 2.059064e+00 2.068813e+00 1.596217e+00 3.083000e+00 1.329449e+00 7.050437e-01 6.312764e-01 5.920657e-01 6.675825e-01 7.612417e-01 7.741985e-01 5.425388e-01 5.572613e-01 4.584599e-01 4.293394e-01 3.750585e-01 3.950782e-01
<GCONST> 1.230059e+02
<STATE> 4
<MEAN> 39
 -1.072018e+01 2.454730e-01 9.678037e+00 -1.276570e+00 -1.453035e+01 -7.727365e+00 -8.840414e+00 -2.424419e+00 -5.204396e+00 -5.297479e+00 2.811305e+00 -3.436263e-01 6.980416e+01 4.187421e+00 -1.309620e+00 -6.456268e-01 -6.669970e-01 -1.001150e+00 -2.176156e+00 -1.478053e+00 4.916959e-01 -3.822176e-01 5.955093e-02 1.008679e-01 1.330061e-01 6.782126e-01 -3.520712e-01 -1.199812e-01 -4.381698e-01 -2.408938e-01 8.332812e-01 7.188383e-01 2.910415e-01 3.498056e-01 4.037050e-01 2.459396e-01 -3.044026e-01 -1.843524e-01 -2.475059e-01
<VARIANCE> 39
 6.668308e+01 3.318937e+01 3.440037e+01 4.005517e+01 3.349122e+01 4.641874e+01 3.900609e+01 5.237628e+01 4.081339e+01 2.106978e+01 3.200832e+01 2.079276e+01 2.207302e+01 6.758392e+00 2.487759e+00 3.762841e+00 3.063687e+00 4.401316e+00 4.842622e+00 4.821435e+00 4.331443e+00 4.482461e+00 2.993499e+00 3.241286e+00 2.469767e+00 2.116435e+00 1.613859e+00 5.321954e-01 4.136600e-01 4.224666e-01 4.657357e-01 6.845897e-01 7.109061e-01 6.723648e-01 5.559623e-01 4.316140e-01 4.739043e-01 3.945830e-01 2.502863e-01
<GCONST> 1.264556e+02
<TRANSP> 5
 0.000000e+00 1.000000e+00 0.000000e+00 0.000000e+00 0.000000e+00
 0.000000e+00 7.112510e-01 2.887490e-01 0.000000e+00 0.000000e+00
 0.000000e+00 0.000000e+00 7.413110e-01 2.586890e-01 0.000000e+00
 0.000000e+00 0.000000e+00 0.000000e+00 6.362475e-01 3.637525e-01
 0.000000e+00 0.000000e+00 0.000000e+00 0.000000e+00 0.000000e+00
<ENDHMM>
~h "ng"
<BEGINHMM>
<NUMSTATES> 5
<STATE> 2
<MEAN> 39
 -2.638294e+00 3.629432e-01 8.385605e+00 -8.489321e+00 -1.363866e+01 1.209824e+00 -2.752460e+00 -4.136082e+00 -1.314834e+01 1.258387e+00 -6.624272e-01 -7.236820e+00 6.837988e+01 7.510082e-01 1.192621e+00 -6.467980e-01 8.833426e-01 1.061639e+00 4.858661e-02 6.521109e-01 -1.819270e+00 -7.769670e-01 8.698087e-01 -8.495229e-01 4.186412e-01 -1.392743e+00 5.440729e-02 1.006016e-02 -3.666287e-01 4.372815e-01 2.739698e-01 -3.840981e-01 -1.651185e-01 8.143596e-02 4.398699e-01 -4.031209e-01 -5.362603e-02 3.681029e-01 -1.040143e-01
<VARIANCE> 39
 1.873735e+01 2.608235e+01 6.156110e+01 6.272233e+01 4.402628e+01 7.120217e+01 5.277929e+01 7.475189e+01 4.848945e+01 3.669504e+01 7.551384e+01 3.459113e+01 1.794275e+01 7.947456e-01 1.350419e+00 2.903020e+00 2.688751e+00 3.749956e+00 4.287241e+00 3.501117e+00 3.879262e+00 3.858286e+00 2.905850e+00 2.548746e+00 2.164639e+00 9.277980e-01 1.589329e-01 1.705845e-01 3.746157e-01 4.923454e-01 6.317192e-01 6.260695e-01 5.571514e-01 5.803089e-01 7.031308e-01 5.172670e-01 5.409430e-01 3.890089e-01 1.344116e-01
<GCONST> 1.203271e+02
<STATE> 3
<MEAN> 39
 1.242863e+00 3.830853e+00 2.295971e+00 -2.880879e+00 -1.074286e+01 -1.009729e+00 -1.404822e+00 -1.182355e+01 -1.156065e+01 8.266768e-01 -4.325540e+00 -2.106844e+00 6.314150e+01 6.515366e-02 7.180011e-01 -3.275757e-01 8.342936e-01 6.190657e-01 -2.178314e-01 -1.524260e-01 -2.840618e-01 4.827519e-01 -5.399094e-01 -1.531329e-01 4.071883e-01 -7.499963e-01 -3.773755e-01 -1.656463e-01 1.731438e-01 -1.884800e-01 7.510552e-02 -2.903151e-02 -1.455029e-01 6.479772e-01 2.246656e-01 -1.961922e-01 1.500169e-01 -1.704201e-01 1.748215e-01
<VARIANCE> 39
 1.458585e+01 2.044390e+01 3.178604e+01 4.889098e+01 3.119541e+01 3.661705e+01 4.150703e+01 5.827154e+01 4.056340e+01 3.396948e+01 5.193262e+01 2.869765e+01 1.379480e+01 7.573540e-01 1.348236e+00 1.844769e+00 2.271089e+00 2.531136e+00 2.552369e+00 2.910568e+00 3.278002e+00 2.599179e+00 2.294910e+00 2.195378e+00 1.973774e+00 8.998519e-01 1.731671e-01 2.196057e-01 3.573514e-01 3.816772e-01 5.906985e-01 5.207511e-01 6.227669e-01 6.695853e-01 6.110793e-01 4.778490e-01 4.004675e-01 3.368521e-01 1.204750e-01
<GCONST> 1.127703e+02
<STATE> 4
<MEAN> 39
 -4.281315e+00 4.641809e+00 2.534118e+00 -2.945628e-01 -5.583957e+00 -1.691537e+00 -1.587885e+00 -5.079094e+00 -8.036561e+00 -2.223533e+00 -2.681285e+00 -2.741503e+00 5.994094e+01 -1.338395e+00 -1.190715e-01 -2.963604e-01 4.394607e-01 1.306881e+00 -5.531248e-02 -2.239021e-01 1.558671e+00 1.252992e+00 -5.496039e-01 1.587657e-01 -8.402741e-02 -3.680167e-01 -2.839341e-01 -4.614285e-01 -1.449497e-01 -2.018548e-01 -8.344101e-02 9.821954e-02 -3.592983e-02 2.857388e-01 2.248939e-01 1.595947e-01 1.802528e-01 -4.592604e-02 3.067895e-01
<VARIANCE> 39
 4.421921e+01 3.838345e+01 3.090997e+01 4.421849e+01 5.108849e+01 4.105931e+01 4.017628e+01 7.439986e+01 4.649871e+01 3.184946e+01 3.929520e+01 2.714791e+01 3.786124e+01 2.520197e+00 2.696545e+00 2.469109e+00 3.728884e+00 5.143898e+00 3.255387e+00 4.069833e+00 5.513359e+00 4.210727e+00 3.147783e+00 2.812441e+00 2.695846e+00 2.369858e+00 4.931579e-01 5.318733e-01 4.044323e-01 5.227990e-01 7.508173e-01 5.458800e-01 7.002199e-01 9.767632e-01 6.650450e-01 5.738611e-01 5.022451e-01 4.637437e-01 3.122370e-01
<GCONST> 1.276821e+02
<TRANSP> 5
 0.000000e+00 1.000000e+00 0.000000e+00 0.000000e+00 0.000000e+00
 0.000000e+00 6.744123e-01 3.255877e-01 0.000000e+00 0.000000e+00
 0.000000e+00 0.000000e+00 7.384302e-01 2.615697e-01 0.000000e+00
 0.000000e+00 0.000000e+00 0.000000e+00 6.245785e-01 3.754215e-01
 0.000000e+00 0.000000e+00 0.000000e+00 0.000000e+00 0.000000e+00
<ENDHMM>
~h "ow"
<BEGINHMM>
<NUMSTATES> 5
<STATE> 2
<MEAN> 39
 4.508650e-01 -4.963402e+00 -6.469348e+00 -1.009740e+01 -8.340794e+00 9.848750e-02 -1.201472e+01 -2.318340e+00 3.880208e-01 2.157177e+00 -6.761627e-02 -6.288152e+00 7.226481e+01 7.822775e-01 -5.099151e-01 -6.096529e-01 -1.367639e+00 -4.499012e-01 1.191009e+00 -7.108425e-03 -3.914829e-01 -2.003990e-01 5.904397e-01 6.856555e-01 -5.490496e-01 6.756257e-01 -4.268945e-01 4.244314e-01 1.763279e-01 3.104794e-01 2.846141e-01 6.478286e-02 3.318892e-01 -3.511972e-02 -4.033732e-01 -3.136477e-01 8.450898e-02 4.164146e-01 -5.353584e-01
<VARIANCE> 39
 1.512354e+01 2.421032e+01 3.022669e+01 4.067594e+01 3.122765e+01 9.432484e+01 6.346014e+01 5.777305e+01 5.057354e+01 5.426184e+01 8.215948e+01 4.033392e+01 1.971789e+01 1.770465e+00 1.871983e+00 2.191683e+00 2.364520e+00 3.101484e+00 3.542943e+00 3.652619e+00 3.704143e+00 4.225223e+00 3.242401e+00 3.891033e+00 3.396903e+00 1.700729e+00 4.493475e-01 3.020271e-01 3.015232e-01 3.983241e-01 5.129361e-01 5.812898e-01 7.290367e-01 8.261753e-01 7.213292e-01 6.340361e-01 7.606753e-01 5.572788e-01 2.076575e-01
<GCONST> 1.244233e+02
<STATE> 3
<MEAN> 39
 2.107417e+00 -1.631268e+00 -7.291876e+00 -1.429421e+01 -9.508062e+00 3.737259e+00 -9.761275e+00 -3.166380e+00 -3.329344e+00 -1.360077e+00 2.342248e+00 -2.616874e+00 7.035850e+01 5.331297e-02 6.717330e-01 2.719352e-01 -1.743708e-01 -1.178781e-01 1.388233e-01 -2.876064e-01 -1.368567e-01 -3.563466e-01 -4.501843e-01 5.948337e-03 4.037716e-01 -4.055265e-01 -7.521437e-02 1.204436e-01 1.230303e-01 2.455843e-01 1.114523e-01 -1.477813e-01 -5.939629e-02 -5.360794e-02 4.420289e-02 -1.517163e-02 -1.534820e-01 -3.694075e-02 -1.217375e-01
<VARIANCE> 39
 1.187720e+01 3.466585e+01 2.910525e+01 5.141661e+01 3.858015e+01 8.710818e+01 7.770776e+01 5.181709e+01 4.948092e+01 6.321128e+01 7.220431e+01 4.250926e+01 1.947101e+01 2.386688e-01 8.166389e-01 7.208510e-01 1.245125e+00 1.130645e+00 1.743997e+00 1.807317e+00 1.933160e+00 2.244909e+00 2.339526e+00 2.091898e+00 2.076719e+00 3.116086e-01 5.132750e-02 1.547230e-01 1.311738e-01 1.973993e-01 2.041243e-01 3.059880e-01 2.968630e-01 3.171773e-01 3.466851e-01 4.003942e-01 3.808134e-01 3.573938e-01 6.711905e-02
<GCONST> 1.023276e+02
<STATE> 4
<MEAN> 39
 1.134117e+00 2.346637e+00 -4.580522e+00 -1.072657e+01 -8.567772e+00 2.689044e+00 -1.325954e+01 -5.749221e+00 -4.944339e+00 -1.348985e+00 1.786104e+00 -2.088792e+00 6.699758e+01 -8.976468e-01 1.221379e+00 1.119982e+00 2.028466e+00 1.092863e+00 -1.010834e+00 6.611180e-01 -2.489948e-01 -5.199411e-03 -3.054591e-01 -9.889930e-01 -1.029534e-01 -1.355618e+00 -5.170001e-01 3.830641e-02 1.704222e-01 4.636433e-01 3.384683e-01 -2.529511e-01 5.086734e-01 2.722118e-01 1.089344e-01 -1.149029e-02 -8.284707e-02 -5.406043e-03 -1.701649e-01
<VARIANCE> 39
 1.567469e+01 3.961150e+01 3.620434e+01 6.771729e+01 4.411509e+01 9.293000e+01 1.013537e+02 6.304187e+01 6.107644e+01 5.995375e+01 7.288146e+01 3.891814e+01 2.745791e+01 1.752960e+00 3.162092e+00 1.832838e+00 4.066521e+00 3.566942e+00 4.072187e+00 5.149799e+00 4.300455e+00 4.270275e+00 4.264438e+00 3.788973e+00 3.013927e+00 2.086512e+00 3.222328e-01 4.906284e-01 3.280574e-01 6.674686e-01 5.624861e-01 6.901394e-01 8.700851e-01 8.179194e-01 8.466132e-01 7.645849e-01 7.096300e-01 5.853372e-01 2.591006e-01
<GCONST> 1.307164e+02
<TRANSP> 5
 0.000000e+00 1.000000e+00 0.000000e+00 0.000000e+00 0.000000e+00
 0.000000e+00 6.799489e-01 3.200511e-01 0.000000e+00 0.000000e+00
 0.000000e+00 0.000000e+00 8.493527e-01 1.506473e-01 0.000000e+00
 0.000000e+00 0.000000e+00 0.000000e+00 6.590320e-01 3.409680e-01
 0.000000e+00 0.000000e+00 0.000000e+00 0.000000e+00 0.000000e+00
<ENDHMM>
~h "oy"
<BEGINHMM>
<NUMSTATES> 5
<STATE> 2
<MEAN> 39
 2.689892e+00 1.285549e+00 -7.571426e+00 -1.487437e+01 -1.286025e+01 4.006383e+00 -6.039305e+00 -3.102820e+00 -4.992296e+00 -5.588921e+00 -9.833053e-01 -9.456612e-01 6.753761e+01 7.105787e-01 -6.901060e-01 -6.143617e-01 -8.729106e-01 -4.401936e-01 7.327311e-01 -2.477956e-01 -2.634137e-01 -5.160044e-01 3.672092e-02 3.544966e-01 -4.048625e-02 9.164195e-01 -4.705835e-01 -3.010199e-01 1.241542e-01 5.494084e-01 5.386452e-01 -9.350389e-02 -1.418625e-01 -4.224628e-03 1.758671e-01 4.094870e-01 1.050760e-01 -1.143553e-01 -1.013761e-01
<VARIANCE> 39
 1.209640e+01 2.696227e+01 2.823990e+01 4.603510e+01 3.764268e+01 6.561456e+01 5.904377e+01 5.498120e+01 5.491414e+01 4.833764e+01 5.446650e+01 4.450309e+01 1.573526e+01 1.996156e+00 2.105294e+00 1.572061e+00 4.200151e+00 3.961036e+00 2.929373e+00 2.758378e+00 2.940860e+00 3.704258e+00 3.536835e+00 3.156668e+00 2.514580e+00 1.350449e+00 3.175326e-01 3.371548e-01 2.949810e-01 4.194116e-01 5.375137e-01 5.454284e-01 5.981195e-01 6.126570e-01 7.631923e-01 6.887053e-01 5.484592e-01 6.011109e-01 1.400123e-01
<GCONST> 1.215036e+02
<STATE> 3
<MEAN> 39
 2.047731e+00 -5.348581e+00 -9.897290e+00 -1.165371e+01 -8.420473e+00 4.047615e+00 -1.000803e+01 -5.010121e+00 -4.542576e+00 1.443422e+00 7.361014e-01 -4.730182e+00 7.068146e+01 -5.279534e-01 -1.342758e+00 7.130674e-01 1.648934e+00 7.051505e-01 -1.651843e+00 -1.760615e+00 4.770145e-01 1.615647e+00 1.728382e+00 -1.189221e+00 -1.841937e+00 5.368031e-01 -2.031549e-01 2.151060e-01 6.626193e-01 2.517377e-01 -4.921373e-01 -8.870611e-01 2.559030e-01 7.829536e-01 1.672827e-01 -5.857888e-01 -4.894317e-01 2.381349e-01 -1.311158e-01
<VARIANCE> 39
 1.062153e+01 2.604163e+01 3.295970e+01 3.987378e+01 3.171902e+01 9.541064e+01 6.182008e+01 4.453165e+01 5.084964e+01 5.747901e+01 7.082061e+01 4.722359e+01 1.430900e+01 3.803316e-01 1.070598e+00 1.594469e+00 2.282749e+00 2.140584e+00 4.834722e+00 3.052759e+00 4.373925e+00 2.897196e+00 4.386629e+00 4.174160e+00 3.427081e+00 3.504212e-01 7.017043e-02 1.816446e-01 2.739424e-01 3.147106e-01 5.616855e-01 5.260973e-01 8.626366e-01 5.836832e-01 8.872478e-01 9.726067e-01 6.994497e-01 1.025974e+00 6.998097e-02
<GCONST> 1.167914e+02
<STATE> 4
<MEAN> 39
 -2.409502e+00 -6.033994e+00 1.067608e+00 -6.377645e+00 -1.379471e+01 -9.672635e+00 -8.776786e+00 1.408621e+00 -3.296375e+00 -1.269453e-01 -4.203094e+00 -3.717653e+00 7.086226e+01 -7.829836e-01 8.203496e-01 2.104526e+00 6.449942e-01 -1.179366e+00 -1.410699e+00 1.228318e+00 2.496631e-01 -1.129973e+00 -7.071185e-01 4.768346e-01 9.536065e-01 -4.928019e-01 -1.694616e-03 4.620158e-01 -2.205455e-01 -1.896308e-01 3.185440e-01 6.166859e-01 2.600288e-01 -5.250562e-01 -3.096264e-01 2.454194e-02 3.530318e-01 9.141988e-02 -3.385024e-01
<VARIANCE> 39
 1.633170e+01 3.642205e+01 6.393554e+01 4.543410e+01 4.272355e+01 6.875724e+01 6.171509e+01 6.897945e+01 5.946716e+01 3.565010e+01 6.654840e+01 3.509461e+01 1.766111e+01 6.506049e-01 1.954125e+00 3.611226e+00 2.824365e+00 4.402293e+00 5.037439e+00 3.736265e+00 6.540975e+00 4.306080e+00 3.326264e+00 3.816108e+00 2.297783e+00 1.119882e+00 1.748958e-01 2.710846e-01 5.640669e-01 5.641602e-01 1.049793e+00 5.032030e-01 1.010960e+00 1.123910e+00 1.209538e+00 6.672174e-01 9.094899e-01 6.088901e-01 1.587076e-01
<GCONST> 1.271213e+02
<TRANSP> 5
 0.000000e+00 1.000000e+00 0.000000e+00 0.000000e+00 0.000000e+00
 0.000000e+00 8.039815e-01 1.960184e-01 0.000000e+00 0.000000e+00
 0.000000e+00 0.000000e+00 7.295501e-01 2.704499e-01 0.000000e+00
 0.000000e+00 0.000000e+00 0.000000e+00 8.189772e-01 1.810227e-01
 0.000000e+00 0.000000e+00 0.000000e+00 0.000000e+00 0.000000e+00
<ENDHMM>
~h "sh"
<BEGINHMM>
<NUMSTATES> 5
<STATE> 2
<MEAN> 39
 -1.757344e+01 1.824278e+00 1.020705e+01 1.245145e+00 -8.776698e+00 -1.187201e+00 -4.944820e+00 -1.005343e+00 -3.384066e+00 -4.287071e+00 7.342674e-01 -6.710379e-01 6.786182e+01 -4.752813e+00 -1.883151e-01 2.110884e-01 6.397510e-01 1.270978e+00 2.047845e+00 1.469544e+00 8.651375e-01 1.392800e+00 2.948542e-01 4.154266e-01 2.376541e-01 2.571237e-01 2.382656e-01 -5.909665e-01 -4.570695e-01 -5.106823e-01 -2.382788e-01 -1.537248e-01 -7.371517e-02 5.545743e-02 3.494128e-03 1.661741e-01 5.986144e-02 -1.268185e-02 6.827646e-02
<VARIANCE> 39
 8.070859e+01 3.421130e+01 3.911467e+01 4.425906e+01 4.432347e+01 5.096035e+01 3.463772e+01 4.646739e+01 3.878496e+01 2.720102e+01 2.705099e+01 2.221319e+01 2.653063e+01 5.445522e+00 3.812018e+00 3.632796e+00 3.645210e+00 3.698226e+00 4.247948e+00 3.740829e+00 3.830055e+00 3.777829e+00 2.775636e+00 2.710172e+00 2.469828e+00 1.528559e+00 1.291811e+00 5.729190e-01 4.223089e-01 5.528432e-01 6.799726e-01 7.243159e-01 7.149814e-01 6.808533e-01 5.771843e-01 5.005359e-01 4.267350e-01 4.471537e-01 2.341618e-01
<GCONST> 1.269761e+02
<STATE> 3
<MEAN> 39
 -2.813933e+01 -3.183573e+00 7.213461e+00 -6.951854e-01 -7.770744e+00 2.519343e+00 -3.165261e-01 1.473569e+00 6.444946e-01 -2.619880e+00 2.985705e+00 1.288116e-01 6.752543e+01 -9.142634e-02 -3.672265e-01 -3.558019e-01 -1.559075e-01 -3.610214e-01 -1.546031e-01 2.564828e-01 9.852023e-02 2.403434e-01 7.920024e-03 1.744151e-02 2.720037e-02 -1.442546e-01 9.915024e-01 2.078909e-01 1.383687e-02 2.139543e-02 -1.329571e-01 -3.532895e-01 -3.083425e-01 -1.292812e-01 -2.341196e-01 -1.231320e-01 -1.505604e-01 -7.359760e-02 -1.311850e-01
<VARIANCE> 39
 3.076842e+01 2.525538e+01 1.886017e+01 2.548613e+01 2.461763e+01 3.182093e+01 2.327241e+01 2.557954e+01 2.492832e+01 2.077491e+01 2.125261e+01 1.498064e+01 2.594455e+01 3.105864e+00 1.191037e+00 1.207910e+00 1.364994e+00 1.433411e+00 1.802957e+00 1.599480e+00 1.636339e+00 1.772439e+00 1.706379e+00 1.572341e+00 1.384330e+00 7.634522e-01 5.317511e-01 2.103208e-01 2.484427e-01 2.655273e-01 3.269449e-01 4.053462e-01 3.998330e-01 3.823112e-01 3.893431e-01 3.610901e-01 3.318057e-01 2.924041e-01 1.273877e-01
<GCONST> 1.030002e+02
<STATE> 4
<MEAN> 39
 -1.942666e+01 -2.136164e+00 6.261705e+00 -2.584511e-02 -1.068957e+01 -1.879120e+00 -2.879945e+00 7.832022e-01 -3.294955e-01 -4.266072e+00 9.070624e-01 -5.469779e-01 6.603943e+01 5.757471e+00 5.641856e-01 -2.462626e-01 -7.952450e-01 -8.869951e-01 -1.869388e+00 -2.382578e+00 -9.184011e-01 -1.228992e+00 -7.297321e-01 -7.920794e-01 -5.526952e-01 2.941902e-02 5.662545e-01 -1.402960e-01 3.630441e-03 -4.046879e-01 4.624713e-02 1.066059e-01 -3.694845e-01 -1.495561e-01 -2.207737e-01 1.026704e-01 2.111709e-02 -6.194972e-02 3.829779e-01
<VARIANCE> 39
 7.855132e+01 2.563441e+01 2.601587e+01 3.263653e+01 3.252235e+01 3.873969e+01 3.527158e+01 3.406990e+01 3.644607e+01 2.658442e+01 2.458235e+01 1.729680e+01 2.071696e+01 4.094838e+00 2.191859e+00 3.334311e+00 3.295861e+00 3.209049e+00 4.207169e+00 3.443703e+00 4.132511e+00 4.125799e+00 2.908792e+00 3.050628e+00 2.340204e+00 1.935616e+00 1.422934e+00 3.905123e-01 4.159087e-01 5.518637e-01 5.276313e-01 7.359934e-01 7.826060e-01 7.445226e-01 6.962920e-01 5.162069e-01 5.335686e-01 4.518127e-01 2.427341e-01
<GCONST> 1.237726e+02
<TRANSP> 5
 0.000000e+00 1.000000e+00 0.000000e+00 0.000000e+00 0.000000e+00
 0.000000e+00 6.709815e-01 3.290185e-01 0.000000e+00 0.000000e+00
 0.000000e+00 0.000000e+00 8.467237e-01 1.532763e-01 0.000000e+00
 0.000000e+00 0.000000e+00 0.000000e+00 6.079124e-01 3.920876e-01
 0.000000e+00 0.000000e+00 0.000000e+00 0.000000e+00 0.000000e+00
<ENDHMM>
~h "sp"
<BEGINHMM>
<NUMSTATES> 3
<STATE> 2
~s "silst"
<TRANSP> 3
 0.000000e+00 7.000000e-01 3.000000e-01
 0.000000e+00 9.000000e-01 9.999999e-02
 0.000000e+00 0.000000e+00 0.000000e+00
<ENDHMM>
~h "th"
<BEGINHMM>
<NUMSTATES> 5
<STATE> 2
<MEAN> 39
 -1.222649e+01 6.643610e+00 -1.209387e+00 2.421231e+00 -1.884185e+00 -1.045647e-01 -1.342720e+00 -4.883462e-01 -9.638137e-01 -2.152906e+00 -1.219708e+00 -1.297698e+00 5.822944e+01 -2.305312e+00 -3.397596e-01 -2.910132e-01 1.109233e+00 8.493077e-01 8.859768e-01 1.076551e+00 1.043468e+00 6.987236e-01 8.487172e-01 7.088625e-01 4.533451e-01 -1.562214e+00 3.499492e-01 -6.828538e-01 -2.800851e-01 -6.370108e-01 -4.774601e-01 -3.167701e-01 -3.981764e-01 -2.980742e-02 1.358646e-02 3.221678e-03 7.608087e-02 3.850206e-02 6.237388e-01
<VARIANCE> 39
 3.639641e+01 2.472900e+01 2.507123e+01 2.864599e+01 2.524828e+01 4.337671e+01 3.396740e+01 3.095400e+01 3.351386e+01 2.821389e+01 2.515571e+01 2.296575e+01 3.495499e+01 3.885789e+00 3.378551e+00 3.474733e+00 5.091734e+00 2.999154e+00 4.569328e+00 4.268529e+00 3.810640e+00 3.586649e+00 3.026375e+00 3.534636e+00 2.746001e+00 3.356056e+00 5.204113e-01 6.192924e-01 5.413862e-01 6.816671e-01 5.941569e-01 7.073086e-01 7.549484e-01 6.538531e-01 5.937046e-01 5.471494e-01 5.362820e-01 4.976903e-01 6.207868e-01
<GCONST> 1.258766e+02
<STATE> 3
<MEAN> 39
 -1.614620e+01 4.189612e-01 -2.170825e+00 1.414572e+00 -1.138380e+00 1.663963e-01 4.565263e-02 2.781552e+00 8.703399e-01 -7.392129e-01 1.148726e+00 5.888523e-01 5.575531e+01 -1.929259e-01 -5.022535e-01 -2.528753e-01 -2.449296e-01 -2.344613e-01 -1.319025e-01 -7.704712e-02 3.842674e-02 7.877183e-02 3.706460e-02 9.514087e-02 1.230391e-01 4.038410e-01 3.155007e-01 -1.276525e-02 6.412949e-02 -1.417757e-01 -1.614987e-01 -2.080158e-01 -1.679494e-01 -1.289419e-01 -7.820482e-02 -1.101200e-01 -1.367413e-01 -5.765603e-02 3.518189e-01
<VARIANCE> 39
 1.965058e+01 3.802863e+01 1.967814e+01 2.048936e+01 1.872043e+01 2.405273e+01 2.146113e+01 1.960704e+01 1.974734e+01 1.874167e+01 1.526757e+01 1.453350e+01 3.697015e+01 1.647795e+00 2.163715e+00 1.744923e+00 1.803502e+00 1.895331e+00 1.925197e+00 2.076235e+00 1.974220e+00 2.043602e+00 1.791834e+00 1.735830e+00 1.655434e+00 3.176433e+00 4.530227e-01 3.541880e-01 3.627591e-01 3.950106e-01 4.184673e-01 5.004116e-01 4.796555e-01 4.285477e-01 4.242674e-01 3.767491e-01 4.194818e-01 3.561355e-01 6.273987e-01
<GCONST> 1.088842e+02
<STATE> 4
<MEAN> 39
 -1.382150e+01 -1.238830e+00 -3.356587e+00 1.126801e-02 -4.985834e+00 -3.471523e+00 -2.834654e+00 6.425639e-01 1.274486e+00 -7.508643e-01 7.372840e-02 1.533599e-01 6.290842e+01 2.207273e+00 -7.660688e-01 2.171124e-01 -4.198090e-01 -7.102582e-01 -1.494509e+00 -1.307246e+00 -3.673709e-01 -9.766234e-02 -3.263117e-01 -6.975924e-01 -3.865347e-01 1.445055e+00 5.896475e-01 2.191188e-01 1.586087e-01 -1.526016e-02 1.388604e-01 -3.830242e-02 -1.967124e-01 -8.596798e-02 -2.322166e-01 -1.184779e-01 -9.354014e-02 -1.159115e-01 -2.434125e-01
<VARIANCE> 39
 5.229728e+01 3.558404e+01 3.424044e+01 4.027443e+01 3.945713e+01 4.740921e+01 3.838633e+01 3.330733e+01 3.347305e+01 3.046323e+01 2.914853e+01 2.597360e+01 3.662634e+01 6.025526e+00 3.807029e+00 4.089133e+00 5.747985e+00 6.446039e+00 5.780867e+00 5.721769e+00 4.826226e+00 4.566844e+00 3.057592e+00 3.621144e+00 3.220202e+00 6.949273e+00 9.312472e-01 6.445009e-01 9.327527e-01 9.924529e-01 9.999157e-01 1.027624e+00 1.050692e+00 8.332143e-01 7.958502e-01 5.977032e-01 6.395938e-01 6.103004e-01 9.405162e-01
<GCONST> 1.360993e+02
<TRANSP> 5
 0.000000e+00 1.000000e+00 0.000000e+00 0.000000e+00 0.000000e+00
 0.000000e+00 6.210002e-01 3.789997e-01 0.000000e+00 0.000000e+00
 0.000000e+00 0.000000e+00 8.359687e-01 1.640313e-01 0.000000e+00
 0.000000e+00 0.000000e+00 0.000000e+00 6.659667e-01 3.340332e-01
 0.000000e+00 0.000000e+00 0.000000e+00 0.000000e+00 0.000000e+00
<ENDHMM>
~h "uh"
<BEGINHMM>
<NUMSTATES> 5
<STATE> 2
<MEAN> 39
 2.678302e-01 -1.250352e+00 -4.973223e+00 -7.820100e+00 -9.189962e+00 -1.092734e+00 -1.576835e+01 -6.563601e+00 -4.927429e+00 -2.416335e-02 1.090517e+00 -4.144690e+00 6.994122e+01 1.231486e+00 -5.244762e-01 7.769079e-02 -7.600871e-01 -1.143617e+00 -5.133715e-01 -1.584691e+00 6.401592e-02 3.079904e-01 5.217140e-01 -3.405108e-01 -7.157381e-01 1.251308e+00 -6.640904e-01 8.286580e-03 2.570773e-01 4.593849e-01 2.283814e-01 -6.140289e-02 7.216195e-01 5.188071e-01 1.954856e-01 -2.705349e-01 -1.642107e-01 2.524266e-01 -4.956286e-01
<VARIANCE> 39
 2.368548e+01 3.293403e+01 3.686628e+01 5.740025e+01 3.891781e+01 1.143137e+02 6.547079e+01 5.156843e+01 5.486974e+01 5.688350e+01 8.116528e+01 3.981673e+01 1.974902e+01 4.799517e+00 2.902423e+00 3.306355e+00 6.676882e+00 4.317713e+00 6.095693e+00 5.223150e+00 5.307148e+00 6.674078e+00 3.964410e+00 4.849951e+00 4.019582e+00 1.836758e+00 5.880061e-01 6.385880e-01 4.054830e-01 6.229919e-01 6.537368e-01 1.128413e+00 1.066973e+00 7.933886e-01 8.238437e-01 1.078115e+00 9.997895e-01 7.110670e-01 3.866085e-01
<GCONST> 1.365670e+02
<STATE> 3
<MEAN> 39
 -1.081828e-01 -3.701147e+00 -3.752722e+00 -7.231867e+00 -1.114828e+01 -3.320305e+00 -1.769905e+01 -2.473114e+00 -1.750101e+00 1.118577e+00 -1.378284e+00 -4.234678e+00 7.176620e+01 -1.557905e-01 1.626171e-01 1.004263e+00 1.102854e+00 -3.004976e-01 -1.028406e+00 3.922983e-01 6.475539e-01 3.785099e-01 -8.912835e-01 -7.021825e-01 7.345337e-01 -6.068810e-01 -2.514121e-01 6.756438e-01 2.439687e-01 3.930104e-01 5.479337e-01 1.635213e-01 8.170822e-01 -2.349935e-01 -2.685005e-01 -3.725559e-01 9.555987e-02 3.341708e-01 -8.733424e-01
<VARIANCE> 39
 1.318470e+01 2.798394e+01 4.027349e+01 5.621091e+01 3.520848e+01 9.790105e+01 6.095047e+01 5.977088e+01 6.385749e+01 5.771005e+01 8.188016e+01 3.946992e+01 1.756280e+01 8.635165e-01 2.202648e+00 3.071855e+00 3.509659e+00 3.650994e+00 4.372501e+00 3.698146e+00 3.871855e+00 3.593582e+00 3.759950e+00 4.104306e+00 2.867009e+00 1.997601e+00 3.952573e-01 4.713545e-01 3.323181e-01 4.814575e-01 6.051164e-01 7.780510e-01 1.014169e+00 7.602137e-01 9.684516e-01 7.193829e-01 8.256932e-01 7.528383e-01 4.501418e-01
<GCONST> 1.288692e+02
<STATE> 4
<MEAN> 39
 -4.585201e-01 -7.368574e-01 7.829679e-01 -2.460412e+00 -1.162415e+01 -6.115038e+00 -1.419584e+01 -3.965997e+00 -2.661135e+00 -3.343662e+00 -2.388226e+00 -1.764690e-01 6.744474e+01 -5.318971e-01 2.069142e+00 1.277904e+00 1.842437e+00 1.549035e+00 -2.648534e-01 2.165664e+00 -2.380038e-01 -1.550790e-02 -9.442140e-01 -4.043321e-01 2.353581e-01 -2.747524e+00 -3.769325e-01 2.673689e-01 -2.663082e-01 -1.112181e-01 5.852176e-01 4.584023e-01 3.905842e-01 -2.165654e-02 -1.009211e-01 2.627664e-01 2.312749e-01 -3.636945e-01 -3.666325e-01
<VARIANCE> 39
 1.747076e+01 3.884851e+01 6.808156e+01 6.147179e+01 5.745726e+01 8.405538e+01 5.104166e+01 5.967109e+01 5.739468e+01 5.058049e+01 6.701759e+01 3.560247e+01 2.751043e+01 2.017449e+00 3.699039e+00 3.563178e+00 3.382922e+00 3.803989e+00 4.682879e+00 5.509023e+00 4.129380e+00 3.984241e+00 4.032004e+00 5.153525e+00 4.324862e+00 4.254599e+00 3.604016e-01 7.060864e-01 5.524378e-01 6.513301e-01 8.363663e-01 8.775129e-01 7.841062e-01 7.889708e-01 8.999940e-01 7.166572e-01 7.338949e-01 7.239129e-01 5.261571e-01
<GCONST> 1.350451e+02
<TRANSP> 5
 0.000000e+00 1.000000e+00 0.000000e+00 0.000000e+00 0.000000e+00
 0.000000e+00 5.224050e-01 4.775949e-01 0.000000e+00 0.000000e+00
 0.000000e+00 0.000000e+00 5.694793e-01 4.305207e-01 0.000000e+00
 0.000000e+00 0.000000e+00 0.000000e+00 4.211865e-01 5.788135e-01
 0.000000e+00 0.000000e+00 0.000000e+00 0.000000e+00 0.000000e+00
<ENDHMM>
~h "uw"
<BEGINHMM>
<NUMSTATES> 5
<STATE> 2
<MEAN> 39
 -5.008963e+00 -8.057153e-01 7.387328e+00 -3.785048e-01 -1.414191e+01 -7.614974e+00 -1.272621e+01 -3.287356e+00 -9.906859e+00 -6.607645e+00 2.694822e-01 -2.098707e+00 6.874084e+01 2.030962e+00 -2.037431e-01 -1.275588e-01 -5.902152e-02 -7.552826e-01 -4.523033e-01 -1.877026e+00 -6.593940e-01 -3.088806e-01 -2.927378e-01 -3.501467e-01 -3.328559e-01 5.131183e-01 -5.176837e-01 2.365185e-01 -3.995042e-01 -1.515008e-01 6.960181e-01 5.296810e-01 3.970383e-01 3.586680e-02 2.995561e-01 4.229829e-01 -4.232810e-02 1.745252e-03 -3.954054e-01
<VARIANCE> 39
 4.255763e+01 3.079364e+01 6.575269e+01 6.449635e+01 5.330039e+01 7.348355e+01 5.322106e+01 5.750506e+01 5.891793e+01 4.352382e+01 5.323265e+01 3.305227e+01 2.235492e+01 6.612094e+00 2.802945e+00 4.134544e+00 3.896270e+00 6.609913e+00 5.098649e+00 5.391565e+00 5.944948e+00 5.436544e+00 3.887358e+00 3.759730e+00 3.388082e+00 1.690693e+00 8.597476e-01 4.789803e-01 5.447497e-01 6.106733e-01 8.209806e-01 7.448277e-01 7.997736e-01 9.971375e-01 9.063715e-01 6.140302e-01 5.645052e-01 4.981010e-01 3.127424e-01
<GCONST> 1.350179e+02
<STATE> 3
<MEAN> 39
 -1.012337e+00 -1.825090e-01 3.303136e+00 -1.467847e+00 -1.110685e+01 -4.367796e+00 -1.886784e+01 -5.800727e+00 -8.470217e+00 -4.139608e+00 -9.712868e-01 -3.581713e+00 6.834092e+01 2.120363e-01 7.242194e-01 -5.875442e-01 -2.630948e-01 8.144361e-01 6.996921e-01 -4.036433e-02 -7.938366e-01 9.356877e-02 4.454266e-01 -2.245051e-01 8.285828e-03 -5.441600e-01 -3.940470e-01 2.631821e-01 8.522521e-02 6.118926e-02 2.170633e-01 -1.803674e-03 7.023213e-01 1.442013e-01 -3.966361e-03 -5.726396e-02 5.453283e-02 1.744553e-01 -2.409372e-01
<VARIANCE> 39
 1.423625e+01 2.811265e+01 5.248849e+01 6.877869e+01 4.082771e+01 9.810880e+01 6.920277e+01 5.657079e+01 4.741865e+01 5.334329e+01 6.796937e+01 4.938684e+01 1.608674e+01 1.066485e+00 1.392002e+00 2.137910e+00 2.512866e+00 2.880025e+00 3.114746e+00 3.563262e+00 3.225802e+00 3.231784e+00 3.190685e+00 2.313169e+00 2.426383e+00 8.288459e-01 3.116376e-01 3.176070e-01 2.993401e-01 3.603322e-01 5.805859e-01 5.642286e-01 6.931343e-01 6.593351e-01 5.962533e-01 5.693824e-01 4.775148e-01 4.893107e-01 1.711989e-01
<GCONST> 1.210059e+02
<STATE> 4
<MEAN> 39
 -8.239447e-01 4.491602e+00 -3.510076e-01 -3.721971e+00 -7.573892e+00 -2.561419e+00 -1.258878e+01 -8.001928e+00 -9.351532e+00 -3.167072e+00 -4.442933e-01 -1.562255e+00 6.427518e+01 -8.629285e-01 8.590609e-01 -4.555601e-02 2.545413e-01 9.381307e-01 -7.172757e-02 1.608429e+00 6.291398e-01 5.957034e-01 -2.753021e-02 -2.731373e-01 2.837407e-01 -8.329346e-01 -4.630616e-01 -2.285468e-01 1.324236e-01 1.851268e-01 6.080624e-02 -1.043222e-01 1.888404e-01 4.499913e-01 2.473168e-01 -3.575444e-03 -7.502772e-04 -5.839941e-02 1.441115e-02
<VARIANCE> 39
 3.165064e+01 3.726672e+01 5.536380e+01 8.106754e+01 4.580133e+01 9.041458e+01 6.510488e+01 5.489476e+01 5.772922e+01 5.370365e+01 5.771222e+01 3.767337e+01 2.592346e+01 2.985670e+00 4.279994e+00 2.248587e+00 4.074165e+00 4.529000e+00 4.778720e+00 5.861099e+00 4.927432e+00 4.917485e+00 4.425874e+00 3.680065e+00 3.510488e+00 2.999931e+00 3.336277e-01 4.866182e-01 4.040759e-01 5.644011e-01 6.192351e-01 7.653662e-01 9.396027e-01 7.475226e-01 8.458199e-01 8.449684e-01 6.509333e-01 5.862774e-01 2.645739e-01
<GCONST> 1.335614e+02
<TRANSP> 5
 0.000000e+00 1.000000e+00 0.000000e+00 0.000000e+00 0.000000e+00
 0.000000e+00 5.378674e-01 4.621327e-01 0.000000e+00 0.000000e+00
 0.000000e+00 0.000000e+00 7.093413e-01 2.906587e-01 0.000000e+00
 0.000000e+00 0.000000e+00 0.000000e+00 5.876823e-01 4.123177e-01
 0.000000e+00 0.000000e+00 0.000000e+00 0.000000e+00 0.000000e+00
<ENDHMM>
~h "zh"
<BEGINHMM>
<NUMSTATES> 5
<STATE> 2
<MEAN> 39
 -7.207448e+00 -3.251737e-01 1.097657e+01 -2.013813e+00 -1.506829e+01 -7.093471e+00 -9.576962e+00 -1.449736e+00 -6.009775e+00 -5.091938e+00 1.713484e+00 -3.693621e-01 7.225786e+01 -2.597674e+00 1.796939e+00 1.156861e+00 1.252729e+00 4.274063e-01 1.410214e+00 7.229630e-01 -6.371192e-01 3.043259e-01 -1.402185e-01 1.257657e-02 8.789457e-02 -5.427563e-01 -6.377920e-01 -1.275176e-01 -1.916217e-01 3.991596e-02 4.194767e-01 5.145711e-01 3.355964e-01 2.215184e-01 2.299420e-01 1.368169e-01 -1.941034e-01 -2.201204e-01 1.187953e-02
<VARIANCE> 39
 3.651111e+01 3.750897e+01 2.627072e+01 5.741840e+01 3.121070e+01 4.857377e+01 2.879253e+01 6.268594e+01 3.500134e+01 2.432195e+01 3.626464e+01 2.781702e+01 2.721236e+01 5.186963e+00 2.579029e+00 1.900477e+00 2.328859e+00 2.845595e+00 3.161592e+00 3.490412e+00 3.202926e+00 2.029448e+00 2.078802e+00 2.037085e+00 2.309334e+00 1.055537e+00 5.531702e-01 7.335742e-01 2.702900e-01 3.212840e-01 3.488584e-01 4.449275e-01 5.082374e-01 5.011026e-01 3.289109e-01 3.211909e-01 3.353927e-01 3.591281e-01 1.255274e-01
<GCONST> 1.167256e+02
<STATE> 3
<MEAN> 39
 -2.456854e+01 1.364794e+00 1.147082e+01 3.810266e+00 -8.453808e+00 2.807323e+00 -2.269689e+00 -5.253084e-01 -1.888286e+00 -4.497444e+00 1.158886e+00 -1.490342e+00 7.012796e+01 -9.261616e-01 -9.617497e-01 -8.511305e-01 1.817568e-01 -2.760861e-02 1.804553e-01 8.047503e-01 4.352525e-01 1.852476e-01 2.206753e-01 1.823585e-01 -1.720448e-01 -1.548964e-01 1.498232e+00 -2.220026e-01 -3.774010e-01 -2.563757e-01 -4.497576e-01 -9.280248e-01 -6.201841e-01 -4.163880e-02 -1.955280e-01 -1.124331e-01 7.116715e-02 1.415249e-01 5.435382e-02
<VARIANCE> 39
 3.617292e+01 4.125174e+01 2.999216e+01 4.148067e+01 2.876728e+01 4.992474e+01 2.927001e+01 3.787032e+01 2.950052e+01 2.267574e+01 2.401210e+01 1.907497e+01 2.054568e+01 1.001196e+01 1.926880e+00 1.579477e+00 2.259068e+00 3.845882e+00 7.438042e+00 2.865310e+00 2.483611e+00 2.133954e+00 1.534094e+00 1.796289e+00 1.667115e+00 2.971523e-01 5.568396e-01 7.879571e-01 3.601566e-01 4.266824e-01 5.758181e-01 6.628634e-01 5.647793e-01 5.741333e-01 3.766749e-01 3.738286e-01 3.757187e-01 3.560193e-01 8.736598e-02
<GCONST> 1.154683e+02
<STATE> 4
<MEAN> 39
 -1.316589e+01 -2.012398e+00 5.638963e+00 3.550893e+00 -1.378715e+01 -6.836946e+00 -5.499563e+00 3.459051e-01 -3.518726e+00 -5.218010e+00 2.294945e+00 -6.944283e-01 6.988580e+01 5.495168e+00 -7.073019e-01 -1.481967e+00 -7.951666e-01 1.446764e-01 -2.643686e+00 -2.851056e+00 2.009057e-01 3.754073e-02 -8.560090e-01 1.214044e-02 6.123216e-01 2.464461e-01 1.453942e-01 -2.555761e-01 1.462948e-01 -2.539941e-01 6.847203e-01 4.691498e-01 -3.736430e-01 2.251966e-02 2.267640e-01 -6.857399e-02 -1.944812e-01 -3.246945e-02 8.638458e-02
<VARIANCE> 39
 9.117444e+01 2.954405e+01 2.534010e+01 4.893940e+01 3.937593e+01 5.551928e+01 4.554094e+01 4.545464e+01 2.829401e+01 2.148453e+01 2.600723e+01 1.976250e+01 2.189256e+01 5.028960e+00 3.111728e+00 2.354878e+00 2.602465e+00 3.938481e+00 3.633904e+00 5.646867e+00 5.238645e+00 2.585342e+00 3.627528e+00 2.304236e+00 2.261431e+00 8.464451e-01 1.748717e+00 4.218700e-01 2.903367e-01 4.729254e-01 5.275087e-01 6.226541e-01 8.493087e-01 9.564865e-01 5.669225e-01 4.403162e-01 3.733533e-01 3.622557e-01 1.108982e-01
<GCONST> 1.228979e+02
<TRANSP> 5
 0.000000e+00 1.000000e+00 0.000000e+00 0.000000e+00 0.000000e+00
 0.000000e+00 7.391002e-01 2.608998e-01 0.000000e+00 0.000000e+00
 0.000000e+00 0.000000e+00 8.056607e-01 1.943393e-01 0.000000e+00
 0.000000e+00 0.000000e+00 0.000000e+00 5.897734e-01 4.102266e-01
 0.000000e+00 0.000000e+00 0.000000e+00 0.000000e+00 0.000000e+00
<ENDHMM>
~h "sil"
<BEGINHMM>
<NUMSTATES> 5
<STATE> 2
<MEAN> 39
 -1.307109e+01 2.760103e+00 -4.179638e-01 2.271304e+00 1.618084e+00 1.373275e+00 1.332345e+00 1.397118e+00 1.100968e+00 3.731622e-01 7.728323e-01 2.348287e-01 4.907201e+01 -2.739797e-02 4.844157e-02 1.909923e-02 2.038043e-02 2.932495e-02 6.400904e-02 1.217934e-02 -2.889275e-02 8.951703e-03 2.359253e-02 1.162647e-02 -1.817621e-02 -8.795526e-02 2.446197e-02 -7.708442e-03 1.077246e-02 -2.711202e-02 -2.735698e-02 -3.526204e-02 -3.073244e-02 -7.405472e-03 -1.805734e-02 -1.726864e-02 -7.132208e-03 -5.844757e-03 5.890266e-02
<VARIANCE> 39
 1.237857e+01 9.881705e+00 1.071229e+01 1.191857e+01 1.590285e+01 1.865849e+01 1.621773e+01 1.526513e+01 1.553309e+01 1.797097e+01 1.966622e+01 1.818801e+01 4.067262e+01 2.893065e-01 4.304247e-01 5.612997e-01 7.650005e-01 9.934449e-01 1.157642e+00 1.226876e+00 1.373546e+00 1.447371e+00 1.391005e+00 1.322718e+00 1.161907e+00 2.800751e-01 5.360410e-02 7.252015e-02 9.907896e-02 1.398485e-01 1.829799e-01 2.216296e-01 2.361479e-01 2.585818e-01 2.779984e-01 2.695184e-01 2.516690e-01 2.285927e-01 4.234608e-02
<GCONST> 8.090605e+01
<STATE> 3
~s "silst"
<STATE> 4
<MEAN> 39
 -6.440782e+00 -1.574832e+00 1.662918e-01 -3.087389e+00 -5.591444e+00 -2.269649e+00 -5.702117e+00 5.662321e-01 -2.609368e+00 -2.661586e+00 7.517700e-01 -3.073836e+00 6.517429e+01 2.478912e-02 5.840379e-02 1.311705e-03 -1.045842e-02 -2.665098e-02 -4.845629e-02 -9.483740e-03 -4.347342e-02 -2.499154e-02 -3.568526e-02 -4.379095e-02 -2.830981e-02 1.034854e-01 -5.987369e-02 3.114391e-02 -6.471146e-03 4.343322e-02 4.507660e-02 3.007165e-02 5.200672e-02 1.653485e-02 1.921374e-02 1.030767e-02 7.338615e-03 1.251332e-02 -6.887468e-02
<VARIANCE> 39
 7.702554e+01 5.877611e+01 8.352699e+01 5.718718e+01 6.187231e+01 7.196244e+01 7.359210e+01 6.330719e+01 6.480495e+01 3.880106e+01 4.732998e+01 3.647918e+01 7.445293e+01 4.308801e+00 3.682417e+00 3.395398e+00 3.833858e+00 4.359349e+00 3.754279e+00 5.102847e+00 4.083013e+00 4.251211e+00 2.917852e+00 3.235668e+00 2.678793e+00 4.222457e+00 5.781316e-01 6.223411e-01 4.862949e-01 5.909281e-01 6.904556e-01 6.319003e-01 8.587338e-01 7.110729e-01 7.231055e-01 5.246329e-01 5.768502e-01 4.687764e-01 5.456220e-01
<GCONST> 1.358138e+02
<TRANSP> 5
 0.000000e+00 1.000000e+00 0.000000e+00 0.000000e+00 0.000000e+00
 0.000000e+00 8.890422e-01 4.669759e-02 6.426021e-02 0.000000e+00
 0.000000e+00 0.000000e+00 7.304788e-01 2.695213e-01 0.000000e+00
 0.000000e+00 2.995958e-02 0.000000e+00 8.682154e-01 1.018250e-01
 0.000000e+00 0.000000e+00 0.000000e+00 0.000000e+00 0.000000e+00
<ENDHMM>
