~o
<STREAMINFO> 1 39
<VECSIZE> 39<NULLD><MFCC_D_A_0><DIAGC>
~h "b"
<BEGINHMM>
<NUMSTATES> 5
<STATE> 2
<MEAN> 39
 -6.773787e+00 5.639681e+00 1.950286e+00 1.831452e+00 -5.683565e-02 -6.828283e-01 -2.854728e+00 -2.634279e+00 -2.672091e+00 -2.810172e+00 -1.876700e+00 -2.527855e+00 5.409644e+01 -6.758751e-01 5.615472e-01 3.277218e-01 7.345866e-01 5.626156e-01 2.673811e-01 6.935079e-01 1.619420e-01 -1.231427e-02 -7.751852e-02 -1.638133e-01 -1.085180e-01 -1.022157e+00 -4.021601e-02 -6.155308e-01 -2.209208e-01 -3.905085e-01 -3.888792e-01 -1.463296e-01 -3.144940e-01 1.526782e-01 1.022692e-01 1.107209e-01 1.396489e-01 1.208059e-01 7.602037e-01
<VARIANCE> 39
 4.070000e+01 5.429662e+01 2.473326e+01 2.572745e+01 2.090510e+01 2.832211e+01 3.362756e+01 3.898203e+01 3.168024e+01 2.274355e+01 2.209923e+01 2.066763e+01 2.987333e+01 1.888382e+00 4.414712e+00 2.483234e+00 3.030931e+00 2.539725e+00 2.527355e+00 3.296782e+00 2.634798e+00 2.690691e+00 2.413849e+00 2.295259e+00 1.900074e+00 3.586505e+00 3.160921e-01 7.703860e-01 4.884949e-01 5.485611e-01 5.416769e-01 5.157467e-01 6.865259e-01 5.576127e-01 5.509387e-01 4.997711e-01 4.659304e-01 3.981929e-01 6.720798e-01
<GCONST> 1.199412e+02
<STATE> 3
<MEAN> 39
 -7.702175e+00 6.297666e+00 2.330343e+00 2.771232e+00 1.577642e-01 -2.540220e-01 -2.495579e+00 -2.781764e+00 -2.951850e+00 -2.726496e+00 -1.922837e+00 -2.735825e+00 5.397192e+01 -8.130766e-02 -2.294249e+00 -1.068830e+00 -1.222291e+00 -1.560593e+00 -6.965296e-01 -1.192492e+00 3.792210e-01 3.460734e-01 4.790652e-01 6.082862e-01 4.262963e-01 2.790937e+00 6.305916e-01 -6.819675e-01 -3.121429e-01 -8.662475e-01 -8.150424e-01 -3.241912e-01 -6.442410e-01 -9.695623e-02 -1.732916e-02 2.004958e-01 1.738505e-01 5.712690e-02 1.310658e+00
<VARIANCE> 39
 2.585508e+01 3.026048e+01 2.198135e+01 2.446264e+01 2.097087e+01 2.463256e+01 3.136329e+01 2.875353e+01 2.862542e+01 2.337666e+01 1.999679e+01 1.717721e+01 3.382914e+01 3.302834e+00 4.057052e+00 3.916048e+00 4.488721e+00 4.274997e+00 3.500748e+00 4.590370e+00 3.546588e+00 3.517086e+00 3.381710e+00 2.896007e+00 2.473202e+00 5.281923e+00 4.632743e-01 7.908828e-01 8.634648e-01 7.573103e-01 7.455273e-01 7.850493e-01 8.977025e-01 7.405047e-01 7.780176e-01 6.411323e-01 6.568086e-01 5.433919e-01 6.895078e-01
<GCONST> 1.261413e+02
<STATE> 4
<MEAN> 39
 -5.073506e+00 -1.978896e+00 -2.506945e+00 -4.056923e+00 -6.416375e+00 -2.496863e+00 -7.226787e+00 -2.047319e+00 -1.169729e+00 -1.473433e-01 -2.829087e-01 -2.841099e+00 6.621294e+01 1.277020e+00 -2.150458e+00 -8.050008e-01 -2.202497e+00 -1.954775e+00 -5.661959e-01 -1.285024e+00 2.282892e-01 2.405450e-01 5.746430e-01 1.744010e-01 -1.181829e-01 3.566605e+00 1.235966e-01 4.627598e-01 3.440077e-01 1.281264e-01 2.757857e-01 1.577869e-01 2.560386e-01 -4.634723e-02 -1.386903e-01 -1.865889e-01 -2.304852e-01 -1.024751e-01 -4.530845e-01
<VARIANCE> 39
 4.301496e+01 4.165596e+01 4.795316e+01 6.141075e+01 4.343583e+01 5.898044e+01 4.651328e+01 4.452712e+01 3.563449e+01 4.005505e+01 3.783894e+01 3.242082e+01 5.818965e+01 4.096960e+00 4.752629e+00 6.204330e+00 5.899338e+00 6.456126e+00 6.093944e+00 7.045218e+00 5.623537e+00 5.345289e+00 4.393229e+00 5.297322e+00 4.317577e+00 6.138406e+00 7.261349e-01 6.932191e-01 6.171933e-01 1.006381e+00 9.238862e-01 8.130922e-01 9.513512e-01 8.579648e-01 7.287309e-01 7.738104e-01 7.504023e-01 6.186106e-01 9.391373e-01
<GCONST> 1.400463e+02
<TRANSP> 5
 0.000000e+00 1.000000e+00 0.000000e+00 0.000000e+00 0.000000e+00
 0.000000e+00 7.727357e-01 2.272643e-01 0.000000e+00 0.000000e+00
 0.000000e+00 0.000000e+00 4.703279e-01 5.296721e-01 0.000000e+00
 0.000000e+00 0.000000e+00 0.000000e+00 5.455292e-01 4.544708e-01
 0.000000e+00 0.000000e+00 0.000000e+00 0.000000e+00 0.000000e+00
<ENDHMM>
~h "d"
<BEGINHMM>
<NUMSTATES> 5
<STATE> 2
<MEAN> 39
 -3.640548e+00 3.617363e+00 5.329129e+00 6.174288e-01 -7.173949e+00 -6.059759e+00 -6.595986e+00 -2.376650e+00 -4.780503e+00 -4.429574e+00 -3.124407e+00 -1.791693e+00 6.122882e+01 -5.954942e-01 9.332718e-01 3.558256e-01 8.080797e-01 1.055147e+00 4.411749e-01 5.431930e-01 -8.190639e-02 1.806301e-01 -1.305304e-01 -2.383311e-01 -3.504549e-01 -1.354560e+00 -2.429409e-01 -4.758800e-01 -2.775393e-01 -4.098044e-01 -9.259302e-02 1.282682e-01 -7.089800e-02 1.772906e-01 5.334352e-02 1.252492e-01 2.417335e-01 3.195394e-02 4.937066e-01
<VARIANCE> 39
 3.040062e+01 5.620388e+01 4.441523e+01 6.105276e+01 5.667969e+01 5.583070e+01 5.121740e+01 5.879777e+01 4.861944e+01 3.315004e+01 4.044372e+01 3.114225e+01 5.596784e+01 2.596132e+00 5.851616e+00 3.192122e+00 5.011908e+00 5.298391e+00 4.408055e+00 4.981473e+00 4.990808e+00 4.248517e+00 3.097448e+00 3.706257e+00 3.108688e+00 5.845152e+00 3.884524e-01 1.049502e+00 4.961860e-01 8.958682e-01 9.961396e-01 7.669048e-01 8.536872e-01 8.606953e-01 7.862945e-01 6.089802e-01 7.145841e-01 5.553253e-01 1.078766e+00
<GCONST> 1.364183e+02
<STATE> 3
<MEAN> 39
 -5.964757e+00 4.700775e+00 5.529251e+00 2.079192e+00 -4.494102e+00 -4.177747e+00 -5.091449e+00 -2.184551e+00 -4.294541e+00 -4.228341e+00 -2.755732e+00 -2.238656e+00 5.868787e+01 -1.115820e+00 -8.047907e-01 -3.086964e-01 -4.494434e-01 2.761512e-01 4.907396e-01 1.280303e-01 3.742954e-01 2.544436e-01 3.269638e-01 5.731425e-01 2.567115e-02 4.818380e-01 6.618972e-03 -5.737457e-01 -2.685361e-01 -4.887764e-01 -4.969465e-01 -1.773106e-01 -2.745422e-01 1.380818e-01 6.839228e-03 1.535009e-01 2.621993e-01 1.896329e-01 8.343046e-01
<VARIANCE> 39
 3.079421e+01 5.186684e+01 3.243765e+01 4.406329e+01 5.172666e+01 4.496278e+01 4.136700e+01 4.111867e+01 3.711757e+01 2.618001e+01 3.171030e+01 2.379980e+01 5.731066e+01 3.385200e+00 6.297268e+00 3.070956e+00 4.909030e+00 6.119207e+00 4.857121e+00 4.914536e+00 4.524409e+00 4.469685e+00 2.974152e+00 3.609711e+00 2.926085e+00 6.902358e+00 6.689862e-01 1.101897e+00 5.992540e-01 9.185189e-01 1.136985e+00 9.182724e-01 9.504313e-01 8.520745e-01 7.855614e-01 5.890387e-01 7.411655e-01 6.019202e-01 1.191238e+00
<GCONST> 1.357328e+02
<STATE> 4
<MEAN> 39
 -9.256688e+00 6.727622e-01 3.554632e+00 -4.891357e-01 -5.276458e+00 -3.536536e+00 -5.251805e+00 -5.159583e-01 -3.498657e+00 -2.855518e+00 -5.374807e-01 -1.342546e+00 6.262041e+01 -3.263900e-01 -9.966853e-01 -5.571963e-01 -7.895368e-01 -6.395350e-01 -2.550738e-01 -4.488459e-01 3.870299e-01 2.080272e-01 3.453317e-01 5.757429e-01 2.458035e-01 1.442426e+00 3.682930e-01 7.355202e-02 -7.078511e-02 -3.934247e-02 -1.840376e-01 -1.567245e-01 -1.248767e-01 -4.370205e-02 -4.466728e-02 -4.179500e-02 -6.975877e-02 9.296510e-03 1.011555e-01
<VARIANCE> 39
 5.468224e+01 5.635940e+01 4.402876e+01 5.177968e+01 5.986206e+01 5.340297e+01 5.601420e+01 4.896319e+01 4.164806e+01 2.796888e+01 3.391660e+01 2.572154e+01 7.169808e+01 5.755837e+00 4.603909e+00 3.692124e+00 4.288513e+00 5.964324e+00 5.409590e+00 5.589792e+00 4.506168e+00 4.550911e+00 3.075524e+00 3.618413e+00 3.012624e+00 6.316733e+00 1.028654e+00 8.615673e-01 6.281492e-01 8.169628e-01 1.154422e+00 9.851890e-01 1.059319e+00 8.260874e-01 7.665339e-01 5.819789e-01 6.516335e-01 5.780221e-01 1.095975e+00
<GCONST> 1.386588e+02
<TRANSP> 5
 0.000000e+00 1.000000e+00 0.000000e+00 0.000000e+00 0.000000e+00
 0.000000e+00 4.881368e-01 5.118632e-01 0.000000e+00 0.000000e+00
 0.000000e+00 0.000000e+00 4.366374e-01 5.633626e-01 0.000000e+00
 0.000000e+00 0.000000e+00 0.000000e+00 5.490481e-01 4.509519e-01
 0.000000e+00 0.000000e+00 0.000000e+00 0.000000e+00 0.000000e+00
<ENDHMM>
~h "f"
<BEGINHMM>
<NUMSTATES> 5
<STATE> 2
<MEAN> 39
 -1.493510e+01 6.785046e-01 -7.099546e-01 2.661947e+00 -1.364271e+00 3.513349e-01 -1.989225e+00 2.250075e+00 -3.083743e-01 -9.983742e-01 -5.209676e-01 -6.981061e-01 5.996889e+01 -1.740853e+00 -2.978383e-01 -3.564398e-01 5.533196e-01 4.090835e-01 5.143267e-01 4.687240e-01 5.161837e-01 3.593860e-01 3.738335e-01 3.302213e-01 3.195584e-01 -7.656385e-01 4.111399e-01 -1.464565e-01 -6.153735e-02 -3.097908e-01 -2.611238e-01 -1.516524e-01 -2.151951e-01 -1.855163e-01 -1.082320e-01 -4.598723e-03 3.586807e-03 -2.885056e-02 2.105760e-01
<VARIANCE> 39
 4.463357e+01 3.334926e+01 2.537600e+01 2.886753e+01 2.631813e+01 3.744563e+01 2.928053e+01 2.865175e+01 2.476511e+01 2.304608e+01 2.103937e+01 2.120085e+01 3.569916e+01 4.707902e+00 2.765021e+00 2.586638e+00 2.854060e+00 2.723202e+00 2.826975e+00 2.692462e+00 3.011741e+00 2.755672e+00 2.423164e+00 2.177538e+00 1.997396e+00 2.042394e+00 5.508648e-01 5.613667e-01 4.264580e-01 5.372108e-01 5.410498e-01 4.749473e-01 5.343003e-01 5.515281e-01 5.197721e-01 4.627119e-01 4.002663e-01 3.952247e-01 3.378181e-01
<GCONST> 1.184272e+02
<STATE> 3
<MEAN> 39
 -1.663846e+01 -2.262371e+00 -1.510051e+00 1.748505e+00 -7.667278e-01 4.280620e-01 -6.619329e-01 3.077317e+00 2.686141e-01 -7.772356e-01 7.803838e-01 2.941025e-01 5.703866e+01 -1.312508e-02 -1.703076e-01 -1.676526e-01 -5.973613e-02 -4.973439e-02 4.043074e-02 -4.701728e-02 -6.731852e-02 -1.176625e-02 7.666280e-02 5.342788e-02 1.852294e-02 -2.337715e-02 3.335891e-01 2.664239e-03 -5.773801e-03 -1.465165e-01 -9.297437e-02 -1.183021e-01 -1.094464e-01 -9.417927e-02 -4.935667e-02 -6.136010e-02 -5.242802e-02 -5.533224e-02 1.598629e-01
<VARIANCE> 39
 2.206819e+01 3.557595e+01 1.614584e+01 2.005272e+01 1.781577e+01 2.548848e+01 2.280755e+01 1.915849e+01 1.894375e+01 2.038147e+01 1.669758e+01 1.512248e+01 3.897183e+01 1.399247e+00 1.462599e+00 1.097947e+00 1.301483e+00 1.331285e+00 1.571044e+00 1.585596e+00 1.628722e+00 1.659595e+00 1.648988e+00 1.521600e+00 1.369426e+00 1.221246e+00 4.126085e-01 2.687028e-01 2.196789e-01 3.041141e-01 3.116757e-01 3.533573e-01 3.518300e-01 3.549575e-01 3.562592e-01 3.413695e-01 3.205494e-01 2.884631e-01 2.176537e-01
<GCONST> 1.009677e+02
<STATE> 4
<MEAN> 39
 -1.379893e+01 -2.126441e+00 -3.687813e+00 8.994625e-01 -2.686529e+00 2.418325e-01 -3.401618e+00 1.082955e+00 -2.938945e-01 -5.975842e-03 4.012233e-01 -5.802558e-01 6.071140e+01 2.955763e+00 -1.236656e-01 -4.495213e-01 -1.573120e+00 -1.220436e+00 -1.025966e+00 -1.117420e+00 -8.300254e-01 -3.693303e-01 -4.460137e-01 -4.019432e-01 -5.095200e-01 1.329384e+00 6.602671e-01 9.978852e-02 9.914765e-02 -3.094723e-01 -2.823483e-01 -1.965756e-01 -2.882796e-01 -1.045758e-01 -8.222153e-02 -1.400169e-01 -1.056817e-01 -1.483678e-01 3.458882e-01
<VARIANCE> 39
 6.274643e+01 3.084440e+01 3.281379e+01 3.035616e+01 3.157873e+01 3.750590e+01 3.405592e+01 2.541729e+01 2.483782e+01 2.302577e+01 2.106197e+01 1.988458e+01 3.552525e+01 8.250500e+00 4.000395e+00 3.318599e+00 4.262702e+00 4.220669e+00 4.195366e+00 4.325963e+00 3.215148e+00 3.435976e+00 2.758396e+00 2.833824e+00 2.371018e+00 3.522015e+00 1.141398e+00 5.937880e-01 4.763055e-01 6.130767e-01 6.860316e-01 7.036383e-01 7.336773e-01 5.695366e-01 6.076638e-01 5.050386e-01 5.078629e-01 4.356401e-01 4.568670e-01
<GCONST> 1.263177e+02
<TRANSP> 5
 0.000000e+00 1.000000e+00 0.000000e+00 0.000000e+00 0.000000e+00
 0.000000e+00 6.988086e-01 3.011914e-01 0.000000e+00 0.000000e+00
 0.000000e+00 0.000000e+00 8.693029e-01 1.306971e-01 0.000000e+00
 0.000000e+00 0.000000e+00 0.000000e+00 6.590416e-01 3.409583e-01
 0.000000e+00 0.000000e+00 0.000000e+00 0.000000e+00 0.000000e+00
<ENDHMM>
~h "g"
<BEGINHMM>
<NUMSTATES> 5
<STATE> 2
<MEAN> 39
 -3.536742e+00 4.602095e+00 4.390929e+00 -6.306672e-02 -7.124485e+00 -6.629586e+00 -5.836764e+00 -3.790820e+00 -7.903153e+00 -1.776496e+00 -2.742888e+00 -3.655742e+00 6.093771e+01 -3.998458e-01 1.039384e+00 2.742303e-01 8.096182e-01 8.958396e-01 4.315950e-01 5.485131e-01 -5.070362e-01 2.208686e-01 -1.140060e-01 -4.875423e-01 -2.794684e-01 -1.465007e+00 -1.623172e-01 -5.983121e-01 -4.454555e-01 -2.663113e-01 1.152320e-01 9.397892e-02 -1.937173e-01 2.426924e-01 2.605084e-01 8.419114e-02 1.159846e-01 1.343122e-01 4.953257e-01
<VARIANCE> 39
 3.084018e+01 5.914450e+01 6.019243e+01 6.402203e+01 6.641086e+01 6.897677e+01 5.498841e+01 5.826641e+01 5.790316e+01 4.146820e+01 5.595630e+01 2.939593e+01 5.687895e+01 2.708091e+00 7.469959e+00 4.628550e+00 4.976645e+00 6.848273e+00 6.275734e+00 6.057280e+00 6.046629e+00 5.997243e+00 4.552833e+00 4.455927e+00 3.193977e+00 6.723937e+00 4.063274e-01 1.459989e+00 8.065087e-01 8.451080e-01 1.184755e+00 1.035861e+00 1.079552e+00 1.113835e+00 1.186265e+00 1.043267e+00 8.678830e-01 6.273707e-01 1.240734e+00
<GCONST> 1.438530e+02
<STATE> 3
<MEAN> 39
 -6.237456e+00 4.501470e+00 4.153474e+00 1.606302e+00 -3.875879e+00 -4.710997e+00 -4.779631e+00 -4.191012e+00 -6.625992e+00 -1.324462e+00 -3.261192e+00 -3.029324e+00 5.884463e+01 -5.115179e-01 -1.560020e+00 -9.715772e-01 -6.542821e-01 2.396424e-01 8.101960e-02 -4.744402e-01 3.041330e-01 1.670160e-01 7.428662e-01 3.583855e-01 3.723871e-01 1.267015e+00 2.800028e-01 -3.791704e-01 -1.667056e-01 -4.755660e-01 -5.198798e-01 -3.524341e-01 -3.261042e-01 1.164911e-01 -7.447757e-02 1.766967e-01 2.722513e-01 7.654398e-02 7.732074e-01
<VARIANCE> 39
 2.639237e+01 6.070293e+01 6.056022e+01 4.630330e+01 7.660466e+01 5.215476e+01 4.242074e+01 4.585836e+01 3.692670e+01 3.387534e+01 3.616863e+01 2.485050e+01 5.147522e+01 3.490950e+00 7.490471e+00 6.190383e+00 5.045960e+00 9.714455e+00 6.078444e+00 5.333449e+00 5.283225e+00 4.693072e+00 5.040985e+00 4.074601e+00 3.202776e+00 6.228850e+00 6.592209e-01 1.539981e+00 1.107568e+00 8.773899e-01 1.522759e+00 1.213320e+00 1.035635e+00 1.125359e+00 9.565260e-01 9.946191e-01 8.565662e-01 6.603614e-01 9.912642e-01
<GCONST> 1.425440e+02
<STATE> 4
<MEAN> 39
 -5.181851e+00 -9.483066e-01 6.603375e-01 -3.216332e+00 -6.694639e+00 -6.522682e+00 -7.379835e+00 -2.990489e+00 -6.608673e+00 1.808894e+00 -1.074615e+00 -2.418171e+00 6.585573e+01 7.277979e-01 -9.812992e-01 -8.099754e-01 -1.230523e+00 -8.806388e-01 -5.869743e-01 -5.627098e-01 4.066471e-01 4.446358e-01 3.104826e-01 6.146951e-01 -1.366644e-01 1.800128e+00 1.559043e-01 2.069158e-01 8.905514e-02 7.646432e-02 -1.232339e-02 1.884927e-02 1.621367e-01 8.797070e-02 1.738161e-01 -3.819317e-01 -1.062617e-01 -1.066248e-01 -1.284082e-01
<VARIANCE> 39
 3.474545e+01 4.795211e+01 9.710274e+01 5.769608e+01 1.148050e+02 7.250461e+01 5.525572e+01 6.802296e+01 4.901916e+01 4.115154e+01 5.896677e+01 3.316987e+01 5.645351e+01 3.804602e+00 4.244215e+00 5.139206e+00 4.299314e+00 7.728340e+00 6.358254e+00 6.230476e+00 5.541779e+00 5.085492e+00 4.950479e+00 4.879709e+00 3.988388e+00 3.335608e+00 6.920507e-01 9.277564e-01 1.081836e+00 7.556834e-01 1.781870e+00 1.269168e+00 1.065511e+00 1.032821e+00 9.838912e-01 9.466133e-01 9.662942e-01 6.711220e-01 6.191490e-01
<GCONST> 1.442027e+02
<TRANSP> 5
 0.000000e+00 1.000000e+00 0.000000e+00 0.000000e+00 0.000000e+00
 0.000000e+00 6.304129e-01 3.695871e-01 0.000000e+00 0.000000e+00
 0.000000e+00 0.000000e+00 5.965493e-01 4.034508e-01 0.000000e+00
 0.000000e+00 0.000000e+00 0.000000e+00 6.165024e-01 3.834975e-01
 0.000000e+00 0.000000e+00 0.000000e+00 0.000000e+00 0.000000e+00
<ENDHMM>
~h "k"
<BEGINHMM>
<NUMSTATES> 5
<STATE> 2
<MEAN> 39
 -7.757947e+00 3.477110e+00 2.578310e+00 2.231045e+00 -3.749676e+00 -5.140533e+00 -2.018739e+00 3.696890e-01 -4.102170e+00 -5.943158e-01 -8.232353e-01 -2.136891e+00 5.693980e+01 -1.397680e+00 3.656952e-01 -5.384155e-01 8.086878e-01 1.673440e+00 1.168995e+00 8.516237e-01 2.282127e-01 1.090638e+00 2.791221e-01 2.611441e-01 4.890338e-01 -2.477880e+00 -1.711975e-01 -8.643243e-01 -5.268012e-01 -5.428737e-01 -1.452613e-01 7.458417e-02 -2.580796e-01 8.604901e-02 1.432873e-01 3.941898e-02 -1.406229e-02 1.027273e-01 9.024799e-01
<VARIANCE> 39
 3.190741e+01 3.389640e+01 3.753161e+01 3.716951e+01 6.544263e+01 5.253500e+01 5.193773e+01 6.064074e+01 4.894639e+01 3.309343e+01 3.491730e+01 2.507135e+01 4.919347e+01 3.385747e+00 6.404737e+00 4.802968e+00 4.067243e+00 5.879364e+00 5.376324e+00 5.498977e+00 5.877269e+00 5.324158e+00 3.910307e+00 3.967244e+00 2.738275e+00 5.996101e+00 4.405861e-01 9.660789e-01 7.039173e-01 6.438692e-01 1.141151e+00 9.736364e-01 9.558553e-01 9.781131e-01 1.076629e+00 8.311667e-01 6.750114e-01 5.122506e-01 1.195314e+00
<GCONST> 1.377504e+02
<STATE> 3
<MEAN> 39
 -1.221488e+01 4.569724e-01 -8.007064e-01 2.222951e+00 1.501551e-01 -1.821498e+00 -1.063950e+00 1.478808e+00 -8.785020e-01 8.561571e-01 1.307412e-01 -2.627508e-01 5.411414e+01 -9.879445e-01 -1.984769e+00 -1.536393e+00 -7.708530e-01 3.192647e-01 2.665663e-01 -2.326926e-01 4.073239e-01 2.560099e-01 7.043457e-01 1.208299e-01 5.125588e-01 1.303733e+00 2.010508e-01 -9.794280e-02 1.973256e-03 -3.896111e-01 -4.788648e-01 -3.944373e-01 -3.238716e-01 -6.778153e-02 -3.158097e-01 7.840984e-03 -5.634858e-02 -6.151274e-02 9.963608e-01
<VARIANCE> 39
 1.761660e+01 4.195782e+01 3.386470e+01 2.581856e+01 3.663546e+01 3.451250e+01 3.529837e+01 3.114558e+01 2.845316e+01 2.377873e+01 2.163233e+01 1.764558e+01 4.001523e+01 2.987382e+00 5.194665e+00 5.603986e+00 3.737210e+00 5.572615e+00 5.213291e+00 4.843111e+00 4.667976e+00 4.437305e+00 3.614425e+00 3.038104e+00 2.559078e+00 6.428567e+00 5.278130e-01 1.164326e+00 9.127514e-01 6.909155e-01 8.904886e-01 9.138818e-01 9.007120e-01 8.174880e-01 7.426241e-01 6.728796e-01 6.163610e-01 4.666061e-01 1.132158e+00
<GCONST> 1.310340e+02
<STATE> 4
<MEAN> 39
 -1.361256e+01 -4.407364e+00 -4.717531e+00 -2.392449e+00 -1.031324e+00 -2.081019e+00 -2.529314e+00 1.557291e+00 -1.727418e+00 2.522280e+00 4.784599e-02 4.463738e-01 6.226449e+01 5.226856e-01 6.233995e-02 -3.773785e-02 -7.717826e-01 -8.240488e-01 -2.225200e-01 -3.360146e-01 -3.486363e-01 -3.457649e-01 -4.091418e-01 -2.285826e-01 -3.154252e-01 1.455166e+00 5.351430e-01 5.007670e-01 4.099102e-01 7.226136e-02 -2.839045e-01 -6.279533e-02 -6.871812e-02 -2.032531e-01 -1.074124e-01 -3.999290e-01 -8.942594e-02 -2.578930e-01 -1.051355e-01
<VARIANCE> 39
 3.610101e+01 4.286880e+01 7.229388e+01 4.139402e+01 6.065568e+01 5.776418e+01 4.959690e+01 4.686660e+01 3.787315e+01 3.656951e+01 3.234013e+01 2.381635e+01 3.339856e+01 5.702016e+00 4.223502e+00 4.836040e+00 4.230371e+00 5.248807e+00 5.464951e+00 4.850818e+00 5.058678e+00 4.170955e+00 4.295475e+00 3.826759e+00 2.982767e+00 3.620934e+00 6.729494e-01 9.316149e-01 9.751453e-01 8.112561e-01 9.639288e-01 1.034854e+00 9.893429e-01 9.316238e-01 8.216557e-01 7.861713e-01 7.390420e-01 5.680425e-01 7.327086e-01
<GCONST> 1.372896e+02
<TRANSP> 5
 0.000000e+00 1.000000e+00 0.000000e+00 0.000000e+00 0.000000e+00
 0.000000e+00 6.155270e-01 3.844730e-01 0.000000e+00 0.000000e+00
 0.000000e+00 0.000000e+00 5.803931e-01 4.196070e-01 0.000000e+00
 0.000000e+00 0.000000e+00 0.000000e+00 7.219572e-01 2.780428e-01
 0.000000e+00 0.000000e+00 0.000000e+00 0.000000e+00 0.000000e+00
<ENDHMM>
~h "l"
<BEGINHMM>
<NUMSTATES> 5
<STATE> 2
<MEAN> 39
 5.710999e-01 1.725222e+00 -7.055833e+00 -1.482521e+01 -6.379791e+00 3.016761e+00 -8.735199e+00 -6.064429e+00 -3.493359e+00 -2.987016e+00 9.115407e-01 -1.908886e+00 6.829277e+01 6.661106e-01 7.426181e-01 -3.399468e-01 -1.488588e+00 -1.122901e-01 8.648747e-01 -3.059998e-02 -3.110517e-01 -5.532140e-01 -6.972194e-01 7.218330e-01 5.040501e-01 -9.720854e-02 -2.687489e-01 -4.374758e-02 1.717698e-01 4.271971e-01 3.407162e-02 -2.786755e-01 9.431359e-02 3.067653e-01 7.821094e-02 -4.606082e-02 -1.476728e-01 1.518348e-02 -1.213946e-01
<VARIANCE> 39
 1.899416e+01 4.804756e+01 3.180105e+01 6.029556e+01 4.989495e+01 7.990827e+01 7.958257e+01 6.589313e+01 5.183765e+01 4.820966e+01 5.919730e+01 4.575696e+01 2.932296e+01 1.647640e+00 2.416666e+00 1.789803e+00 3.468331e+00 3.060499e+00 3.532036e+00 4.066576e+00 3.992347e+00 3.993511e+00 4.068058e+00 4.128521e+00 3.522071e+00 1.845631e+00 2.998258e-01 4.576656e-01 3.043680e-01 5.919208e-01 5.733162e-01 5.694926e-01 6.858562e-01 7.608900e-01 8.078839e-01 7.970377e-01 7.834452e-01 7.003287e-01 2.289438e-01
<GCONST> 1.284825e+02
<STATE> 3
<MEAN> 39
 1.357930e+00 5.496352e+00 -6.494063e+00 -1.731101e+01 -7.037047e+00 4.252575e+00 -8.422701e+00 -4.963973e+00 -5.075469e+00 -6.422333e+00 2.399429e+00 -1.723669e-01 6.632736e+01 -1.839048e-01 -1.323275e-02 1.237422e-01 4.310243e-01 3.200441e-01 -3.542325e-01 -2.891949e-01 1.328678e-01 2.698782e-01 2.833942e-01 -1.685869e-01 -3.232837e-01 -2.547160e-02 -2.857473e-01 -2.808649e-01 1.511775e-01 5.901445e-01 1.442568e-01 -2.513245e-01 -1.537059e-02 1.096689e-01 2.426470e-01 3.011406e-01 -2.064424e-01 -2.035733e-01 2.514410e-02
<VARIANCE> 39
 1.416026e+01 3.894654e+01 3.028784e+01 5.704147e+01 4.672765e+01 6.716422e+01 6.768316e+01 6.762823e+01 4.892513e+01 4.776843e+01 4.634843e+01 3.809723e+01 2.283549e+01 7.654396e-01 3.927102e+00 1.492708e+00 3.283368e+00 2.595153e+00 2.593297e+00 4.117275e+00 3.376298e+00 4.078938e+00 3.968274e+00 3.049380e+00 2.874170e+00 2.179409e+00 2.238482e-01 4.514290e-01 2.803006e-01 6.685208e-01 5.323586e-01 5.551397e-01 7.059268e-01 7.341095e-01 7.554446e-01 7.041200e-01 6.749725e-01 5.717270e-01 2.768032e-01
<GCONST> 1.245376e+02
<STATE> 4
<MEAN> 39
 -1.170842e+00 2.165998e+00 -5.348188e+00 -1.133369e+01 -4.880673e+00 3.104353e-01 -1.075547e+01 -3.967638e+00 -1.417354e+00 -2.674663e+00 -3.978059e-01 -3.381182e+00 6.731572e+01 -1.032369e+00 -6.823778e-01 1.141600e+00 2.261302e+00 -1.206950e-01 -1.429517e+00 1.479788e-01 1.206945e+00 7.510576e-01 2.019068e-01 -1.009294e+00 -2.212044e-01 -2.038600e-02 -2.149180e-01 5.644094e-02 3.066329e-01 1.994656e-01 -2.719840e-01 -4.911475e-02 4.761330e-01 1.193518e-01 -3.571129e-01 -2.279049e-01 1.017714e-01 2.464281e-01 -1.734684e-01
<VARIANCE> 39
 2.098568e+01 5.280420e+01 3.754569e+01 6.208021e+01 4.369801e+01 8.219409e+01 8.898116e+01 8.457293e+01 6.851639e+01 5.588813e+01 5.858898e+01 4.667661e+01 4.416151e+01 1.890037e+00 4.539417e+00 2.829112e+00 5.761292e+00 6.443031e+00 4.130777e+00 6.700658e+00 6.430283e+00 6.971764e+00 5.332417e+00 4.753262e+00 4.217476e+00 3.697749e+00 2.944216e-01 6.106219e-01 4.325753e-01 7.949401e-01 7.799185e-01 7.335905e-01 1.079804e+00 1.162794e+00 1.458153e+00 1.033141e+00 9.661106e-01 7.824841e-01 3.678622e-01
<GCONST> 1.394285e+02
<TRANSP> 5
 0.000000e+00 1.000000e+00 0.000000e+00 0.000000e+00 0.000000e+00
 0.000000e+00 6.878009e-01 3.121990e-01 0.000000e+00 0.000000e+00
 0.000000e+00 0.000000e+00 7.091851e-01 2.908149e-01 0.000000e+00
 0.000000e+00 0.000000e+00 0.000000e+00 6.059790e-01 3.940210e-01
 0.000000e+00 0.000000e+00 0.000000e+00 0.000000e+00 0.000000e+00
<ENDHMM>
~h "m"
<BEGINHMM>
<NUMSTATES> 5
<STATE> 2
<MEAN> 39
 -1.851180e-01 -4.584767e-01 1.446381e+00 -2.356952e+00 -4.817286e+00 -1.218295e+00 -7.994380e+00 -6.080303e+00 -7.668612e+00 -3.526689e+00 -1.123460e+00 -5.806861e+00 6.584341e+01 2.613979e-01 6.733302e-01 7.619802e-01 8.006856e-01 3.618429e-01 -3.876673e-02 -5.259700e-02 -1.349151e+00 -1.416997e+00 -1.976626e-02 5.811939e-01 -1.328278e-02 -5.677679e-01 -1.856373e-01 -8.054306e-02 -1.220893e-02 -1.002564e-01 -1.192081e-01 -6.436448e-02 3.483611e-02 3.077253e-01 1.879311e-01 -3.576075e-02 -9.154841e-02 1.001749e-01 1.180700e-01
<VARIANCE> 39
 2.591725e+01 4.592136e+01 9.188659e+01 5.783371e+01 4.214365e+01 7.886214e+01 4.783081e+01 6.993712e+01 6.452581e+01 3.968144e+01 5.956294e+01 4.220718e+01 3.950301e+01 1.090236e+00 2.378621e+00 2.994137e+00 2.874568e+00 2.673278e+00 2.941142e+00 3.051484e+00 4.720860e+00 5.045865e+00 3.116791e+00 3.128426e+00 2.715557e+00 2.035058e+00 1.930023e-01 3.615763e-01 4.609698e-01 4.979127e-01 4.280903e-01 4.853838e-01 5.087172e-01 7.740662e-01 8.468906e-01 5.290304e-01 5.565873e-01 4.649633e-01 2.501131e-01
<GCONST> 1.261781e+02
<STATE> 3
<MEAN> 39
 7.661572e-01 1.964625e+00 3.844305e+00 4.217799e-01 -4.311470e+00 -2.326842e+00 -7.710837e+00 -9.326105e+00 -1.171196e+01 -3.997902e+00 3.136610e-01 -4.778491e+00 6.393282e+01 -8.095206e-02 3.042651e-02 -3.428208e-02 -1.250724e-01 -1.214120e-01 -2.033416e-02 2.758346e-02 2.858382e-01 2.039915e-01 -1.192446e-01 -2.235535e-01 -1.986047e-02 1.389380e-01 -1.476179e-01 -3.055246e-01 -3.432849e-01 -4.300102e-01 -2.225806e-01 4.399737e-02 7.603981e-02 7.027152e-01 6.736264e-01 -1.214016e-02 -2.486219e-01 -2.255160e-03 2.917879e-01
<VARIANCE> 39
 1.693907e+01 3.008391e+01 5.319651e+01 5.218814e+01 3.792756e+01 7.489739e+01 4.931197e+01 6.229248e+01 4.596803e+01 4.131162e+01 6.040671e+01 3.969087e+01 2.333406e+01 5.720582e-01 2.346343e+00 2.301765e+00 2.538169e+00 2.098349e+00 2.343066e+00 2.539239e+00 4.022648e+00 4.285310e+00 2.497408e+00 2.658410e+00 2.320547e+00 1.627026e+00 1.477016e-01 3.218896e-01 4.168075e-01 4.737514e-01 4.533983e-01 4.550038e-01 5.513592e-01 8.309084e-01 8.482924e-01 5.980539e-01 6.181543e-01 5.042092e-01 2.063938e-01
<GCONST> 1.205056e+02
<STATE> 4
<MEAN> 39
 -3.195770e-01 -1.682014e-01 5.355264e-01 -2.575282e+00 -5.476295e+00 -2.442367e+00 -7.210437e+00 -4.768236e+00 -6.360143e+00 -4.243275e+00 -2.082612e+00 -5.047338e+00 6.576846e+01 -5.394307e-01 -8.549914e-01 -7.503593e-01 -1.172020e+00 -7.293675e-01 2.047472e-03 3.297536e-01 2.034725e+00 1.740118e+00 -1.567156e-01 -6.304982e-01 9.455010e-02 9.642937e-01 -1.899509e-01 -6.667462e-02 1.058614e-02 -9.457728e-02 -4.539257e-02 1.487162e-02 1.279641e-01 1.867215e-01 1.498031e-02 2.463295e-02 9.827036e-02 1.096952e-01 5.218743e-02
<VARIANCE> 39
 2.436343e+01 4.806104e+01 5.195709e+01 6.388308e+01 4.387296e+01 7.635176e+01 5.101196e+01 7.354131e+01 6.379477e+01 3.753883e+01 5.054315e+01 3.678255e+01 4.534123e+01 1.293785e+00 3.328921e+00 3.058162e+00 3.909992e+00 3.877122e+00 3.209896e+00 4.052095e+00 5.665033e+00 5.439688e+00 3.812203e+00 3.801010e+00 3.084737e+00 2.817584e+00 2.071371e-01 5.021403e-01 4.813678e-01 6.208987e-01 5.701323e-01 5.055110e-01 6.581269e-01 9.592230e-01 9.965798e-01 5.960957e-01 6.036593e-01 5.030213e-01 3.341065e-01
<GCONST> 1.304619e+02
<TRANSP> 5
 0.000000e+00 1.000000e+00 0.000000e+00 0.000000e+00 0.000000e+00
 0.000000e+00 6.696521e-01 3.303479e-01 0.000000e+00 0.000000e+00
 0.000000e+00 0.000000e+00 6.753976e-01 3.246024e-01 0.000000e+00
 0.000000e+00 0.000000e+00 0.000000e+00 6.084374e-01 3.915626e-01
 0.000000e+00 0.000000e+00 0.000000e+00 0.000000e+00 0.000000e+00
<ENDHMM>
~h "n"
<BEGINHMM>
<NUMSTATES> 5
<STATE> 2
<MEAN> 39
 -1.678421e+00 -1.769021e+00 2.977508e+00 -3.996115e+00 -9.066045e+00 -3.679422e+00 -5.663046e+00 -6.246772e-01 -6.616906e+00 -4.578020e+00 -3.490065e+00 -3.361504e+00 6.787251e+01 3.155537e-01 8.599658e-01 6.215763e-01 6.796215e-01 1.898355e-01 -8.545969e-02 3.765027e-01 -1.197716e+00 -1.076792e+00 2.861850e-01 -3.144820e-01 3.236366e-01 -8.701471e-01 -1.180820e-01 9.262893e-02 -4.187289e-02 2.120917e-02 7.166425e-02 1.723340e-02 2.252463e-02 -5.946495e-02 7.872108e-02 1.764004e-02 3.708028e-02 3.827195e-02 -6.447472e-02
<VARIANCE> 39
 2.755153e+01 3.932407e+01 6.001850e+01 5.167516e+01 4.051294e+01 6.203389e+01 4.303960e+01 9.853495e+01 6.920093e+01 3.857953e+01 6.299063e+01 4.507313e+01 3.443327e+01 8.369220e-01 2.527727e+00 2.784969e+00 2.329092e+00 2.740090e+00 2.840300e+00 3.269933e+00 5.641587e+00 5.005652e+00 2.772927e+00 2.609788e+00 2.149107e+00 2.110251e+00 1.722692e-01 3.449635e-01 4.118399e-01 4.103321e-01 4.615981e-01 4.378172e-01 5.255740e-01 9.647469e-01 8.014390e-01 4.689543e-01 4.482226e-01 3.897456e-01 2.794535e-01
<GCONST> 1.240767e+02
<STATE> 3
<MEAN> 39
 -6.276734e-01 2.382375e+00 5.237653e+00 -9.098210e-01 -8.569455e+00 -4.418446e+00 -3.835196e+00 -5.814700e+00 -1.016555e+01 -3.489012e+00 -4.681979e+00 -1.195184e+00 6.365203e+01 -8.589920e-02 7.912199e-01 2.389913e-01 4.151177e-01 3.454593e-01 5.313538e-02 1.616247e-01 -5.963833e-01 -2.624858e-01 3.714541e-02 -8.445749e-02 1.720310e-01 -6.870110e-01 -2.969994e-01 -2.389789e-01 -2.490602e-01 -1.901408e-01 1.173807e-01 8.538272e-02 -1.531224e-01 5.855502e-01 5.280472e-01 -1.706266e-01 1.645237e-01 -1.519789e-01 2.320277e-01
<VARIANCE> 39
 2.363337e+01 3.441269e+01 4.334905e+01 4.684098e+01 3.315781e+01 3.827913e+01 3.677856e+01 8.897030e+01 5.505767e+01 3.518615e+01 5.402184e+01 4.422320e+01 2.740264e+01 7.908906e-01 2.867033e+00 2.020213e+00 2.150665e+00 2.479096e+00 2.182831e+00 2.708683e+00 5.171354e+00 4.394799e+00 2.351128e+00 2.353763e+00 2.072058e+00 1.904940e+00 2.177678e-01 4.227602e-01 4.480201e-01 4.414496e-01 5.156147e-01 4.405834e-01 5.559358e-01 9.118721e-01 8.881473e-01 5.068145e-01 4.833006e-01 4.431890e-01 2.708924e-01
<GCONST> 1.212597e+02
<STATE> 4
<MEAN> 39
 -3.365702e+00 2.759703e+00 4.219668e+00 -3.097059e-01 -6.268196e+00 -3.610784e+00 -3.881897e+00 -3.930656e+00 -7.630160e+00 -4.041826e+00 -4.198875e+00 -1.730266e+00 6.190931e+01 -9.341717e-01 -1.920219e-02 -4.072350e-01 -8.500218e-04 7.149679e-01 3.427835e-01 -8.819380e-02 8.511412e-01 9.577208e-01 -1.739036e-01 3.239627e-01 -2.370366e-01 -9.960350e-02 -3.396384e-01 -3.462887e-01 -2.770626e-01 -1.917663e-01 1.374570e-02 1.078342e-01 -1.663026e-02 3.762366e-01 3.376430e-01 3.485572e-02 1.917931e-01 -7.384256e-02 3.055423e-01
<VARIANCE> 39
 4.317475e+01 5.095693e+01 4.041243e+01 4.344460e+01 4.213391e+01 3.975750e+01 4.189333e+01 8.388245e+01 5.729440e+01 3.432565e+01 4.393976e+01 3.412481e+01 4.505716e+01 2.587164e+00 3.809623e+00 2.897644e+00 3.175065e+00 3.904230e+00 2.779429e+00 3.516881e+00 5.319036e+00 4.867459e+00 2.890362e+00 2.964828e+00 2.878091e+00 2.941863e+00 4.784025e-01 6.209047e-01 5.293237e-01 5.275648e-01 6.593870e-01 5.174266e-01 6.547902e-01 1.023758e+00 9.390073e-01 5.642899e-01 5.387611e-01 4.828158e-01 4.206719e-01
<GCONST> 1.300121e+02
<TRANSP> 5
 0.000000e+00 1.000000e+00 0.000000e+00 0.000000e+00 0.000000e+00
 0.000000e+00 6.708494e-01 3.291505e-01 0.000000e+00 0.000000e+00
 0.000000e+00 0.000000e+00 5.899122e-01 4.100878e-01 0.000000e+00
 0.000000e+00 0.000000e+00 0.000000e+00 5.739230e-01 4.260770e-01
 0.000000e+00 0.000000e+00 0.000000e+00 0.000000e+00 0.000000e+00
<ENDHMM>
~h "p"
<BEGINHMM>
<NUMSTATES> 5
<STATE> 2
<MEAN> 39
 -8.502533e+00 5.545497e+00 1.154291e+00 1.410745e+00 -2.953169e-01 -1.102815e+00 -2.485761e+00 -1.428560e+00 -9.934435e-01 -8.168782e-01 -4.812502e-01 -1.731339e+00 5.334467e+01 -1.456180e+00 1.419519e-01 5.945027e-02 7.052478e-01 6.414664e-01 5.904288e-01 1.264145e+00 6.802191e-01 6.259274e-01 3.304715e-01 1.864572e-01 2.876956e-01 -1.918302e+00 -2.131369e-02 -6.881930e-01 -3.336526e-01 -3.531430e-01 -3.645963e-01 -1.132982e-01 -3.067847e-01 5.942802e-02 5.247906e-03 6.444032e-02 7.785834e-02 6.189673e-02 9.002588e-01
<VARIANCE> 39
 3.523940e+01 2.250463e+01 2.349905e+01 2.269111e+01 2.320388e+01 2.890139e+01 3.302629e+01 2.817651e+01 2.833758e+01 2.238611e+01 2.151270e+01 2.012785e+01 2.852368e+01 4.309435e+00 4.059564e+00 3.147751e+00 2.988621e+00 2.894030e+00 3.237330e+00 3.601456e+00 3.207705e+00 3.156105e+00 2.498208e+00 2.488220e+00 2.046661e+00 4.564425e+00 5.232262e-01 6.991751e-01 5.352424e-01 5.070426e-01 5.387446e-01 5.612369e-01 7.325594e-01 5.794573e-01 5.603611e-01 4.929785e-01 4.660388e-01 3.973219e-01 6.590689e-01
<GCONST> 1.210961e+02
<STATE> 3
<MEAN> 39
 -1.250452e+01 1.369661e+00 -8.659413e-01 1.113084e+00 1.400352e-02 1.492940e-01 -5.782092e-01 1.001693e+00 7.211342e-01 1.678678e-01 8.019917e-01 -3.792624e-01 5.298798e+01 -3.310507e-01 -1.288843e+00 -7.534559e-01 -2.703195e-01 -3.207277e-01 4.839034e-02 -3.126284e-01 1.727819e-01 1.766821e-01 2.323394e-01 2.987888e-01 2.080174e-01 1.278493e+00 3.966659e-01 -1.813283e-01 -1.346555e-01 -2.284611e-01 -2.066326e-01 -1.271790e-01 -3.768389e-01 -1.578598e-01 -1.625270e-01 -8.945581e-02 -4.520540e-02 -6.313295e-02 6.998381e-01
<VARIANCE> 39
 1.430118e+01 3.127862e+01 1.705562e+01 1.707677e+01 1.884333e+01 2.150995e+01 2.295143e+01 2.042744e+01 1.954543e+01 1.869065e+01 1.721686e+01 1.558091e+01 3.527082e+01 2.065774e+00 3.337903e+00 2.321573e+00 2.060751e+00 2.603199e+00 2.686091e+00 3.477086e+00 2.561392e+00 2.522653e+00 2.364173e+00 2.181238e+00 1.922084e+00 4.503129e+00 3.934352e-01 5.423972e-01 4.354894e-01 4.697050e-01 5.428573e-01 6.255140e-01 7.317442e-01 5.250199e-01 5.187416e-01 4.663670e-01 4.531708e-01 3.742951e-01 9.396437e-01
<GCONST> 1.145931e+02
<STATE> 4
<MEAN> 39
 -1.126658e+01 -3.518221e+00 -4.668756e+00 -1.241179e+00 -1.826802e+00 1.293779e+00 -2.957522e+00 3.722993e-01 3.375709e-01 8.571323e-01 1.547215e+00 -4.313760e-01 6.151442e+01 1.445321e+00 -5.849015e-01 -7.519785e-01 -9.975694e-01 -7.450359e-01 -9.038675e-02 -9.047322e-01 -4.221021e-01 -4.420747e-01 -3.754496e-01 -2.909591e-01 -3.960573e-01 1.924351e+00 5.331553e-01 4.664356e-01 2.141117e-01 -1.674512e-01 -1.588929e-01 -2.446028e-01 -1.497086e-01 -1.746568e-01 -2.077291e-01 -2.689554e-01 -2.070227e-01 -1.791417e-01 -9.174250e-02
<VARIANCE> 39
 3.395251e+01 4.207353e+01 3.882255e+01 3.507664e+01 4.189523e+01 5.776560e+01 4.372882e+01 3.414988e+01 2.882541e+01 3.100060e+01 2.714420e+01 2.234810e+01 3.656616e+01 4.738561e+00 5.542871e+00 3.977721e+00 3.797689e+00 5.533995e+00 6.643506e+00 5.978018e+00 4.690188e+00 4.087366e+00 3.755150e+00 3.631317e+00 2.794027e+00 5.119655e+00 5.862021e-01 8.528798e-01 5.433463e-01 6.461365e-01 9.144068e-01 1.100310e+00 9.918811e-01 8.518569e-01 7.845734e-01 7.054072e-01 6.316015e-01 5.202928e-01 8.513480e-01
<GCONST> 1.338957e+02
<TRANSP> 5
 0.000000e+00 1.000000e+00 0.000000e+00 0.000000e+00 0.000000e+00
 0.000000e+00 6.882156e-01 3.117844e-01 0.000000e+00 0.000000e+00
 0.000000e+00 0.000000e+00 7.296577e-01 2.703423e-01 0.000000e+00
 0.000000e+00 0.000000e+00 0.000000e+00 6.817810e-01 3.182190e-01
 0.000000e+00 0.000000e+00 0.000000e+00 0.000000e+00 0.000000e+00
<ENDHMM>
~h "r"
<BEGINHMM>
<NUMSTATES> 5
<STATE> 2
<MEAN> 39
 -5.750915e-01 -4.114836e+00 -8.449404e+00 -1.493632e-01 -1.655676e+00 -7.329343e+00 -1.180431e+01 -8.228112e-01 -1.582386e+00 -1.707518e+00 1.552161e-01 -6.963869e-01 6.562538e+01 1.451814e+00 -1.952212e-01 -6.087694e-01 1.171233e-01 2.975575e-01 -1.369344e+00 -1.511357e+00 3.228595e-01 4.428840e-01 -4.548582e-01 -3.688838e-01 1.806934e-01 4.928950e-01 -2.009607e-01 4.140094e-03 4.258299e-01 -4.518673e-02 -3.318765e-01 -5.920574e-03 3.766623e-01 1.955718e-01 -1.657645e-01 -1.401961e-01 7.895954e-03 -2.555525e-02 2.654200e-02
<VARIANCE> 39
 6.860151e+01 4.288190e+01 4.999710e+01 3.862693e+01 4.233109e+01 9.615982e+01 6.935149e+01 6.839967e+01 7.788345e+01 4.137567e+01 4.740282e+01 2.691367e+01 3.475189e+01 5.825897e+00 3.059914e+00 3.710067e+00 3.286994e+00 3.870446e+00 6.228406e+00 5.262039e+00 4.808335e+00 5.609665e+00 3.801779e+00 3.581917e+00 2.357992e+00 2.455154e+00 7.664098e-01 5.502910e-01 5.467774e-01 4.571023e-01 6.293967e-01 8.944139e-01 9.910836e-01 9.251826e-01 8.584700e-01 6.804105e-01 6.114106e-01 4.491041e-01 3.524588e-01
<GCONST> 1.348862e+02
<STATE> 3
<MEAN> 39
 3.083438e+00 -5.940716e+00 -9.297619e+00 2.188414e-01 -2.063242e+00 -1.241442e+01 -1.561047e+01 2.323811e+00 -1.578534e-01 -3.373175e+00 -1.118605e+00 -3.056164e-01 6.788124e+01 2.285638e-01 -2.818825e-01 1.023893e+00 2.684748e-01 -9.518083e-01 -1.209066e+00 2.188426e-01 1.014522e+00 -3.275904e-01 -7.361596e-01 -2.435136e-02 8.233304e-02 4.305732e-01 -6.208091e-01 1.720158e-01 6.612279e-01 -1.004858e-01 -4.175207e-01 5.647923e-01 9.430290e-01 -1.778184e-01 -4.528704e-01 9.290127e-02 1.927218e-01 -1.316789e-01 -1.903511e-01
<VARIANCE> 39
 2.015581e+01 2.948091e+01 4.237698e+01 3.158264e+01 3.602170e+01 1.114091e+02 6.870756e+01 7.009228e+01 9.142890e+01 3.935685e+01 4.762286e+01 2.760699e+01 2.336196e+01 3.295983e+00 3.477598e+00 3.922659e+00 3.324023e+00 4.577267e+00 6.128412e+00 5.178735e+00 5.991232e+00 5.575494e+00 3.726615e+00 3.716175e+00 2.678631e+00 3.000224e+00 5.214655e-01 4.837121e-01 4.461106e-01 4.050830e-01 6.065248e-01 1.040135e+00 9.621023e-01 9.998428e-01 9.120566e-01 6.412840e-01 5.753680e-01 4.568571e-01 2.933733e-01
<GCONST> 1.320814e+02
<STATE> 4
<MEAN> 39
 7.329803e-01 -5.784067e+00 -3.283092e+00 4.419419e-01 -6.857430e+00 -1.322839e+01 -1.106460e+01 3.853795e+00 -3.409429e+00 -4.787580e+00 -2.948903e-01 -7.965703e-01 6.785526e+01 -1.006016e+00 6.588452e-01 2.125457e+00 -1.751956e-01 -1.281540e+00 8.555721e-01 1.711451e+00 -5.006654e-01 -1.008206e+00 -5.053004e-02 2.173173e-01 -3.644878e-01 -3.168109e-01 -3.769198e-01 3.341926e-01 1.325119e-02 -2.532572e-01 2.334092e-01 7.697918e-01 2.168770e-01 -5.169438e-01 1.566080e-02 3.332460e-01 -6.328060e-02 -1.604253e-01 -2.491069e-01
<VARIANCE> 39
 2.373610e+01 3.924766e+01 6.879719e+01 5.038173e+01 5.038741e+01 1.174752e+02 7.231765e+01 6.514945e+01 9.589032e+01 4.508269e+01 5.381854e+01 3.373200e+01 3.411762e+01 2.843321e+00 4.257359e+00 4.394528e+00 3.447138e+00 5.537593e+00 5.570246e+00 5.070208e+00 6.074381e+00 5.575601e+00 3.569589e+00 3.675388e+00 2.915874e+00 3.622598e+00 4.882306e-01 5.839387e-01 5.963085e-01 6.019282e-01 7.914156e-01 1.052598e+00 9.935713e-01 1.042770e+00 9.627199e-01 6.883413e-01 6.701655e-01 5.470915e-01 3.902007e-01
<GCONST> 1.371493e+02
<TRANSP> 5
 0.000000e+00 1.000000e+00 0.000000e+00 0.000000e+00 0.000000e+00
 0.000000e+00 5.831147e-01 4.168853e-01 0.000000e+00 0.000000e+00
 0.000000e+00 0.000000e+00 4.885552e-01 5.114449e-01 0.000000e+00
 0.000000e+00 0.000000e+00 0.000000e+00 5.598812e-01 4.401188e-01
 0.000000e+00 0.000000e+00 0.000000e+00 0.000000e+00 0.000000e+00
<ENDHMM>
~h "s"
<BEGINHMM>
<NUMSTATES> 5
<STATE> 2
<MEAN> 39
 -1.948025e+01 8.392822e+00 -2.758732e+00 1.263338e+00 2.604472e-01 -4.456656e+00 -1.668088e+00 5.433180e-01 -1.786119e+00 -2.824461e+00 -1.231505e+00 4.332476e-01 6.519576e+01 -3.998287e+00 1.028950e+00 -1.437261e+00 2.548527e-01 1.665285e+00 8.939893e-01 1.589078e+00 9.248375e-01 3.547814e-01 5.264541e-01 7.971087e-01 4.109462e-01 -5.699167e-02 5.210516e-01 -5.355132e-01 -8.206901e-02 -3.357261e-01 -3.571312e-01 -7.842021e-02 -2.646276e-01 -5.530472e-02 -7.917183e-03 8.185194e-02 -2.197716e-03 -1.818104e-02 -2.590757e-02
<VARIANCE> 39
 6.891170e+01 3.630626e+01 4.854237e+01 3.599418e+01 3.307823e+01 5.031517e+01 4.356372e+01 3.614392e+01 3.318563e+01 2.783493e+01 2.777174e+01 2.567284e+01 2.511202e+01 5.186552e+00 4.040254e+00 4.191757e+00 3.888496e+00 3.768531e+00 4.596085e+00 4.475451e+00 3.637304e+00 3.302560e+00 3.103495e+00 2.981834e+00 2.877594e+00 1.845008e+00 1.002709e+00 6.911624e-01 7.493432e-01 5.728933e-01 6.629653e-01 7.970421e-01 7.665260e-01 6.136605e-01 5.390158e-01 5.363024e-01 5.031800e-01 5.172461e-01 2.754297e-01
<GCONST> 1.284515e+02
<STATE> 3
<MEAN> 39
 -2.614431e+01 6.595226e+00 -7.150009e+00 -6.600195e-02 2.421914e+00 -2.734834e+00 1.152621e+00 2.891194e+00 -2.195137e-01 -7.641052e-01 1.112900e+00 1.767367e+00 6.364194e+01 -2.869317e-02 -3.344275e-01 5.492680e-02 -4.072044e-01 -3.875994e-02 -8.636631e-02 -8.327934e-02 1.517102e-01 9.679116e-02 9.039129e-02 -1.759660e-02 7.646989e-02 -1.922867e-01 7.942456e-01 -1.828358e-01 4.111598e-01 -3.508105e-02 -2.925086e-01 -1.431778e-01 -3.299527e-01 -1.527317e-01 -4.499016e-02 -1.143732e-01 -1.582962e-01 -1.053131e-01 -6.505498e-02
<VARIANCE> 39
 3.184559e+01 4.098315e+01 3.339314e+01 2.607567e+01 2.204721e+01 2.629933e+01 2.646358e+01 2.191876e+01 1.971724e+01 1.862871e+01 1.624826e+01 1.560033e+01 2.445214e+01 2.866370e+00 1.630131e+00 2.331328e+00 1.761111e+00 1.690234e+00 2.122286e+00 2.077773e+00 1.922530e+00 1.789358e+00 1.805112e+00 1.713570e+00 1.555835e+00 1.343726e+00 5.862796e-01 3.109961e-01 3.480704e-01 3.684701e-01 3.967448e-01 4.585506e-01 5.112512e-01 4.190574e-01 3.706706e-01 3.786858e-01 3.698022e-01 3.319928e-01 2.459225e-01
<GCONST> 1.085854e+02
<STATE> 4
<MEAN> 39
 -1.928310e+01 3.989348e+00 -2.686532e+00 -2.510007e+00 -2.438395e-01 -4.634511e+00 -2.963255e+00 2.202766e+00 -2.700916e-01 -1.306592e+00 -6.793965e-01 1.040996e+00 6.255759e+01 3.897180e+00 -1.245570e+00 1.334529e+00 -3.787197e-01 -1.699705e+00 -5.291443e-01 -1.744788e+00 -8.852936e-01 -8.483599e-02 -3.302591e-01 -5.422746e-01 -5.973508e-01 -8.564552e-02 3.762018e-01 -1.249826e-01 -9.880796e-02 6.210062e-02 -2.086997e-01 1.022169e-01 -5.465404e-02 -1.587212e-01 -5.789516e-02 1.033136e-02 4.833564e-02 -1.220438e-01 2.111997e-01
<VARIANCE> 39
 7.953448e+01 3.378881e+01 3.335742e+01 3.042179e+01 4.113271e+01 5.848642e+01 5.090269e+01 3.593253e+01 2.900439e+01 2.573635e+01 2.553050e+01 2.311677e+01 4.188965e+01 7.641434e+00 3.117598e+00 3.424947e+00 4.184855e+00 4.618840e+00 6.213173e+00 6.539816e+00 4.194541e+00 3.246048e+00 2.852238e+00 3.359139e+00 2.905985e+00 5.182846e+00 1.355742e+00 5.560091e-01 4.952129e-01 6.495304e-01 7.169627e-01 9.333807e-01 1.109995e+00 7.513807e-01 5.623719e-01 5.077330e-01 5.433420e-01 4.880903e-01 6.871660e-01
<GCONST> 1.322191e+02
<TRANSP> 5
 0.000000e+00 1.000000e+00 0.000000e+00 0.000000e+00 0.000000e+00
 0.000000e+00 6.773341e-01 3.226659e-01 0.000000e+00 0.000000e+00
 0.000000e+00 0.000000e+00 8.363466e-01 1.636534e-01 0.000000e+00
 0.000000e+00 0.000000e+00 0.000000e+00 6.458552e-01 3.541447e-01
 0.000000e+00 0.000000e+00 0.000000e+00 0.000000e+00 0.000000e+00
<ENDHMM>
~h "t"
<BEGINHMM>
<NUMSTATES> 5
<STATE> 2
<MEAN> 39
 -9.313174e+00 3.922013e+00 2.303100e+00 1.422525e+00 -2.590118e+00 -2.921734e+00 -3.219700e+00 -2.998710e-01 -1.350055e+00 -1.837374e+00 -1.301489e+00 -1.218702e+00 5.614400e+01 -9.156305e-01 -4.401270e-02 -1.103403e-01 2.902350e-01 8.445685e-01 8.210479e-01 7.227753e-01 1.227538e-01 2.818252e-01 2.312335e-01 3.095092e-01 7.094350e-02 -1.198418e+00 -2.164659e-01 -5.275509e-01 -2.217700e-01 -4.754158e-01 -3.647465e-01 -9.147877e-02 -1.574503e-01 1.324288e-01 -1.082985e-01 4.954115e-02 1.695459e-01 1.034669e-01 9.060387e-01
<VARIANCE> 39
 4.748145e+01 3.976347e+01 3.542805e+01 3.459899e+01 4.305994e+01 4.714426e+01 4.234753e+01 3.959463e+01 3.654414e+01 2.707850e+01 2.777670e+01 2.419987e+01 5.127819e+01 4.656895e+00 5.151491e+00 3.461880e+00 4.058089e+00 4.538577e+00 4.031188e+00 4.076513e+00 4.081373e+00 3.768810e+00 2.872839e+00 3.022431e+00 2.677392e+00 6.049276e+00 5.793455e-01 8.166228e-01 5.499598e-01 7.073361e-01 8.090519e-01 7.474229e-01 7.586288e-01 6.756057e-01 6.669297e-01 5.587569e-01 5.669357e-01 5.035933e-01 1.110483e+00
<GCONST> 1.315289e+02
<STATE> 3
<MEAN> 39
 -1.385289e+01 8.050137e-01 1.154138e+00 -2.388911e-01 -1.626184e+00 -9.876798e-01 -1.517193e+00 1.159621e+00 -1.007455e+00 -9.526073e-01 4.804601e-01 -1.600869e-01 5.726600e+01 -9.921879e-01 -9.147044e-01 -2.887177e-01 -6.990989e-01 -4.494157e-01 -1.945108e-02 -6.641804e-02 3.094397e-01 -9.750855e-02 1.418455e-01 4.680168e-01 3.439133e-01 1.390473e+00 2.197364e-01 -3.751686e-02 2.210677e-03 -1.365063e-01 -3.996016e-01 -3.328109e-01 -2.824548e-01 -9.065297e-03 -1.244391e-01 -9.127803e-02 -6.090868e-02 1.905243e-02 5.903581e-01
<VARIANCE> 39
 4.812387e+01 4.421013e+01 2.687550e+01 3.416005e+01 3.334035e+01 3.738078e+01 3.676353e+01 3.175775e+01 2.724379e+01 2.346726e+01 2.300818e+01 1.922597e+01 5.985050e+01 5.164861e+00 3.788111e+00 2.907759e+00 3.883021e+00 4.011399e+00 4.064783e+00 3.968143e+00 3.501548e+00 3.275048e+00 2.642637e+00 2.864576e+00 2.360620e+00 6.674918e+00 9.246816e-01 7.224212e-01 5.710056e-01 7.704812e-01 7.856872e-01 7.782919e-01 7.901776e-01 6.838286e-01 6.106781e-01 5.449042e-01 6.010991e-01 4.902150e-01 1.350736e+00
<GCONST> 1.294321e+02
<STATE> 4
<MEAN> 39
 -1.530256e+01 -1.445074e+00 7.399241e-01 -2.284683e+00 -5.016513e+00 -2.900651e+00 -3.098945e+00 1.924909e+00 -1.787952e+00 -1.236675e+00 7.949858e-01 5.186319e-01 6.411081e+01 1.072978e+00 -4.740903e-01 2.326183e-03 -2.397034e-01 -1.052224e+00 -7.831014e-01 -8.142686e-01 -3.840000e-02 -3.031664e-01 -3.544211e-01 -2.102598e-01 -5.754603e-02 1.248635e+00 6.977775e-01 1.565150e-01 1.067408e-02 8.930452e-02 -2.847317e-02 -7.441134e-02 -2.108736e-01 -1.925242e-01 -3.739183e-02 -8.817983e-02 -1.625376e-01 -1.837506e-01 -1.672375e-01
<VARIANCE> 39
 7.916354e+01 4.607993e+01 3.940854e+01 4.532491e+01 4.834326e+01 5.396454e+01 5.217219e+01 4.279819e+01 3.534056e+01 2.926281e+01 3.044629e+01 2.455974e+01 4.675525e+01 9.302920e+00 3.513366e+00 3.932925e+00 4.244969e+00 5.471562e+00 5.655162e+00 5.604941e+00 4.552458e+00 3.966511e+00 3.339345e+00 3.774979e+00 2.927296e+00 5.573350e+00 1.304490e+00 6.686286e-01 6.075700e-01 8.194743e-01 9.308226e-01 9.334217e-01 9.961445e-01 8.375599e-01 7.136797e-01 6.217729e-01 6.734744e-01 5.454479e-01 9.933015e-01
<GCONST> 1.370491e+02
<TRANSP> 5
 0.000000e+00 1.000000e+00 0.000000e+00 0.000000e+00 0.000000e+00
 0.000000e+00 5.724228e-01 4.275772e-01 0.000000e+00 0.000000e+00
 0.000000e+00 0.000000e+00 5.740152e-01 4.259848e-01 0.000000e+00
 0.000000e+00 0.000000e+00 0.000000e+00 6.232778e-01 3.767222e-01
 0.000000e+00 0.000000e+00 0.000000e+00 0.000000e+00 0.000000e+00
<ENDHMM>
~h "v"
<BEGINHMM>
<NUMSTATES> 5
<STATE> 2
<MEAN> 39
 -4.414339e-01 -2.758733e-01 -2.353894e+00 -2.478243e+00 -4.443828e+00 -2.260765e+00 -1.050586e+01 -4.358696e+00 -4.198638e-01 5.107490e-01 -6.418322e-01 -4.213370e+00 6.494724e+01 -7.920668e-01 1.889058e+00 3.620737e-01 1.469836e+00 1.461523e+00 7.004293e-01 7.635632e-01 -8.668591e-01 -7.431194e-01 -1.339164e-01 1.892965e-01 4.775479e-02 -1.932948e+00 -4.004577e-01 -8.594796e-03 1.865084e-01 -6.517570e-02 -1.235418e-01 -1.072012e-01 2.448550e-01 3.545905e-01 -5.585526e-02 -2.012588e-01 -1.719018e-01 1.075725e-01 8.418542e-02
<VARIANCE> 39
 2.365044e+01 4.490419e+01 3.818283e+01 5.637480e+01 3.056732e+01 6.187415e+01 4.860603e+01 5.092953e+01 4.583134e+01 3.774455e+01 4.224917e+01 2.979113e+01 3.882164e+01 2.268302e+00 3.884426e+00 2.325291e+00 3.664315e+00 3.518497e+00 3.396116e+00 4.037182e+00 4.128791e+00 3.634931e+00 2.618828e+00 3.053328e+00 2.418790e+00 3.168874e+00 3.818836e-01 6.726708e-01 3.653604e-01 5.850915e-01 6.152655e-01 5.476531e-01 6.797845e-01 6.572674e-01 5.899078e-01 4.779715e-01 5.295367e-01 4.005927e-01 5.239607e-01
<GCONST> 1.266919e+02
<STATE> 3
<MEAN> 39
 -4.536546e+00 5.588600e+00 4.799502e-01 2.803304e+00 -7.819662e-01 -1.585357e+00 -7.328960e+00 -5.276414e+00 -3.544026e+00 -1.540568e+00 -1.204535e+00 -3.186506e+00 5.902140e+01 -1.631033e+00 9.084060e-01 5.330412e-01 8.582095e-01 6.407722e-01 3.133679e-01 1.052958e+00 4.524016e-01 -3.032755e-01 -4.356729e-01 -3.322288e-01 1.626634e-01 -9.837535e-01 1.432156e-01 -8.875958e-01 -2.177994e-01 -6.764912e-01 -6.944850e-01 -3.069806e-01 -2.750385e-01 4.405726e-01 2.991125e-01 7.632823e-02 5.633232e-02 8.750583e-02 8.813721e-01
<VARIANCE> 39
 3.070979e+01 2.727686e+01 3.031584e+01 3.153695e+01 2.520698e+01 3.628391e+01 3.394973e+01 3.333331e+01 2.892252e+01 2.509121e+01 2.726131e+01 1.934152e+01 2.573852e+01 2.776614e+00 4.643379e+00 2.462911e+00 3.552098e+00 3.300498e+00 3.266267e+00 3.774920e+00 3.245076e+00 3.023467e+00 2.429898e+00 2.557749e+00 1.896425e+00 3.635875e+00 6.564700e-01 6.534660e-01 5.199609e-01 6.445211e-01 6.772649e-01 6.761103e-01 7.726618e-01 7.668357e-01 6.684598e-01 4.846233e-01 5.694235e-01 4.052022e-01 5.426139e-01
<GCONST> 1.232473e+02
<STATE> 4
<MEAN> 39
 -7.843492e+00 3.593363e+00 1.865637e-01 2.095950e+00 -1.699028e+00 -1.446075e+00 -5.642763e+00 -2.685654e+00 -2.845573e+00 -1.795324e+00 -1.185547e+00 -2.264738e+00 6.006273e+01 -1.126219e-01 -1.090543e+00 -4.720073e-01 -9.271601e-01 -8.848118e-01 -4.261896e-01 -8.250782e-02 6.094853e-01 3.354118e-01 8.322549e-02 1.791384e-01 2.409096e-01 1.139686e+00 4.988615e-01 -4.475837e-01 -1.832192e-01 -4.936541e-01 -3.760364e-01 -1.938193e-01 -3.089283e-01 1.894586e-02 1.341667e-01 9.413046e-02 1.092154e-01 -8.741478e-04 5.331647e-01
<VARIANCE> 39
 4.372179e+01 4.025862e+01 3.516753e+01 3.973983e+01 3.203710e+01 4.346165e+01 3.949458e+01 3.477010e+01 2.962539e+01 2.413786e+01 2.506601e+01 1.933154e+01 4.405693e+01 5.083797e+00 4.232468e+00 3.443124e+00 4.883959e+00 4.334260e+00 3.643425e+00 4.774943e+00 3.755576e+00 3.224266e+00 2.657656e+00 2.795745e+00 2.108255e+00 4.574258e+00 7.749833e-01 8.182966e-01 6.170877e-01 8.086469e-01 7.336760e-01 7.102747e-01 8.272405e-01 6.967667e-01 6.488529e-01 5.005361e-01 5.458053e-01 4.116411e-01 7.006640e-01
<GCONST> 1.290507e+02
<TRANSP> 5
 0.000000e+00 1.000000e+00 0.000000e+00 0.000000e+00 0.000000e+00
 0.000000e+00 5.451635e-01 4.548365e-01 0.000000e+00 0.000000e+00
 0.000000e+00 0.000000e+00 4.537639e-01 5.462362e-01 0.000000e+00
 0.000000e+00 0.000000e+00 0.000000e+00 5.837994e-01 4.162005e-01
 0.000000e+00 0.000000e+00 0.000000e+00 0.000000e+00 0.000000e+00
<ENDHMM>
~h "w"
<BEGINHMM>
<NUMSTATES> 5
<STATE> 2
<MEAN> 39
 -1.582344e-01 5.846889e+00 -3.062490e+00 -6.876496e+00 -6.831417e+00 -2.204334e-01 -5.858575e+00 -4.160599e+00 -5.891551e+00 -3.301525e+00 -3.894949e-01 -2.161788e+00 6.049122e+01 1.117713e+00 5.522214e-01 -5.063906e-01 -1.398491e+00 -8.258657e-01 3.773302e-01 7.251798e-02 -2.622176e-01 -6.390094e-01 -4.561817e-01 9.364876e-02 2.312183e-02 3.993029e-01 -1.921086e-01 -3.977147e-01 -9.940092e-03 2.181936e-02 3.986062e-02 3.887118e-02 -2.057866e-01 1.434293e-01 1.279211e-01 1.280616e-01 7.859194e-02 6.291135e-03 3.318366e-01
<VARIANCE> 39
 4.382143e+01 4.972569e+01 3.203901e+01 5.068727e+01 4.992554e+01 4.684825e+01 4.544058e+01 4.621573e+01 4.518281e+01 3.229776e+01 3.465223e+01 2.309281e+01 3.155916e+01 3.193766e+00 4.526848e+00 3.291133e+00 5.226986e+00 4.385712e+00 4.496531e+00 5.206570e+00 4.516664e+00 5.153029e+00 3.658203e+00 3.567406e+00 2.730965e+00 3.561796e+00 4.125175e-01 8.042004e-01 5.807011e-01 9.666812e-01 8.593790e-01 8.885621e-01 1.004488e+00 8.600298e-01 1.010516e+00 8.618998e-01 7.144064e-01 5.432225e-01 3.759384e-01
<GCONST> 1.335652e+02
<STATE> 3
<MEAN> 39
 2.826641e+00 4.352675e+00 -5.257836e+00 -1.237093e+01 -9.562752e+00 2.722394e+00 -7.195412e+00 -3.778718e+00 -7.777757e+00 -4.611479e+00 8.412850e-01 -1.879648e+00 6.495189e+01 2.379223e-01 -1.469134e+00 -7.264632e-01 -5.579438e-01 1.827846e-01 7.535578e-01 -1.224259e+00 -1.888895e-01 -6.326684e-02 7.181870e-01 7.803915e-01 -7.829875e-03 1.490039e+00 -3.961515e-01 -3.784475e-01 2.325694e-01 6.432222e-01 3.290221e-01 -3.748469e-01 -2.688386e-01 1.066569e-01 5.063100e-01 4.018581e-01 -1.539120e-01 -2.448658e-01 6.713200e-02
<VARIANCE> 39
 1.903255e+01 4.029010e+01 3.347102e+01 4.884410e+01 3.893609e+01 6.325504e+01 5.094775e+01 5.654035e+01 5.351116e+01 3.809788e+01 4.355264e+01 3.325249e+01 2.702813e+01 1.368700e+00 3.929573e+00 2.429997e+00 4.204556e+00 3.900771e+00 5.361926e+00 6.857964e+00 4.581148e+00 5.079679e+00 5.505663e+00 4.519310e+00 3.675723e+00 2.738660e+00 2.911121e-01 5.025641e-01 4.965353e-01 8.122286e-01 6.901442e-01 9.930167e-01 9.482132e-01 1.004188e+00 1.167773e+00 9.807624e-01 8.739597e-01 7.694541e-01 3.082931e-01
<GCONST> 1.326367e+02
<STATE> 4
<MEAN> 39
 9.769012e-01 -2.755989e+00 -5.954945e+00 -9.612185e+00 -7.010374e+00 1.861225e+00 -1.253497e+01 -3.436594e+00 -3.992739e+00 3.144467e-01 1.092585e+00 -4.839519e+00 7.046651e+01 -6.316608e-01 -1.302978e+00 4.977072e-01 1.120155e+00 1.272352e-01 -1.398901e+00 -9.217012e-01 9.395430e-01 1.594482e+00 6.532266e-01 -8.712301e-01 -7.771134e-01 9.849145e-01 -1.735965e-01 4.261485e-01 3.939947e-01 2.175719e-01 -2.074987e-01 -3.925681e-01 5.864924e-01 3.059883e-01 3.514327e-02 -5.207015e-01 -3.674991e-01 1.602542e-01 -3.955490e-01
<VARIANCE> 39
 2.032148e+01 3.879914e+01 4.366377e+01 5.221696e+01 3.806617e+01 1.009799e+02 8.540946e+01 6.935750e+01 7.168410e+01 6.091694e+01 7.763400e+01 4.769653e+01 3.228576e+01 1.132309e+00 3.243927e+00 3.060020e+00 3.584736e+00 3.951166e+00 5.576157e+00 6.766158e+00 6.109545e+00 6.182479e+00 6.558308e+00 5.701749e+00 4.531762e+00 2.012301e+00 2.364110e-01 4.764787e-01 4.500763e-01 6.768759e-01 7.057350e-01 1.069530e+00 1.307911e+00 1.129965e+00 1.363452e+00 1.222718e+00 1.190803e+00 9.728106e-01 2.977165e-01
<GCONST> 1.374413e+02
<TRANSP> 5
 0.000000e+00 1.000000e+00 0.000000e+00 0.000000e+00 0.000000e+00
 0.000000e+00 7.416276e-01 2.583724e-01 0.000000e+00 0.000000e+00
 0.000000e+00 0.000000e+00 5.784889e-01 4.215111e-01 0.000000e+00
 0.000000e+00 0.000000e+00 0.000000e+00 6.562343e-01 3.437658e-01
 0.000000e+00 0.000000e+00 0.000000e+00 0.000000e+00 0.000000e+00
<ENDHMM>
~h "y"
<BEGINHMM>
<NUMSTATES> 5
<STATE> 2
<MEAN> 39
 -8.216360e+00 4.092843e+00 1.376299e+01 -2.799704e+00 -1.158525e+01 -2.549586e+00 -8.860950e+00 -4.993222e+00 -1.045071e+01 -3.435904e+00 -1.820687e-01 -3.709597e+00 6.504568e+01 8.268425e-01 6.161989e-02 1.899317e+00 -4.083444e-01 -1.841251e+00 -7.038541e-02 -4.856040e-01 -8.724915e-01 -1.524774e+00 -1.774750e-01 2.403516e-01 -6.760169e-01 7.623051e-01 6.497242e-03 -2.387361e-01 -4.865348e-01 5.402157e-02 1.463150e-01 -6.529681e-02 9.349707e-02 2.572933e-01 2.409658e-01 8.524279e-02 1.129515e-01 -2.491996e-02 3.273380e-02
<VARIANCE> 39
 4.365661e+01 3.618730e+01 6.017061e+01 6.408896e+01 4.736943e+01 6.164815e+01 4.611159e+01 6.307005e+01 4.659475e+01 3.920243e+01 5.022814e+01 3.065762e+01 2.916848e+01 5.154119e+00 2.902836e+00 4.614695e+00 4.164186e+00 5.346453e+00 5.440878e+00 5.605462e+00 4.672088e+00 5.863708e+00 4.298967e+00 3.716935e+00 3.278502e+00 2.627144e+00 4.799543e-01 4.395770e-01 6.760477e-01 6.930941e-01 9.030848e-01 8.330393e-01 7.862051e-01 8.432385e-01 8.500744e-01 6.209540e-01 5.596461e-01 5.275190e-01 3.062381e-01
<GCONST> 1.344154e+02
<STATE> 3
<MEAN> 39
 -6.886182e+00 2.437330e+00 1.812122e+01 -4.425865e+00 -1.661346e+01 -2.039290e+00 -1.004361e+01 -6.350566e+00 -1.380767e+01 -3.092015e+00 1.331860e+00 -6.282007e+00 6.832376e+01 4.442331e-01 -8.386217e-01 -5.554610e-01 3.391003e-01 -7.429820e-01 -9.709812e-01 1.635202e-01 6.508218e-01 -2.689130e-01 -1.637058e-01 6.180404e-01 -2.376740e-02 6.377586e-01 1.701544e-02 -7.683262e-02 -5.934027e-01 1.914529e-01 4.420599e-01 -2.557036e-01 -2.819591e-03 3.592445e-01 3.597583e-01 -1.303452e-01 -6.581098e-05 2.435309e-01 -1.027305e-01
<VARIANCE> 39
 1.588433e+01 2.550359e+01 5.025041e+01 6.291776e+01 3.290384e+01 6.936768e+01 4.034586e+01 5.664971e+01 3.964431e+01 4.882478e+01 7.644105e+01 3.592533e+01 2.114735e+01 9.867067e-01 1.419630e+00 2.235603e+00 1.887963e+00 2.250551e+00 3.096114e+00 2.657795e+00 2.951440e+00 2.328522e+00 2.365687e+00 2.185263e+00 1.654699e+00 8.785778e-01 2.017357e-01 1.822600e-01 3.775727e-01 3.209956e-01 5.956402e-01 4.664286e-01 5.270570e-01 4.834899e-01 5.829201e-01 5.117512e-01 4.369737e-01 3.229725e-01 1.596815e-01
<GCONST> 1.153219e+02
<STATE> 4
<MEAN> 39
 -3.201303e+00 -2.581985e+00 9.043773e+00 -4.528837e-01 -1.578197e+01 -9.722290e+00 -1.064556e+01 -1.663262e-01 -1.119282e+01 -5.619174e+00 3.555732e+00 -2.997994e+00 7.034110e+01 7.342212e-01 -4.826400e-01 -1.999815e+00 3.972941e-01 1.285550e+00 -8.963164e-01 -8.999701e-01 1.083650e+00 1.475661e+00 -4.828532e-01 -3.642778e-01 6.586619e-01 4.754628e-02 -7.273696e-02 2.734347e-01 -1.902759e-02 -1.183168e-01 3.980914e-01 4.549384e-01 -1.281365e-01 -3.525332e-01 2.698371e-01 1.461316e-01 -3.602389e-01 -3.320340e-02 -2.531217e-01
<VARIANCE> 39
 1.707586e+01 2.803417e+01 5.167348e+01 6.272689e+01 3.559100e+01 9.752358e+01 7.051199e+01 6.434684e+01 6.307955e+01 5.850493e+01 8.159115e+01 4.321807e+01 1.950731e+01 6.064772e-01 1.068157e+00 2.398730e+00 1.519781e+00 2.312887e+00 3.076857e+00 3.550164e+00 3.810001e+00 3.373298e+00 3.061605e+00 2.488975e+00 1.750808e+00 5.539272e-01 1.255979e-01 1.677567e-01 3.358545e-01 2.998677e-01 5.187237e-01 5.258607e-01 6.025950e-01 6.366755e-01 6.359886e-01 5.876668e-01 4.571353e-01 3.323314e-01 1.243115e-01
<GCONST> 1.171329e+02
<TRANSP> 5
 0.000000e+00 1.000000e+00 0.000000e+00 0.000000e+00 0.000000e+00
 0.000000e+00 7.129959e-01 2.870041e-01 0.000000e+00 0.000000e+00
 0.000000e+00 0.000000e+00 7.380784e-01 2.619216e-01 0.000000e+00
 0.000000e+00 0.000000e+00 0.000000e+00 7.394160e-01 2.605840e-01
 0.000000e+00 0.000000e+00 0.000000e+00 0.000000e+00 0.000000e+00
<ENDHMM>
~h "z"
<BEGINHMM>
<NUMSTATES> 5
<STATE> 2
<MEAN> 39
 -1.215197e+01 1.037537e+01 8.488982e-01 3.213210e-01 -2.799769e+00 -9.328240e+00 -8.935378e+00 -3.351291e+00 -2.676759e+00 -4.358406e+00 -2.967747e+00 1.504404e+00 6.593997e+01 -3.842943e+00 2.290816e+00 -8.335907e-01 8.214695e-01 2.325403e+00 8.876783e-01 1.806122e+00 8.000858e-01 9.860789e-02 2.057258e-01 3.293973e-01 -1.146861e-01 -4.269629e-01 -1.240482e-01 -6.354182e-01 -2.217984e-01 -2.039640e-01 -9.163650e-02 3.296538e-01 2.872981e-01 3.122825e-01 -1.474552e-02 1.355026e-01 1.774698e-01 -1.073645e-01 1.874153e-02
<VARIANCE> 39
 6.529697e+01 4.722582e+01 4.326428e+01 4.579401e+01 4.390189e+01 6.575684e+01 5.482532e+01 4.316432e+01 3.758030e+01 3.157299e+01 3.164507e+01 3.427196e+01 2.567579e+01 4.594455e+00 5.151337e+00 3.534608e+00 4.767029e+00 4.120756e+00 5.463345e+00 5.419326e+00 4.844012e+00 3.402428e+00 2.810993e+00 2.935981e+00 3.873452e+00 1.486413e+00 1.001449e+00 9.499030e-01 5.030560e-01 5.968875e-01 7.686138e-01 8.456514e-01 8.153976e-01 6.707273e-01 5.421102e-01 4.995080e-01 4.699856e-01 5.945029e-01 1.760539e-01
<GCONST> 1.312029e+02
<STATE> 3
<MEAN> 39
 -2.423551e+01 1.214954e+01 -4.114562e+00 1.774001e+00 3.598513e+00 -3.650712e+00 -1.096801e+00 1.070931e+00 -1.876925e+00 -2.533265e+00 -4.755752e-01 8.998946e-01 6.429988e+01 -1.331151e+00 -8.568404e-01 -9.598098e-01 -4.369341e-01 4.298771e-01 4.855811e-01 8.559639e-01 7.686621e-01 3.725781e-01 3.767324e-01 2.627904e-01 9.930359e-02 -2.537033e-01 1.319344e+00 -6.307292e-01 3.774634e-01 -2.847911e-01 -7.333312e-01 -3.624128e-01 -6.679093e-01 -2.980238e-01 6.499697e-02 -3.724260e-02 -1.187500e-01 1.538905e-02 -3.959581e-03
<VARIANCE> 39
 2.938981e+01 2.716182e+01 4.082404e+01 3.425225e+01 2.825838e+01 3.902232e+01 4.145241e+01 2.928301e+01 2.568635e+01 2.244245e+01 2.000429e+01 1.980470e+01 1.915400e+01 5.442154e+00 2.675298e+00 3.113886e+00 2.778295e+00 3.019271e+00 3.998392e+00 3.965304e+00 2.870570e+00 2.446793e+00 2.140769e+00 1.984852e+00 1.995544e+00 1.186603e+00 6.542560e-01 6.451454e-01 5.461436e-01 6.660390e-01 6.336140e-01 7.747124e-01 7.237654e-01 6.048217e-01 4.971520e-01 4.475229e-01 4.148938e-01 4.507559e-01 2.517951e-01
<GCONST> 1.199934e+02
<STATE> 4
<MEAN> 39
 -1.807586e+01 2.663902e+00 -2.457895e+00 -9.350926e-01 5.033265e-01 -3.171275e+00 -2.016857e+00 2.712047e+00 1.076649e-01 -1.730794e+00 2.210450e-02 8.902412e-01 6.075407e+01 1.796533e+00 -1.049854e+00 4.600702e-01 -3.223816e-01 -8.527074e-01 -3.103420e-02 -5.732052e-01 -2.501387e-01 1.453763e-01 6.406526e-02 -1.016618e-01 -1.475461e-01 -3.179505e-01 3.393656e-01 -3.428154e-03 9.905773e-02 3.276173e-02 -1.453045e-01 3.849719e-02 -8.773883e-02 -1.333788e-01 -9.036237e-02 -4.438061e-02 -2.137929e-02 -7.274060e-02 6.544803e-02
<VARIANCE> 39
 5.793767e+01 6.523766e+01 3.017172e+01 2.856676e+01 3.391321e+01 4.686167e+01 4.800276e+01 3.307013e+01 2.785265e+01 2.322235e+01 2.182555e+01 2.078865e+01 4.630499e+01 6.151315e+00 3.347887e+00 2.542481e+00 3.021716e+00 3.397550e+00 3.918884e+00 4.587597e+00 3.199844e+00 2.787424e+00 2.287557e+00 2.171921e+00 2.228137e+00 3.110302e+00 1.010051e+00 4.970393e-01 4.419461e-01 5.480328e-01 5.867908e-01 7.360730e-01 8.558494e-01 6.233324e-01 5.052330e-01 4.431916e-01 4.201956e-01 4.177002e-01 4.772504e-01
<GCONST> 1.251917e+02
<TRANSP> 5
 0.000000e+00 1.000000e+00 0.000000e+00 0.000000e+00 0.000000e+00
 0.000000e+00 6.994064e-01 3.005936e-01 0.000000e+00 0.000000e+00
 0.000000e+00 0.000000e+00 6.758205e-01 3.241795e-01 0.000000e+00
 0.000000e+00 0.000000e+00 0.000000e+00 8.161756e-01 1.838244e-01
 0.000000e+00 0.000000e+00 0.000000e+00 0.000000e+00 0.000000e+00
<ENDHMM>
~h "aa"
<BEGINHMM>
<NUMSTATES> 5
<STATE> 2
<MEAN> 39
 -1.682342e+00 -7.448143e+00 -8.890992e+00 -8.552688e+00 -3.412073e+00 2.739640e+00 -5.330709e+00 -6.919538e-01 1.007183e-01 -2.592085e+00 -3.957422e+00 -6.283982e+00 7.060646e+01 9.478838e-01 -1.069478e+00 -1.171869e+00 -7.950048e-01 4.516295e-01 1.430478e+00 5.450130e-01 -1.072912e+00 5.308302e-02 -7.912019e-02 -2.661535e-01 -1.052375e+00 9.369431e-01 -3.312392e-01 1.915358e-01 2.515143e-01 2.742243e-01 1.627169e-01 -1.228530e-01 9.211439e-02 -1.827118e-01 -1.954118e-01 7.168952e-02 2.061487e-01 2.295783e-01 -3.058951e-01
<VARIANCE> 39
 3.762901e+01 2.706128e+01 2.944382e+01 4.787806e+01 5.034097e+01 1.014076e+02 5.793241e+01 6.483807e+01 4.641904e+01 4.383315e+01 6.078117e+01 3.670390e+01 3.013890e+01 2.604174e+00 2.164115e+00 2.337592e+00 2.550961e+00 3.703324e+00 4.553301e+00 3.708065e+00 4.496120e+00 3.438088e+00 2.879692e+00 3.064606e+00 2.636869e+00 1.448222e+00 5.236326e-01 4.192725e-01 3.260051e-01 4.424369e-01 5.805482e-01 7.110411e-01 6.951614e-01 9.467905e-01 6.798648e-01 5.553306e-01 5.714632e-01 4.965062e-01 2.610381e-01
<GCONST> 1.269309e+02
<STATE> 3
<MEAN> 39
 8.631473e-01 -9.888333e+00 -1.132312e+01 -1.081849e+01 -1.656325e+00 7.404286e+00 -3.128329e+00 -5.591141e+00 -1.172967e+00 -2.604811e+00 -2.679236e+00 -8.183073e+00 7.270977e+01 5.272946e-02 -1.258569e-01 -1.420776e-01 1.114656e-01 1.393889e-01 -6.945300e-02 -1.238411e-01 -1.866357e-02 5.586946e-02 2.745297e-03 -2.737941e-03 -1.509150e-01 -6.315453e-03 -5.317885e-02 2.540028e-01 1.621739e-01 1.742629e-01 -1.328044e-01 -3.231213e-01 -1.197173e-01 2.783730e-01 2.516065e-02 -2.655766e-02 -2.137874e-02 1.069204e-01 -1.715014e-01
<VARIANCE> 39
 1.393122e+01 2.025693e+01 1.989169e+01 4.102304e+01 4.064779e+01 8.836852e+01 5.485484e+01 4.183744e+01 4.131256e+01 3.709029e+01 5.816147e+01 2.858732e+01 1.754984e+01 3.313132e-01 8.583807e-01 7.014404e-01 1.121068e+00 1.396420e+00 1.992337e+00 1.839161e+00 2.297069e+00 1.867241e+00 1.473446e+00 1.689218e+00 1.337592e+00 3.793462e-01 8.982175e-02 1.514095e-01 1.451425e-01 1.831296e-01 2.347231e-01 2.693180e-01 3.078172e-01 3.385216e-01 3.022526e-01 2.623596e-01 2.727490e-01 2.524264e-01 8.366781e-02
<GCONST> 9.875011e+01
<STATE> 4
<MEAN> 39
 7.442524e-01 -7.560686e+00 -1.061005e+01 -8.057486e+00 -2.943840e+00 1.744469e+00 -5.754940e+00 -1.975080e+00 -1.325438e-01 -2.635061e+00 -4.406021e+00 -8.287216e+00 7.049878e+01 -1.876250e-01 1.564445e+00 1.086508e+00 1.260593e+00 -3.823455e-01 -1.672652e+00 -3.231717e-01 9.290589e-01 -1.835877e-01 -8.618972e-02 -9.878497e-02 6.747446e-01 -1.278356e+00 -2.720574e-01 4.135907e-01 3.978052e-01 2.858031e-01 1.167643e-01 -5.680925e-02 1.280772e-01 -1.841600e-01 -2.648241e-01 -1.889793e-02 1.044087e-01 3.060542e-01 -3.747586e-01
<VARIANCE> 39
 1.807183e+01 3.610987e+01 3.145476e+01 4.921546e+01 3.645589e+01 1.071874e+02 5.784116e+01 6.003403e+01 6.072702e+01 4.637672e+01 6.222845e+01 3.847043e+01 2.826591e+01 1.231521e+00 3.084090e+00 2.440924e+00 2.523510e+00 3.055790e+00 3.101557e+00 3.541026e+00 4.188914e+00 3.946681e+00 2.829049e+00 2.790450e+00 2.372509e+00 2.133412e+00 2.785735e-01 4.042195e-01 3.216402e-01 4.054148e-01 4.892599e-01 5.708840e-01 5.398642e-01 6.786199e-01 6.285130e-01 4.983777e-01 5.075445e-01 4.391923e-01 2.741986e-01
<GCONST> 1.236945e+02
<TRANSP> 5
 0.000000e+00 1.000000e+00 0.000000e+00 0.000000e+00 0.000000e+00
 0.000000e+00 6.859940e-01 3.140060e-01 0.000000e+00 0.000000e+00
 0.000000e+00 0.000000e+00 8.427659e-01 1.572341e-01 0.000000e+00
 0.000000e+00 0.000000e+00 0.000000e+00 6.675761e-01 3.324239e-01
 0.000000e+00 0.000000e+00 0.000000e+00 0.000000e+00 0.000000e+00
<ENDHMM>
~h "ae"
<BEGINHMM>
<NUMSTATES> 5
<STATE> 2
<MEAN> 39
 -6.751030e+00 -5.957980e+00 -4.547578e-01 -4.624331e+00 -8.690250e+00 -2.829340e+00 -6.416806e-01 5.196365e+00 -1.508242e+00 -4.970023e+00 -2.114685e+00 -2.886166e+00 6.803339e+01 1.062088e-01 -8.938901e-01 -1.616453e-01 -3.352200e-01 -7.415459e-02 1.107605e-01 7.002975e-01 3.938202e-01 -1.146627e-01 -8.264082e-01 -2.353635e-01 -1.633590e-01 8.946179e-01 -1.254597e-01 2.217942e-01 -1.241223e-02 1.646412e-01 2.944720e-01 3.980019e-02 -8.873416e-02 -2.974522e-01 -7.846558e-02 1.055456e-01 6.858272e-02 7.279360e-02 -2.666188e-01
<VARIANCE> 39
 4.788518e+01 3.484608e+01 3.222729e+01 4.216051e+01 5.236011e+01 6.520359e+01 4.764439e+01 5.726654e+01 4.305081e+01 4.038466e+01 4.085207e+01 3.318349e+01 7.882355e+01 1.532073e+00 1.727647e+00 1.786923e+00 1.820604e+00 2.471393e+00 2.656422e+00 2.909947e+00 2.684668e+00 2.570976e+00 2.402982e+00 2.157089e+00 2.037197e+00 1.623331e+00 3.123434e-01 3.351418e-01 2.615352e-01 3.635773e-01 4.489307e-01 4.570524e-01 5.115543e-01 5.609581e-01 5.068416e-01 4.274789e-01 4.039379e-01 3.784974e-01 3.363310e-01
<GCONST> 1.193356e+02
<STATE> 3
<MEAN> 39
 -7.850899e+00 -8.510544e+00 -1.433172e+00 -4.228595e+00 -6.164289e+00 -2.021671e+00 6.988516e-01 5.046859e+00 -1.595737e+00 -6.796609e+00 -2.041933e+00 -2.630577e+00 6.845882e+01 1.112266e-01 -1.561456e-02 -1.446439e-01 8.546625e-02 1.571377e-01 6.312700e-02 -7.753447e-02 -6.394922e-02 8.493622e-02 -5.871715e-02 -1.390912e-01 -5.863708e-02 -6.509870e-02 3.396604e-02 1.780051e-01 2.742801e-02 7.455672e-02 4.370622e-04 -2.107809e-02 -1.108087e-01 -5.367532e-02 9.886529e-03 1.479794e-01 1.876357e-02 -2.343367e-02 -1.602966e-01
<VARIANCE> 39
 5.829358e+01 2.701740e+01 3.206155e+01 3.153330e+01 3.803791e+01 5.006555e+01 3.681546e+01 4.453577e+01 3.671790e+01 3.972660e+01 4.486216e+01 3.157801e+01 8.242760e+01 3.833127e-01 7.326413e-01 8.404354e-01 8.461096e-01 1.288241e+00 1.347160e+00 1.568839e+00 1.484691e+00 1.522339e+00 1.429601e+00 1.296746e+00 1.163657e+00 6.202810e-01 7.470237e-02 1.544223e-01 1.423518e-01 1.686946e-01 2.318585e-01 2.341493e-01 2.871764e-01 3.051873e-01 2.830617e-01 2.769009e-01 2.491649e-01 2.276014e-01 1.103192e-01
<GCONST> 9.920292e+01
<STATE> 4
<MEAN> 39
 -4.150024e+00 -6.777558e+00 -2.781751e+00 -3.746252e+00 -7.135883e+00 -2.357815e+00 -1.772619e+00 4.710559e+00 -2.622279e-01 -5.904535e+00 -4.327860e+00 -4.658621e+00 6.891477e+01 2.363657e-01 1.260294e+00 3.913896e-01 5.863967e-01 1.073979e-01 -2.108431e-01 -4.583676e-01 -4.624709e-01 -2.288851e-01 7.741796e-01 1.272874e-01 -1.396147e-01 -9.166082e-01 -2.201635e-01 4.375528e-01 2.311209e-01 2.445219e-01 2.052158e-01 3.742042e-02 1.085924e-01 -2.715645e-01 -2.394466e-01 1.030862e-01 1.190079e-01 1.489819e-01 -3.678025e-01
<VARIANCE> 39
 3.374537e+01 3.817445e+01 3.921646e+01 3.824000e+01 4.130604e+01 7.367065e+01 5.638506e+01 6.157349e+01 5.057897e+01 4.204179e+01 4.597086e+01 4.184463e+01 7.314434e+01 1.431304e+00 3.437128e+00 1.960648e+00 2.257315e+00 2.967424e+00 2.512770e+00 3.268074e+00 3.462885e+00 3.044722e+00 2.776381e+00 2.462877e+00 2.242279e+00 3.835744e+00 3.652105e-01 5.230398e-01 3.252363e-01 3.905345e-01 5.282694e-01 4.534135e-01 5.927916e-01 6.360847e-01 5.947831e-01 4.683009e-01 4.593868e-01 4.495190e-01 4.826195e-01
<GCONST> 1.248372e+02
<TRANSP> 5
 0.000000e+00 1.000000e+00 0.000000e+00 0.000000e+00 0.000000e+00
 0.000000e+00 6.683086e-01 3.316914e-01 0.000000e+00 0.000000e+00
 0.000000e+00 0.000000e+00 8.775443e-01 1.224556e-01 0.000000e+00
 0.000000e+00 0.000000e+00 0.000000e+00 6.671801e-01 3.328199e-01
 0.000000e+00 0.000000e+00 0.000000e+00 0.000000e+00 0.000000e+00
<ENDHMM>
~h "ah"
<BEGINHMM>
<NUMSTATES> 5
<STATE> 2
<MEAN> 39
 -5.517573e+00 -1.642475e+00 8.108453e-01 -4.237830e+00 -8.680891e+00 -6.165798e+00 -9.574793e+00 -1.168036e-01 -1.968610e+00 -2.125130e+00 -1.376023e+00 -1.694742e+00 6.828601e+01 1.346945e+00 -3.120703e-01 2.781525e-01 -4.328152e-01 -7.524590e-01 -2.480961e-01 -8.932496e-01 -7.823992e-02 1.881732e-01 -6.341670e-02 -2.025752e-01 -1.651224e-01 6.749306e-01 -2.661206e-01 3.833624e-01 -2.913246e-02 2.537303e-01 4.317141e-01 3.171456e-01 3.983651e-01 -1.534473e-01 -1.261637e-01 3.628634e-03 3.137125e-02 1.216803e-02 -5.085138e-01
<VARIANCE> 39
 6.001444e+01 4.301895e+01 6.664812e+01 5.101053e+01 5.690265e+01 8.374780e+01 7.041633e+01 6.694355e+01 6.039120e+01 4.125723e+01 5.369501e+01 4.188923e+01 4.233055e+01 7.094342e+00 3.871843e+00 4.131794e+00 4.595078e+00 5.290225e+00 5.176248e+00 6.021285e+00 5.807883e+00 4.653538e+00 3.517578e+00 4.003684e+00 3.599583e+00 3.834081e+00 1.038653e+00 7.202600e-01 6.185585e-01 7.693908e-01 9.462813e-01 9.077812e-01 1.145650e+00 1.005704e+00 8.950112e-01 6.528395e-01 7.511287e-01 6.352162e-01 7.578729e-01
<GCONST> 1.412078e+02
<STATE> 3
<MEAN> 39
 -2.936876e+00 -2.174325e+00 1.235380e+00 -4.886726e+00 -9.540680e+00 -5.859079e+00 -1.086596e+01 -3.835481e-01 -1.740825e+00 -2.172717e+00 -1.680941e+00 -2.243061e+00 6.916121e+01 4.707512e-01 6.997616e-01 1.415400e-01 2.431008e-01 3.423605e-01 3.281517e-01 1.266448e-01 -4.706890e-01 -1.510832e-01 -6.638221e-02 -9.933998e-02 1.952843e-03 -5.580142e-01 -5.328830e-01 5.028788e-01 -5.907496e-02 3.175393e-01 5.278658e-01 2.570015e-01 5.420881e-01 -1.528872e-01 -1.877082e-01 -5.485552e-03 5.435891e-02 6.911946e-02 -5.974239e-01
<VARIANCE> 39
 3.117188e+01 4.139598e+01 6.949062e+01 5.675688e+01 4.941116e+01 8.815481e+01 6.679379e+01 7.905876e+01 6.562785e+01 4.383437e+01 6.202467e+01 4.885735e+01 3.746951e+01 3.888088e+00 3.934499e+00 3.352976e+00 4.619946e+00 4.490098e+00 4.011132e+00 4.640276e+00 4.817504e+00 4.223654e+00 3.117649e+00 3.517848e+00 3.205703e+00 3.814854e+00 7.494107e-01 7.065255e-01 5.687597e-01 7.367080e-01 8.672112e-01 8.523601e-01 1.111753e+00 1.073872e+00 9.142018e-01 6.557411e-01 7.722062e-01 6.613053e-01 6.557689e-01
<GCONST> 1.382443e+02
<STATE> 4
<MEAN> 39
 -3.558160e+00 7.335180e-01 9.134388e-01 -3.687707e+00 -7.356466e+00 -4.797074e+00 -9.076691e+00 -2.194705e+00 -2.359603e+00 -2.362221e+00 -1.924784e+00 -1.716594e+00 6.634538e+01 -4.182640e-01 1.342088e+00 5.218472e-02 6.490906e-01 9.997056e-01 5.625868e-01 8.966241e-01 -5.063418e-01 -3.566886e-01 -1.009828e-01 -2.990591e-02 1.003768e-01 -1.290805e+00 -4.663242e-01 1.043450e-01 -6.962148e-02 9.028722e-02 2.138955e-01 1.222519e-01 3.047660e-01 5.827571e-02 -7.351121e-02 1.909883e-02 7.592555e-02 2.731375e-02 -2.036539e-01
<VARIANCE> 39
 4.584646e+01 4.998009e+01 6.541830e+01 6.583054e+01 4.969489e+01 8.386073e+01 6.222342e+01 7.499433e+01 5.776100e+01 4.328046e+01 5.311924e+01 4.503162e+01 4.478118e+01 4.413910e+00 4.728271e+00 3.280755e+00 5.042186e+00 4.728163e+00 4.136357e+00 5.126685e+00 4.967531e+00 4.531871e+00 3.157701e+00 3.487318e+00 3.258153e+00 4.676521e+00 6.569371e-01 7.717083e-01 5.330054e-01 7.063378e-01 7.471901e-01 7.463078e-01 8.985602e-01 9.354637e-01 7.943737e-01 6.204346e-01 6.332982e-01 5.738946e-01 6.122149e-01
<GCONST> 1.380354e+02
<TRANSP> 5
 0.000000e+00 1.000000e+00 0.000000e+00 0.000000e+00 0.000000e+00
 0.000000e+00 4.672185e-01 5.327816e-01 0.000000e+00 0.000000e+00
 0.000000e+00 0.000000e+00 4.057213e-01 5.942787e-01 0.000000e+00
 0.000000e+00 0.000000e+00 0.000000e+00 4.201016e-01 5.798984e-01
 0.000000e+00 0.000000e+00 0.000000e+00 0.000000e+00 0.000000e+00
<ENDHMM>
~h "ao"
<BEGINHMM>
<NUMSTATES> 5
<STATE> 2
<MEAN> 39
 -1.960946e-01 9.983959e-01 -7.490366e+00 -1.144332e+01 -9.243272e+00 1.924337e+00 -6.143905e+00 -1.913546e+00 -2.977659e+00 -2.550795e+00 -1.266843e-01 -3.912930e+00 6.571555e+01 1.337242e+00 -2.249598e-01 -6.918647e-01 -1.455361e+00 -8.174141e-01 1.645504e-01 4.244425e-01 -4.464097e-02 -4.280456e-01 -3.973981e-01 1.895719e-01 -2.385184e-01 9.292265e-01 -4.732100e-01 -2.174144e-01 6.904857e-02 4.707367e-01 4.123644e-01 -2.009778e-02 2.048994e-01 1.042643e-01 -1.123178e-01 9.003021e-03 1.372687e-01 2.235094e-01 -1.319054e-01
<VARIANCE> 39
 4.774854e+01 5.623833e+01 3.867262e+01 5.982655e+01 7.134908e+01 7.157525e+01 6.217015e+01 4.808625e+01 5.553503e+01 4.012128e+01 4.951987e+01 3.384391e+01 3.790080e+01 3.446690e+00 3.052088e+00 2.556490e+00 3.608256e+00 4.062316e+00 4.997680e+00 4.781339e+00 3.467429e+00 4.397681e+00 3.165045e+00 3.424314e+00 2.754784e+00 1.485312e+00 6.795809e-01 5.466505e-01 4.346367e-01 5.988284e-01 6.909618e-01 6.016888e-01 7.441711e-01 6.811163e-01 7.552676e-01 6.519309e-01 6.680776e-01 5.140157e-01 2.272467e-01
<GCONST> 1.311431e+02
<STATE> 3
<MEAN> 39
 2.295390e+00 -3.047481e+00 -9.265030e+00 -1.391187e+01 -9.137413e+00 4.926486e+00 -2.010372e+00 -1.668776e+00 -4.041280e+00 -5.082161e+00 8.921437e-01 -4.081547e+00 6.957549e+01 1.366971e-01 -4.522413e-01 -3.761808e-01 1.277386e-01 2.645461e-01 1.727886e-02 2.147112e-01 4.263812e-02 -3.955735e-01 -1.056338e-01 3.765678e-01 1.729144e-01 2.089179e-01 -1.006343e-01 3.516389e-02 5.355635e-02 2.376460e-01 1.421075e-01 -1.092451e-01 -2.209244e-01 -2.653777e-02 8.066224e-02 1.295878e-01 2.756782e-02 1.936570e-02 -8.552180e-02
<VARIANCE> 39
 2.508816e+01 4.930989e+01 2.824849e+01 5.144596e+01 6.437555e+01 9.203578e+01 6.702209e+01 5.645443e+01 5.395488e+01 4.234240e+01 5.025280e+01 3.422221e+01 2.492853e+01 5.534648e-01 1.179525e+00 1.039101e+00 1.207980e+00 1.552365e+00 1.773303e+00 2.293159e+00 1.822096e+00 2.387672e+00 1.984336e+00 2.467640e+00 2.027397e+00 5.086607e-01 1.385284e-01 1.698026e-01 1.588103e-01 2.190079e-01 2.674760e-01 2.947735e-01 4.075636e-01 3.318652e-01 4.634266e-01 3.667606e-01 4.158031e-01 3.210895e-01 7.468896e-02
<GCONST> 1.081081e+02
<STATE> 4
<MEAN> 39
 3.030460e+00 -4.799249e+00 -1.232748e+01 -8.962072e+00 -5.305061e+00 2.809215e-02 -7.017556e+00 -2.224425e+00 -4.825793e+00 -1.909145e+00 2.563695e+00 -3.143604e+00 6.972439e+01 -1.190735e-01 -2.022658e-01 5.658531e-02 1.267553e+00 9.036793e-01 -1.048091e+00 -1.578388e+00 1.912562e-01 1.105761e+00 6.712043e-01 -4.218757e-01 -8.976612e-02 -1.022786e-01 -1.758234e-01 2.564004e-01 3.787823e-01 2.162337e-01 -5.577019e-02 -2.169916e-01 -1.048620e-01 1.595271e-01 2.764053e-01 -1.198136e-01 -4.117056e-01 -2.868013e-02 -2.114306e-01
<VARIANCE> 39
 2.290049e+01 2.741847e+01 3.031335e+01 5.405480e+01 5.213855e+01 1.102852e+02 7.553918e+01 4.936885e+01 9.684042e+01 5.631911e+01 9.188670e+01 4.634640e+01 2.119795e+01 8.729544e-01 2.388729e+00 1.734618e+00 2.065879e+00 2.759084e+00 2.556474e+00 3.836146e+00 3.084598e+00 4.746324e+00 3.490162e+00 4.434485e+00 2.709547e+00 9.744009e-01 2.146962e-01 2.233175e-01 2.262505e-01 2.870306e-01 4.028714e-01 4.395079e-01 6.975195e-01 5.612983e-01 1.007233e+00 6.947323e-01 8.943455e-01 5.838012e-01 1.212525e-01
<GCONST> 1.225624e+02
<TRANSP> 5
 0.000000e+00 1.000000e+00 0.000000e+00 0.000000e+00 0.000000e+00
 0.000000e+00 6.796298e-01 3.203702e-01 0.000000e+00 0.000000e+00
 0.000000e+00 0.000000e+00 8.187070e-01 1.812930e-01 0.000000e+00
 0.000000e+00 0.000000e+00 0.000000e+00 7.118084e-01 2.881916e-01
 0.000000e+00 0.000000e+00 0.000000e+00 0.000000e+00 0.000000e+00
<ENDHMM>
~h "aw"
<BEGINHMM>
<NUMSTATES> 5
<STATE> 2
<MEAN> 39
 -2.894052e+00 -1.014326e+01 -4.667873e+00 -6.388562e+00 -5.179765e+00 -3.208097e+00 -1.525889e+00 4.415842e+00 -3.014154e-01 -8.837173e+00 -7.681500e+00 -4.319584e+00 7.426997e+01 2.389975e-01 -6.790220e-01 -8.738900e-01 -1.694610e-01 1.112827e+00 7.649820e-01 -3.280709e-01 -5.363920e-01 4.918761e-01 -3.399045e-01 -6.985724e-01 -4.401599e-01 3.139159e-01 -2.644166e-02 2.488139e-01 2.106947e-02 5.294866e-02 1.024339e-01 1.920434e-01 -2.365857e-01 -3.978527e-01 -5.109372e-02 3.810406e-01 2.304163e-01 -9.992811e-02 -2.891920e-01
<VARIANCE> 39
 1.740430e+01 2.140210e+01 3.055486e+01 3.367737e+01 3.896333e+01 5.902179e+01 4.096178e+01 5.893970e+01 4.798784e+01 4.394051e+01 3.733298e+01 3.114550e+01 1.882995e+01 6.900442e-01 1.054917e+00 1.263099e+00 1.457524e+00 1.834611e+00 2.176656e+00 3.616045e+00 2.799502e+00 2.175099e+00 2.871790e+00 1.853191e+00 1.835198e+00 8.277296e-01 1.723745e-01 1.864680e-01 1.762246e-01 2.903924e-01 3.819228e-01 3.618709e-01 4.761264e-01 4.738209e-01 4.466332e-01 4.011278e-01 3.764858e-01 3.580645e-01 1.589837e-01
<GCONST> 1.091300e+02
<STATE> 3
<MEAN> 39
 1.274121e-02 -1.043787e+01 -1.027313e+01 -9.120964e+00 -5.100275e-01 4.129464e+00 -5.395906e+00 -3.816049e+00 1.256090e+00 -4.030630e+00 -7.215284e+00 -9.207424e+00 7.261134e+01 4.201279e-01 4.782673e-01 -4.317153e-01 -6.471476e-01 -1.439762e-01 1.053429e+00 -8.889392e-02 -9.948788e-01 -4.364683e-01 1.041663e+00 9.875790e-01 -5.610411e-01 -4.387074e-01 -2.109356e-03 2.312649e-01 1.862522e-01 6.031361e-02 -3.591046e-01 -2.265129e-01 1.867235e-01 2.040046e-01 -2.076710e-01 -6.312625e-02 2.172098e-01 2.665061e-01 -1.260552e-01
<VARIANCE> 39
 1.560166e+01 2.211716e+01 2.137007e+01 4.029261e+01 3.272021e+01 7.067165e+01 4.601311e+01 4.710159e+01 4.871881e+01 4.661302e+01 4.420781e+01 3.199639e+01 1.839666e+01 3.095886e-01 8.057510e-01 7.539219e-01 1.209354e+00 1.845039e+00 2.128439e+00 2.260096e+00 2.494482e+00 2.335811e+00 2.206268e+00 2.198573e+00 2.036151e+00 2.831407e-01 4.813846e-02 1.228115e-01 1.335681e-01 2.129944e-01 2.669213e-01 2.988523e-01 4.461578e-01 3.920925e-01 4.598641e-01 3.699034e-01 4.043705e-01 3.251828e-01 5.999445e-02
<GCONST> 1.015182e+02
<STATE> 4
<MEAN> 39
 1.749041e+00 -5.014844e+00 -1.053449e+01 -1.083845e+01 -5.029629e+00 5.424648e+00 -3.735973e+00 -4.731797e+00 -2.012578e+00 -7.284030e-01 -8.970065e-01 -7.916435e+00 6.837769e+01 -1.006822e-01 1.619773e+00 9.183857e-01 7.871148e-01 -6.322117e-01 -9.152588e-01 -1.228167e-01 -6.843631e-02 -3.756513e-01 2.976159e-01 5.367168e-01 8.578410e-01 -1.265483e+00 -3.413714e-01 2.092894e-01 4.077262e-01 5.414465e-01 2.921608e-01 -3.916773e-01 -5.675898e-02 6.462596e-02 7.517803e-02 -1.898405e-01 -3.452313e-01 1.898311e-01 -2.107555e-01
<VARIANCE> 39
 1.854438e+01 3.695371e+01 2.703009e+01 4.919544e+01 4.100979e+01 7.563184e+01 6.099234e+01 4.113003e+01 5.422301e+01 4.287313e+01 5.251791e+01 3.939928e+01 3.123759e+01 1.002353e+00 2.458325e+00 2.263123e+00 3.364053e+00 3.360291e+00 3.235237e+00 3.684143e+00 3.219300e+00 3.692735e+00 3.002425e+00 3.749112e+00 2.674739e+00 1.553140e+00 2.127149e-01 3.829750e-01 3.109074e-01 4.205666e-01 5.716639e-01 5.673227e-01 6.559003e-01 6.342866e-01 6.510189e-01 5.886957e-01 6.229219e-01 5.516865e-01 2.236910e-01
<GCONST> 1.229676e+02
<TRANSP> 5
 0.000000e+00 1.000000e+00 0.000000e+00 0.000000e+00 0.000000e+00
 0.000000e+00 8.435444e-01 1.564556e-01 0.000000e+00 0.000000e+00
 0.000000e+00 0.000000e+00 8.117434e-01 1.882566e-01 0.000000e+00
 0.000000e+00 0.000000e+00 0.000000e+00 7.786881e-01 2.213119e-01
 0.000000e+00 0.000000e+00 0.000000e+00 0.000000e+00 0.000000e+00
<ENDHMM>
~h "ay"
<BEGINHMM>
<NUMSTATES> 5
<STATE> 2
<MEAN> 39
 5.016645e-01 -9.826981e+00 -1.010751e+01 -1.057361e+01 -2.482537e+00 6.076140e+00 -3.662977e+00 -4.907721e+00 2.645477e-01 -1.097474e+00 -4.388067e+00 -8.575401e+00 7.291434e+01 6.483123e-04 -9.980605e-01 -2.005422e-01 -7.173392e-02 6.588284e-01 4.379821e-01 4.508828e-02 -1.724506e-01 4.775391e-01 -2.661954e-01 -8.934793e-01 -6.114999e-01 5.709510e-01 -2.758407e-01 3.044746e-01 2.658511e-01 3.931578e-01 -7.961110e-02 -4.087797e-01 -9.447259e-02 2.652897e-01 -6.072766e-02 -2.046221e-01 5.206808e-02 3.317520e-01 -3.157425e-01
<VARIANCE> 39
 1.472888e+01 1.981680e+01 2.133390e+01 3.313965e+01 3.797752e+01 9.931607e+01 4.928604e+01 4.370401e+01 3.769825e+01 4.756434e+01 6.275207e+01 3.205838e+01 1.513657e+01 1.007564e+00 1.278103e+00 1.359687e+00 1.982965e+00 1.981306e+00 3.159343e+00 2.567609e+00 3.269575e+00 2.354059e+00 2.222249e+00 2.572121e+00 2.204692e+00 8.884906e-01 3.150856e-01 2.196426e-01 2.037142e-01 3.443997e-01 4.637470e-01 4.425325e-01 4.927214e-01 6.288514e-01 4.489755e-01 4.253820e-01 4.627421e-01 3.964290e-01 1.951724e-01
<GCONST> 1.130506e+02
<STATE> 3
<MEAN> 39
 -7.423524e-01 -1.159044e+01 -8.379889e+00 -7.854098e+00 -2.490623e+00 9.719107e-01 -4.556385e+00 -6.314120e-01 1.510625e+00 -5.386210e+00 -8.258957e+00 -7.324399e+00 7.357007e+01 -2.270783e-01 1.496469e-01 7.607632e-01 5.333881e-01 -1.041437e+00 -1.351009e+00 2.419624e-01 1.526144e+00 -1.412880e-01 -8.235554e-01 -9.112291e-03 5.665606e-01 -1.859235e-02 1.041586e-02 2.626913e-01 2.206199e-01 -2.446114e-02 -3.535513e-01 -1.460482e-01 9.398509e-02 4.385730e-02 -2.592418e-01 1.525965e-01 3.924996e-01 1.126432e-01 -1.234743e-01
<VARIANCE> 39
 1.644506e+01 1.787926e+01 2.245342e+01 3.065443e+01 3.593950e+01 9.328871e+01 4.363859e+01 5.569196e+01 4.743658e+01 5.637038e+01 4.757166e+01 3.936205e+01 1.477540e+01 2.721169e-01 6.526570e-01 1.009247e+00 1.138462e+00 2.157756e+00 2.478467e+00 2.372427e+00 3.392843e+00 2.202093e+00 2.035557e+00 2.233852e+00 1.622851e+00 2.177984e-01 4.517969e-02 1.138795e-01 1.378758e-01 1.607012e-01 3.153472e-01 2.940205e-01 3.616892e-01 5.106990e-01 4.164409e-01 4.130200e-01 4.578952e-01 3.142879e-01 4.927993e-02
<GCONST> 1.015091e+02
<STATE> 4
<MEAN> 39
 -2.346323e+00 -7.720031e+00 -1.372564e-01 -6.504935e+00 -1.288159e+01 -7.356715e+00 -2.956081e+00 5.257932e+00 -2.422702e+00 -5.067220e+00 -3.306074e+00 -4.398325e+00 7.222041e+01 -8.670957e-02 1.451030e+00 1.604227e+00 5.595086e-01 -1.146164e+00 -1.022861e+00 -3.189788e-01 -4.279676e-01 -1.092926e+00 8.774115e-01 1.419964e+00 5.238941e-01 -9.819455e-01 4.543979e-03 3.207373e-01 -1.635204e-01 1.838637e-01 6.709298e-01 3.925062e-01 -2.137904e-01 -6.437827e-01 2.792776e-02 1.574010e-01 -1.512805e-01 -6.812944e-02 -3.790379e-01
<VARIANCE> 39
 1.849652e+01 2.754008e+01 4.779856e+01 4.431772e+01 4.364996e+01 7.105463e+01 5.134504e+01 8.506705e+01 5.995595e+01 5.061822e+01 5.309750e+01 3.246245e+01 2.153550e+01 5.747088e-01 1.414271e+00 2.488422e+00 2.240731e+00 4.407173e+00 2.837025e+00 3.689322e+00 4.943908e+00 3.674425e+00 3.746601e+00 3.288291e+00 2.367704e+00 1.005375e+00 1.398470e-01 2.377634e-01 3.294159e-01 3.761314e-01 5.731276e-01 4.727791e-01 6.442961e-01 8.844312e-01 6.487263e-01 7.589047e-01 6.986064e-01 4.047181e-01 1.726397e-01
<GCONST> 1.210624e+02
<TRANSP> 5
 0.000000e+00 1.000000e+00 0.000000e+00 0.000000e+00 0.000000e+00
 0.000000e+00 7.969348e-01 2.030652e-01 0.000000e+00 0.000000e+00
 0.000000e+00 0.000000e+00 8.065231e-01 1.934769e-01 0.000000e+00
 0.000000e+00 0.000000e+00 0.000000e+00 7.625803e-01 2.374198e-01
 0.000000e+00 0.000000e+00 0.000000e+00 0.000000e+00 0.000000e+00
<ENDHMM>
~h "ch"
<BEGINHMM>
<NUMSTATES> 5
<STATE> 2
<MEAN> 39
 -1.406804e+01 3.411404e+00 4.433072e+00 3.720813e-01 -2.265546e+00 1.639881e-01 -4.201510e+00 -2.906193e-01 -1.201517e+00 -1.983311e+00 1.735767e-01 -8.486575e-01 5.685880e+01 -3.168283e+00 -1.120082e+00 -3.238337e-01 -8.384784e-01 1.999550e-01 1.778463e+00 5.733237e-01 3.273867e-01 7.672008e-01 5.530466e-01 8.418431e-01 2.201586e-01 7.074619e-01 -3.601533e-01 -3.363732e-01 1.205703e-01 -2.739088e-01 -6.018241e-01 -2.344749e-01 -1.725607e-01 7.237488e-02 -9.975357e-02 -8.660204e-02 1.040232e-01 7.478102e-02 1.035578e+00
<VARIANCE> 39
 5.585124e+01 4.629067e+01 2.960781e+01 3.299479e+01 3.530693e+01 4.126493e+01 3.229478e+01 3.111356e+01 2.808100e+01 2.305570e+01 2.244833e+01 1.725427e+01 4.411095e+01 5.370593e+00 4.828317e+00 3.242181e+00 3.612359e+00 5.036193e+00 3.930884e+00 3.854754e+00 3.180454e+00 3.323680e+00 2.662257e+00 2.588285e+00 2.209280e+00 8.876797e+00 9.251223e-01 1.219587e+00 6.123924e-01 8.211922e-01 7.651273e-01 8.208274e-01 7.506346e-01 6.186491e-01 5.748631e-01 5.209574e-01 4.699737e-01 4.281836e-01 1.212839e+00
<GCONST> 1.297352e+02
<STATE> 3
<MEAN> 39
 -2.749037e+01 -1.453042e+00 5.766933e+00 -3.029252e+00 -6.613333e+00 3.022856e+00 -1.288261e+00 9.458441e-01 9.616822e-01 -1.410689e+00 3.251040e+00 4.679040e-01 6.586191e+01 -5.034428e-01 -4.098537e-01 1.971772e-01 3.843330e-01 -8.964003e-01 -6.212291e-01 5.208970e-01 2.534738e-01 4.723024e-03 -3.337727e-02 6.373694e-02 9.765334e-02 7.434343e-01 1.189610e+00 1.447448e-01 -1.283490e-01 2.461886e-01 6.726144e-02 -4.942149e-01 -2.121190e-01 -9.865513e-02 -2.491102e-01 -1.095954e-01 -2.510167e-01 -1.257284e-01 -4.784813e-01
<VARIANCE> 39
 3.725258e+01 2.901848e+01 2.295435e+01 2.393493e+01 3.185305e+01 3.127025e+01 2.744443e+01 2.697069e+01 2.402708e+01 1.834906e+01 1.733333e+01 1.377713e+01 3.188340e+01 7.309477e+00 1.923880e+00 1.963505e+00 2.062812e+00 2.638310e+00 2.735100e+00 2.392364e+00 2.156003e+00 2.010206e+00 1.801891e+00 1.672014e+00 1.456800e+00 3.168758e+00 9.191340e-01 3.939106e-01 3.935551e-01 4.608769e-01 4.960922e-01 5.703939e-01 5.932624e-01 4.561243e-01 4.297814e-01 3.938630e-01 3.579675e-01 3.124048e-01 4.713159e-01
<GCONST> 1.144869e+02
<STATE> 4
<MEAN> 39
 -1.822292e+01 -2.893038e+00 4.479624e+00 4.413800e-01 -1.006369e+01 -3.816005e+00 -2.414062e+00 1.205883e+00 -1.286257e+00 -2.731844e+00 1.308099e+00 -4.823296e-01 6.603678e+01 4.671360e+00 1.564801e-01 -5.670987e-01 -5.867481e-02 -2.848926e-01 -1.991956e+00 -1.696361e+00 -6.352270e-01 -1.154197e+00 -7.153473e-01 -7.330782e-01 -5.788802e-01 1.582183e-02 4.257815e-01 5.059730e-02 -7.051507e-02 -4.534263e-01 1.976880e-01 2.497548e-01 -3.989874e-01 -2.209894e-01 -5.305475e-02 8.936958e-03 1.225701e-02 -5.931685e-02 1.949276e-01
<VARIANCE> 39
 8.937006e+01 2.726457e+01 3.209975e+01 3.631122e+01 3.993245e+01 5.121947e+01 3.976517e+01 3.568503e+01 3.724645e+01 2.453852e+01 2.360977e+01 2.019424e+01 2.393345e+01 6.025424e+00 2.305161e+00 3.451811e+00 3.760517e+00 4.770663e+00 6.030508e+00 4.901180e+00 4.381530e+00 4.755681e+00 3.279245e+00 3.173716e+00 2.587013e+00 2.644263e+00 1.629606e+00 4.545477e-01 4.349337e-01 5.689801e-01 7.884997e-01 9.893513e-01 9.358334e-01 7.840296e-01 8.173137e-01 5.917133e-01 5.360497e-01 4.944701e-01 4.661455e-01
<GCONST> 1.299512e+02
<TRANSP> 5
 0.000000e+00 1.000000e+00 0.000000e+00 0.000000e+00 0.000000e+00
 0.000000e+00 7.700018e-01 2.299982e-01 0.000000e+00 0.000000e+00
 0.000000e+00 0.000000e+00 8.109676e-01 1.890324e-01 0.000000e+00
 0.000000e+00 0.000000e+00 0.000000e+00 6.780132e-01 3.219869e-01
 0.000000e+00 0.000000e+00 0.000000e+00 0.000000e+00 0.000000e+00
<ENDHMM>
~h "dh"
<BEGINHMM>
<NUMSTATES> 5
<STATE> 2
<MEAN> 39
 -1.266840e+01 -4.243721e-01 -1.044095e-01 8.960787e-01 -1.041123e+00 -1.209046e+00 -1.142404e+00 1.831282e+00 -3.228384e-01 -2.213511e+00 -2.142889e-01 -4.126778e-01 5.646534e+01 -1.299033e-01 5.214524e-03 -7.879364e-02 1.067709e-01 1.021886e-01 9.396531e-02 8.413029e-02 1.298880e-02 5.218953e-02 -4.802965e-02 1.442321e-02 -1.171225e-02 -1.486346e-01 5.583332e-02 -1.760678e-01 -7.381291e-02 -1.790048e-01 -2.095242e-01 -1.156332e-01 -1.531870e-01 2.252661e-02 1.432518e-02 5.701263e-03 4.664328e-02 4.648067e-02 3.581941e-01
<VARIANCE> 39
 3.909130e+01 5.990478e+01 2.147141e+01 2.422674e+01 2.345243e+01 3.237245e+01 3.605039e+01 3.744157e+01 2.494124e+01 2.157135e+01 2.495866e+01 2.171945e+01 4.832102e+01 1.546310e+00 2.352337e+00 1.672844e+00 1.885098e+00 2.198161e+00 2.311469e+00 2.648953e+00 2.535277e+00 2.327796e+00 1.910801e+00 1.946926e+00 1.743826e+00 2.818015e+00 2.328150e-01 4.433247e-01 3.125447e-01 4.112221e-01 4.732899e-01 4.780636e-01 5.400996e-01 4.876466e-01 4.430993e-01 3.835546e-01 3.948168e-01 3.606709e-01 5.938751e-01
<GCONST> 1.143265e+02
<STATE> 3
<MEAN> 39
 -9.120942e+00 3.982019e+00 -5.316877e-01 2.246505e+00 -3.198268e+00 -2.285985e+00 -4.803514e+00 -1.744880e+00 -1.178570e+00 -2.274421e+00 -1.523919e+00 -2.003344e+00 5.915905e+01 2.562900e-01 -1.393479e+00 -6.448494e-01 -1.161582e+00 -1.674864e+00 -1.004154e+00 -1.279500e+00 3.460470e-01 4.538803e-01 -8.775369e-02 3.804891e-01 4.614961e-01 2.593445e+00 4.122881e-01 -3.620405e-01 1.789941e-01 -5.004417e-01 -5.392531e-01 -3.604122e-01 -4.550364e-01 8.460829e-02 5.239285e-02 1.010691e-01 1.476277e-02 7.118342e-02 7.400761e-01
<VARIANCE> 39
 3.918901e+01 3.442925e+01 2.934639e+01 3.022029e+01 3.513821e+01 4.797149e+01 5.047644e+01 4.009392e+01 2.797380e+01 2.319378e+01 2.912874e+01 2.416550e+01 5.730700e+01 3.551246e+00 3.273514e+00 3.035105e+00 3.372999e+00 4.518775e+00 4.443001e+00 6.328914e+00 4.888042e+00 4.224347e+00 2.587081e+00 3.251655e+00 2.875157e+00 5.397604e+00 5.363716e-01 7.416685e-01 6.733543e-01 7.033292e-01 8.425186e-01 8.712171e-01 1.098825e+00 8.231395e-01 7.037340e-01 5.086042e-01 6.304881e-01 5.538641e-01 1.064468e+00
<GCONST> 1.312225e+02
<STATE> 4
<MEAN> 39
 -6.568356e+00 -2.852632e-01 -9.890345e-01 -1.981707e+00 -9.134658e+00 -5.470047e+00 -9.412549e+00 -8.353876e-01 1.170099e-02 -2.137655e+00 -8.811783e-01 -1.329503e+00 6.762724e+01 9.374777e-01 -1.293773e+00 3.346295e-01 -1.388196e+00 -1.626131e+00 -1.137470e+00 -1.281178e+00 5.869051e-01 3.130337e-01 9.992017e-02 1.454500e-01 2.263336e-01 2.356566e+00 1.092746e-01 2.460151e-01 3.076950e-01 1.597887e-01 3.755139e-01 1.904323e-01 2.975614e-01 -6.322253e-02 -2.137233e-01 2.498206e-02 -9.139319e-02 -1.210947e-01 -5.124605e-01
<VARIANCE> 39
 3.729987e+01 3.608704e+01 4.062234e+01 4.177178e+01 4.770925e+01 7.170075e+01 7.882838e+01 6.775059e+01 4.329688e+01 3.200394e+01 4.334377e+01 3.489848e+01 5.478173e+01 3.363256e+00 3.716262e+00 3.632950e+00 4.329154e+00 5.190884e+00 5.035009e+00 7.419348e+00 5.609555e+00 4.525166e+00 3.008057e+00 3.851718e+00 3.284547e+00 6.010321e+00 6.029146e-01 6.059625e-01 6.182290e-01 6.628827e-01 8.847004e-01 7.604870e-01 1.161002e+00 8.626406e-01 7.416407e-01 4.977221e-01 5.757261e-01 5.291118e-01 9.752726e-01
<GCONST> 1.363093e+02
<TRANSP> 5
 0.000000e+00 1.000000e+00 0.000000e+00 0.000000e+00 0.000000e+00
 0.000000e+00 8.342981e-01 1.657019e-01 0.000000e+00 0.000000e+00
 0.000000e+00 0.000000e+00 4.150690e-01 5.849310e-01 0.000000e+00
 0.000000e+00 0.000000e+00 0.000000e+00 5.271438e-01 4.728562e-01
 0.000000e+00 0.000000e+00 0.000000e+00 0.000000e+00 0.000000e+00
<ENDHMM>
~h "eh"
<BEGINHMM>
<NUMSTATES> 5
<STATE> 2
<MEAN> 39
 -3.802329e+00 -5.124562e+00 -5.028557e-01 -6.410916e+00 -1.150974e+01 -9.471108e+00 -6.431056e+00 3.337405e+00 -8.933793e-01 -3.026790e+00 -3.046588e+00 -2.291618e+00 7.203321e+01 1.280200e+00 -1.583982e+00 -1.241780e-01 -1.197242e+00 -1.119790e+00 -7.284884e-01 2.488748e-01 1.390597e+00 5.838940e-01 -7.775218e-01 -8.416219e-01 -3.930232e-01 1.676490e+00 -5.542798e-01 3.336935e-01 -1.444128e-01 2.433104e-01 6.048803e-01 4.841343e-01 3.959964e-01 -1.482592e-01 -1.605333e-01 -2.248216e-02 1.446696e-01 9.607152e-02 -5.072147e-01
<VARIANCE> 39
 3.214507e+01 3.013991e+01 4.041071e+01 3.900341e+01 3.765921e+01 7.759371e+01 6.132787e+01 6.531486e+01 5.693191e+01 4.107427e+01 5.634346e+01 3.737534e+01 3.197294e+01 5.115600e+00 2.814038e+00 2.893963e+00 3.109370e+00 3.948822e+00 4.262201e+00 5.446413e+00 4.468164e+00 3.842651e+00 3.279023e+00 3.824310e+00 3.056488e+00 2.589041e+00 8.331625e-01 4.366277e-01 3.928161e-01 4.529157e-01 5.726438e-01 7.040583e-01 9.337623e-01 8.468164e-01 7.566215e-01 5.713018e-01 7.388921e-01 5.324478e-01 3.830408e-01
<GCONST> 1.312769e+02
<STATE> 3
<MEAN> 39
 -2.893658e+00 -8.032222e+00 -1.624114e+00 -8.260526e+00 -1.138433e+01 -9.528710e+00 -3.877481e+00 6.650888e+00 -3.685576e-01 -5.761609e+00 -4.796899e+00 -2.757042e+00 7.439041e+01 1.581820e-01 -2.436211e-01 -2.842848e-01 1.755359e-03 2.628215e-01 3.262817e-02 6.239222e-02 1.908161e-01 5.091766e-02 -3.328069e-01 -2.861648e-01 -4.204357e-02 2.285286e-02 -7.400145e-02 4.407263e-01 6.824037e-02 3.346156e-01 2.515127e-01 1.274920e-01 -2.832879e-01 -4.501320e-01 -1.807090e-01 2.438735e-01 2.193740e-01 5.852584e-02 -4.586374e-01
<VARIANCE> 39
 1.888493e+01 2.196666e+01 3.033278e+01 3.494185e+01 3.156591e+01 7.025457e+01 5.281881e+01 6.233428e+01 5.865091e+01 4.251194e+01 5.886934e+01 3.493786e+01 1.957936e+01 7.430998e-01 1.261728e+00 1.827334e+00 1.564361e+00 1.889502e+00 2.079030e+00 2.884650e+00 2.469210e+00 2.377293e+00 2.042038e+00 2.215679e+00 1.770118e+00 8.109865e-01 2.591916e-01 2.639406e-01 2.675341e-01 3.001551e-01 3.667625e-01 4.110036e-01 5.319350e-01 5.204428e-01 4.653094e-01 4.035088e-01 5.009495e-01 3.265432e-01 2.095464e-01
<GCONST> 1.125272e+02
<STATE> 4
<MEAN> 39
 -1.926543e+00 -6.305412e+00 -2.581599e+00 -6.595620e+00 -1.000503e+01 -9.660318e+00 -6.725726e+00 4.069875e+00 -3.006229e-01 -4.795883e+00 -5.373212e+00 -2.851014e+00 7.218531e+01 -1.323165e-02 1.420142e+00 3.605175e-01 1.086525e+00 7.526859e-01 4.219535e-01 -5.656796e-01 -1.099782e+00 -5.485764e-01 3.980808e-01 4.010687e-01 5.102878e-02 -1.437076e+00 -2.881986e-01 4.914056e-01 1.453670e-01 2.553362e-01 2.713683e-01 2.466265e-01 1.681407e-01 -2.486812e-01 -1.753195e-01 8.117621e-02 1.590877e-01 5.786091e-02 -4.372365e-01
<VARIANCE> 39
 2.015227e+01 3.487755e+01 3.683833e+01 4.129346e+01 3.821556e+01 8.695870e+01 5.891879e+01 7.923295e+01 7.307832e+01 4.780298e+01 5.986091e+01 4.760750e+01 2.682472e+01 1.846415e+00 3.179516e+00 2.721080e+00 2.897744e+00 2.837463e+00 3.047174e+00 3.484241e+00 3.785870e+00 3.536888e+00 2.838057e+00 3.217912e+00 2.585478e+00 2.601185e+00 3.706966e-01 4.087422e-01 3.565789e-01 4.055595e-01 5.028684e-01 5.469478e-01 6.720415e-01 7.140489e-01 7.167239e-01 5.299621e-01 6.692973e-01 5.217400e-01 3.429275e-01
<GCONST> 1.265362e+02
<TRANSP> 5
 0.000000e+00 1.000000e+00 0.000000e+00 0.000000e+00 0.000000e+00
 0.000000e+00 5.276779e-01 4.723221e-01 0.000000e+00 0.000000e+00
 0.000000e+00 0.000000e+00 7.097761e-01 2.902239e-01 0.000000e+00
 0.000000e+00 0.000000e+00 0.000000e+00 6.253626e-01 3.746373e-01
 0.000000e+00 0.000000e+00 0.000000e+00 0.000000e+00 0.000000e+00
<ENDHMM>
~h "er"
<BEGINHMM>
<NUMSTATES> 5
<STATE> 2
<MEAN> 39
 1.230243e+00 -6.354003e+00 -5.421265e+00 3.383954e-01 -5.593704e+00 -1.113286e+01 -1.509990e+01 8.340657e-01 3.148609e-01 -3.168365e+00 4.960999e-01 -4.950266e-01 6.875807e+01 1.912155e+00 -7.985739e-01 -1.066054e+00 -1.192640e-02 5.774033e-01 -1.704496e+00 -1.993182e+00 7.681088e-01 1.002117e+00 -5.383964e-01 -1.141584e-01 3.225129e-01 7.123172e-01 -5.661566e-01 3.046216e-01 2.819031e-01 4.615056e-02 1.456567e-01 4.328084e-01 4.706811e-01 -1.695117e-02 -1.086693e-01 1.049023e-02 -8.960408e-02 -4.712261e-03 -3.198634e-01
<VARIANCE> 39
 3.166817e+01 2.439020e+01 5.988187e+01 3.088900e+01 4.452813e+01 9.274889e+01 6.459208e+01 6.043727e+01 7.499909e+01 4.918805e+01 4.472304e+01 2.491620e+01 2.185656e+01 4.800142e+00 2.141775e+00 3.281327e+00 2.438030e+00 3.563720e+00 5.060876e+00 4.842765e+00 4.078188e+00 4.987399e+00 3.372832e+00 3.201736e+00 2.356044e+00 1.729148e+00 7.450553e-01 3.824052e-01 5.373696e-01 3.757800e-01 6.429789e-01 7.138145e-01 8.025488e-01 7.266061e-01 7.309095e-01 6.117670e-01 5.249584e-01 3.946739e-01 2.590769e-01
<GCONST> 1.285319e+02
<STATE> 3
<MEAN> 39
 3.437677e+00 -7.082528e+00 -7.329064e+00 7.699465e-01 -2.809715e+00 -1.385402e+01 -1.849413e+01 3.421962e+00 3.299774e+00 -4.320736e+00 -7.271811e-01 4.020206e-01 6.891588e+01 -1.076376e-01 2.319356e-01 3.116401e-01 2.537421e-01 -3.612364e-02 -9.299006e-02 2.144172e-01 1.563444e-01 -1.788878e-01 -2.382278e-01 -5.892326e-02 1.867256e-01 -2.993455e-01 -3.881951e-01 2.999147e-01 4.006681e-01 6.848523e-02 -2.191474e-01 3.798888e-01 5.758998e-01 -2.345444e-01 -3.429855e-01 8.969729e-02 5.283951e-02 -6.457619e-02 -2.263135e-01
<VARIANCE> 39
 1.308703e+01 2.192594e+01 4.906986e+01 2.829274e+01 3.460882e+01 1.050263e+02 6.857757e+01 5.726865e+01 9.361717e+01 4.720732e+01 4.245567e+01 2.629394e+01 2.058794e+01 7.984453e-01 1.374894e+00 2.190492e+00 1.351245e+00 2.555070e+00 2.600569e+00 2.795178e+00 3.250672e+00 2.664632e+00 2.261695e+00 1.857494e+00 1.440448e+00 8.597549e-01 2.762213e-01 2.860190e-01 2.793334e-01 2.425934e-01 3.766662e-01 5.792819e-01 5.573182e-01 5.731391e-01 5.437180e-01 4.192872e-01 3.713574e-01 2.807942e-01 1.675447e-01
<GCONST> 1.139716e+02
<STATE> 4
<MEAN> 39
 -5.017891e-01 -3.989629e+00 -2.297696e+00 2.492104e+00 -5.409617e+00 -1.217985e+01 -1.255341e+01 2.402910e+00 -6.348630e-01 -4.990800e+00 -4.761178e-01 1.040883e+00 6.525163e+01 -1.655385e+00 1.554769e+00 1.773920e+00 1.928087e-01 -4.141822e-01 1.673580e+00 2.029306e+00 -9.460518e-01 -9.324329e-01 2.762863e-01 -8.971857e-02 -2.710294e-01 -1.067794e+00 -4.704675e-01 2.729165e-01 4.841579e-02 -2.331849e-01 2.484917e-01 4.785828e-01 1.820040e-01 -1.540439e-01 1.889382e-02 2.142864e-01 -3.079816e-02 -1.663329e-01 -1.173165e-01
<VARIANCE> 39
 3.484225e+01 3.621515e+01 5.567076e+01 4.632398e+01 5.741896e+01 9.229971e+01 6.739125e+01 6.053229e+01 7.559682e+01 3.961115e+01 3.864470e+01 3.048217e+01 3.928869e+01 3.295181e+00 3.774064e+00 3.027243e+00 2.853581e+00 4.392817e+00 5.204762e+00 5.018633e+00 4.630768e+00 5.020777e+00 3.343472e+00 3.207008e+00 2.343175e+00 2.557593e+00 4.906723e-01 6.208386e-01 5.382150e-01 5.346854e-01 7.951057e-01 8.630179e-01 7.252451e-01 9.013941e-01 7.108724e-01 5.804849e-01 5.489501e-01 4.380158e-01 3.534217e-01
<GCONST> 1.324512e+02
<TRANSP> 5
 0.000000e+00 1.000000e+00 0.000000e+00 0.000000e+00 0.000000e+00
 0.000000e+00 6.602926e-01 3.397074e-01 0.000000e+00 0.000000e+00
 0.000000e+00 0.000000e+00 7.582471e-01 2.417528e-01 0.000000e+00
 0.000000e+00 0.000000e+00 0.000000e+00 6.161194e-01 3.838806e-01
 0.000000e+00 0.000000e+00 0.000000e+00 0.000000e+00 0.000000e+00
<ENDHMM>
~h "ey"
<BEGINHMM>
<NUMSTATES> 5
<STATE> 2
<MEAN> 39
 -4.486801e+00 -4.893081e+00 5.676282e+00 -7.349576e+00 -1.713398e+01 -9.125741e+00 -5.132227e+00 2.554234e+00 -4.356556e+00 -1.413371e+00 2.059280e+00 -2.153340e+00 7.343356e+01 7.463930e-02 -2.069458e-01 1.210324e+00 -7.925632e-01 -1.492282e+00 1.359548e-01 4.226799e-01 -4.122717e-01 -8.616441e-01 7.688553e-01 8.909857e-01 -6.115162e-01 6.119589e-01 -2.597793e-01 3.352531e-01 -7.876454e-02 2.356826e-01 5.385299e-01 3.220661e-01 -4.143548e-02 -4.289881e-01 -4.616556e-02 1.434572e-01 -1.429162e-01 -6.050903e-02 -4.909152e-01
<VARIANCE> 39
 1.618758e+01 2.493421e+01 3.334553e+01 4.583210e+01 2.511970e+01 6.341042e+01 6.064352e+01 7.102663e+01 4.479947e+01 3.285025e+01 6.394062e+01 2.727772e+01 2.117560e+01 1.741956e+00 1.544834e+00 2.143366e+00 1.976570e+00 2.579089e+00 2.359292e+00 3.294991e+00 3.372017e+00 2.873016e+00 2.131246e+00 2.684012e+00 1.987924e+00 1.502459e+00 4.099000e-01 2.829453e-01 2.711996e-01 3.067642e-01 4.043427e-01 4.446610e-01 7.146084e-01 6.079838e-01 4.704954e-01 4.131445e-01 4.813886e-01 3.603823e-01 2.383105e-01
<GCONST> 1.170886e+02
<STATE> 3
<MEAN> 39
 -5.205167e+00 -2.568844e+00 1.109187e+01 -9.274306e+00 -1.908418e+01 -6.063210e+00 -5.736106e+00 -3.247226e+00 -8.992558e+00 2.074985e+00 2.264601e+00 -4.217843e+00 7.212733e+01 2.416363e-02 3.729843e-01 5.360600e-01 2.801791e-01 4.031897e-02 2.166245e-01 -2.207806e-01 -6.346866e-01 -5.879917e-01 6.540292e-02 -2.220532e-01 -2.592705e-02 -4.386074e-01 4.071450e-02 1.021166e-01 -2.198204e-01 2.996569e-01 3.119605e-01 -8.248977e-02 1.491025e-03 1.380787e-01 1.275786e-01 -2.272570e-01 -1.232296e-01 1.181907e-01 -2.130534e-01
<VARIANCE> 39
 1.450487e+01 2.397491e+01 3.925752e+01 5.735905e+01 2.283280e+01 7.263562e+01 5.128920e+01 6.484319e+01 3.657308e+01 3.026575e+01 7.613983e+01 3.294093e+01 1.968250e+01 3.522914e-01 7.131664e-01 1.254577e+00 1.191103e+00 1.119237e+00 1.348574e+00 1.408548e+00 1.967116e+00 1.736345e+00 1.681648e+00 1.435529e+00 1.129693e+00 5.310400e-01 9.593362e-02 1.406277e-01 2.075079e-01 2.080472e-01 2.876191e-01 2.585143e-01 3.085571e-01 3.227598e-01 3.403911e-01 2.784289e-01 2.976463e-01 2.273925e-01 1.253058e-01
<GCONST> 1.004808e+02
<STATE> 4
<MEAN> 39
 -4.728881e+00 5.060136e-03 1.136102e+01 -3.762761e+00 -1.654867e+01 -7.602656e+00 -6.411569e+00 -4.470953e+00 -1.076832e+01 -4.819584e-02 1.143020e+00 -2.804356e+00 6.747517e+01 -1.614135e-01 1.354810e+00 -1.168290e+00 1.943255e+00 2.316002e+00 2.152887e-02 4.049253e-01 2.482616e-01 8.782939e-01 -9.172022e-01 -5.753909e-01 4.298451e-01 -1.994951e+00 -3.925570e-01 1.283976e-01 -5.172628e-01 -1.352273e-02 5.976117e-01 3.094151e-01 1.429264e-01 1.731136e-01 5.163498e-01 -9.022452e-03 3.863929e-03 3.104987e-02 -1.753372e-01
<VARIANCE> 39
 1.848913e+01 3.817034e+01 5.338508e+01 6.551586e+01 3.723339e+01 6.980101e+01 4.557438e+01 7.119955e+01 4.902895e+01 3.828298e+01 6.589049e+01 3.429919e+01 3.290128e+01 2.358335e+00 2.703818e+00 2.982871e+00 3.125115e+00 4.086435e+00 3.428811e+00 4.202800e+00 3.897226e+00 3.967613e+00 3.057225e+00 3.382377e+00 2.604872e+00 3.173704e+00 3.863204e-01 5.068026e-01 4.564377e-01 5.621109e-01 6.520246e-01 5.730160e-01 5.753440e-01 7.955795e-01 6.698891e-01 5.538863e-01 5.286853e-01 4.219098e-01 4.401159e-01
<GCONST> 1.283759e+02
<TRANSP> 5
 0.000000e+00 1.000000e+00 0.000000e+00 0.000000e+00 0.000000e+00
 0.000000e+00 7.211317e-01 2.788683e-01 0.000000e+00 0.000000e+00
 0.000000e+00 0.000000e+00 8.404866e-01 1.595133e-01 0.000000e+00
 0.000000e+00 0.000000e+00 0.000000e+00 6.322829e-01 3.677170e-01
 0.000000e+00 0.000000e+00 0.000000e+00 0.000000e+00 0.000000e+00
<ENDHMM>
~h "hh"
<BEGINHMM>
<NUMSTATES> 5
<STATE> 2
<MEAN> 39
 -1.225932e+01 -3.065829e+00 -1.313484e-02 -1.059504e+00 -1.980020e+00 6.804213e-01 1.700034e-01 2.692454e+00 -1.587067e+00 -2.651187e+00 -8.252831e-01 -4.469423e-01 6.103104e+01 -1.593966e-01 -7.027622e-01 -1.685716e-01 -8.225256e-02 1.260660e-01 3.693961e-01 2.275263e-01 4.792083e-02 7.027303e-02 -2.036340e-01 -1.458797e-01 -6.962975e-02 2.870221e-01 1.962159e-01 1.462267e-01 -3.887589e-02 -8.152472e-02 -1.194648e-01 -1.637971e-01 -1.953744e-01 -1.782857e-01 -3.912183e-02 -8.450690e-03 -1.354742e-02 -3.873158e-02 5.582517e-02
<VARIANCE> 39
 5.032326e+01 4.837726e+01 3.554867e+01 3.488642e+01 4.805626e+01 5.932556e+01 4.696214e+01 4.722936e+01 3.915294e+01 2.968423e+01 3.053453e+01 2.579305e+01 5.026156e+01 2.361506e+00 2.423887e+00 2.118310e+00 2.409177e+00 3.226224e+00 3.436150e+00 3.070878e+00 3.212166e+00 2.752491e+00 2.517587e+00 2.339464e+00 2.049755e+00 1.445693e+00 3.400673e-01 4.292244e-01 3.640738e-01 4.610860e-01 5.995943e-01 5.785013e-01 5.946751e-01 6.007949e-01 5.672272e-01 4.971789e-01 4.437859e-01 4.098961e-01 2.276152e-01
<GCONST> 1.215958e+02
<STATE> 3
<MEAN> 39
 -1.252099e+01 -5.240243e+00 -7.118816e-01 -1.799943e+00 -1.746886e+00 9.406766e-01 -2.754221e-01 2.207733e+00 -9.877418e-01 -2.865331e+00 -5.907563e-01 -7.938904e-01 6.092186e+01 4.113848e-01 1.701203e-01 -1.177980e-01 -8.551328e-02 -1.265775e-01 4.043325e-02 -1.461594e-01 -3.169409e-01 -1.995833e-02 -7.418970e-02 -1.489838e-01 -1.429836e-01 1.422808e-02 1.612231e-01 1.182181e-01 -3.518581e-02 -7.015654e-02 -1.109217e-01 -1.186480e-01 -1.251769e-01 -7.034332e-02 -2.080503e-02 5.216965e-03 1.157414e-02 -2.299953e-02 5.426784e-02
<VARIANCE> 39
 4.235459e+01 4.424149e+01 3.064039e+01 2.967311e+01 4.187722e+01 5.604214e+01 4.312783e+01 4.025667e+01 3.513646e+01 2.893612e+01 3.072985e+01 2.325840e+01 5.168344e+01 1.421629e+00 1.547300e+00 1.381999e+00 1.676400e+00 2.083274e+00 2.304972e+00 2.305817e+00 2.403529e+00 2.191005e+00 2.070405e+00 1.922588e+00 1.690312e+00 1.031734e+00 2.226082e-01 2.930975e-01 2.564241e-01 3.246595e-01 4.188413e-01 4.320838e-01 4.580483e-01 4.441865e-01 4.371935e-01 3.941851e-01 3.744002e-01 3.366050e-01 1.311211e-01
<GCONST> 1.119406e+02
<STATE> 4
<MEAN> 39
 -7.277482e+00 -1.940720e+00 -1.328542e+00 -2.810031e+00 -3.640494e+00 9.181974e-01 -1.947853e+00 -7.347549e-01 -2.474754e+00 -3.740599e+00 -2.851944e+00 -2.420391e+00 6.350835e+01 1.211578e+00 1.876079e-01 -3.064176e-01 -6.430518e-01 -8.772556e-01 -6.477894e-01 -7.396978e-01 -4.771242e-01 -1.622362e-01 -2.061184e-01 -1.954189e-01 -2.774075e-01 8.129261e-01 9.623243e-02 -9.804420e-02 -3.609929e-02 -1.610786e-01 -1.407277e-01 -1.113715e-01 -1.480378e-01 1.052292e-02 -4.712350e-02 2.876776e-02 4.425457e-02 1.690516e-02 1.936093e-01
<VARIANCE> 39
 4.951276e+01 4.532755e+01 5.002878e+01 4.609333e+01 6.184427e+01 8.106765e+01 6.000751e+01 5.501089e+01 4.484768e+01 4.714066e+01 4.180564e+01 2.993231e+01 6.889369e+01 3.008331e+00 3.005050e+00 3.016782e+00 2.952555e+00 3.476789e+00 3.488903e+00 3.832879e+00 3.785051e+00 3.538717e+00 2.881120e+00 2.773922e+00 2.367843e+00 2.189941e+00 4.186852e-01 5.468235e-01 4.508217e-01 5.171582e-01 6.301985e-01 5.743319e-01 6.395123e-01 6.336483e-01 6.153105e-01 5.275798e-01 4.975689e-01 4.206510e-01 3.357438e-01
<GCONST> 1.286960e+02
<TRANSP> 5
 0.000000e+00 1.000000e+00 0.000000e+00 0.000000e+00 0.000000e+00
 0.000000e+00 7.048486e-01 2.951513e-01 0.000000e+00 0.000000e+00
 0.000000e+00 0.000000e+00 7.650949e-01 2.349051e-01 0.000000e+00
 0.000000e+00 0.000000e+00 0.000000e+00 5.547203e-01 4.452797e-01
 0.000000e+00 0.000000e+00 0.000000e+00 0.000000e+00 0.000000e+00
<ENDHMM>
~h "ih"
<BEGINHMM>
<NUMSTATES> 5
<STATE> 2
<MEAN> 39
 -5.755473e+00 -1.089764e+00 3.611549e+00 -3.634115e+00 -1.072586e+01 -7.902839e+00 -9.264357e+00 -3.974061e-01 -4.404796e+00 -3.387680e+00 -5.062854e-01 -9.263760e-01 6.865905e+01 1.059533e+00 -7.748180e-01 1.112407e+00 -7.084072e-01 -1.961236e+00 -6.876875e-01 -7.751173e-01 2.593873e-01 -5.793642e-01 -7.755983e-02 3.663982e-01 -9.040728e-02 1.377426e+00 -1.473712e-01 2.821240e-01 -1.121626e-01 1.307684e-01 3.710266e-01 4.084945e-01 3.405766e-01 -1.645048e-01 -6.279906e-02 1.557685e-01 1.948016e-02 -1.258308e-01 -4.415777e-01
<VARIANCE> 39
 4.811687e+01 4.313369e+01 5.407148e+01 5.073610e+01 5.502037e+01 7.904420e+01 7.206145e+01 6.512256e+01 5.544683e+01 3.746111e+01 4.920376e+01 3.282315e+01 4.179091e+01 6.097584e+00 3.917811e+00 4.273877e+00 4.707813e+00 6.027042e+00 5.696513e+00 7.535136e+00 5.729352e+00 5.418382e+00 3.707513e+00 4.504606e+00 3.572067e+00 4.576461e+00 9.052821e-01 7.683700e-01 5.773079e-01 7.016506e-01 9.773895e-01 9.684256e-01 1.103078e+00 1.037039e+00 9.387532e-01 6.473539e-01 7.422450e-01 5.714041e-01 7.960262e-01
<GCONST> 1.408268e+02
<STATE> 3
<MEAN> 39
 -3.940302e+00 -2.958895e+00 6.806310e+00 -5.166258e+00 -1.507048e+01 -8.497504e+00 -1.039261e+01 4.526555e-01 -6.464238e+00 -3.345337e+00 1.216900e+00 -1.579780e+00 7.135368e+01 3.111678e-01 1.256428e-01 4.567185e-01 -1.215630e-01 -3.986706e-01 2.550637e-01 2.072149e-01 -1.741184e-01 -4.253677e-01 2.997935e-01 8.349311e-02 -3.634659e-01 -5.924762e-02 -3.206617e-01 5.427305e-01 -3.771273e-01 3.614714e-01 8.606433e-01 3.933363e-01 3.833520e-01 -3.207464e-01 1.071128e-01 1.056725e-01 -2.016922e-01 -3.322765e-02 -7.264268e-01
<VARIANCE> 39
 1.931783e+01 3.159881e+01 5.763557e+01 5.197189e+01 4.259895e+01 8.096478e+01 7.082156e+01 7.221896e+01 6.067449e+01 3.956456e+01 6.824083e+01 3.760242e+01 2.661204e+01 1.979166e+00 2.597963e+00 3.399734e+00 3.231469e+00 3.889582e+00 3.571326e+00 4.474829e+00 4.025628e+00 4.571648e+00 3.079791e+00 3.115616e+00 2.653650e+00 2.713485e+00 5.554820e-01 4.972882e-01 5.003748e-01 5.375189e-01 7.608546e-01 7.915452e-01 9.809176e-01 9.535578e-01 8.597975e-01 6.099595e-01 7.539241e-01 5.507612e-01 4.687663e-01
<GCONST> 1.315530e+02
<STATE> 4
<MEAN> 39
 -3.917985e+00 -8.949241e-01 7.220940e+00 -3.852614e+00 -1.344828e+01 -7.227113e+00 -9.300203e+00 -1.137878e+00 -7.163680e+00 -2.553995e+00 6.783573e-02 -2.470570e+00 6.902174e+01 -1.581171e-01 1.047813e+00 -2.925776e-01 6.093206e-01 1.077603e+00 6.467663e-01 6.144187e-01 -5.970414e-01 3.311363e-02 2.609255e-01 -3.457907e-01 -1.851395e-01 -1.184627e+00 -2.917518e-01 2.466263e-01 -2.584457e-01 1.810207e-01 5.227623e-01 2.231062e-01 1.828598e-01 -1.179869e-01 1.270622e-01 -4.590803e-03 -3.109961e-02 8.524700e-02 -3.459455e-01
<VARIANCE> 39
 2.361112e+01 4.035349e+01 7.012198e+01 6.125220e+01 5.275472e+01 8.057453e+01 7.204173e+01 7.551733e+01 6.863028e+01 4.428986e+01 6.809962e+01 4.087497e+01 3.728942e+01 2.277675e+00 3.498693e+00 3.098958e+00 3.499853e+00 4.336450e+00 3.938489e+00 4.591622e+00 4.397624e+00 4.419621e+00 3.185878e+00 3.080306e+00 2.684664e+00 3.858514e+00 4.754955e-01 5.629858e-01 5.337573e-01 5.464799e-01 7.820038e-01 7.088081e-01 8.442678e-01 8.415561e-01 8.658440e-01 6.037235e-01 6.728967e-01 5.092261e-01 4.675795e-01
<GCONST> 1.338764e+02
<TRANSP> 5
 0.000000e+00 1.000000e+00 0.000000e+00 0.000000e+00 0.000000e+00
 0.000000e+00 5.080435e-01 4.919565e-01 0.000000e+00 0.000000e+00
 0.000000e+00 0.000000e+00 4.730076e-01 5.269924e-01 0.000000e+00
 0.000000e+00 0.000000e+00 0.000000e+00 5.378612e-01 4.621388e-01
 0.000000e+00 0.000000e+00 0.000000e+00 0.000000e+00 0.000000e+00
<ENDHMM>
~h "iy"
<BEGINHMM>
<NUMSTATES> 5
<STATE> 2
<MEAN> 39
 -6.014448e+00 2.561665e-02 1.181253e+01 -3.786241e+00 -1.661604e+01 -7.770784e+00 -8.310653e+00 -4.937796e+00 -1.141992e+01 -3.105704e+00 8.656630e-01 -2.619243e+00 6.894962e+01 1.958492e-01 2.861694e-01 2.468979e+00 -1.114923e+00 -2.186460e+00 8.890398e-01 -1.608375e-01 -1.545672e+00 -1.470331e+00 6.076543e-01 -7.476169e-02 -7.511579e-01 6.457084e-01 -1.496749e-01 2.543995e-01 -5.294362e-01 4.795046e-02 7.967185e-01 3.772164e-01 4.341669e-02 -4.658353e-02 4.665312e-01 1.326545e-01 -2.519740e-01 -1.975828e-02 -4.360376e-01
<VARIANCE> 39
 2.616178e+01 3.380584e+01 4.904509e+01 6.768044e+01 3.675146e+01 9.112997e+01 5.786395e+01 7.420688e+01 5.106620e+01 4.434571e+01 6.644424e+01 3.369973e+01 2.357530e+01 3.949327e+00 2.159303e+00 3.561804e+00 3.884044e+00 4.901345e+00 4.539684e+00 5.910555e+00 4.752470e+00 5.018117e+00 3.907570e+00 3.710733e+00 3.013275e+00 2.249848e+00 5.267912e-01 4.435795e-01 5.230182e-01 6.217579e-01 7.654653e-01 8.157688e-01 9.249140e-01 1.065382e+00 8.227118e-01 5.721743e-01 5.864789e-01 4.946058e-01 3.474515e-01
<GCONST> 1.329486e+02
<STATE> 3
<MEAN> 39
 -6.588078e+00 2.734092e+00 1.646289e+01 -7.152486e+00 -1.775875e+01 -2.664001e+00 -9.279230e+00 -9.409648e+00 -1.195208e+01 -6.719583e-01 -1.624460e+00 -4.620821e+00 6.835366e+01 5.901746e-02 2.906252e-01 -1.269112e-01 2.961525e-01 2.100067e-01 4.961625e-03 2.563742e-01 -1.859220e-01 8.477543e-02 2.149177e-01 -2.143249e-01 8.370450e-03 -3.960826e-01 1.546112e-02 2.858090e-03 -5.308818e-01 3.660103e-01 4.217424e-01 -2.869764e-01 1.599065e-01 3.558631e-01 2.292699e-01 -1.492890e-01 9.992668e-02 1.748501e-01 -1.924458e-01
<VARIANCE> 39
 1.718133e+01 2.570151e+01 4.440835e+01 7.370023e+01 3.037094e+01 8.375816e+01 4.725679e+01 6.335475e+01 3.896601e+01 5.016717e+01 8.060773e+01 3.923075e+01 2.043221e+01 6.144062e-01 1.269896e+00 1.898108e+00 2.014470e+00 1.868259e+00 2.456703e+00 2.130525e+00 2.520399e+00 1.996308e+00 1.861930e+00 1.897175e+00 1.449850e+00 9.161473e-01 1.719130e-01 2.189147e-01 3.468094e-01 3.514956e-01 5.088215e-01 3.917892e-01 4.238611e-01 4.619494e-01 4.753592e-01 3.999589e-01 3.870546e-01 3.131417e-01 1.755319e-01
<GCONST> 1.127578e+02
<STATE> 4
<MEAN> 39
 -5.908061e+00 3.773391e+00 1.026587e+01 -6.818326e-01 -1.355760e+01 -7.071944e+00 -5.331419e+00 -6.874271e+00 -9.885982e+00 -1.279683e+00 -8.979095e-01 -2.367640e+00 6.404716e+01 -2.879292e-01 5.456042e-01 -2.211547e+00 1.151478e+00 2.379353e+00 -2.201681e-01 6.418020e-01 1.257580e+00 1.382463e+00 -5.133187e-01 6.202725e-02 4.911714e-01 -1.227626e+00 -2.741335e-01 -7.381465e-02 -2.352945e-01 -2.202786e-01 3.318431e-01 3.708580e-01 -7.061026e-02 1.487757e-01 2.372489e-01 -4.872955e-02 -3.436277e-02 -9.683914e-03 5.287752e-03
<VARIANCE> 39
 2.844876e+01 3.943314e+01 5.144324e+01 6.660503e+01 5.593831e+01 7.166289e+01 4.675607e+01 6.213261e+01 4.454604e+01 4.201005e+01 5.114631e+01 3.178201e+01 4.254753e+01 2.840898e+00 3.235517e+00 3.097408e+00 3.839551e+00 4.645039e+00 4.335527e+00 4.359294e+00 4.675400e+00 4.145900e+00 3.853000e+00 3.577098e+00 2.811567e+00 2.969877e+00 3.353440e-01 5.071341e-01 5.246641e-01 5.297090e-01 8.044562e-01 6.768941e-01 5.888372e-01 7.952155e-01 6.337162e-01 5.808924e-01 5.311328e-01 4.225475e-01 3.412897e-01
<GCONST> 1.306804e+02
<TRANSP> 5
 0.000000e+00 1.000000e+00 0.000000e+00 0.000000e+00 0.000000e+00
 0.000000e+00 6.606643e-01 3.393357e-01 0.000000e+00 0.000000e+00
 0.000000e+00 0.000000e+00 8.116437e-01 1.883563e-01 0.000000e+00
 0.000000e+00 0.000000e+00 0.000000e+00 6.541950e-01 3.458050e-01
 0.000000e+00 0.000000e+00 0.000000e+00 0.000000e+00 0.000000e+00
<ENDHMM>
~h "jh"
<BEGINHMM>
<NUMSTATES> 5
<STATE> 2
<MEAN> 39
 -9.337011e+00 5.785121e+00 6.791571e+00 2.195528e+00 -3.184886e+00 -1.582708e+00 -4.630236e+00 -1.350648e+00 -3.067807e+00 -4.548730e+00 -2.469192e+00 -2.706863e+00 5.841573e+01 -3.242383e+00 -4.223505e-01 -2.897283e-02 -3.558918e-01 9.098441e-01 1.985473e+00 6.568738e-01 2.872016e-02 6.641284e-01 2.655911e-01 4.996453e-01 -1.014797e-01 3.552797e-01 -5.768624e-01 -5.891805e-01 -4.538517e-02 -4.708952e-01 -5.838594e-01 -1.332207e-01 -2.390267e-01 1.440484e-01 -4.363252e-02 8.722059e-02 3.617529e-01 2.210141e-01 1.033421e+00
<VARIANCE> 39
 6.394246e+01 4.571032e+01 3.123697e+01 3.309244e+01 4.241082e+01 4.606928e+01 3.289256e+01 3.850888e+01 2.967109e+01 2.305682e+01 2.482596e+01 1.924092e+01 3.930470e+01 6.989333e+00 7.058861e+00 3.770361e+00 4.149174e+00 5.042516e+00 4.407000e+00 3.894716e+00 3.444304e+00 3.642956e+00 2.660464e+00 3.246021e+00 2.595082e+00 7.843852e+00 1.320294e+00 1.209494e+00 6.312955e-01 7.078527e-01 8.453075e-01 1.113070e+00 7.317258e-01 6.219720e-01 5.943998e-01 5.318091e-01 5.370859e-01 4.678448e-01 9.881974e-01
<GCONST> 1.327664e+02
<STATE> 3
<MEAN> 39
 -2.469071e+01 1.721716e+00 7.708108e+00 -1.507066e+00 -5.633765e+00 3.237240e+00 -3.232846e+00 -4.965515e-01 -9.905617e-01 -3.634753e+00 1.591485e+00 -1.079483e+00 6.602578e+01 -5.952312e-01 -2.215354e-01 6.329401e-01 -6.054139e-02 -1.781525e+00 -1.254546e+00 -2.500761e-01 -9.533226e-02 -2.671866e-01 -2.371015e-01 5.665777e-01 4.653066e-01 1.419390e+00 1.915285e+00 9.402834e-02 -3.027342e-02 2.151225e-01 -3.296443e-01 -9.619871e-01 -4.271475e-01 -1.114181e-01 -3.461831e-01 -1.273592e-01 -1.855872e-01 -2.604702e-02 -3.465182e-01
<VARIANCE> 39
 4.462806e+01 3.496940e+01 3.461749e+01 2.664870e+01 3.560093e+01 3.688028e+01 3.204253e+01 3.666828e+01 2.834759e+01 1.874824e+01 1.872373e+01 1.453063e+01 2.524159e+01 1.551978e+01 2.658752e+00 2.792898e+00 2.816054e+00 3.359141e+00 5.469275e+00 3.533223e+00 2.797647e+00 3.038103e+00 2.007038e+00 2.066209e+00 1.632512e+00 3.002149e+00 1.623739e+00 6.992239e-01 6.364177e-01 6.212736e-01 7.241883e-01 8.613871e-01 7.737948e-01 5.632321e-01 5.777942e-01 4.377967e-01 4.316181e-01 3.758336e-01 4.740933e-01
<GCONST> 1.242805e+02
<STATE> 4
<MEAN> 39
 -1.161766e+01 -1.432931e-01 9.255090e+00 -1.496821e+00 -1.356231e+01 -6.993013e+00 -8.482908e+00 -1.507645e+00 -4.582002e+00 -5.147434e+00 2.786928e+00 -1.638734e-01 6.965913e+01 3.757138e+00 -1.144592e+00 -6.254023e-01 -6.276523e-01 -8.552229e-01 -1.997767e+00 -1.329106e+00 4.699675e-01 -3.186294e-01 7.347222e-02 -5.134180e-03 1.189667e-01 6.262397e-01 -2.416244e-01 -2.662172e-02 -3.854190e-01 -1.563823e-01 7.697930e-01 6.319667e-01 2.447410e-01 2.353057e-01 3.237961e-01 2.084598e-01 -3.090305e-01 -1.844598e-01 -2.894616e-01
<VARIANCE> 39
 8.659120e+01 3.439555e+01 3.905422e+01 3.979044e+01 3.944254e+01 5.289317e+01 4.574469e+01 5.273195e+01 4.456286e+01 2.160418e+01 3.106174e+01 2.082119e+01 2.398779e+01 8.070642e+00 2.667097e+00 3.765276e+00 2.965000e+00 4.659797e+00 5.110680e+00 4.898437e+00 4.225343e+00 4.411678e+00 2.834013e+00 3.243894e+00 2.482256e+00 2.031512e+00 2.067763e+00 5.767559e-01 4.442281e-01 4.761845e-01 5.895685e-01 8.357700e-01 8.209334e-01 7.339134e-01 6.225504e-01 4.433105e-01 4.793047e-01 3.999241e-01 3.064066e-01
<GCONST> 1.292647e+02
<TRANSP> 5
 0.000000e+00 1.000000e+00 0.000000e+00 0.000000e+00 0.000000e+00
 0.000000e+00 7.494105e-01 2.505895e-01 0.000000e+00 0.000000e+00
 0.000000e+00 0.000000e+00 7.160726e-01 2.839273e-01 0.000000e+00
 0.000000e+00 0.000000e+00 0.000000e+00 6.851292e-01 3.148707e-01
 0.000000e+00 0.000000e+00 0.000000e+00 0.000000e+00 0.000000e+00
<ENDHMM>
~h "ng"
<BEGINHMM>
<NUMSTATES> 5
<STATE> 2
<MEAN> 39
 -1.982150e+00 3.094136e-01 6.948740e+00 -8.036985e+00 -1.333977e+01 4.818963e-01 -2.320281e+00 -5.133148e+00 -1.266802e+01 1.071925e+00 -1.487615e+00 -6.423097e+00 6.798746e+01 6.468270e-01 1.006311e+00 -5.312333e-01 7.639111e-01 8.262053e-01 1.244007e-01 5.631993e-01 -1.627648e+00 -6.275971e-01 7.303493e-01 -6.834092e-01 3.157480e-01 -1.175074e+00 -2.522916e-03 1.474032e-02 -2.523285e-01 3.232823e-01 2.234872e-01 -2.965179e-01 -1.831464e-01 1.414607e-01 3.811398e-01 -3.434908e-01 -2.408724e-02 2.678254e-01 -7.496841e-02
<VARIANCE> 39
 1.964443e+01 2.791611e+01 6.408292e+01 6.185196e+01 4.327942e+01 6.846400e+01 5.162701e+01 8.241094e+01 5.145889e+01 3.925732e+01 7.484336e+01 3.629919e+01 2.085504e+01 8.192244e-01 1.405801e+00 2.769939e+00 2.726315e+00 3.717527e+00 4.103575e+00 3.531795e+00 4.240658e+00 3.967183e+00 3.028314e+00 2.661767e+00 2.193454e+00 1.041129e+00 1.717083e-01 1.948168e-01 4.347076e-01 5.213188e-01 6.598319e-01 6.342142e-01 5.825863e-01 6.887814e-01 7.193505e-01 5.404044e-01 5.307714e-01 4.183659e-01 1.594225e-01
<GCONST> 1.221076e+02
<STATE> 3
<MEAN> 39
 8.601518e-01 3.832375e+00 2.785052e+00 -2.904390e+00 -1.063729e+01 -9.957930e-01 -9.268831e-01 -1.118471e+01 -1.178073e+01 9.350857e-01 -4.070742e+00 -2.641369e+00 6.328375e+01 -4.113600e-03 6.899178e-01 -3.321905e-01 7.923313e-01 6.895272e-01 -2.666306e-01 -1.793421e-01 -1.080131e-01 5.375787e-01 -5.632606e-01 -1.676495e-01 3.940467e-01 -7.172298e-01 -3.527487e-01 -1.724555e-01 1.219858e-01 -1.494397e-01 7.932788e-02 -3.371149e-02 -1.509499e-01 6.160654e-01 2.629552e-01 -2.030628e-01 1.404139e-01 -1.246050e-01 1.602049e-01
<VARIANCE> 39
 1.716908e+01 2.143954e+01 3.225056e+01 5.072993e+01 3.216070e+01 3.655207e+01 3.861369e+01 6.672544e+01 4.285406e+01 3.466449e+01 5.270231e+01 3.025025e+01 1.604834e+01 8.726440e-01 1.474517e+00 1.859374e+00 2.407104e+00 2.787916e+00 2.560034e+00 2.977829e+00 3.714674e+00 2.809301e+00 2.341077e+00 2.289826e+00 2.073178e+00 1.068266e+00 1.869778e-01 2.312705e-01 3.626321e-01 3.999999e-01 5.919573e-01 5.205451e-01 6.156182e-01 7.194220e-01 6.470195e-01 4.952979e-01 4.215284e-01 3.662995e-01 1.331683e-01
<GCONST> 1.149038e+02
<STATE> 4
<MEAN> 39
 -3.594510e+00 4.512069e+00 2.588834e+00 -5.157840e-01 -6.267008e+00 -1.721588e+00 -1.224041e+00 -5.652271e+00 -8.349225e+00 -1.915859e+00 -2.881299e+00 -2.626904e+00 6.023184e+01 -1.191678e+00 -1.299554e-01 -3.397226e-01 4.878070e-01 1.244654e+00 -1.336973e-01 -2.928701e-01 1.501520e+00 1.295788e+00 -6.205086e-01 1.596131e-01 -1.015182e-02 -3.651339e-01 -2.891514e-01 -4.291078e-01 -1.238315e-01 -1.799739e-01 -2.600003e-02 7.093794e-02 -3.535378e-02 2.919427e-01 1.974065e-01 1.442744e-01 1.775699e-01 -4.161530e-02 2.658851e-01
<VARIANCE> 39
 4.259751e+01 3.878481e+01 2.918052e+01 4.414285e+01 4.913560e+01 3.759578e+01 3.966140e+01 7.737885e+01 4.283069e+01 3.106251e+01 4.062221e+01 2.727860e+01 3.663986e+01 2.300236e+00 2.651276e+00 2.217265e+00 3.238918e+00 4.529628e+00 2.996486e+00 3.737724e+00 5.198750e+00 4.089416e+00 2.975025e+00 2.664423e+00 2.569924e+00 2.113488e+00 4.261348e-01 4.871647e-01 3.875048e-01 4.852539e-01 7.331187e-01 5.258406e-01 6.760409e-01 9.916913e-01 6.520402e-01 5.518450e-01 4.960061e-01 4.632536e-01 2.732489e-01
<GCONST> 1.257423e+02
<TRANSP> 5
 0.000000e+00 1.000000e+00 0.000000e+00 0.000000e+00 0.000000e+00
 0.000000e+00 7.443526e-01 2.556474e-01 0.000000e+00 0.000000e+00
 0.000000e+00 0.000000e+00 6.984479e-01 3.015521e-01 0.000000e+00
 0.000000e+00 0.000000e+00 0.000000e+00 6.538412e-01 3.461588e-01
 0.000000e+00 0.000000e+00 0.000000e+00 0.000000e+00 0.000000e+00
<ENDHMM>
~h "ow"
<BEGINHMM>
<NUMSTATES> 5
<STATE> 2
<MEAN> 39
 6.376198e-01 -4.928403e+00 -7.017483e+00 -1.014680e+01 -7.848056e+00 5.250633e-01 -1.177475e+01 -2.704149e+00 3.463252e-01 2.355675e+00 2.017722e-01 -6.375754e+00 7.197540e+01 7.187974e-01 -3.712548e-01 -5.070747e-01 -1.305783e+00 -4.991610e-01 1.166951e+00 -1.575291e-02 -4.370951e-01 -3.362618e-01 5.465398e-01 7.808112e-01 -4.257774e-01 5.887170e-01 -3.725334e-01 3.703448e-01 1.874807e-01 2.773800e-01 2.254443e-01 2.557702e-02 2.659290e-01 -1.859987e-03 -3.642524e-01 -3.128076e-01 8.024186e-02 4.052364e-01 -4.654667e-01
<VARIANCE> 39
 1.586006e+01 2.469796e+01 2.828552e+01 4.018403e+01 3.138112e+01 9.001758e+01 6.322507e+01 5.363931e+01 4.986605e+01 5.370049e+01 7.977357e+01 4.173418e+01 2.188113e+01 1.600743e+00 1.783455e+00 1.977938e+00 2.344584e+00 2.801032e+00 3.285894e+00 3.346293e+00 3.374703e+00 3.950825e+00 3.234492e+00 3.620034e+00 3.194909e+00 1.645630e+00 3.975925e-01 2.967925e-01 2.794193e-01 3.698649e-01 4.721131e-01 5.138747e-01 6.677037e-01 7.006078e-01 6.811626e-01 5.965538e-01 6.987104e-01 5.326105e-01 2.074017e-01
<GCONST> 1.225237e+02
<STATE> 3
<MEAN> 39
 2.182260e+00 -1.418046e+00 -7.315429e+00 -1.433127e+01 -9.542863e+00 4.161691e+00 -1.006170e+01 -3.444456e+00 -3.561734e+00 -1.186570e+00 2.714150e+00 -2.449764e+00 7.027565e+01 4.890705e-02 6.833427e-01 2.924504e-01 -1.723054e-01 -1.155038e-01 1.289409e-01 -2.707280e-01 -1.321646e-01 -3.680709e-01 -4.848138e-01 -2.113391e-02 4.198899e-01 -4.070915e-01 -9.036853e-02 1.234539e-01 1.317502e-01 2.599849e-01 1.267943e-01 -1.650437e-01 -3.015565e-02 -3.337646e-02 5.831876e-02 -2.675287e-02 -1.827499e-01 -4.702833e-02 -1.359841e-01
<VARIANCE> 39
 1.215467e+01 3.253920e+01 2.729914e+01 4.819813e+01 3.741092e+01 8.244336e+01 7.750496e+01 5.069396e+01 4.865933e+01 6.272941e+01 7.208081e+01 4.226952e+01 1.950077e+01 2.800266e-01 9.675252e-01 7.871556e-01 1.393514e+00 1.214472e+00 1.799708e+00 1.924817e+00 1.993421e+00 2.397351e+00 2.459348e+00 2.173192e+00 2.220408e+00 4.179505e-01 6.599867e-02 1.691897e-01 1.415267e-01 2.213713e-01 2.245047e-01 3.279908e-01 3.347232e-01 3.357865e-01 3.759028e-01 4.317498e-01 4.080925e-01 3.819856e-01 8.496676e-02
<GCONST> 1.046599e+02
<STATE> 4
<MEAN> 39
 1.096036e+00 2.912412e+00 -4.503700e+00 -1.155394e+01 -8.651063e+00 3.051241e+00 -1.279747e+01 -5.686943e+00 -5.075685e+00 -1.783560e+00 1.547246e+00 -2.036132e+00 6.660307e+01 -8.425857e-01 1.076547e+00 1.091797e+00 1.922832e+00 1.022059e+00 -1.043265e+00 5.923132e-01 -2.150165e-01 1.196183e-02 -3.252031e-01 -9.927661e-01 -8.927382e-02 -1.222259e+00 -4.559911e-01 9.635681e-03 1.416561e-01 4.470672e-01 3.011062e-01 -2.386601e-01 4.507358e-01 2.481143e-01 1.007984e-01 7.540679e-03 -6.336559e-02 -7.544680e-03 -1.352591e-01
<VARIANCE> 39
 1.674930e+01 3.760886e+01 3.443638e+01 6.686079e+01 4.234148e+01 8.946774e+01 1.027610e+02 6.123622e+01 5.771205e+01 6.179071e+01 7.183380e+01 3.648634e+01 2.779801e+01 1.526462e+00 2.771584e+00 1.674834e+00 3.924397e+00 3.268729e+00 3.675588e+00 4.737727e+00 3.969090e+00 3.877005e+00 4.049875e+00 3.370551e+00 2.778591e+00 1.807072e+00 3.062160e-01 4.283326e-01 2.965382e-01 6.147820e-01 5.172841e-01 6.314940e-01 8.508020e-01 7.714878e-01 7.602057e-01 7.220849e-01 6.394238e-01 5.459330e-01 2.297173e-01
<GCONST> 1.281584e+02
<TRANSP> 5
 0.000000e+00 1.000000e+00 0.000000e+00 0.000000e+00 0.000000e+00
 0.000000e+00 7.074208e-01 2.925792e-01 0.000000e+00 0.000000e+00
 0.000000e+00 0.000000e+00 8.503546e-01 1.496454e-01 0.000000e+00
 0.000000e+00 0.000000e+00 0.000000e+00 6.682854e-01 3.317146e-01
 0.000000e+00 0.000000e+00 0.000000e+00 0.000000e+00 0.000000e+00
<ENDHMM>
~h "oy"
<BEGINHMM>
<NUMSTATES> 5
<STATE> 2
<MEAN> 39
 2.312072e+00 1.014541e+00 -8.029096e+00 -1.473435e+01 -1.231453e+01 4.201380e+00 -6.506165e+00 -3.357823e+00 -5.394642e+00 -4.785156e+00 -1.278680e+00 -5.999590e-01 6.738313e+01 8.182557e-01 -6.392549e-01 -5.544363e-01 -9.517771e-01 -5.891255e-01 7.026491e-01 -3.671051e-01 -3.312653e-01 -4.170903e-01 1.893581e-01 1.660859e-01 -2.881816e-01 9.830748e-01 -4.823262e-01 -3.169028e-01 1.803700e-01 5.729575e-01 4.825047e-01 -1.588690e-01 -1.361367e-01 7.211585e-02 2.413795e-01 3.690939e-01 5.900192e-02 -1.616259e-01 -8.568370e-02
<VARIANCE> 39
 1.619420e+01 2.836177e+01 2.575739e+01 4.307786e+01 3.870205e+01 6.614363e+01 5.523397e+01 4.853616e+01 5.500520e+01 4.672429e+01 5.050938e+01 4.206642e+01 1.696157e+01 2.333459e+00 2.143299e+00 1.595757e+00 4.664070e+00 4.226398e+00 3.292585e+00 2.730839e+00 3.005555e+00 3.665585e+00 3.993509e+00 3.278970e+00 2.785924e+00 1.386358e+00 3.436623e-01 3.239811e-01 3.095087e-01 4.219081e-01 5.850335e-01 6.407708e-01 5.692894e-01 6.264814e-01 7.668908e-01 6.526982e-01 5.895160e-01 6.016424e-01 1.596243e-01
<GCONST> 1.226751e+02
<STATE> 3
<MEAN> 39
 1.911338e+00 -4.875210e+00 -8.560186e+00 -1.208868e+01 -1.006017e+01 3.716609e+00 -8.951944e+00 -3.622947e+00 -4.388964e+00 -4.012648e-01 1.556184e-01 -4.304093e+00 7.082258e+01 -4.561209e-01 -1.200850e+00 5.125860e-01 1.311592e+00 7.578596e-01 -1.200791e+00 -1.407402e+00 1.643302e-01 1.070439e+00 1.546018e+00 -6.645987e-01 -1.426918e+00 5.268674e-01 -1.890042e-01 1.670638e-01 5.099482e-01 3.023615e-01 -2.719710e-01 -7.373112e-01 1.113105e-01 5.690102e-01 1.999606e-01 -3.355495e-01 -3.689155e-01 1.641347e-01 -1.476517e-01
<VARIANCE> 39
 1.336064e+01 2.529534e+01 3.567535e+01 3.401250e+01 3.716130e+01 9.396989e+01 5.980906e+01 4.911506e+01 5.027669e+01 6.643665e+01 7.987314e+01 4.512987e+01 1.385848e+01 4.155053e-01 1.468711e+00 1.659177e+00 2.606226e+00 2.616612e+00 4.716156e+00 3.481384e+00 3.987459e+00 4.180469e+00 5.062165e+00 4.847551e+00 4.863015e+00 4.898555e-01 8.769161e-02 2.026080e-01 3.503064e-01 2.903701e-01 7.070261e-01 7.124779e-01 8.115231e-01 7.746271e-01 9.023436e-01 1.148296e+00 8.511485e-01 9.902276e-01 9.217112e-02
<GCONST> 1.213047e+02
<STATE> 4
<MEAN> 39
 -2.588403e+00 -5.972358e+00 1.778424e-01 -6.712255e+00 -1.316160e+01 -8.901313e+00 -9.509932e+00 4.999237e-01 -3.021581e+00 5.656315e-01 -3.862197e+00 -4.160675e+00 7.082228e+01 -8.206568e-01 6.349776e-01 2.018676e+00 8.993159e-01 -1.062487e+00 -1.611341e+00 9.353894e-01 5.400636e-01 -7.041106e-01 -6.929771e-01 1.947288e-01 7.797297e-01 -3.877654e-01 -5.377345e-02 4.239383e-01 -1.016840e-01 -2.113219e-01 1.615522e-01 5.191507e-01 3.525521e-01 -3.282800e-01 -3.812363e-01 -1.428755e-01 3.585809e-01 2.001424e-01 -2.761877e-01
<VARIANCE> 39
 2.176624e+01 3.673841e+01 6.393396e+01 4.508881e+01 4.400710e+01 8.579390e+01 6.130758e+01 6.902962e+01 5.759615e+01 3.971541e+01 6.557085e+01 3.905120e+01 1.939525e+01 1.068012e+00 2.443461e+00 3.858276e+00 3.025658e+00 4.599508e+00 6.067971e+00 4.717476e+00 6.906716e+00 5.013219e+00 3.657590e+00 4.456007e+00 2.888016e+00 1.105128e+00 2.325041e-01 2.989020e-01 6.256741e-01 5.485945e-01 1.175460e+00 6.782299e-01 1.125620e+00 1.300672e+00 1.125520e+00 8.879096e-01 8.835514e-01 7.445019e-01 1.630475e-01
<GCONST> 1.314413e+02
<TRANSP> 5
 0.000000e+00 1.000000e+00 0.000000e+00 0.000000e+00 0.000000e+00
 0.000000e+00 7.875082e-01 2.124917e-01 0.000000e+00 0.000000e+00
 0.000000e+00 0.000000e+00 7.215229e-01 2.784771e-01 0.000000e+00
 0.000000e+00 0.000000e+00 0.000000e+00 8.197555e-01 1.802445e-01
 0.000000e+00 0.000000e+00 0.000000e+00 0.000000e+00 0.000000e+00
<ENDHMM>
~h "sh"
<BEGINHMM>
<NUMSTATES> 5
<STATE> 2
<MEAN> 39
 -1.791150e+01 1.392306e+00 1.032877e+01 8.787827e-01 -9.069921e+00 -1.090932e+00 -4.990608e+00 -7.942400e-01 -3.391669e+00 -4.179931e+00 1.103879e+00 -5.169737e-01 6.822273e+01 -4.589795e+00 -1.400256e-01 2.393363e-01 6.043952e-01 1.164618e+00 1.980142e+00 1.422462e+00 7.860860e-01 1.372023e+00 2.637778e-01 3.922731e-01 2.381323e-01 2.634165e-01 2.211741e-01 -5.104833e-01 -4.313721e-01 -4.503722e-01 -1.994106e-01 -1.456386e-01 -5.748545e-02 4.562224e-02 7.910768e-03 1.388564e-01 3.415176e-02 -1.836558e-02 3.486406e-02
<VARIANCE> 39
 8.560588e+01 3.557111e+01 3.656487e+01 4.389038e+01 4.159868e+01 5.034541e+01 3.456736e+01 4.541959e+01 3.868202e+01 2.652451e+01 2.719325e+01 2.167160e+01 2.322155e+01 5.951548e+00 3.781779e+00 3.444518e+00 3.471481e+00 3.770784e+00 4.146818e+00 3.649480e+00 3.644960e+00 3.636461e+00 2.681382e+00 2.633239e+00 2.385406e+00 1.469808e+00 1.366962e+00 6.282074e-01 4.157210e-01 5.669131e-01 6.714109e-01 7.021801e-01 6.817421e-01 6.305370e-01 5.639540e-01 4.853596e-01 4.189215e-01 4.251848e-01 2.130973e-01
<GCONST> 1.262147e+02
<STATE> 3
<MEAN> 39
 -2.791959e+01 -3.050157e+00 7.310390e+00 -6.659482e-01 -7.805464e+00 2.566139e+00 -2.365751e-01 1.556557e+00 5.183106e-01 -2.815461e+00 2.935535e+00 1.094373e-01 6.751794e+01 -1.556203e-02 -3.486025e-01 -3.558782e-01 -1.622169e-01 -3.452925e-01 -1.738597e-01 2.174152e-01 8.869620e-02 2.241251e-01 -1.344780e-02 5.150490e-03 2.005794e-02 -1.421575e-01 9.662435e-01 1.764345e-01 9.285394e-03 4.148372e-03 -1.440785e-01 -3.531669e-01 -3.071615e-01 -1.193284e-01 -2.292857e-01 -1.109103e-01 -1.385784e-01 -6.868882e-02 -1.056787e-01
<VARIANCE> 39
 3.183193e+01 2.490281e+01 1.809378e+01 2.467155e+01 2.376073e+01 3.090942e+01 2.287723e+01 2.521997e+01 2.480596e+01 2.061001e+01 2.097571e+01 1.494697e+01 2.427733e+01 4.303707e+00 1.279603e+00 1.230242e+00 1.386035e+00 1.497984e+00 1.988059e+00 1.743506e+00 1.708064e+00 1.830431e+00 1.716467e+00 1.587904e+00 1.374892e+00 7.765064e-01 5.509093e-01 2.267129e-01 2.505433e-01 2.774096e-01 3.282830e-01 4.054186e-01 4.114657e-01 3.874170e-01 3.911120e-01 3.545538e-01 3.343846e-01 2.933136e-01 1.396629e-01
<GCONST> 1.038141e+02
<STATE> 4
<MEAN> 39
 -1.812181e+01 -2.465901e+00 6.569839e+00 -5.827618e-01 -1.126928e+01 -2.236019e+00 -3.188462e+00 1.043334e+00 -6.800650e-01 -4.502428e+00 1.243999e+00 -4.906527e-01 6.668282e+01 5.282723e+00 3.954831e-01 -2.535958e-01 -7.127994e-01 -7.569324e-01 -1.742618e+00 -2.127055e+00 -6.646318e-01 -1.106236e+00 -6.246755e-01 -7.827247e-01 -4.888471e-01 6.748723e-02 3.772390e-01 -8.465900e-02 -1.828008e-02 -2.965961e-01 1.327193e-01 1.409189e-01 -2.715304e-01 -1.312476e-01 -1.888555e-01 1.197160e-01 -8.531906e-03 -6.291979e-02 2.712604e-01
<VARIANCE> 39
 1.027311e+02 2.509607e+01 2.451170e+01 3.347883e+01 3.189604e+01 3.956306e+01 3.643224e+01 3.413826e+01 3.880653e+01 2.532158e+01 2.702183e+01 1.803456e+01 2.045323e+01 6.000269e+00 2.181444e+00 3.119016e+00 2.994044e+00 3.117151e+00 4.057015e+00 3.744335e+00 4.223513e+00 4.087731e+00 2.816484e+00 2.859787e+00 2.282462e+00 1.817915e+00 1.732234e+00 3.773087e-01 3.914244e-01 5.295357e-01 5.100095e-01 7.051662e-01 8.351552e-01 7.310547e-01 6.736714e-01 4.938838e-01 4.944222e-01 4.330805e-01 2.759863e-01
<GCONST> 1.241829e+02
<TRANSP> 5
 0.000000e+00 1.000000e+00 0.000000e+00 0.000000e+00 0.000000e+00
 0.000000e+00 6.867427e-01 3.132573e-01 0.000000e+00 0.000000e+00
 0.000000e+00 0.000000e+00 8.573211e-01 1.426789e-01 0.000000e+00
 0.000000e+00 0.000000e+00 0.000000e+00 6.338167e-01 3.661834e-01
 0.000000e+00 0.000000e+00 0.000000e+00 0.000000e+00 0.000000e+00
<ENDHMM>
~h "th"
<BEGINHMM>
<NUMSTATES> 5
<STATE> 2
<MEAN> 39
 -1.277555e+01 5.579022e+00 -1.344316e+00 2.372645e+00 -1.753430e+00 6.675565e-02 -1.102948e+00 3.165691e-01 -4.440386e-01 -1.737707e+00 -6.310942e-01 -8.912498e-01 5.719634e+01 -1.696117e+00 -2.661940e-01 -2.164633e-01 8.208159e-01 6.103509e-01 6.837415e-01 7.982167e-01 7.342026e-01 5.141822e-01 6.269081e-01 5.948169e-01 3.841933e-01 -1.277128e+00 2.910467e-01 -4.885085e-01 -1.720242e-01 -4.619283e-01 -3.583456e-01 -2.375044e-01 -3.160700e-01 -5.412936e-02 -8.992810e-03 -2.083140e-02 1.400838e-02 1.499461e-02 5.251472e-01
<VARIANCE> 39
 3.456200e+01 2.568782e+01 2.425250e+01 2.834655e+01 2.513701e+01 3.903653e+01 3.006635e+01 2.977499e+01 2.977203e+01 2.510422e+01 2.313643e+01 2.220560e+01 3.736038e+01 3.985568e+00 3.004093e+00 3.040463e+00 4.482768e+00 2.895457e+00 3.997834e+00 3.705842e+00 3.501009e+00 3.287194e+00 2.758822e+00 2.935530e+00 2.445647e+00 3.592125e+00 4.854681e-01 6.281188e-01 5.346120e-01 6.543801e-01 5.493490e-01 6.397817e-01 6.413831e-01 6.046582e-01 5.527686e-01 5.094091e-01 4.915223e-01 4.626094e-01 6.201280e-01
<GCONST> 1.232683e+02
<STATE> 3
<MEAN> 39
 -1.591757e+01 6.049950e-01 -2.383425e+00 1.570439e+00 -1.484634e+00 6.942749e-04 -3.017108e-01 2.318288e+00 8.828672e-01 -4.982828e-01 1.141811e+00 6.585568e-01 5.598802e+01 -1.476933e-01 -6.268945e-01 -2.491131e-01 -2.836707e-01 -2.983598e-01 -2.364568e-01 -1.110539e-01 5.809244e-02 1.246080e-01 5.921213e-02 6.147454e-02 1.373977e-01 5.617129e-01 3.868243e-01 -3.116513e-02 6.675631e-02 -1.625913e-01 -1.771360e-01 -2.524437e-01 -1.989483e-01 -1.298355e-01 -8.212964e-02 -1.197712e-01 -1.534762e-01 -7.137690e-02 3.615255e-01
<VARIANCE> 39
 2.079169e+01 3.495328e+01 2.071746e+01 2.082541e+01 2.090977e+01 2.645263e+01 2.228434e+01 2.101132e+01 2.152881e+01 1.956678e+01 1.690660e+01 1.569943e+01 3.777630e+01 2.275403e+00 2.367627e+00 2.168453e+00 2.271739e+00 2.337878e+00 2.478395e+00 2.444029e+00 2.270846e+00 2.324641e+00 2.002774e+00 2.006781e+00 1.841752e+00 3.750023e+00 5.319588e-01 4.029108e-01 4.605042e-01 5.159308e-01 5.044119e-01 5.929043e-01 5.450674e-01 4.740938e-01 4.813638e-01 4.138421e-01 4.577064e-01 3.870122e-01 7.481294e-01
<GCONST> 1.137979e+02
<STATE> 4
<MEAN> 39
 -1.345857e+01 -9.328397e-01 -3.080619e+00 1.073302e-01 -5.102476e+00 -3.670371e+00 -2.838481e+00 6.009868e-01 9.491087e-01 -8.044868e-01 -6.554836e-02 5.578667e-02 6.270815e+01 2.045185e+00 -7.646930e-01 1.264032e-01 -4.836642e-01 -7.202498e-01 -1.418239e+00 -1.247304e+00 -3.586167e-01 -1.455872e-01 -3.062994e-01 -6.196457e-01 -3.569567e-01 1.465378e+00 5.069293e-01 1.564144e-01 1.150126e-01 -1.676872e-02 1.272458e-01 -3.700311e-02 -2.146710e-01 -7.921506e-02 -2.027794e-01 -1.153640e-01 -7.598911e-02 -1.084142e-01 -1.459493e-01
<VARIANCE> 39
 5.247261e+01 3.698573e+01 3.504537e+01 3.671584e+01 3.848649e+01 5.049609e+01 3.892293e+01 3.395786e+01 3.356226e+01 2.736517e+01 2.983916e+01 2.429706e+01 4.156862e+01 6.423639e+00 3.547590e+00 4.121093e+00 5.231988e+00 6.035426e+00 5.761160e+00 5.669085e+00 4.523765e+00 4.486515e+00 3.034881e+00 3.547256e+00 3.008193e+00 6.442764e+00 9.216411e-01 6.068599e-01 8.796678e-01 8.663752e-01 9.365921e-01 9.621243e-01 1.005872e+00 8.047984e-01 7.319202e-01 5.837404e-01 6.183736e-01 5.609520e-01 9.110960e-01
<GCONST> 1.349646e+02
<TRANSP> 5
 0.000000e+00 1.000000e+00 0.000000e+00 0.000000e+00 0.000000e+00
 0.000000e+00 7.168238e-01 2.831762e-01 0.000000e+00 0.000000e+00
 0.000000e+00 0.000000e+00 8.053048e-01 1.946952e-01 0.000000e+00
 0.000000e+00 0.000000e+00 0.000000e+00 6.630259e-01 3.369742e-01
 0.000000e+00 0.000000e+00 0.000000e+00 0.000000e+00 0.000000e+00
<ENDHMM>
~h "uh"
<BEGINHMM>
<NUMSTATES> 5
<STATE> 2
<MEAN> 39
 -5.036736e-01 -1.702851e+00 -4.873716e+00 -7.595605e+00 -8.682180e+00 -7.546343e-01 -1.543440e+01 -6.035149e+00 -4.361661e+00 1.954703e-01 1.544664e+00 -3.621111e+00 6.952325e+01 1.212173e+00 -3.834023e-01 1.506374e-01 -5.300193e-01 -1.063366e+00 -6.654206e-01 -1.670504e+00 -1.979030e-01 2.695105e-01 4.893637e-01 -3.553564e-01 -7.407913e-01 1.150095e+00 -5.500653e-01 9.417694e-02 2.652532e-01 4.229162e-01 1.814556e-01 -1.197259e-01 6.829513e-01 4.513620e-01 1.461982e-01 -2.751779e-01 -1.970604e-01 2.207073e-01 -5.018902e-01
<VARIANCE> 39
 2.893953e+01 3.236740e+01 3.423551e+01 6.366031e+01 4.002127e+01 1.080477e+02 7.436993e+01 5.455457e+01 4.813201e+01 5.825727e+01 7.561113e+01 3.952729e+01 2.701081e+01 5.420102e+00 3.292577e+00 3.337502e+00 7.325738e+00 4.304471e+00 6.149739e+00 5.810593e+00 5.545989e+00 6.793620e+00 4.431912e+00 4.937918e+00 3.875879e+00 2.543368e+00 6.068814e-01 6.794153e-01 4.274500e-01 7.633945e-01 7.030798e-01 1.131404e+00 1.199955e+00 9.043829e-01 8.525488e-01 1.103944e+00 1.034409e+00 7.282258e-01 4.871738e-01
<GCONST> 1.390256e+02
<STATE> 3
<MEAN> 39
 -5.965006e-02 -2.961498e+00 -3.584647e+00 -6.499040e+00 -1.129225e+01 -3.625700e+00 -1.758766e+01 -3.630460e+00 -2.528868e+00 5.154471e-01 -1.093053e+00 -4.354677e+00 7.112074e+01 -8.264569e-02 2.857030e-01 1.017712e+00 1.141485e+00 -2.284166e-01 -1.088826e+00 4.298351e-01 6.174108e-01 4.055466e-01 -8.074529e-01 -8.044795e-01 5.575551e-01 -6.747476e-01 -3.159598e-01 5.933317e-01 2.188553e-01 3.477525e-01 5.460100e-01 1.790509e-01 9.012635e-01 -7.313085e-02 -2.070430e-01 -3.933401e-01 5.454224e-02 3.461387e-01 -8.398801e-01
<VARIANCE> 39
 1.432138e+01 3.192692e+01 4.494583e+01 5.660405e+01 3.958386e+01 8.971563e+01 6.517545e+01 6.378593e+01 6.717693e+01 6.215400e+01 8.164645e+01 3.912585e+01 2.090095e+01 1.452872e+00 2.921537e+00 3.438014e+00 4.950616e+00 4.338121e+00 5.123934e+00 4.561132e+00 4.737885e+00 4.100759e+00 4.297838e+00 4.562336e+00 3.336303e+00 2.877330e+00 4.299574e-01 6.368068e-01 3.961648e-01 5.717880e-01 7.282562e-01 8.288599e-01 1.082102e+00 9.529447e-01 1.049679e+00 9.033111e-01 9.126961e-01 8.170359e-01 5.426283e-01
<GCONST> 1.344887e+02
<STATE> 4
<MEAN> 39
 -9.491916e-01 -2.004481e-01 7.478951e-01 -1.984307e+00 -1.034684e+01 -5.909895e+00 -1.367375e+01 -3.346770e+00 -2.402699e+00 -2.660738e+00 -2.244703e+00 -1.408813e+00 6.649838e+01 -5.744486e-01 1.683189e+00 1.112705e+00 1.410855e+00 1.221880e+00 -2.382883e-01 1.971876e+00 -1.771270e-02 -2.154478e-02 -8.834326e-01 -3.045413e-01 4.443330e-01 -2.315616e+00 -3.193442e-01 1.247507e-01 -2.253487e-01 -1.636405e-01 4.018719e-01 4.637851e-01 3.112030e-01 -4.330089e-02 -1.065375e-01 1.999764e-01 2.896405e-01 -1.919979e-01 -2.148533e-01
<VARIANCE> 39
 1.856065e+01 4.250592e+01 6.560258e+01 6.108125e+01 6.031332e+01 7.403376e+01 5.408989e+01 5.560657e+01 5.635400e+01 5.113726e+01 6.719491e+01 3.607027e+01 4.286715e+01 2.244641e+00 4.488496e+00 3.917856e+00 4.469819e+00 4.862772e+00 4.747331e+00 6.241820e+00 4.524385e+00 3.977348e+00 4.306275e+00 5.315951e+00 4.418864e+00 5.395808e+00 4.087136e-01 9.339265e-01 5.556937e-01 7.467251e-01 1.028908e+00 9.506680e-01 9.754097e-01 8.489082e-01 8.804665e-01 7.339436e-01 8.851203e-01 8.036047e-01 8.679631e-01
<GCONST> 1.389375e+02
<TRANSP> 5
 0.000000e+00 1.000000e+00 0.000000e+00 0.000000e+00 0.000000e+00
 0.000000e+00 5.723442e-01 4.276557e-01 0.000000e+00 0.000000e+00
 0.000000e+00 0.000000e+00 5.151255e-01 4.848745e-01 0.000000e+00
 0.000000e+00 0.000000e+00 0.000000e+00 5.308547e-01 4.691453e-01
 0.000000e+00 0.000000e+00 0.000000e+00 0.000000e+00 0.000000e+00
<ENDHMM>
~h "uw"
<BEGINHMM>
<NUMSTATES> 5
<STATE> 2
<MEAN> 39
 -5.237576e+00 -2.785075e-01 6.743649e+00 -2.309792e-01 -1.294822e+01 -6.624029e+00 -1.332553e+01 -3.513194e+00 -9.568856e+00 -5.874444e+00 4.490201e-01 -2.424972e+00 6.819053e+01 1.922240e+00 -2.766441e-02 -4.200648e-02 1.824511e-03 -6.773933e-01 -3.875847e-01 -1.778836e+00 -8.550681e-01 -4.408581e-01 -3.310329e-01 -3.821261e-01 -2.926516e-01 3.835432e-01 -4.059614e-01 1.890909e-01 -3.001324e-01 -1.441995e-01 5.470169e-01 4.089143e-01 3.763706e-01 4.694169e-02 2.623499e-01 3.115515e-01 -3.190106e-02 2.939034e-02 -3.185878e-01
<VARIANCE> 39
 4.902953e+01 3.079146e+01 6.871424e+01 5.882485e+01 5.618002e+01 7.394484e+01 6.278059e+01 5.755658e+01 5.648203e+01 4.611270e+01 5.123152e+01 3.545712e+01 2.460397e+01 6.662733e+00 2.932093e+00 3.882657e+00 3.742198e+00 6.612751e+00 5.405279e+00 5.522922e+00 5.569501e+00 5.340934e+00 3.907365e+00 3.514217e+00 3.288564e+00 1.883105e+00 8.774736e-01 4.761092e-01 5.652394e-01 5.749262e-01 8.811445e-01 7.867801e-01 8.697431e-01 9.133481e-01 8.865290e-01 6.386814e-01 5.500439e-01 5.154527e-01 3.411198e-01
<GCONST> 1.356696e+02
<STATE> 3
<MEAN> 39
 -1.353359e+00 2.569913e-01 3.310683e+00 -1.306495e+00 -1.139405e+01 -5.043412e+00 -1.843866e+01 -6.584689e+00 -8.971964e+00 -5.003485e+00 -1.042159e+00 -3.020333e+00 6.770762e+01 2.127790e-01 7.634516e-01 -5.758345e-01 -2.615024e-01 8.469448e-01 5.413039e-01 2.429529e-02 -6.228691e-01 1.553474e-01 3.344237e-01 -2.657476e-01 6.852186e-02 -5.152394e-01 -5.162358e-01 2.332105e-01 4.683696e-02 4.484750e-02 2.901868e-01 4.374933e-02 7.079210e-01 2.500051e-01 8.861734e-02 3.164396e-02 6.556398e-02 1.200278e-01 -2.337172e-01
<VARIANCE> 39
 1.834227e+01 3.074017e+01 5.221455e+01 7.279227e+01 4.362316e+01 1.008431e+02 6.953688e+01 5.314778e+01 4.992036e+01 5.321673e+01 6.259879e+01 4.822166e+01 1.827793e+01 2.073841e+00 1.964030e+00 2.359075e+00 3.003635e+00 3.722976e+00 3.627961e+00 4.730760e+00 3.973317e+00 3.724735e+00 3.666830e+00 2.670399e+00 2.861122e+00 1.186545e+00 4.095371e-01 4.074075e-01 3.581866e-01 4.420623e-01 7.191228e-01 7.059429e-01 8.228180e-01 7.406213e-01 7.202221e-01 6.845749e-01 5.298992e-01 5.591086e-01 2.214393e-01
<GCONST> 1.271422e+02
<STATE> 4
<MEAN> 39
 -1.849636e+00 4.320148e+00 8.586845e-01 -2.231551e+00 -7.325463e+00 -3.501884e+00 -1.383318e+01 -7.265152e+00 -8.531119e+00 -3.761185e+00 -7.559822e-01 -1.621223e+00 6.452954e+01 -1.032430e+00 9.027780e-01 -1.838094e-01 1.403242e-01 1.161740e+00 1.348629e-01 1.661488e+00 5.898836e-01 6.017613e-01 2.088664e-01 -1.906163e-01 2.477244e-01 -8.488432e-01 -4.378526e-01 -2.068349e-01 8.368549e-02 1.088690e-01 2.474381e-02 -3.216900e-02 3.028287e-01 3.977705e-01 1.637191e-01 3.898662e-03 6.145218e-02 -1.864439e-02 -2.020429e-02
<VARIANCE> 39
 4.442687e+01 3.918334e+01 5.139554e+01 7.962843e+01 4.702326e+01 9.157510e+01 6.951883e+01 5.412186e+01 5.363813e+01 5.246169e+01 5.555349e+01 3.925302e+01 2.792048e+01 3.972754e+00 4.033336e+00 2.354798e+00 3.681613e+00 4.671774e+00 4.763789e+00 5.888772e+00 5.025983e+00 4.467495e+00 4.171533e+00 3.525697e+00 3.446353e+00 2.978070e+00 3.819101e-01 5.643576e-01 3.938709e-01 5.523773e-01 6.442801e-01 7.551658e-01 9.979669e-01 7.367695e-01 7.860925e-01 8.053777e-01 6.271564e-01 5.938721e-01 3.009675e-01
<GCONST> 1.342205e+02
<TRANSP> 5
 0.000000e+00 1.000000e+00 0.000000e+00 0.000000e+00 0.000000e+00
 0.000000e+00 5.881327e-01 4.118674e-01 0.000000e+00 0.000000e+00
 0.000000e+00 0.000000e+00 6.376155e-01 3.623846e-01 0.000000e+00
 0.000000e+00 0.000000e+00 0.000000e+00 5.880531e-01 4.119469e-01
 0.000000e+00 0.000000e+00 0.000000e+00 0.000000e+00 0.000000e+00
<ENDHMM>
~h "zh"
<BEGINHMM>
<NUMSTATES> 5
<STATE> 2
<MEAN> 39
 -7.104313e+00 -1.264369e+00 9.540383e+00 -2.187513e+00 -1.253650e+01 -6.555711e+00 -9.478166e+00 2.620240e-01 -5.074337e+00 -5.293982e+00 1.901521e+00 -1.539574e+00 7.336674e+01 -1.860508e+00 1.158213e+00 1.041897e+00 9.300001e-01 2.651515e-01 8.036914e-01 3.864244e-01 -4.262926e-01 5.978830e-02 -2.403281e-02 1.450619e-01 2.030644e-01 -3.422721e-01 -4.407292e-01 -1.469379e-02 -1.060087e-01 1.127852e-01 2.576801e-01 3.426422e-01 2.168841e-01 9.936971e-02 1.447792e-01 4.394979e-02 -1.283402e-01 -8.779528e-02 -4.668222e-02
<VARIANCE> 39
 4.951870e+01 3.297880e+01 3.114025e+01 5.629272e+01 4.775621e+01 4.275290e+01 4.241875e+01 7.570797e+01 3.489985e+01 2.131346e+01 2.762543e+01 2.761571e+01 3.340543e+01 5.686707e+00 2.926945e+00 2.340443e+00 2.594809e+00 2.474108e+00 3.414625e+00 3.734944e+00 3.150723e+00 1.782151e+00 1.892501e+00 1.903341e+00 2.256823e+00 1.189813e+00 7.325699e-01 6.509913e-01 3.829993e-01 3.395662e-01 3.665944e-01 4.682736e-01 5.871449e-01 5.229673e-01 3.108402e-01 3.102120e-01 3.403944e-01 3.711255e-01 1.490974e-01
<GCONST> 1.190263e+02
<STATE> 3
<MEAN> 39
 -2.290166e+01 1.125470e+00 1.153137e+01 3.791031e+00 -9.900881e+00 1.375988e+00 -2.912989e+00 -6.938305e-01 -2.280449e+00 -4.556015e+00 1.634759e+00 -1.162293e+00 7.039774e+01 -6.368580e-01 -7.141559e-01 -7.646371e-01 2.262590e-01 -3.662005e-03 2.944320e-03 5.532417e-01 3.802923e-01 2.205389e-01 1.061061e-01 1.669728e-01 -9.505998e-02 -1.593848e-01 1.248480e+00 -2.711245e-01 -3.539776e-01 -2.923930e-01 -2.386677e-01 -6.782091e-01 -5.618692e-01 3.824092e-02 -8.210004e-02 -1.101213e-01 5.012110e-02 1.045214e-01 6.122976e-02
<VARIANCE> 39
 4.803313e+01 3.854326e+01 2.324371e+01 4.005304e+01 3.285297e+01 6.681828e+01 3.410565e+01 3.618041e+01 2.986056e+01 2.142273e+01 2.436015e+01 1.840389e+01 1.982693e+01 1.412368e+01 2.834732e+00 1.913235e+00 2.470992e+00 3.922857e+00 8.292910e+00 4.579734e+00 2.649777e+00 2.125940e+00 1.866686e+00 1.789747e+00 1.677932e+00 4.106647e-01 9.754119e-01 7.423580e-01 3.748772e-01 4.165104e-01 7.343076e-01 9.515271e-01 7.247071e-01 5.682801e-01 4.089392e-01 3.904018e-01 3.578770e-01 3.445842e-01 8.749491e-02
<GCONST> 1.194228e+02
<STATE> 4
<MEAN> 39
 -1.301232e+01 -2.898498e+00 5.656470e+00 3.484582e+00 -1.208681e+01 -6.695662e+00 -7.132072e+00 1.434817e+00 -2.434550e+00 -5.973384e+00 2.281314e+00 -3.079794e-01 7.007517e+01 4.413362e+00 -6.684393e-01 -1.325617e+00 -8.946095e-01 2.778998e-01 -1.991345e+00 -2.344847e+00 1.829975e-01 2.851250e-01 -5.345321e-01 -5.528501e-02 3.754060e-01 8.300447e-02 1.417975e-01 -1.775643e-02 7.921606e-02 -1.806430e-01 3.904639e-01 3.210405e-01 -1.632230e-01 -1.797891e-01 5.954148e-02 7.400229e-02 -1.506775e-01 -6.583419e-02 -7.425543e-03
<VARIANCE> 39
 1.139844e+02 3.164211e+01 2.581985e+01 4.252952e+01 4.114261e+01 5.534127e+01 5.430409e+01 4.396619e+01 2.939419e+01 2.728481e+01 3.194164e+01 1.733946e+01 2.255482e+01 8.346498e+00 2.892261e+00 2.178651e+00 2.522655e+00 3.799332e+00 4.104054e+00 6.523632e+00 4.793713e+00 2.679950e+00 3.770095e+00 2.064291e+00 2.301386e+00 8.516985e-01 2.185848e+00 5.088838e-01 2.814447e-01 4.940537e-01 6.551528e-01 8.141592e-01 1.003048e+00 8.525016e-01 5.889181e-01 4.577582e-01 3.646462e-01 3.680131e-01 1.284060e-01
<GCONST> 1.252624e+02
<TRANSP> 5
 0.000000e+00 1.000000e+00 0.000000e+00 0.000000e+00 0.000000e+00
 0.000000e+00 7.999375e-01 2.000625e-01 0.000000e+00 0.000000e+00
 0.000000e+00 0.000000e+00 8.286328e-01 1.713672e-01 0.000000e+00
 0.000000e+00 0.000000e+00 0.000000e+00 6.374425e-01 3.625576e-01
 0.000000e+00 0.000000e+00 0.000000e+00 0.000000e+00 0.000000e+00
<ENDHMM>
~h "sil"
<BEGINHMM>
<NUMSTATES> 5
<STATE> 2
<MEAN> 39
 -1.337278e+01 2.934652e+00 -5.712024e-01 2.138962e+00 1.730311e+00 1.109353e+00 1.364653e+00 1.373351e+00 1.087426e+00 3.897937e-01 6.887969e-01 2.379957e-01 4.955214e+01 -5.271055e-03 2.953230e-02 2.029309e-02 2.223649e-02 4.111604e-02 6.051222e-02 4.005354e-03 -1.694348e-02 1.336665e-02 1.996123e-02 -9.027440e-04 -2.070814e-02 -9.502979e-02 3.044466e-02 -4.083358e-03 1.221532e-02 -2.803247e-02 -2.971305e-02 -3.147522e-02 -3.129917e-02 -1.045988e-02 -2.073227e-02 -1.564679e-02 -6.268647e-03 -8.253825e-03 5.021042e-02
<VARIANCE> 39
 1.914822e+01 1.110670e+01 1.262821e+01 1.381038e+01 1.724913e+01 2.070024e+01 1.746774e+01 1.644026e+01 1.666094e+01 1.858901e+01 2.009243e+01 1.846573e+01 4.553663e+01 4.198798e-01 5.020094e-01 6.238786e-01 8.427444e-01 1.087278e+00 1.247624e+00 1.286825e+00 1.428344e+00 1.485278e+00 1.430578e+00 1.342669e+00 1.193808e+00 4.363302e-01 7.087513e-02 8.830151e-02 1.102431e-01 1.518601e-01 1.978677e-01 2.404005e-01 2.496255e-01 2.781541e-01 2.897985e-01 2.788345e-01 2.598233e-01 2.368931e-01 6.218443e-02
<GCONST> 8.535873e+01
<STATE> 3
<MEAN> 39
 -1.311013e+01 1.997542e+00 9.172162e-02 7.606254e-01 8.810431e-01 -8.211207e-02 6.848294e-02 1.111872e+00 1.809270e-01 -3.455515e-01 -2.939798e-01 -7.300934e-01 5.299623e+01 7.150178e-01 -1.523489e-01 -1.298217e-02 -2.818448e-01 -4.884825e-01 -2.017855e-01 -4.061362e-01 -4.393213e-01 -3.345608e-01 -2.723010e-01 -2.409061e-01 -2.547140e-01 6.055989e-01 1.630131e-01 -6.610071e-02 -6.967068e-02 -1.502933e-01 -2.119157e-01 -1.060053e-01 -1.255117e-01 -1.053846e-01 -5.400359e-02 -6.712952e-02 -2.773794e-02 -4.868321e-02 3.287626e-01
<VARIANCE> 39
 3.717447e+01 2.309804e+01 2.591071e+01 2.857536e+01 3.174083e+01 3.074361e+01 2.467210e+01 2.804232e+01 2.474702e+01 2.019182e+01 1.986840e+01 1.751520e+01 3.956546e+01 2.876432e+00 2.597838e+00 2.354718e+00 3.088275e+00 3.401486e+00 3.545165e+00 3.102433e+00 3.252771e+00 3.014533e+00 2.382137e+00 2.396565e+00 2.000197e+00 3.836636e+00 3.791210e-01 3.978795e-01 3.431446e-01 4.997383e-01 5.095854e-01 5.285150e-01 5.133727e-01 5.062323e-01 4.968269e-01 4.256381e-01 3.824603e-01 3.363831e-01 4.612154e-01
<GCONST> 1.171943e+02
<STATE> 4
<MEAN> 39
 -6.733985e+00 -4.913483e-01 -1.137888e-02 -2.574152e+00 -4.694517e+00 -6.348625e-01 -4.545943e+00 3.782988e-01 -1.394208e+00 -1.970212e+00 1.092062e+00 -3.189701e+00 6.291462e+01 1.148330e-01 -3.400415e-02 -1.595271e-02 -1.087369e-01 -1.316810e-01 -8.863079e-02 -1.111608e-01 -7.750662e-02 -5.676544e-02 -6.284547e-02 -5.062037e-02 -4.690123e-02 2.680979e-01 -2.869395e-02 1.008450e-03 -5.050513e-03 7.808838e-03 1.165781e-02 1.594397e-03 9.703368e-03 2.619655e-02 1.261655e-02 -4.408996e-04 1.035899e-02 1.348246e-02 6.651767e-04
<VARIANCE> 39
 7.486893e+01 5.548790e+01 7.745746e+01 5.451718e+01 5.991414e+01 6.567478e+01 6.478871e+01 5.693555e+01 5.586447e+01 3.554009e+01 3.728160e+01 3.632772e+01 7.928203e+01 3.834373e+00 3.243211e+00 3.053527e+00 3.467945e+00 3.965011e+00 3.415440e+00 4.651325e+00 3.932193e+00 3.882098e+00 2.724850e+00 2.758087e+00 2.552361e+00 3.793868e+00 5.133634e-01 5.154364e-01 4.323319e-01 5.216085e-01 6.310793e-01 5.619310e-01 7.877768e-01 6.815528e-01 6.496679e-01 4.793433e-01 4.867922e-01 4.339879e-01 4.673959e-01
<GCONST> 1.321027e+02
<TRANSP> 5
 0.000000e+00 1.000000e+00 0.000000e+00 0.000000e+00 0.000000e+00
 0.000000e+00 9.178755e-01 8.212452e-02 0.000000e+00 0.000000e+00
 0.000000e+00 0.000000e+00 5.291010e-01 4.708989e-01 0.000000e+00
 0.000000e+00 0.000000e+00 0.000000e+00 8.314943e-01 1.685057e-01
 0.000000e+00 0.000000e+00 0.000000e+00 0.000000e+00 0.000000e+00
<ENDHMM>
~h "sp"
<BEGINHMM>
  <NUMSTATES> 3
  <STATE> 2
   <MEAN> 39
 -1.311013e+01 1.997542e+00 9.172162e-02 7.606254e-01 8.810431e-01 -8.211207e-02 6.848294e-02 1.111872e+00 1.809270e-01 -3.455515e-01 -2.939798e-01 -7.300934e-01 5.299623e+01 7.150178e-01 -1.523489e-01 -1.298217e-02 -2.818448e-01 -4.884825e-01 -2.017855e-01 -4.061362e-01 -4.393213e-01 -3.345608e-01 -2.723010e-01 -2.409061e-01 -2.547140e-01 6.055989e-01 1.630131e-01 -6.610071e-02 -6.967068e-02 -1.502933e-01 -2.119157e-01 -1.060053e-01 -1.255117e-01 -1.053846e-01 -5.400359e-02 -6.712952e-02 -2.773794e-02 -4.868321e-02 3.287626e-01
<VARIANCE> 39
 3.717447e+01 2.309804e+01 2.591071e+01 2.857536e+01 3.174083e+01 3.074361e+01 2.467210e+01 2.804232e+01 2.474702e+01 2.019182e+01 1.986840e+01 1.751520e+01 3.956546e+01 2.876432e+00 2.597838e+00 2.354718e+00 3.088275e+00 3.401486e+00 3.545165e+00 3.102433e+00 3.252771e+00 3.014533e+00 2.382137e+00 2.396565e+00 2.000197e+00 3.836636e+00 3.791210e-01 3.978795e-01 3.431446e-01 4.997383e-01 5.095854e-01 5.285150e-01 5.133727e-01 5.062323e-01 4.968269e-01 4.256381e-01 3.824603e-01 3.363831e-01 4.612154e-01
<GCONST> 1.171943e+02
  <TRANSP> 3
    0.0 1.0 0.0
    0.0 0.9 0.1
    0.0 0.0 0.0
<ENDHMM>
