~o
<STREAMINFO> 1 39
<VECSIZE> 39<NULLD><MFCC_D_A_0><DIAGC>
~s "silst"
<NUMMIXES> 3
<MIXTURE> 1 2.216399e-01
<MEAN> 39
 -1.873019e+01 3.049613e+00 -3.027062e+00 1.622851e+00 2.871801e+00 -5.491509e-01 1.078598e+00 3.739746e+00 4.806256e-01 -2.008119e-01 5.203906e-01 4.946292e-01 5.630516e+01 1.073161e-01 7.543123e-02 5.904385e-02 2.869721e-01 4.089143e-01 4.976521e-01 3.371176e-01 9.674074e-02 2.793624e-01 1.615743e-01 1.925119e-01 1.595492e-01 -6.483589e-01 2.382824e-01 3.267577e-02 1.198318e-01 -4.022487e-02 -1.724209e-01 7.767666e-02 -8.302755e-02 -1.597333e-01 -3.298922e-02 1.224122e-03 7.405476e-02 -2.138994e-02 -7.290229e-02
<VARIANCE> 39
 7.213950e+01 4.213636e+01 4.250620e+01 2.533855e+01 3.108819e+01 3.840203e+01 2.474432e+01 2.916864e+01 2.941509e+01 2.547064e+01 2.870931e+01 2.318675e+01 7.148361e+01 1.754312e+00 1.286021e+00 1.079246e+00 1.315152e+00 1.941416e+00 1.998617e+00 1.669959e+00 1.995144e+00 1.774720e+00 1.852952e+00 1.971909e+00 1.558806e+00 1.831831e+00 2.860168e-01 2.994725e-01 2.682204e-01 3.411716e-01 4.452833e-01 4.881627e-01 4.105392e-01 4.153461e-01 3.837163e-01 3.875684e-01 4.494524e-01 3.449517e-01 3.588847e-01
<GCONST> 1.114381e+02
<MIXTURE> 2 3.659033e-01
<MEAN> 39
 -1.296823e+01 3.129689e+00 3.284193e-01 2.341634e+00 1.184746e+00 1.374875e+00 5.237283e-01 5.064133e-01 1.005145e-01 -2.976634e-01 2.327945e-01 -6.347944e-01 5.087947e+01 1.675145e+00 -5.900977e-01 -1.668078e-01 -1.437981e+00 -1.618179e+00 -1.138551e+00 -1.444518e+00 -1.005469e+00 -9.847834e-01 -7.671013e-01 -5.960900e-01 -5.736037e-01 2.469395e+00 4.859049e-01 -1.984762e-01 -1.145559e-01 -5.380763e-01 -5.050237e-01 -3.565757e-01 -4.715272e-01 -1.599176e-01 -1.415345e-01 -1.545630e-01 -9.433155e-02 -1.668814e-01 9.513902e-01
<VARIANCE> 39
 1.432896e+01 1.476500e+01 1.794971e+01 1.532311e+01 1.695155e+01 2.004526e+01 1.736045e+01 1.750930e+01 1.704385e+01 1.801254e+01 1.633279e+01 1.523604e+01 2.708056e+01 4.219576e+00 4.084598e+00 3.877209e+00 4.387929e+00 4.271346e+00 4.526313e+00 4.283285e+00 3.897448e+00 3.734232e+00 2.958292e+00 3.294127e+00 2.560720e+00 3.987387e+00 4.381877e-01 4.115875e-01 4.042167e-01 5.434976e-01 5.627909e-01 5.779786e-01 5.250301e-01 4.398903e-01 5.695639e-01 4.733828e-01 4.633558e-01 4.081540e-01 4.571995e-01
<GCONST> 1.165363e+02
<MIXTURE> 3 4.124569e-01
<MEAN> 39
 -1.521097e+01 2.435110e+00 -1.622862e+00 2.262777e+00 1.456060e+00 9.112092e-01 1.202321e+00 1.966169e+00 7.035259e-01 -2.241603e-01 4.226254e-01 -5.044051e-01 5.301773e+01 2.899451e-01 -1.627132e-01 5.259678e-02 -1.568195e-01 -9.841660e-02 -1.967392e-02 -2.671133e-01 -2.316826e-01 -1.475867e-01 -8.801766e-02 -7.754335e-02 -1.289373e-01 1.789545e-01 2.567850e-01 -4.250563e-02 8.871496e-02 -1.771199e-01 -2.489246e-01 -2.050640e-01 -2.704812e-01 -1.483226e-01 -1.261532e-01 -5.561931e-02 -1.824589e-02 -1.847908e-02 3.154456e-01
<VARIANCE> 39
 3.613681e+01 2.634592e+01 3.088952e+01 1.903196e+01 2.276715e+01 1.962169e+01 1.860033e+01 2.037204e+01 1.952304e+01 1.791034e+01 1.657516e+01 1.521041e+01 2.928732e+01 2.032561e+00 1.926192e+00 2.024246e+00 1.552959e+00 2.014492e+00 2.019121e+00 1.952943e+00 1.995578e+00 1.970093e+00 1.723893e+00 1.742949e+00 1.563258e+00 1.969376e+00 4.731405e-01 4.344273e-01 3.798733e-01 4.032039e-01 4.491484e-01 4.496549e-01 4.913295e-01 4.436013e-01 4.721409e-01 4.296819e-01 3.651312e-01 3.159935e-01 4.351231e-01
<GCONST> 1.087236e+02
~h "b"
<BEGINHMM>
<NUMSTATES> 5
<STATE> 2
<NUMMIXES> 3
<MIXTURE> 1 1.424828e-01
<MEAN> 39
 -1.304330e+01 -1.185169e+00 -3.402681e-01 1.490455e+00 1.129603e+00 6.556521e-01 -1.813556e-01 2.685803e+00 1.168959e+00 -1.184194e+00 5.274913e-01 2.898522e-01 5.314872e+01 -4.639770e-02 2.464906e-01 -4.000271e-02 1.572965e-01 2.037782e-01 3.609810e-01 4.661278e-01 1.827144e-01 4.231509e-01 5.939230e-01 4.287760e-01 1.482304e-01 -4.510028e-01 1.533633e-03 -2.787749e-02 -6.060675e-04 -5.814389e-02 -5.644177e-02 -4.735533e-02 -1.467605e-02 1.100120e-02 -8.024778e-02 -1.023663e-01 -8.993633e-02 -7.503319e-02 1.494185e-01
<VARIANCE> 39
 1.043588e+01 4.332363e+01 1.285512e+01 1.086161e+01 1.228059e+01 1.811957e+01 1.659538e+01 1.864158e+01 1.561189e+01 1.673531e+01 1.493746e+01 1.260071e+01 3.426023e+01 6.483799e-01 1.841052e+00 9.061254e-01 8.802848e-01 1.130562e+00 1.444161e+00 1.747918e+00 1.940824e+00 1.766927e+00 1.600662e+00 1.525298e+00 1.295715e+00 9.053275e-01 1.071716e-01 1.978467e-01 1.745216e-01 1.496635e-01 1.978429e-01 2.532354e-01 2.998980e-01 3.145049e-01 3.062364e-01 2.903417e-01 2.789853e-01 2.305693e-01 1.281476e-01
<GCONST> 9.141914e+01
<MIXTURE> 2 3.377321e-01
<MEAN> 39
 -5.551104e+00 7.162367e+00 1.727836e+00 1.222527e+00 -7.475854e-01 -1.309746e+00 -3.325644e+00 -3.665065e+00 -3.767341e+00 -3.217451e+00 -2.334024e+00 -2.919971e+00 5.499821e+01 -9.927520e-01 8.954859e-01 6.829726e-01 1.000411e+00 7.543129e-01 3.084596e-01 9.422718e-01 1.786970e-01 -2.331768e-01 -3.201077e-01 -4.131905e-01 -2.357215e-01 -1.316573e+00 -1.287388e-01 -8.545983e-01 -2.178615e-01 -4.540457e-01 -4.209887e-01 -1.405841e-01 -3.849426e-01 2.499182e-01 1.827315e-01 1.506096e-01 2.067656e-01 1.773562e-01 9.237087e-01
<VARIANCE> 39
 4.510917e+01 4.349372e+01 2.429880e+01 2.474856e+01 2.171016e+01 3.125009e+01 3.524505e+01 4.095974e+01 3.577928e+01 2.423608e+01 2.396536e+01 2.217855e+01 2.328418e+01 2.191835e+00 4.554199e+00 2.694619e+00 3.334610e+00 2.647087e+00 3.016856e+00 3.416086e+00 2.916200e+00 2.928294e+00 2.568415e+00 2.445628e+00 2.022249e+00 3.337697e+00 3.279861e-01 7.701732e-01 4.835946e-01 5.401855e-01 5.605241e-01 5.843902e-01 7.160592e-01 6.313707e-01 6.357593e-01 5.286435e-01 4.858816e-01 4.257432e-01 6.113864e-01
<GCONST> 1.215496e+02
<MIXTURE> 3 5.197856e-01
<MEAN> 39
 -1.417731e+01 -3.561175e+00 4.224318e-02 -7.842541e-03 -3.371558e-01 -9.928161e-01 -3.791022e-02 3.417344e+00 -5.399311e-02 -2.660111e+00 2.390263e-01 -1.942540e-01 5.697957e+01 -6.127174e-02 -6.772295e-02 -3.246887e-02 2.613834e-02 5.061345e-02 5.253480e-02 2.098268e-02 -2.605159e-02 4.862726e-03 -7.505637e-02 -1.006305e-01 -3.740876e-02 -1.116981e-01 6.815371e-02 5.485356e-03 -1.993347e-02 -2.601988e-02 -5.156050e-02 -2.755153e-02 -1.030469e-01 -6.186427e-02 -2.999545e-02 5.326894e-03 1.129105e-02 1.022712e-02 1.050900e-01
<VARIANCE> 39
 2.406312e+01 6.351823e+01 1.611842e+01 1.669204e+01 1.672437e+01 2.427807e+01 2.249241e+01 2.630587e+01 2.147593e+01 1.981292e+01 1.943683e+01 1.591111e+01 4.749587e+01 5.491093e-01 1.202771e+00 7.704303e-01 8.630040e-01 1.068289e+00 1.370805e+00 1.474640e+00 1.605906e+00 1.567433e+00 1.486129e+00 1.418941e+00 1.309395e+00 7.799583e-01 8.933902e-02 2.250964e-01 1.743633e-01 1.866449e-01 2.403032e-01 2.890883e-01 3.373606e-01 3.394770e-01 3.388525e-01 3.250267e-01 2.955016e-01 2.755729e-01 2.067263e-01
<GCONST> 9.582286e+01
<STATE> 3
<NUMMIXES> 3
<MIXTURE> 1 2.173638e-01
<MEAN> 39
 -5.842995e+00 1.093660e+01 6.174540e+00 6.139653e+00 3.204309e+00 1.861388e+00 -1.047718e+00 -4.051660e+00 -5.312974e+00 -5.034833e+00 -3.348239e+00 -3.326468e+00 5.177503e+01 -1.296716e+00 -1.397731e+00 -5.710766e-01 -1.753229e-02 -3.974497e-02 2.419262e-01 3.600717e-03 8.526332e-01 6.923970e-01 4.482413e-01 4.242280e-01 3.215480e-01 5.197137e-01 5.228157e-01 -1.243774e+00 -8.839690e-01 -1.155730e+00 -1.133309e+00 -3.944089e-01 -1.024164e+00 5.488191e-02 3.012710e-01 4.353243e-01 6.433468e-01 3.026476e-01 1.630839e+00
<VARIANCE> 39
 1.487303e+01 9.707662e+00 9.720157e+00 1.284429e+01 1.037461e+01 1.463342e+01 1.846751e+01 1.929512e+01 2.302770e+01 1.754236e+01 1.324494e+01 1.126689e+01 8.934271e+00 1.419314e+00 2.514635e+00 2.246470e+00 2.634681e+00 2.236373e+00 1.935807e+00 3.796230e+00 2.163812e+00 2.261730e+00 2.047873e+00 2.030575e+00 1.653561e+00 2.978960e+00 3.033735e-01 5.381142e-01 4.837967e-01 5.000884e-01 4.095442e-01 5.863462e-01 6.426507e-01 6.102096e-01 6.475362e-01 5.240207e-01 4.358102e-01 3.640975e-01 2.954016e-01
<GCONST> 1.062942e+02
<MIXTURE> 2 3.907925e-01
<MEAN> 39
 -7.800897e+00 5.926210e+00 1.591769e+00 1.798413e+00 -1.063290e+00 -1.398960e+00 -3.329193e+00 -3.123218e+00 -2.884338e+00 -2.539633e+00 -2.233991e+00 -3.160465e+00 5.432810e+01 7.510711e-02 -2.350325e+00 -6.662682e-01 -1.124517e+00 -1.929287e+00 -1.162391e+00 -1.503887e+00 2.710997e-01 5.395068e-02 2.489107e-01 4.645415e-01 4.884434e-01 3.296609e+00 6.508218e-01 -6.722532e-01 -1.786730e-01 -8.836918e-01 -7.983881e-01 -3.982856e-01 -5.443409e-01 -1.158294e-01 -1.375840e-01 1.970836e-01 8.038824e-02 9.513942e-02 1.346308e+00
<VARIANCE> 39
 2.931618e+01 2.408579e+01 1.823671e+01 2.085970e+01 1.782728e+01 2.602902e+01 3.349294e+01 3.458909e+01 3.131491e+01 2.292892e+01 2.225285e+01 2.054083e+01 2.718716e+01 3.719200e+00 3.589744e+00 4.392686e+00 4.401669e+00 4.534434e+00 4.029931e+00 4.238823e+00 4.240348e+00 4.101229e+00 3.582684e+00 2.927864e+00 2.792253e+00 3.633909e+00 4.386781e-01 7.292023e-01 9.962087e-01 7.354676e-01 7.015837e-01 8.354151e-01 8.253316e-01 8.545331e-01 8.807508e-01 6.368055e-01 6.763410e-01 6.213233e-01 4.571535e-01
<GCONST> 1.262417e+02
<MIXTURE> 3 3.918444e-01
<MEAN> 39
 -7.827621e+00 8.073306e+00 3.710979e+00 4.140872e+00 1.677110e+00 9.422944e-01 -1.131737e+00 -2.722266e+00 -3.296634e+00 -3.168849e+00 -2.041248e+00 -2.568769e+00 5.168506e+01 -2.835535e-01 -2.150666e+00 -1.251881e+00 -1.041397e+00 -1.374785e+00 -5.028785e-01 -1.231277e+00 2.493441e-01 3.406830e-01 4.559195e-01 7.280021e-01 4.571005e-01 2.498122e+00 7.779862e-01 -9.418986e-01 -5.651261e-01 -1.051429e+00 -1.077519e+00 -3.806126e-01 -9.518805e-01 -1.543347e-01 7.761584e-02 3.000510e-01 3.361084e-01 6.024244e-02 1.673902e+00
<VARIANCE> 39
 2.222399e+01 1.672598e+01 1.320492e+01 1.316653e+01 1.179356e+01 1.622278e+01 2.245261e+01 2.539614e+01 2.689086e+01 1.995910e+01 1.489189e+01 1.312723e+01 1.462763e+01 2.609690e+00 3.174611e+00 3.042879e+00 3.714211e+00 3.399982e+00 2.856099e+00 3.860109e+00 3.027709e+00 2.919885e+00 2.863154e+00 2.448459e+00 2.044913e+00 3.719812e+00 3.200009e-01 6.438960e-01 7.362291e-01 6.427435e-01 5.440556e-01 7.962432e-01 7.148895e-01 7.289442e-01 7.520322e-01 6.321912e-01 5.906714e-01 4.968181e-01 3.147621e-01
<GCONST> 1.159748e+02
<STATE> 4
<NUMMIXES> 3
<MIXTURE> 1 2.106273e-01
<MEAN> 39
 1.024761e+00 -4.093883e+00 -7.245988e+00 -1.074720e+01 -9.823462e+00 2.852191e+00 -1.006969e+01 -5.404899e+00 -2.138746e-02 4.547231e+00 4.067023e+00 -3.660786e+00 7.055600e+01 2.273554e+00 -2.726953e+00 -1.362087e+00 -3.386199e+00 -1.673582e+00 1.286990e+00 -1.025647e+00 3.362197e-01 1.573514e+00 1.581003e+00 -1.422281e-01 -1.622597e+00 4.255670e+00 -7.197689e-01 6.196588e-01 8.002408e-01 1.035205e+00 1.003441e+00 -1.961817e-02 8.752656e-01 5.988355e-01 9.594667e-02 -6.896681e-01 -9.425028e-01 -2.325729e-01 -1.207260e+00
<VARIANCE> 39
 1.559278e+01 2.115520e+01 1.682261e+01 4.171863e+01 2.610226e+01 4.911403e+01 4.865407e+01 3.495650e+01 2.332047e+01 3.425742e+01 3.119493e+01 3.855450e+01 2.012629e+01 2.743192e+00 3.397147e+00 2.929470e+00 4.667872e+00 3.583242e+00 4.988457e+00 6.819465e+00 5.041798e+00 3.592125e+00 4.277968e+00 4.654024e+00 4.231643e+00 2.869240e+00 3.272107e-01 3.475323e-01 2.381091e-01 5.486031e-01 4.178975e-01 5.983959e-01 5.054702e-01 7.198685e-01 5.246227e-01 5.120389e-01 5.213309e-01 5.998595e-01 2.750136e-01
<GCONST> 1.230631e+02
<MIXTURE> 2 4.808333e-01
<MEAN> 39
 -8.835004e+00 -1.186270e+00 6.992221e-03 1.211201e-01 -5.324934e+00 -5.369839e+00 -7.273571e+00 -1.488497e+00 -2.658432e+00 -2.707708e+00 -1.231318e+00 -1.308540e+00 6.418619e+01 1.457907e+00 -2.515242e+00 -4.501522e-01 -2.468786e+00 -2.956951e+00 -1.765687e+00 -2.171114e+00 -1.003008e-01 -6.214043e-01 5.852869e-01 6.299863e-01 6.386274e-01 4.504772e+00 6.462204e-01 5.875367e-01 2.297711e-01 -4.490233e-01 -2.105739e-02 2.229697e-01 1.302189e-01 -3.216704e-01 -2.514551e-01 1.212751e-01 -8.755472e-02 -1.530830e-01 -2.437927e-01
<VARIANCE> 39
 3.061702e+01 3.060435e+01 3.317763e+01 3.345604e+01 3.224044e+01 4.384520e+01 3.459076e+01 3.261678e+01 3.058104e+01 2.684994e+01 2.424822e+01 2.054078e+01 2.999912e+01 4.154191e+00 4.045172e+00 9.071818e+00 4.987160e+00 6.198306e+00 5.339635e+00 5.861539e+00 5.638895e+00 6.281869e+00 4.120563e+00 4.775663e+00 3.449484e+00 3.133123e+00 5.488625e-01 6.091182e-01 6.920343e-01 6.543779e-01 6.684909e-01 9.129918e-01 8.474091e-01 8.083866e-01 7.776592e-01 7.012251e-01 5.753887e-01 5.568021e-01 4.949413e-01
<GCONST> 1.317577e+02
<MIXTURE> 3 3.085400e-01
<MEAN> 39
 -5.391120e+00 -5.822951e-01 -4.817554e+00 -3.709181e+00 -5.828628e+00 -2.573189e+00 -8.076800e+00 -3.462441e+00 -1.790931e+00 -3.284236e-02 1.464313e+00 -4.662779e-01 6.493298e+01 2.312877e+00 -2.595617e+00 -2.087985e+00 -3.120815e+00 -2.491272e+00 -3.836560e-01 -2.290306e+00 -7.593343e-02 9.532157e-01 1.035048e+00 7.144157e-01 -1.036222e-01 4.569398e+00 2.283177e-01 2.847552e-01 4.304898e-01 8.611417e-02 3.054953e-01 2.870073e-01 3.625393e-01 2.070116e-01 1.271242e-01 -1.994193e-01 -3.712597e-01 -3.762847e-01 -3.235466e-01
<VARIANCE> 39
 4.346414e+01 3.099626e+01 2.875406e+01 3.623512e+01 3.464646e+01 4.644911e+01 4.118165e+01 3.777751e+01 2.927898e+01 2.599012e+01 2.740989e+01 2.403550e+01 3.125683e+01 4.180625e+00 4.302195e+00 4.517687e+00 6.266546e+00 4.693903e+00 6.113206e+00 7.838920e+00 6.841209e+00 4.752291e+00 4.378101e+00 5.111527e+00 4.273602e+00 4.018676e+00 5.189799e-01 5.853755e-01 4.268896e-01 5.222885e-01 5.996718e-01 7.057349e-01 7.997110e-01 6.606227e-01 6.562012e-01 6.087544e-01 5.109730e-01 5.337139e-01 5.558401e-01
<GCONST> 1.312197e+02
<TRANSP> 5
 0.000000e+00 1.000000e+00 0.000000e+00 0.000000e+00 0.000000e+00
 0.000000e+00 8.342436e-01 1.657564e-01 0.000000e+00 0.000000e+00
 0.000000e+00 0.000000e+00 5.677754e-01 4.322245e-01 0.000000e+00
 0.000000e+00 0.000000e+00 0.000000e+00 4.454598e-01 5.545402e-01
 0.000000e+00 0.000000e+00 0.000000e+00 0.000000e+00 0.000000e+00
<ENDHMM>
~h "d"
<BEGINHMM>
<NUMSTATES> 5
<STATE> 2
<NUMMIXES> 3
<MIXTURE> 1 8.675471e-02
<MEAN> 39
 -6.156768e+00 5.337852e+00 6.576049e+00 1.138700e+00 -4.108210e+00 -3.284292e+00 -7.709802e+00 9.677830e-01 -3.533625e+00 -2.957488e+00 4.079841e-01 -5.564611e-01 6.137243e+01 -5.513207e-01 1.982134e+00 1.158671e-01 2.071627e+00 2.080606e+00 5.710292e-02 2.103278e+00 -9.870906e-01 3.782190e-01 2.223402e-02 -1.145054e+00 -3.213997e-02 -3.131473e+00 -2.834732e-01 -4.740500e-01 -4.655178e-01 -3.476383e-01 -1.638577e-01 3.276861e-01 1.434462e-01 1.018331e-01 5.415221e-02 -2.487562e-02 4.830638e-02 -1.981756e-01 3.075939e-01
<VARIANCE> 39
 6.049718e+01 4.279416e+01 4.975086e+01 3.438189e+01 4.393090e+01 5.243477e+01 6.553704e+01 5.032747e+01 5.524407e+01 2.780995e+01 2.442698e+01 2.311042e+01 3.729147e+01 5.001998e+00 4.409622e+00 3.815905e+00 4.276963e+00 3.552544e+00 4.150794e+00 4.503966e+00 5.101597e+00 4.540933e+00 3.136517e+00 3.261852e+00 2.673396e+00 3.172055e+00 3.299393e-01 5.691708e-01 4.311308e-01 5.124385e-01 6.085396e-01 6.211968e-01 8.270425e-01 6.864334e-01 8.027362e-01 4.650185e-01 4.695750e-01 3.783652e-01 5.297367e-01
<GCONST> 1.297339e+02
<MIXTURE> 2 4.256803e-01
<MEAN> 39
 -2.802860e+00 5.950184e+00 3.910069e+00 1.306202e+00 -6.985101e+00 -6.950306e+00 -6.003438e+00 -5.110425e+00 -5.639098e+00 -5.335079e+00 -5.868423e+00 -2.538616e+00 5.925425e+01 -1.218597e+00 7.821510e-01 4.330722e-01 8.710098e-01 1.484683e+00 1.013286e+00 5.327777e-01 5.388623e-01 3.396335e-01 -2.225798e-01 2.958320e-01 -7.682697e-01 -1.299374e+00 -4.453308e-01 -8.662876e-01 -2.911016e-01 -6.421017e-01 -1.693335e-01 4.052716e-02 -1.422167e-01 3.585338e-01 1.205983e-01 2.835595e-01 4.537879e-01 2.093439e-01 9.275273e-01
<VARIANCE> 39
 2.989638e+01 4.014651e+01 3.392069e+01 4.858018e+01 4.616537e+01 4.859551e+01 3.862510e+01 5.077167e+01 4.671227e+01 3.761671e+01 3.966947e+01 3.264869e+01 3.140959e+01 3.413960e+00 5.709808e+00 3.784568e+00 5.223346e+00 4.592832e+00 4.232440e+00 4.538353e+00 5.339865e+00 4.207373e+00 3.326625e+00 3.928560e+00 3.577050e+00 4.127359e+00 4.487070e-01 7.636932e-01 4.907684e-01 7.360684e-01 8.535438e-01 7.941344e-01 8.292710e-01 8.879613e-01 8.786454e-01 6.845707e-01 6.974112e-01 5.911844e-01 6.662455e-01
<GCONST> 1.337805e+02
<MIXTURE> 3 4.875647e-01
<MEAN> 39
 -2.542715e+00 7.552619e+00 6.716618e+00 4.113589e+00 -4.908387e+00 -6.673151e+00 -6.376991e+00 -2.092018e+00 -3.948425e+00 -5.314838e+00 -3.811498e+00 -1.753703e+00 5.779414e+01 -1.026878e+00 1.893762e+00 1.009239e-02 1.274214e+00 2.181164e+00 9.807579e-01 1.529637e+00 -3.242131e-01 2.563861e-01 -1.032866e-01 -7.418058e-01 -7.716743e-01 -2.635989e+00 -4.201224e-01 -9.787629e-01 -4.066447e-01 -7.577747e-01 -3.157980e-01 3.589104e-01 -1.720655e-01 2.291285e-01 -4.428556e-02 2.861694e-01 4.897337e-01 5.183124e-02 9.070032e-01
<VARIANCE> 39
 1.624888e+01 2.902753e+01 2.797354e+01 3.223722e+01 3.382950e+01 3.852879e+01 3.367179e+01 3.661655e+01 3.918808e+01 2.537341e+01 2.543332e+01 2.349679e+01 2.247539e+01 1.674647e+00 4.354192e+00 3.383163e+00 4.376048e+00 3.415591e+00 4.053421e+00 4.388437e+00 4.615791e+00 4.271110e+00 2.949459e+00 2.893793e+00 2.957641e+00 2.865557e+00 2.423042e-01 5.727092e-01 4.017411e-01 5.348507e-01 6.136418e-01 5.776356e-01 6.786397e-01 6.893752e-01 7.309502e-01 4.979801e-01 5.276464e-01 4.450678e-01 4.843343e-01
<GCONST> 1.228926e+02
<STATE> 3
<NUMMIXES> 3
<MIXTURE> 1 1.639792e-01
<MEAN> 39
 -8.749331e+00 8.081800e+00 4.587233e+00 4.968916e+00 1.215965e+00 -1.840110e-01 -1.460309e+00 -8.208213e-01 -2.073133e+00 -2.554955e+00 -1.582225e+00 -1.936867e+00 5.214678e+01 -1.299609e+00 -6.486068e-01 -7.698314e-01 -7.017089e-02 7.674705e-01 1.096540e+00 9.356419e-01 3.698933e-01 5.439368e-01 4.824381e-01 3.255840e-01 3.306860e-02 -6.737311e-01 -3.214128e-02 -5.641406e-01 -2.171616e-01 -4.479075e-01 -5.093854e-01 -2.535540e-01 -3.531774e-01 5.138794e-02 -1.155751e-01 -1.411614e-02 1.422274e-01 1.430312e-01 8.266994e-01
<VARIANCE> 39
 2.238393e+01 1.807886e+01 1.905019e+01 1.326534e+01 1.470992e+01 2.144605e+01 2.254558e+01 1.952541e+01 2.220168e+01 1.813346e+01 1.614431e+01 1.380690e+01 2.026904e+01 2.283188e+00 1.899938e+00 2.082602e+00 1.817523e+00 2.072094e+00 2.464588e+00 2.383980e+00 2.285034e+00 2.431721e+00 1.975842e+00 1.799888e+00 1.682068e+00 1.788202e+00 2.921016e-01 4.578921e-01 3.484769e-01 3.819639e-01 3.717914e-01 4.456532e-01 4.478105e-01 4.636941e-01 4.624912e-01 3.745029e-01 3.277826e-01 3.124002e-01 4.028815e-01
<GCONST> 1.065112e+02
<MIXTURE> 2 4.084366e-01
<MEAN> 39
 -6.013227e+00 5.022964e+00 4.961679e+00 2.356754e+00 -3.241844e+00 -3.501893e+00 -5.102263e+00 -3.578453e+00 -5.258528e+00 -5.097138e+00 -4.302706e+00 -3.587194e+00 5.842122e+01 -1.853460e+00 -1.671864e+00 -2.585263e-01 -9.949598e-01 2.943969e-02 3.722120e-01 -2.005372e-01 7.218858e-01 2.542602e-01 4.913884e-01 1.190898e+00 3.127294e-01 1.607147e+00 1.966218e-01 -6.579282e-01 -2.443691e-01 -6.907587e-01 -8.779487e-01 -4.766704e-01 -4.806942e-01 1.750417e-01 8.214840e-02 2.492116e-01 3.374846e-01 3.946370e-01 1.134050e+00
<VARIANCE> 39
 3.104108e+01 4.197969e+01 3.247761e+01 3.863360e+01 4.154602e+01 4.490758e+01 3.911417e+01 3.751445e+01 3.437841e+01 2.422294e+01 2.525695e+01 2.140608e+01 4.038936e+01 4.004040e+00 4.601253e+00 3.773705e+00 5.143974e+00 5.108751e+00 4.987275e+00 4.764668e+00 5.134208e+00 5.227531e+00 3.388926e+00 3.576630e+00 2.929567e+00 4.122833e+00 6.218567e-01 8.077791e-01 6.790668e-01 8.322887e-01 9.888256e-01 9.846417e-01 1.009287e+00 9.355164e-01 8.071810e-01 6.319612e-01 7.724206e-01 6.603835e-01 7.103899e-01
<GCONST> 1.334464e+02
<MIXTURE> 3 4.275844e-01
<MEAN> 39
 -6.471847e+00 9.094441e+00 5.710256e+00 4.933262e+00 -2.734556e-01 -2.346316e+00 -3.256221e+00 -2.667777e+00 -3.812731e+00 -4.403696e+00 -3.542542e+00 -3.196675e+00 5.312357e+01 -1.883957e+00 -1.649540e+00 -8.596901e-01 -8.447787e-01 5.654575e-01 1.093980e+00 5.174337e-01 2.872494e-01 5.844082e-02 5.899387e-01 7.627648e-01 1.894715e-01 7.595963e-01 -1.032840e-01 -9.650348e-01 -2.322202e-01 -7.497914e-01 -9.719751e-01 -4.288145e-01 -5.931091e-01 1.825546e-01 -5.655068e-02 1.744014e-01 4.755104e-01 4.231076e-01 1.516011e+00
<VARIANCE> 39
 1.986989e+01 1.708519e+01 1.722190e+01 1.541210e+01 1.796384e+01 2.492618e+01 2.358867e+01 2.087556e+01 2.241751e+01 1.734385e+01 1.598746e+01 1.364363e+01 1.687336e+01 2.566679e+00 4.542493e+00 2.919724e+00 3.964461e+00 3.860955e+00 3.908553e+00 3.853360e+00 3.226356e+00 3.830851e+00 2.565246e+00 2.525419e+00 2.247972e+00 4.806682e+00 5.031590e-01 7.721804e-01 5.781994e-01 6.679027e-01 6.262910e-01 7.091722e-01 6.753638e-01 7.131068e-01 6.624364e-01 4.823768e-01 4.848605e-01 4.176311e-01 5.111495e-01
<GCONST> 1.184463e+02
<STATE> 4
<NUMMIXES> 3
<MIXTURE> 1 1.356905e-01
<MEAN> 39
 -7.397706e+00 -1.375388e+00 1.682230e+00 -2.191724e+00 -7.261921e+00 -4.472301e+00 -9.209202e+00 2.458697e+00 -3.583971e-01 -1.013140e+00 1.565606e+00 -2.580469e-01 6.515171e+01 -2.799461e-01 1.072976e+00 -1.783876e-01 9.467053e-01 8.436534e-01 4.025834e-01 9.804012e-01 1.627485e-01 5.107988e-01 2.977817e-01 -1.597162e-01 4.289582e-02 -1.331637e+00 -2.289802e-01 3.939098e-01 -5.323186e-02 2.682811e-01 4.667671e-01 2.553354e-01 5.937849e-01 -2.735819e-01 -2.255821e-01 -1.636177e-01 -2.517663e-01 -1.335270e-01 -5.383121e-01
<VARIANCE> 39
 7.494703e+01 4.936593e+01 6.585702e+01 4.190187e+01 6.004897e+01 5.958277e+01 8.784520e+01 6.087767e+01 6.290428e+01 3.955751e+01 3.851984e+01 4.257878e+01 5.541711e+01 4.069766e+00 4.131639e+00 3.436383e+00 3.359816e+00 4.422148e+00 3.528900e+00 4.961095e+00 4.572639e+00 4.272431e+00 3.203693e+00 3.160165e+00 3.119478e+00 4.205706e+00 7.871168e-01 8.790627e-01 6.175404e-01 6.971368e-01 8.752649e-01 7.656140e-01 1.048185e+00 8.622369e-01 8.858970e-01 6.646240e-01 6.409791e-01 7.274631e-01 8.056082e-01
<GCONST> 1.380776e+02
<MIXTURE> 2 4.305625e-01
<MEAN> 39
 -1.204638e+01 -9.336100e-01 2.571984e+00 -2.105424e+00 -5.479600e+00 -4.380223e+00 -5.197786e+00 -1.224174e+00 -4.287421e+00 -2.592436e+00 -7.678127e-02 -7.053319e-01 6.561816e+01 7.754918e-01 -1.238678e+00 -5.097315e-03 -1.333330e+00 -1.936007e+00 -1.490544e+00 -1.640033e+00 2.264923e-01 -1.292973e-01 1.296276e-01 6.022830e-01 5.591361e-01 2.593410e+00 9.195169e-01 2.916558e-01 3.506588e-02 1.309932e-01 -2.623231e-01 -1.890982e-01 -2.494031e-01 -6.769076e-03 7.950144e-02 -6.680924e-02 -1.889898e-01 -7.961085e-02 -2.595513e-01
<VARIANCE> 39
 6.501531e+01 4.372618e+01 5.183810e+01 6.102923e+01 5.860486e+01 6.823947e+01 5.063766e+01 4.577597e+01 4.044373e+01 3.035503e+01 3.088676e+01 2.389547e+01 4.164550e+01 7.260269e+00 4.284560e+00 4.446404e+00 4.647306e+00 5.635841e+00 6.258748e+00 5.712365e+00 5.244302e+00 5.304314e+00 3.594508e+00 4.065631e+00 3.195356e+00 5.380618e+00 1.183730e+00 7.319587e-01 7.924708e-01 9.856215e-01 1.206024e+00 1.266278e+00 1.022673e+00 9.215210e-01 8.094904e-01 6.745415e-01 7.621171e-01 6.170684e-01 8.251534e-01
<GCONST> 1.402233e+02
<MIXTURE> 3 4.337451e-01
<MEAN> 39
 -1.249209e+01 7.417211e-01 5.727066e-01 2.524283e-01 -3.094930e+00 -1.613487e+00 -2.819395e+00 4.756962e-01 -2.013511e+00 -1.932546e+00 2.361862e-01 -6.419025e-01 6.101485e+01 -5.709909e-01 -6.404229e-01 -4.829804e-01 -3.304740e-01 -2.162924e-01 7.776876e-02 -1.098104e-01 2.975700e-01 2.317455e-01 1.888421e-01 3.935316e-01 1.516277e-01 6.769627e-01 3.344560e-01 3.810139e-02 8.751771e-02 -8.321092e-02 -2.105360e-01 -2.238910e-01 -2.340128e-01 -4.867625e-02 -6.333187e-02 -7.226565e-02 -6.123833e-02 -1.104941e-02 1.834228e-01
<VARIANCE> 39
 7.955750e+01 6.340075e+01 5.265331e+01 3.873356e+01 4.860236e+01 4.579842e+01 5.301761e+01 4.294012e+01 3.612196e+01 2.640768e+01 2.582861e+01 2.353543e+01 5.919521e+01 5.571347e+00 3.548147e+00 3.288880e+00 3.012270e+00 3.849632e+00 3.513252e+00 4.126740e+00 3.423254e+00 3.352190e+00 2.498508e+00 2.594664e+00 2.184832e+00 4.377685e+00 7.804074e-01 8.016327e-01 5.286783e-01 5.980759e-01 6.942354e-01 6.644694e-01 7.538896e-01 6.249027e-01 5.719231e-01 4.894318e-01 4.562553e-01 4.456449e-01 7.830204e-01
<GCONST> 1.302224e+02
<TRANSP> 5
 0.000000e+00 1.000000e+00 0.000000e+00 0.000000e+00 0.000000e+00
 0.000000e+00 3.344838e-01 6.655162e-01 0.000000e+00 0.000000e+00
 0.000000e+00 0.000000e+00 4.405740e-01 5.594260e-01 0.000000e+00
 0.000000e+00 0.000000e+00 0.000000e+00 7.011707e-01 2.988293e-01
 0.000000e+00 0.000000e+00 0.000000e+00 0.000000e+00 0.000000e+00
<ENDHMM>
~h "f"
<BEGINHMM>
<NUMSTATES> 5
<STATE> 2
<NUMMIXES> 3
<MIXTURE> 1 1.864344e-01
<MEAN> 39
 -4.885805e+00 3.000430e+00 -1.431927e+00 1.626436e-01 -3.089730e+00 -1.166737e+00 -4.689397e+00 -7.271625e-01 -1.200035e+00 -2.110153e+00 -3.018339e+00 -3.152431e+00 6.347323e+01 -3.905194e+00 1.854160e+00 1.062587e+00 2.575553e+00 2.019303e+00 8.596437e-01 1.991761e+00 9.263895e-01 3.122073e-02 2.132295e-01 3.878735e-01 8.568196e-01 -2.308411e+00 -6.382254e-01 -7.793581e-01 -1.834941e-01 -3.678432e-01 -2.311050e-01 7.948354e-03 -5.734619e-02 2.717479e-01 8.089845e-02 5.462102e-02 2.356365e-01 1.583604e-01 2.087238e-01
<VARIANCE> 39
 3.200706e+01 2.600571e+01 3.778277e+01 3.703662e+01 2.834275e+01 7.851025e+01 4.050583e+01 4.813562e+01 4.044437e+01 3.284963e+01 3.148755e+01 2.458882e+01 2.212782e+01 3.179989e+00 3.373525e+00 3.580881e+00 3.624146e+00 3.396649e+00 5.916148e+00 4.928035e+00 5.074471e+00 3.743239e+00 3.942151e+00 3.328000e+00 3.002993e+00 1.828519e+00 4.109504e-01 3.796211e-01 3.519745e-01 4.624241e-01 4.661276e-01 4.969836e-01 6.135098e-01 5.539752e-01 5.273079e-01 4.902331e-01 3.794250e-01 4.054359e-01 2.034111e-01
<GCONST> 1.235895e+02
<MIXTURE> 2 4.613137e-01
<MEAN> 39
 -1.599049e+01 9.241711e-01 -2.485844e-01 4.035808e+00 -6.870942e-01 1.399502e-01 -1.600745e+00 2.412685e+00 -3.017058e-01 -9.666501e-01 -7.092706e-01 -6.281835e-01 5.958879e+01 -2.240799e+00 -8.627619e-01 -9.126959e-01 1.821033e-01 1.765406e-01 4.713632e-01 3.370092e-01 7.678046e-01 6.728572e-01 4.931446e-01 3.937569e-01 3.664749e-01 -5.873550e-01 7.678857e-01 -1.549311e-01 -7.902034e-02 -5.179853e-01 -4.818857e-01 -2.354872e-01 -3.834121e-01 -3.754627e-01 -2.502114e-01 8.151535e-03 1.615223e-02 -7.594351e-02 3.107352e-01
<VARIANCE> 39
 2.873467e+01 3.042485e+01 2.532181e+01 2.566552e+01 2.484256e+01 3.246723e+01 2.771639e+01 2.583266e+01 2.466207e+01 2.358422e+01 2.040407e+01 1.934853e+01 2.990553e+01 3.558586e+00 2.405202e+00 2.871201e+00 2.665938e+00 2.719904e+00 3.003368e+00 2.855274e+00 3.171126e+00 3.416526e+00 2.655910e+00 2.394700e+00 2.117063e+00 1.916146e+00 4.572258e-01 6.555847e-01 5.317361e-01 5.811691e-01 5.971048e-01 5.813646e-01 6.037252e-01 6.411581e-01 6.699558e-01 5.532191e-01 4.671653e-01 4.687649e-01 4.723330e-01
<GCONST> 1.192533e+02
<MIXTURE> 3 3.522518e-01
<MEAN> 39
 -1.259548e+01 2.860555e+00 1.067158e+00 3.997394e+00 -1.102878e+00 -7.351116e-01 -2.492605e+00 9.464676e-01 -1.654227e+00 -2.014917e+00 -1.689710e+00 -1.382566e+00 6.019278e+01 -3.108619e+00 -1.727403e-01 -3.087990e-01 1.149896e+00 1.145582e+00 8.740462e-01 9.738567e-01 1.025917e+00 7.345859e-01 5.464000e-01 5.043312e-01 4.856474e-01 -1.255393e+00 3.459429e-01 -5.555800e-01 -3.192512e-01 -6.472280e-01 -5.116352e-01 -1.243566e-01 -3.217766e-01 -1.311747e-01 -7.770635e-03 1.177198e-01 1.101687e-01 1.134688e-02 3.682385e-01
<VARIANCE> 39
 3.658602e+01 2.774459e+01 3.178756e+01 2.690951e+01 2.785672e+01 4.260736e+01 2.999244e+01 3.244954e+01 2.914096e+01 2.508899e+01 2.379900e+01 2.043388e+01 2.823660e+01 4.536564e+00 3.133938e+00 3.756422e+00 3.363417e+00 3.584125e+00 4.021564e+00 3.478730e+00 4.286303e+00 4.404415e+00 3.123856e+00 2.910118e+00 2.527426e+00 1.902015e+00 4.824650e-01 5.559214e-01 4.255131e-01 5.333227e-01 5.581200e-01 5.691708e-01 6.203288e-01 5.889742e-01 5.482038e-01 5.346211e-01 4.331662e-01 4.582532e-01 3.402776e-01
<GCONST> 1.223794e+02
<STATE> 3
<NUMMIXES> 3
<MIXTURE> 1 1.364046e-01
<MEAN> 39
 -1.421057e+01 7.969260e-03 -9.495422e-01 2.921385e+00 6.325165e-01 1.688777e+00 -3.941571e-01 2.157892e+00 3.187756e-01 -1.246209e+00 -2.829014e-01 -2.151805e-02 5.302224e+01 -8.010833e-02 5.228941e-01 1.491048e-01 3.488400e-01 3.594090e-01 5.127509e-01 4.374532e-01 1.950003e-01 3.312868e-01 5.228195e-01 3.926980e-01 1.204963e-01 -5.396733e-01 9.846024e-03 -1.084137e-01 2.532292e-02 -3.470169e-02 -3.521491e-02 -5.433331e-02 -9.052921e-05 8.774954e-02 5.021304e-02 6.063789e-02 7.925779e-02 1.685459e-02 1.889773e-01
<VARIANCE> 39
 1.604386e+01 2.545103e+01 1.041274e+01 1.270022e+01 1.425495e+01 2.026511e+01 2.028489e+01 1.632969e+01 1.809453e+01 1.751106e+01 1.443544e+01 1.262039e+01 2.983809e+01 3.784119e-01 1.330192e+00 7.978128e-01 9.415872e-01 1.069178e+00 1.387164e+00 1.488542e+00 1.519930e+00 1.525290e+00 1.484098e+00 1.434524e+00 1.284989e+00 6.349974e-01 8.354343e-02 1.866833e-01 1.554679e-01 1.660334e-01 2.032467e-01 2.601005e-01 2.878468e-01 2.809894e-01 3.187732e-01 2.914744e-01 2.684018e-01 2.360829e-01 1.075384e-01
<GCONST> 8.897735e+01
<MIXTURE> 2 4.482155e-01
<MEAN> 39
 -1.847643e+01 -1.185091e+00 -2.335196e+00 3.073929e+00 -1.348116e+00 9.348795e-01 -1.803882e+00 2.852562e+00 2.533283e-01 2.696610e-01 7.886240e-01 3.070834e-01 5.873803e+01 -2.246094e-01 -6.323837e-01 -4.532593e-01 -2.537675e-01 -1.615727e-01 -8.614662e-02 -1.822311e-01 -8.728790e-02 -7.563049e-02 4.632080e-02 8.362687e-02 6.156117e-02 1.781714e-01 7.493221e-01 2.967855e-02 1.709107e-02 -2.956446e-01 -1.762885e-01 -2.581581e-01 -2.456119e-01 -2.496340e-01 -1.437955e-01 -1.728801e-01 -1.517424e-01 -1.308819e-01 2.740509e-01
<VARIANCE> 39
 2.222399e+01 3.204771e+01 1.762365e+01 2.130033e+01 1.993937e+01 2.594016e+01 2.265932e+01 1.972304e+01 1.894767e+01 2.060672e+01 1.688651e+01 1.615769e+01 2.762147e+01 1.395421e+00 1.459943e+00 1.269216e+00 1.395612e+00 1.484027e+00 1.650041e+00 1.656180e+00 1.758961e+00 1.808549e+00 1.810175e+00 1.657156e+00 1.478382e+00 1.469377e+00 5.099096e-01 3.577765e-01 3.202801e-01 3.804002e-01 3.839131e-01 4.430394e-01 4.072544e-01 4.160758e-01 4.147323e-01 4.022028e-01 3.754986e-01 3.274305e-01 3.001499e-01
<GCONST> 1.046907e+02
<MIXTURE> 3 4.153804e-01
<MEAN> 39
 -1.648202e+01 -2.815053e+00 -1.201348e+00 1.422145e+00 -1.170176e+00 -6.079721e-02 -5.610733e-01 3.206647e+00 1.433523e-01 -1.125617e+00 9.071204e-01 5.001794e-01 5.685820e+01 -4.619805e-02 1.079405e-02 -6.815480e-02 6.965591e-02 2.005053e-02 1.522722e-01 -1.410002e-02 -6.313253e-02 -5.638442e-02 2.983925e-02 -1.293105e-02 -1.963016e-02 -1.739645e-01 1.352736e-01 -2.719396e-03 2.455411e-02 -1.334662e-02 1.774382e-02 -1.810977e-02 -2.394374e-02 -2.622331e-02 -4.845854e-03 -1.581790e-02 -2.910892e-02 -2.084581e-02 9.076498e-02
<VARIANCE> 39
 1.935456e+01 3.565543e+01 1.336477e+01 1.758320e+01 1.638896e+01 2.309931e+01 2.209713e+01 1.890910e+01 1.943775e+01 2.016778e+01 1.625889e+01 1.496108e+01 3.878457e+01 3.845775e-01 7.012747e-01 6.519202e-01 7.961404e-01 9.619829e-01 1.220095e+00 1.236865e+00 1.393349e+00 1.447166e+00 1.465103e+00 1.348409e+00 1.258128e+00 5.041264e-01 1.181774e-01 1.497997e-01 1.421472e-01 1.723858e-01 2.055341e-01 2.520136e-01 2.571847e-01 2.901026e-01 2.984449e-01 2.988225e-01 2.740800e-01 2.588286e-01 1.057266e-01
<GCONST> 8.949312e+01
<STATE> 4
<NUMMIXES> 3
<MIXTURE> 1 2.190626e-01
<MEAN> 39
 -9.451539e+00 -2.619946e-02 -1.976883e-02 -1.332852e+00 -6.681755e+00 -3.278877e+00 -7.020725e+00 -1.839805e-01 -1.313591e+00 -8.888385e-01 9.227208e-01 -4.586630e-01 6.402385e+01 3.612293e-01 6.034492e-02 9.693195e-02 -4.740269e-02 1.961502e-01 1.568515e-01 -3.533398e-02 4.037863e-02 2.595626e-01 1.980193e-01 8.627845e-02 -2.402966e-02 8.320352e-02 -1.136775e-01 1.022407e-01 1.337890e-02 1.856061e-01 2.794372e-01 2.552002e-01 2.970433e-01 3.517419e-02 5.371522e-03 -6.141336e-02 -6.857016e-02 -6.250040e-02 -2.809634e-01
<VARIANCE> 39
 1.104465e+02 4.873897e+01 6.768848e+01 5.417335e+01 7.266660e+01 5.500574e+01 6.795696e+01 4.288124e+01 4.943620e+01 3.634780e+01 3.252290e+01 2.982103e+01 4.595152e+01 6.549096e+00 4.145891e+00 3.693316e+00 4.006017e+00 5.127592e+00 3.886525e+00 5.425299e+00 3.108947e+00 3.567803e+00 2.999504e+00 2.709439e+00 2.609750e+00 6.241301e+00 1.100625e+00 8.403389e-01 6.481328e-01 6.916137e-01 9.428927e-01 6.996626e-01 8.910559e-01 6.037752e-01 6.849317e-01 6.393018e-01 5.900567e-01 5.169395e-01 8.224749e-01
<GCONST> 1.367904e+02
<MIXTURE> 2 3.861033e-01
<MEAN> 39
 -1.555440e+01 -2.997087e+00 -3.809848e+00 1.427975e+00 -1.879462e+00 -3.476749e-01 -3.333632e+00 9.354172e-01 -3.754135e-01 1.055636e-01 2.105096e-01 -3.924573e-01 6.055056e+01 4.661366e+00 3.406063e-01 -4.950795e-01 -2.393162e+00 -1.874110e+00 -1.758004e+00 -1.640463e+00 -1.553730e+00 -1.118843e+00 -1.155039e+00 -1.087672e+00 -8.670717e-01 1.518208e+00 9.574829e-01 1.846900e-01 -4.668994e-03 -5.717410e-01 -4.865057e-01 -3.206222e-01 -3.628092e-01 -1.497906e-01 -1.812580e-01 -1.587082e-01 -1.856694e-01 -1.580115e-01 5.063452e-01
<VARIANCE> 39
 2.762206e+01 2.612473e+01 2.767866e+01 2.208463e+01 2.266125e+01 3.306833e+01 2.319549e+01 2.233507e+01 2.096968e+01 2.285636e+01 1.990195e+01 1.720572e+01 1.841270e+01 3.427205e+00 4.073591e+00 3.870803e+00 4.036909e+00 4.215743e+00 4.915317e+00 3.827304e+00 3.361271e+00 3.749846e+00 2.708682e+00 2.963943e+00 2.331809e+00 2.373003e+00 5.575902e-01 5.511813e-01 4.747078e-01 5.685121e-01 5.670553e-01 7.927052e-01 5.698028e-01 6.208989e-01 6.719460e-01 5.393158e-01 5.687819e-01 4.805482e-01 2.359514e-01
<GCONST> 1.204669e+02
<MIXTURE> 3 3.948337e-01
<MEAN> 39
 -1.713253e+01 -1.189933e+00 -3.274909e+00 2.889722e+00 -1.146091e+00 1.684695e+00 -2.143583e+00 2.407853e+00 3.697585e-02 4.252563e-01 7.002009e-01 1.802349e-01 5.886449e+01 2.203074e+00 -8.701464e-01 -5.583014e-01 -1.219429e+00 -1.032476e+00 -9.057744e-01 -1.244759e+00 -5.862392e-01 9.469740e-03 -2.341965e-02 1.345683e-01 -2.307111e-01 1.470730e+00 1.124690e+00 7.802117e-02 1.486535e-01 -4.331942e-01 -5.189751e-01 -3.500643e-01 -5.957844e-01 -2.733711e-01 -7.906895e-02 -2.216870e-01 -6.885144e-02 -2.376274e-01 5.479863e-01
<VARIANCE> 39
 2.860687e+01 3.094474e+01 2.732225e+01 2.095527e+01 2.377010e+01 3.100417e+01 2.532924e+01 2.001748e+01 1.850511e+01 2.069258e+01 1.727485e+01 1.639779e+01 2.932253e+01 5.992837e+00 2.797725e+00 3.555971e+00 2.447291e+00 3.391679e+00 3.274348e+00 4.190518e+00 2.506511e+00 2.596606e+00 2.299471e+00 2.012868e+00 2.040854e+00 3.334923e+00 6.209300e-01 6.188496e-01 5.205573e-01 5.005931e-01 5.716365e-01 6.593429e-01 6.431214e-01 5.467851e-01 5.732381e-01 5.088161e-01 5.000246e-01 4.232877e-01 4.250166e-01
<GCONST> 1.188006e+02
<TRANSP> 5
 0.000000e+00 1.000000e+00 0.000000e+00 0.000000e+00 0.000000e+00
 0.000000e+00 6.545392e-01 3.454608e-01 0.000000e+00 0.000000e+00
 0.000000e+00 0.000000e+00 8.392555e-01 1.607446e-01 0.000000e+00
 0.000000e+00 0.000000e+00 0.000000e+00 7.003995e-01 2.996005e-01
 0.000000e+00 0.000000e+00 0.000000e+00 0.000000e+00 0.000000e+00
<ENDHMM>
~h "g"
<BEGINHMM>
<NUMSTATES> 5
<STATE> 2
<NUMMIXES> 3
<MIXTURE> 1 1.392935e-01
<MEAN> 39
 -2.269173e+00 7.431935e+00 1.082751e+01 1.594334e+00 -8.419159e+00 -2.273908e+00 -5.154214e+00 -3.206807e+00 -1.226126e+01 1.324694e+00 1.010301e+00 -6.038990e+00 6.154462e+01 -1.231439e-01 2.743279e+00 -3.863330e-01 2.071536e+00 2.534676e+00 -9.690109e-01 2.514300e+00 -1.686609e+00 2.227077e+00 -7.654676e-01 -1.982091e+00 5.009087e-01 -3.781657e+00 -4.327129e-01 -7.076277e-01 -7.012223e-01 -3.060589e-01 2.372163e-01 1.747401e-01 -4.357128e-01 5.090120e-01 7.670596e-01 -3.980821e-01 1.575933e-01 3.213323e-01 4.773846e-01
<VARIANCE> 39
 1.504355e+01 2.405544e+01 5.976966e+01 2.842824e+01 6.487643e+01 4.618319e+01 4.839326e+01 4.915877e+01 4.447100e+01 3.070167e+01 3.436771e+01 2.506347e+01 1.825363e+01 1.230482e+00 2.577451e+00 3.560727e+00 2.521518e+00 3.442308e+00 3.354472e+00 3.813614e+00 4.229509e+00 3.459021e+00 3.359542e+00 3.192421e+00 2.052066e+00 1.601347e+00 1.558232e-01 4.514121e-01 3.987068e-01 3.779121e-01 7.819420e-01 5.450949e-01 7.947265e-01 7.027782e-01 9.741164e-01 6.508660e-01 5.317266e-01 3.985183e-01 4.139633e-01
<GCONST> 1.221758e+02
<MIXTURE> 2 4.324464e-01
<MEAN> 39
 -3.772274e+00 8.326064e+00 3.936540e+00 1.678479e+00 -5.572885e+00 -7.683919e+00 -5.029804e+00 -4.784424e+00 -5.841501e+00 -3.405309e+00 -4.948852e+00 -3.702987e+00 5.634562e+01 -8.131005e-01 8.939754e-01 1.745067e-01 7.632043e-01 1.241903e+00 1.396394e+00 5.091631e-01 2.125803e-01 5.297179e-01 -5.586477e-01 1.739879e-01 -4.376679e-01 -1.685084e+00 -2.821900e-01 -1.188006e+00 -5.260455e-01 -5.118517e-01 3.785113e-02 -9.318210e-03 -2.730459e-01 2.354521e-01 -7.592008e-02 4.397311e-01 2.377975e-01 2.783659e-01 1.098087e+00
<VARIANCE> 39
 3.018120e+01 2.734354e+01 3.130501e+01 3.890733e+01 4.818228e+01 4.872464e+01 3.840001e+01 4.672612e+01 3.639307e+01 3.078689e+01 4.245001e+01 2.566648e+01 2.003068e+01 2.579854e+00 4.974601e+00 4.433694e+00 4.361289e+00 6.514010e+00 5.813936e+00 5.011517e+00 5.134030e+00 4.003705e+00 4.360597e+00 3.737931e+00 2.927895e+00 3.108207e+00 3.908248e-01 8.553388e-01 7.461364e-01 6.454896e-01 9.522718e-01 9.482290e-01 7.575859e-01 9.147770e-01 7.703769e-01 8.169985e-01 6.351560e-01 5.478421e-01 5.953391e-01
<GCONST> 1.322139e+02
<MIXTURE> 3 4.282598e-01
<MEAN> 39
 -2.212795e+00 1.014912e+01 6.767583e+00 3.316386e+00 -6.029512e+00 -6.859607e+00 -4.263627e+00 -5.023547e+00 -7.192417e+00 -2.618615e+00 -2.987821e+00 -4.345394e+00 5.642163e+01 -9.731600e-01 1.487842e+00 -1.666296e-01 9.675818e-01 2.074340e+00 1.004003e+00 7.936082e-01 -2.195552e-01 1.327311e+00 -7.469836e-01 -7.279626e-01 -6.192375e-02 -2.302182e+00 -4.099104e-01 -1.332871e+00 -5.561298e-01 -5.224742e-01 6.745444e-02 3.082460e-01 -4.153824e-01 4.761349e-01 4.527766e-02 2.414041e-01 3.312553e-01 2.711796e-01 1.048269e+00
<VARIANCE> 39
 1.306327e+01 1.716350e+01 2.732335e+01 2.467001e+01 3.846624e+01 3.859438e+01 3.405311e+01 3.483054e+01 3.298505e+01 2.587236e+01 3.021534e+01 1.991350e+01 1.450165e+01 1.291160e+00 3.765702e+00 3.814210e+00 3.354877e+00 4.797138e+00 4.889787e+00 4.814192e+00 5.208618e+00 4.027318e+00 4.054615e+00 3.552662e+00 2.929976e+00 2.034677e+00 2.245674e-01 6.572173e-01 5.214434e-01 4.675689e-01 7.485508e-01 6.142039e-01 7.188993e-01 8.120413e-01 8.234205e-01 6.667397e-01 5.074934e-01 4.601643e-01 4.723448e-01
<GCONST> 1.227172e+02
<STATE> 3
<NUMMIXES> 3
<MIXTURE> 1 1.703979e-01
<MEAN> 39
 -9.410719e+00 8.323892e+00 4.077667e+00 4.317677e+00 1.008743e+00 -4.721242e-01 -9.436815e-01 -1.273531e+00 -2.144383e+00 -1.342569e+00 -4.221105e-01 -1.603495e+00 5.192501e+01 -8.948643e-01 -9.713684e-01 -7.952706e-01 -2.057838e-02 8.221252e-01 8.991101e-01 5.696254e-01 5.209361e-01 6.120058e-01 3.092657e-01 1.049331e-01 2.561267e-01 -4.027094e-01 3.253677e-02 -7.836389e-01 -3.666788e-01 -4.547687e-01 -4.162226e-01 -2.630758e-01 -4.794298e-01 7.317409e-02 -3.112131e-01 1.710068e-01 -2.322614e-03 5.593018e-02 1.032695e+00
<VARIANCE> 39
 2.717466e+01 1.890486e+01 2.205214e+01 1.299887e+01 1.634047e+01 2.508970e+01 2.509546e+01 2.007919e+01 2.177084e+01 1.905592e+01 1.620359e+01 1.377953e+01 1.706176e+01 2.323321e+00 2.293392e+00 2.094121e+00 1.446645e+00 2.711236e+00 2.731139e+00 2.714496e+00 2.323188e+00 2.284595e+00 2.066493e+00 1.891682e+00 1.493048e+00 1.823384e+00 3.673038e-01 5.578034e-01 5.842927e-01 4.243903e-01 6.783829e-01 6.517500e-01 6.952109e-01 5.841258e-01 4.781857e-01 5.307500e-01 4.751242e-01 3.136932e-01 5.614356e-01
<GCONST> 1.113559e+02
<MIXTURE> 2 4.081050e-01
<MEAN> 39
 -7.615770e+00 4.067546e+00 2.123224e+00 3.424968e+00 2.005179e-01 -2.518613e+00 -3.692173e+00 -2.648903e+00 -5.124720e+00 -2.469510e+00 -3.647381e+00 -2.982763e+00 5.596832e+01 -1.148582e+00 -2.982140e+00 -1.769935e+00 -1.001265e+00 5.400530e-01 3.505290e-03 -8.805548e-01 4.264199e-01 -2.429395e-01 1.356956e+00 4.268412e-01 7.665871e-01 2.403633e+00 5.241349e-01 -1.433274e-01 1.182383e-01 -6.947950e-01 -1.115196e+00 -7.875691e-01 -5.445582e-01 -2.177745e-01 -3.255979e-01 3.922353e-01 2.795625e-01 8.374459e-02 1.095457e+00
<VARIANCE> 39
 2.701457e+01 3.802224e+01 4.554774e+01 3.216298e+01 4.394127e+01 4.389424e+01 4.308378e+01 3.614542e+01 3.182758e+01 2.488072e+01 2.740445e+01 1.893583e+01 2.774803e+01 3.203933e+00 4.737863e+00 6.664257e+00 4.161779e+00 7.739191e+00 6.064302e+00 4.990280e+00 5.236173e+00 4.012628e+00 4.054138e+00 3.470338e+00 2.831777e+00 2.974820e+00 5.417466e-01 9.340614e-01 7.255235e-01 8.863741e-01 1.065550e+00 1.092385e+00 9.162129e-01 1.016885e+00 7.184525e-01 7.944088e-01 8.561150e-01 5.799650e-01 4.714524e-01
<GCONST> 1.333306e+02
<MIXTURE> 3 4.214971e-01
<MEAN> 39
 -6.506041e+00 8.963528e+00 5.162621e+00 4.545719e+00 -3.678099e-01 -2.300750e+00 -3.049355e+00 -3.450578e+00 -4.570811e+00 -3.403007e+00 -2.720289e+00 -3.151775e+00 5.304458e+01 -1.530085e+00 -2.949204e+00 -1.898587e+00 -6.469553e-01 1.246932e+00 8.699700e-01 -1.025837e-01 7.375050e-01 1.098371e-01 9.871355e-01 1.284238e-01 6.616375e-01 1.462071e+00 2.140582e-01 -9.236646e-01 -3.779101e-01 -6.839181e-01 -7.909595e-01 -6.107414e-01 -6.820915e-01 1.321899e-01 -4.145438e-01 5.416259e-01 3.757946e-01 1.895690e-01 1.490618e+00
<VARIANCE> 39
 1.827940e+01 2.041912e+01 2.249008e+01 1.664354e+01 2.174262e+01 2.716824e+01 2.600875e+01 2.043138e+01 2.182737e+01 1.721410e+01 1.701075e+01 1.392951e+01 1.560001e+01 2.201870e+00 4.362401e+00 4.920362e+00 3.336279e+00 5.977873e+00 4.485945e+00 4.517762e+00 3.896810e+00 3.571323e+00 3.649413e+00 2.716670e+00 2.523683e+00 3.020612e+00 5.406241e-01 8.305695e-01 9.782809e-01 6.256720e-01 9.281240e-01 9.046507e-01 7.944837e-01 9.082847e-01 6.500162e-01 7.119213e-01 7.046015e-01 4.565428e-01 3.959620e-01
<GCONST> 1.225174e+02
<STATE> 4
<NUMMIXES> 3
<MIXTURE> 1 1.865173e-01
<MEAN> 39
 -4.316660e+00 -1.047803e-01 4.150258e+00 -3.503657e+00 -9.397794e+00 -5.353172e+00 -1.198452e+01 -1.874406e+00 -1.042585e+01 2.245404e+00 6.069361e+00 -2.375149e+00 6.809345e+01 2.107752e+00 -2.700250e-01 1.229417e+00 -1.304801e+00 -3.187057e+00 -7.769029e-01 -2.060694e+00 9.344233e-01 5.787243e-01 -6.271241e-01 2.655269e+00 -1.099529e+00 2.577952e+00 2.356470e-04 3.868221e-02 -2.077271e-01 2.585228e-01 6.067060e-01 4.392262e-01 7.092233e-01 4.399697e-01 1.060674e+00 -6.306840e-01 -6.610190e-01 -2.976212e-01 -5.088607e-01
<VARIANCE> 39
 2.434858e+01 1.766104e+01 1.095340e+02 3.017238e+01 9.083846e+01 4.074710e+01 4.725548e+01 5.477198e+01 3.474387e+01 3.860243e+01 5.312307e+01 2.868481e+01 2.614295e+01 1.737167e+00 3.348898e+00 3.536798e+00 5.019579e+00 5.177963e+00 4.332255e+00 7.156032e+00 5.280709e+00 6.114827e+00 5.364150e+00 4.546671e+00 5.492027e+00 1.829460e+00 3.041627e-01 4.566270e-01 9.530874e-01 3.861300e-01 1.060867e+00 6.042668e-01 9.638439e-01 7.041668e-01 6.638992e-01 8.141091e-01 9.066134e-01 6.294735e-01 3.024374e-01
<GCONST> 1.322274e+02
<MIXTURE> 2 4.615237e-01
<MEAN> 39
 -1.122040e+01 -3.467266e+00 -1.635059e+00 -1.548135e+00 -1.761737e+00 -3.809587e+00 -5.477345e+00 -2.449353e+00 -5.025972e+00 2.356129e+00 -3.050553e+00 -2.385924e-01 6.431160e+01 9.607261e-01 -8.417356e-01 -2.322634e-01 -2.026120e+00 -2.230752e+00 -1.811580e+00 -1.305778e+00 -7.166610e-01 -9.153907e-01 1.358660e+00 3.506668e-01 2.982261e-01 2.905771e+00 9.933246e-01 9.643760e-01 6.094669e-01 -1.399288e-01 -7.769088e-01 -5.025523e-01 -6.310467e-02 -1.225259e-01 -8.756606e-02 -4.202536e-01 1.475327e-01 -3.627984e-01 -1.913940e-01
<VARIANCE> 39
 4.257314e+01 5.002828e+01 9.335495e+01 4.551292e+01 9.006068e+01 6.953702e+01 4.805639e+01 6.164843e+01 3.486653e+01 3.450099e+01 3.025707e+01 2.355109e+01 2.481928e+01 4.210022e+00 5.262086e+00 5.335223e+00 4.143084e+00 6.104736e+00 5.503359e+00 4.503807e+00 4.812981e+00 3.510004e+00 3.950725e+00 3.665148e+00 2.703402e+00 2.733757e+00 6.020287e-01 1.059259e+00 1.088629e+00 1.006218e+00 1.357449e+00 1.324875e+00 1.076209e+00 1.177516e+00 8.861151e-01 8.479594e-01 8.637670e-01 6.563352e-01 3.590862e-01
<GCONST> 1.386051e+02
<MIXTURE> 3 3.519588e-01
<MEAN> 39
 -7.621174e+00 -2.868433e-01 -1.242544e+00 -1.032297e+00 -2.866086e+00 -5.068737e+00 -6.993649e+00 -3.332884e+00 -6.795296e+00 1.430336e+00 -6.279941e-01 -6.073022e-01 6.368989e+01 8.087620e-01 -8.095015e-01 -3.602415e-01 -1.216369e+00 -1.783906e+00 -1.229831e+00 -1.253886e+00 -1.284143e-02 -1.551664e-01 6.238590e-01 1.302187e+00 3.042076e-01 2.383474e+00 4.479510e-01 3.725241e-01 4.341457e-01 3.774310e-02 -4.528573e-01 -4.919374e-02 8.235030e-02 1.764121e-01 2.984979e-01 -4.749879e-01 1.231979e-01 -3.029558e-01 -6.069030e-02
<VARIANCE> 39
 4.040835e+01 4.550464e+01 1.026615e+02 5.239017e+01 1.085481e+02 7.306626e+01 4.854266e+01 5.988778e+01 3.648269e+01 4.288035e+01 3.890844e+01 2.857183e+01 3.205893e+01 5.705660e+00 4.720626e+00 4.939306e+00 4.875830e+00 7.813417e+00 5.380313e+00 6.593624e+00 5.518485e+00 4.656328e+00 4.227880e+00 4.292166e+00 3.422786e+00 3.601231e+00 6.134219e-01 9.667646e-01 1.152841e+00 8.160914e-01 1.560256e+00 1.186785e+00 1.079434e+00 1.034557e+00 8.015669e-01 1.008403e+00 8.345329e-01 7.868767e-01 4.655462e-01
<GCONST> 1.420754e+02
<TRANSP> 5
 0.000000e+00 1.000000e+00 0.000000e+00 0.000000e+00 0.000000e+00
 0.000000e+00 5.537559e-01 4.462440e-01 0.000000e+00 0.000000e+00
 0.000000e+00 0.000000e+00 5.554320e-01 4.445680e-01 0.000000e+00
 0.000000e+00 0.000000e+00 0.000000e+00 6.146446e-01 3.853554e-01
 0.000000e+00 0.000000e+00 0.000000e+00 0.000000e+00 0.000000e+00
<ENDHMM>
~h "k"
<BEGINHMM>
<NUMSTATES> 5
<STATE> 2
<NUMMIXES> 3
<MIXTURE> 1 2.027479e-01
<MEAN> 39
 -3.886187e+00 1.669837e+00 6.705815e+00 -5.522265e-01 -1.297100e+01 -9.843681e+00 -1.389164e+00 -9.651113e-01 -1.129193e+01 2.077447e+00 -1.428961e+00 -4.278205e+00 6.409044e+01 -1.167989e+00 2.878608e+00 1.543996e-02 2.282499e+00 2.740243e+00 1.166354e+00 8.961747e-01 -3.035136e-01 1.408158e+00 1.650192e-01 6.576511e-02 6.413159e-01 -4.607145e+00 -5.245652e-01 -6.601267e-01 -9.391772e-01 -3.142944e-01 8.675518e-01 6.317073e-01 -1.523536e-01 3.818846e-01 1.212612e+00 -6.200711e-01 -8.816637e-03 3.395343e-01 -9.012687e-02
<VARIANCE> 39
 1.604714e+01 2.822105e+01 5.361929e+01 4.410131e+01 5.540822e+01 6.285346e+01 6.828427e+01 1.047667e+02 4.368958e+01 4.406337e+01 6.317910e+01 2.934255e+01 2.141266e+01 1.407148e+00 2.241863e+00 3.564442e+00 2.826827e+00 3.428155e+00 5.118037e+00 5.823047e+00 5.443052e+00 4.588973e+00 3.509821e+00 4.529858e+00 2.769489e+00 1.952930e+00 1.905032e-01 4.377066e-01 4.916270e-01 5.171819e-01 8.345317e-01 6.987421e-01 8.029692e-01 1.254895e+00 7.835044e-01 7.945910e-01 8.701383e-01 5.074717e-01 3.825597e-01
<GCONST> 1.298642e+02
<MIXTURE> 2 4.695231e-01
<MEAN> 39
 -8.350143e+00 5.368016e+00 2.458822e+00 3.578814e+00 -1.203676e+00 -4.180862e+00 -2.200809e+00 2.797650e-01 -2.523215e+00 -1.115798e+00 -8.543330e-01 -1.420909e+00 5.404691e+01 -1.617431e+00 9.814143e-03 -7.067767e-01 3.645312e-01 1.489824e+00 1.595719e+00 1.205672e+00 8.996498e-02 1.282642e+00 7.498226e-02 1.797942e-01 3.791220e-01 -2.577254e+00 -1.507400e-01 -1.245982e+00 -5.768770e-01 -7.215534e-01 -4.951035e-01 -6.734014e-02 -4.116749e-01 1.332151e-01 -1.075108e-01 1.878725e-01 6.730052e-02 2.161906e-02 1.450939e+00
<VARIANCE> 39
 2.350591e+01 2.197832e+01 2.973737e+01 2.863708e+01 4.255579e+01 4.041490e+01 4.425539e+01 4.679975e+01 3.873340e+01 2.778242e+01 2.803541e+01 2.239713e+01 1.748088e+01 3.934186e+00 3.777847e+00 4.662620e+00 3.518517e+00 6.151697e+00 5.087616e+00 5.442048e+00 6.038237e+00 4.972333e+00 3.897187e+00 3.798080e+00 2.719283e+00 2.813141e+00 4.087782e-01 6.911528e-01 6.414192e-01 5.538086e-01 7.879214e-01 8.158144e-01 8.309038e-01 7.902781e-01 7.582901e-01 6.883345e-01 5.894990e-01 4.898948e-01 5.744755e-01
<GCONST> 1.291997e+02
<MIXTURE> 3 3.277295e-01
<MEAN> 39
 -5.550797e+00 5.562762e+00 3.964265e+00 2.432677e+00 -5.061730e+00 -6.360620e+00 -2.842165e+00 -1.100642e+00 -5.616438e+00 -7.241505e-01 -1.637455e+00 -2.384615e+00 5.751711e+01 -1.916609e+00 1.123024e+00 -6.034795e-01 1.320681e+00 2.551948e+00 1.465170e+00 1.083621e+00 4.217309e-01 1.779313e+00 -5.394824e-02 3.371189e-01 5.700601e-01 -3.564121e+00 -3.570234e-01 -1.152134e+00 -6.332977e-01 -6.535940e-01 -1.038569e-01 2.551294e-01 -1.636529e-01 2.108686e-01 3.533053e-01 -1.260534e-02 9.639868e-02 8.417165e-02 8.609095e-01
<VARIANCE> 39
 2.104693e+01 2.433143e+01 4.236278e+01 3.270145e+01 5.015797e+01 5.282281e+01 5.262227e+01 6.600214e+01 4.142841e+01 3.487768e+01 3.894830e+01 2.619313e+01 2.136230e+01 1.960239e+00 3.732220e+00 4.722975e+00 3.930411e+00 4.778934e+00 5.964905e+00 5.891932e+00 6.289672e+00 5.003729e+00 4.022555e+00 4.840839e+00 2.988951e+00 2.759104e+00 2.928708e-01 5.282333e-01 4.785312e-01 4.575008e-01 7.521414e-01 7.158390e-01 8.116657e-01 8.515610e-01 7.767137e-01 7.167944e-01 6.061025e-01 5.061567e-01 5.071557e-01
<GCONST> 1.301925e+02
<STATE> 3
<NUMMIXES> 3
<MIXTURE> 1 1.399598e-01
<MEAN> 39
 -1.179582e+01 -2.988216e-01 -1.273060e-01 1.726485e+00 -8.155468e-01 -9.559104e-01 -5.331541e-01 2.353531e+00 -9.041901e-01 -8.041396e-01 2.751481e-01 -5.876272e-01 5.546676e+01 -8.550348e-01 -3.220742e-01 -5.141495e-01 2.706210e-02 5.321462e-01 4.586062e-01 1.764513e-01 1.120923e-01 6.230989e-01 3.744778e-01 3.434246e-01 3.590593e-01 -3.909003e-01 1.473542e-01 -2.911334e-02 1.440048e-03 -1.790919e-01 -2.167369e-01 -1.284622e-01 -1.144718e-01 -2.700149e-02 -1.555401e-01 -2.033031e-02 -3.580886e-02 -5.272297e-02 3.634193e-01
<VARIANCE> 39
 2.865288e+01 4.223401e+01 2.728791e+01 2.110577e+01 2.886989e+01 2.963063e+01 3.543568e+01 3.310860e+01 2.853611e+01 2.267604e+01 2.172434e+01 1.839258e+01 3.986267e+01 2.491171e+00 2.612531e+00 2.355303e+00 1.829702e+00 2.581518e+00 2.753171e+00 2.976952e+00 2.953161e+00 3.143384e+00 2.315946e+00 2.224216e+00 1.907688e+00 2.498415e+00 2.551573e-01 4.356723e-01 3.136212e-01 3.976574e-01 4.812861e-01 5.012962e-01 5.917069e-01 4.940422e-01 4.989982e-01 4.235326e-01 4.044488e-01 3.456740e-01 4.192193e-01
<GCONST> 1.155927e+02
<MIXTURE> 2 4.536721e-01
<MEAN> 39
 -1.144062e+01 3.325862e+00 3.298615e-01 2.567394e+00 1.928721e-02 -1.344420e+00 -8.239120e-01 5.001753e-01 -5.080658e-01 9.161156e-02 1.157506e-02 -6.934904e-01 5.109822e+01 -1.135437e+00 -2.798973e+00 -2.034237e+00 -9.713198e-01 3.380840e-01 3.806697e-01 -3.725998e-01 5.539303e-01 3.483917e-02 6.556295e-01 7.341926e-02 4.730890e-01 1.722299e+00 1.411911e-01 -5.047477e-01 -1.956398e-01 -5.450771e-01 -5.436843e-01 -5.604546e-01 -5.171026e-01 1.165023e-02 -4.713628e-01 2.114640e-01 -2.026578e-02 2.134056e-02 1.589494e+00
<VARIANCE> 39
 9.955278e+00 1.653174e+01 2.007940e+01 2.163244e+01 2.713057e+01 2.598365e+01 2.675677e+01 2.376477e+01 2.335006e+01 1.929083e+01 1.960958e+01 1.519389e+01 1.309164e+01 3.018250e+00 3.868506e+00 5.905432e+00 4.329967e+00 6.440995e+00 5.283948e+00 5.196615e+00 4.999115e+00 4.811478e+00 3.722513e+00 3.210578e+00 2.681488e+00 4.621402e+00 5.250539e-01 6.959792e-01 8.848333e-01 6.488681e-01 8.453264e-01 8.517824e-01 8.294982e-01 7.909811e-01 6.812205e-01 6.065187e-01 6.246811e-01 4.446046e-01 4.708305e-01
<GCONST> 1.240696e+02
<MIXTURE> 3 4.063678e-01
<MEAN> 39
 -1.160569e+01 3.188465e+00 5.208431e-01 2.597899e+00 8.192240e-02 -5.000962e-01 -1.262040e-01 8.060770e-01 -3.807040e-01 -7.936426e-02 7.172933e-02 -6.362494e-01 5.087653e+01 -1.103412e+00 -1.898885e+00 -1.332392e+00 -5.161614e-01 3.865108e-01 4.238341e-01 -2.053750e-02 4.200320e-01 3.222719e-01 5.468632e-01 1.572036e-01 4.378378e-01 8.254481e-01 1.645369e-01 -4.880453e-01 -1.773202e-01 -4.115188e-01 -4.555086e-01 -5.330722e-01 -4.558633e-01 4.351275e-02 -3.582291e-01 1.676572e-01 -2.669608e-02 2.381988e-02 1.321967e+00
<VARIANCE> 39
 9.301867e+00 1.621206e+01 1.707550e+01 1.633452e+01 2.007734e+01 1.951538e+01 2.178925e+01 2.082240e+01 2.038064e+01 1.733078e+01 1.728112e+01 1.357264e+01 1.321142e+01 1.993739e+00 4.157065e+00 4.184004e+00 2.807099e+00 4.267525e+00 4.249072e+00 4.246557e+00 3.837807e+00 3.736741e+00 3.010838e+00 2.557322e+00 2.261870e+00 5.070228e+00 3.581243e-01 6.299549e-01 6.655291e-01 4.862035e-01 6.626654e-01 6.501257e-01 6.918001e-01 6.258851e-01 5.818380e-01 5.174054e-01 4.885460e-01 3.794319e-01 4.832979e-01
<GCONST> 1.164747e+02
<STATE> 4
<NUMMIXES> 3
<MIXTURE> 1 1.461592e-01
<MEAN> 39
 -1.393734e+01 -5.901387e+00 -7.449089e+00 -1.545925e+00 -1.343010e+00 -7.661696e+00 -5.864336e+00 3.228413e+00 -1.553217e-01 4.131463e+00 5.806411e-01 2.039803e+00 6.553435e+01 -1.225629e+00 5.483750e-01 2.311192e-01 -1.856258e-01 -2.339539e-01 -2.562609e-01 5.308428e-01 7.138013e-01 8.348352e-01 3.187253e-01 4.997792e-01 2.351183e-01 1.095559e+00 2.494417e-01 1.001059e+00 8.228142e-01 3.219900e-01 1.106731e-01 8.243357e-01 6.434425e-01 -3.533980e-01 -1.900181e-01 -6.609806e-01 -2.193977e-01 -4.640764e-01 -9.859595e-01
<VARIANCE> 39
 4.501437e+01 3.060312e+01 6.240863e+01 4.143985e+01 5.909118e+01 6.194864e+01 5.150034e+01 5.478470e+01 4.318309e+01 3.677912e+01 3.182647e+01 2.974889e+01 1.946852e+01 4.428372e+00 3.977167e+00 3.398993e+00 3.233190e+00 3.734715e+00 4.648479e+00 4.008836e+00 3.590790e+00 2.969813e+00 3.108652e+00 3.040498e+00 2.690502e+00 3.950746e+00 6.332853e-01 6.296240e-01 8.057229e-01 7.453732e-01 1.053872e+00 1.095718e+00 8.881987e-01 1.071351e+00 8.851993e-01 7.426191e-01 7.798571e-01 7.164540e-01 4.109233e-01
<GCONST> 1.333648e+02
<MIXTURE> 2 4.217649e-01
<MEAN> 39
 -1.378566e+01 -3.172276e+00 -2.907729e+00 -2.457838e+00 -1.318888e+00 -6.398330e-01 -8.669713e-01 8.090148e-01 -2.287792e+00 1.375637e+00 -7.402436e-01 -3.878436e-01 6.203745e+01 1.899847e+00 6.781636e-01 5.034844e-01 -7.292955e-01 -1.256612e+00 -3.225729e-01 -5.818102e-01 -1.156551e+00 -1.061568e+00 -1.170815e+00 -7.897218e-01 -8.023881e-01 1.143455e+00 7.951810e-01 1.655523e-01 3.447111e-02 -1.972814e-01 -4.188554e-01 -3.030002e-01 -4.637772e-01 -1.896144e-01 -1.036863e-01 -2.368155e-01 -2.159410e-02 -1.834312e-01 2.819780e-01
<VARIANCE> 39
 3.437366e+01 4.524591e+01 7.313850e+01 4.073212e+01 6.023680e+01 5.794822e+01 4.842385e+01 4.789131e+01 3.587473e+01 3.461769e+01 3.597636e+01 2.277027e+01 2.711548e+01 4.488701e+00 3.809346e+00 3.941045e+00 4.395429e+00 5.568746e+00 6.238486e+00 5.242088e+00 5.443128e+00 4.119315e+00 4.012434e+00 4.274835e+00 2.901827e+00 2.802224e+00 5.417022e-01 7.584205e-01 7.849175e-01 7.122183e-01 8.305658e-01 8.317521e-01 7.980177e-01 9.145525e-01 8.095878e-01 7.613105e-01 7.621934e-01 5.201647e-01 4.451497e-01
<GCONST> 1.346348e+02
<MIXTURE> 3 4.320760e-01
<MEAN> 39
 -1.389634e+01 -5.708424e+00 -5.991518e+00 -2.487539e+00 -5.620803e-01 -1.847192e+00 -3.635513e+00 2.074161e+00 -1.809496e+00 2.610637e+00 6.564329e-01 4.753674e-01 6.268020e+01 -5.660541e-01 -6.722424e-01 -6.114778e-01 -7.117163e-01 -3.030078e-01 -1.448097e-01 -1.491337e-01 2.875523e-01 1.365732e-01 3.800767e-01 1.967424e-01 1.879669e-01 1.627738e+00 4.005557e-01 7.918975e-01 6.500092e-01 2.232423e-01 -2.652094e-01 -1.092368e-01 1.539123e-01 -2.140880e-01 -6.887910e-02 -3.806764e-01 -1.349296e-01 -2.055361e-01 -3.158110e-01
<VARIANCE> 39
 4.371744e+01 4.597680e+01 7.321234e+01 5.029601e+01 5.883110e+01 5.730676e+01 4.702187e+01 4.358709e+01 3.885455e+01 3.474322e+01 2.856154e+01 2.237204e+01 2.699590e+01 3.757723e+00 4.107713e+00 5.032645e+00 4.082833e+00 4.401997e+00 4.570385e+00 4.183289e+00 3.692874e+00 3.301472e+00 3.407514e+00 2.656986e+00 2.377080e+00 4.459083e+00 6.342042e-01 8.147768e-01 7.957237e-01 8.176904e-01 9.326931e-01 8.321862e-01 7.899867e-01 8.438337e-01 7.909228e-01 6.931028e-01 6.526073e-01 5.097314e-01 4.992951e-01
<GCONST> 1.333179e+02
<TRANSP> 5
 0.000000e+00 1.000000e+00 0.000000e+00 0.000000e+00 0.000000e+00
 0.000000e+00 5.162162e-01 4.837838e-01 0.000000e+00 0.000000e+00
 0.000000e+00 0.000000e+00 6.038769e-01 3.961231e-01 0.000000e+00
 0.000000e+00 0.000000e+00 0.000000e+00 7.834916e-01 2.165085e-01
 0.000000e+00 0.000000e+00 0.000000e+00 0.000000e+00 0.000000e+00
<ENDHMM>
~h "l"
<BEGINHMM>
<NUMSTATES> 5
<STATE> 2
<NUMMIXES> 3
<MIXTURE> 1 1.618838e-01
<MEAN> 39
 -5.538843e-01 -4.769040e+00 -5.747377e+00 -1.202650e+01 -4.830666e+00 6.191609e+00 -1.456493e+01 -7.618594e-01 3.225261e+00 3.243418e+00 1.018349e+00 -1.001400e+01 7.397702e+01 6.485994e-01 8.219759e-01 -7.834002e-01 -1.853875e+00 4.209383e-01 2.262883e+00 7.116749e-01 -1.773745e+00 -1.669785e+00 -3.152955e-02 2.687305e+00 7.050195e-01 -6.167077e-01 -1.093519e-02 3.756251e-01 3.027431e-01 1.389331e-01 -4.507204e-01 -3.288906e-01 5.272765e-01 4.240352e-01 -6.317888e-01 -9.987751e-01 1.479603e-01 1.024572e+00 -2.847350e-01
<VARIANCE> 39
 9.866124e+00 2.391351e+01 2.479332e+01 3.295893e+01 2.358706e+01 6.067583e+01 8.486332e+01 5.183642e+01 3.163385e+01 3.031694e+01 6.359948e+01 3.111651e+01 1.332584e+01 3.682167e-01 1.306843e+00 1.048600e+00 1.845573e+00 2.125774e+00 2.690648e+00 2.584628e+00 3.210042e+00 2.957447e+00 4.060338e+00 3.365911e+00 4.329800e+00 4.867166e-01 8.598099e-02 1.476350e-01 1.768610e-01 2.509165e-01 3.110690e-01 3.931347e-01 5.223773e-01 5.575968e-01 6.321305e-01 5.430250e-01 1.001813e+00 4.334959e-01 7.223741e-02
<GCONST> 1.094336e+02
<MIXTURE> 2 3.796674e-01
<MEAN> 39
 -1.387184e+00 4.502069e+00 -6.463627e+00 -1.240226e+01 -4.668651e+00 -1.207129e+00 -7.733008e+00 -8.768210e+00 -5.497757e+00 -3.627512e+00 -1.035598e+00 -1.062749e+00 6.555652e+01 1.378522e+00 8.479918e-01 -4.889601e-01 -1.753088e+00 -6.334852e-02 6.953096e-01 -6.768538e-01 -8.284668e-01 -6.686397e-01 -3.976253e-01 4.397303e-01 8.808953e-02 2.300150e-01 -3.536685e-01 -3.365435e-01 1.661433e-01 4.364891e-01 -1.659098e-02 -1.539809e-01 1.018433e-01 5.242399e-01 2.823761e-01 1.182839e-01 -2.710221e-02 -1.379353e-01 2.212480e-02
<VARIANCE> 39
 2.660456e+01 4.361779e+01 4.280458e+01 8.573445e+01 5.291481e+01 7.223667e+01 6.592403e+01 5.932182e+01 5.488935e+01 4.261023e+01 5.108326e+01 3.209055e+01 2.650593e+01 4.193657e+00 3.484944e+00 3.054970e+00 5.921412e+00 5.369223e+00 4.917249e+00 6.139030e+00 5.368270e+00 4.755458e+00 4.551194e+00 4.121558e+00 3.416605e+00 3.301570e+00 4.800043e-01 6.144807e-01 4.482874e-01 9.008100e-01 8.337249e-01 6.912780e-01 8.873099e-01 9.644431e-01 1.055193e+00 7.161282e-01 7.789308e-01 5.875100e-01 3.200984e-01
<GCONST> 1.361229e+02
<MIXTURE> 3 4.584488e-01
<MEAN> 39
 1.321588e+00 -1.506611e+00 -8.284514e+00 -1.592842e+01 -5.780050e+00 5.701791e+00 -8.326471e+00 -5.399804e+00 -2.870408e+00 -2.100616e+00 2.864294e+00 -2.937260e+00 7.041975e+01 3.640254e-01 1.469418e+00 -1.139336e-01 -1.119519e+00 -3.451032e-01 7.536560e-01 7.681416e-01 6.567678e-02 -1.080145e+00 -1.478186e+00 7.566658e-01 1.229523e+00 -8.754808e-01 -1.387318e-01 2.246269e-01 2.636322e-01 4.611246e-01 -1.006026e-01 -5.048063e-01 9.336710e-03 2.847265e-01 1.195043e-01 -1.743333e-01 -4.976719e-01 4.476607e-03 -2.064680e-01
<VARIANCE> 39
 1.352984e+01 3.411217e+01 3.315569e+01 5.247009e+01 4.726796e+01 8.184216e+01 8.296311e+01 6.372838e+01 4.271969e+01 4.273775e+01 6.494449e+01 4.770069e+01 1.822018e+01 3.877439e-01 1.462847e+00 1.046028e+00 2.074997e+00 2.183856e+00 2.969188e+00 2.702882e+00 3.218611e+00 3.259470e+00 3.863364e+00 3.888976e+00 3.482230e+00 5.565923e-01 1.028597e-01 2.066662e-01 2.038845e-01 3.907083e-01 4.362217e-01 4.467030e-01 5.022987e-01 5.866240e-01 6.026558e-01 5.594793e-01 6.849977e-01 6.136916e-01 1.061069e-01
<GCONST> 1.159157e+02
<STATE> 3
<NUMMIXES> 3
<MIXTURE> 1 1.709516e-01
<MEAN> 39
 1.502804e+00 4.839558e+00 -5.461636e+00 -1.605446e+01 -7.575720e+00 7.162743e+00 -9.550853e+00 -5.170406e+00 -4.428139e+00 -7.132068e+00 4.575867e+00 2.622133e-01 6.718304e+01 -2.595649e-01 -6.591967e-02 2.784214e-01 9.617718e-01 1.066308e+00 -3.960333e-01 -5.519054e-01 -2.312289e-01 1.771391e-01 9.177214e-01 5.642220e-02 -6.617563e-01 1.213630e-01 -8.526924e-01 -3.230992e-01 2.687015e-01 1.189180e+00 3.743402e-01 -6.103572e-01 3.530282e-01 5.150949e-01 4.480590e-01 5.662372e-01 -4.732391e-01 -3.850751e-01 -2.020767e-01
<VARIANCE> 39
 1.217012e+01 3.146213e+01 2.716792e+01 4.239299e+01 4.485537e+01 5.453120e+01 7.115385e+01 6.932538e+01 4.032976e+01 4.426369e+01 4.681621e+01 3.534477e+01 1.807802e+01 3.364524e+00 8.242056e+00 2.692563e+00 8.270622e+00 5.279645e+00 4.600404e+00 9.006742e+00 4.812104e+00 5.613401e+00 5.081134e+00 4.462487e+00 3.630381e+00 6.361896e+00 4.281692e-01 5.735052e-01 3.431195e-01 6.307253e-01 8.301836e-01 6.482785e-01 1.033227e+00 9.856365e-01 9.599401e-01 8.020381e-01 7.935765e-01 6.745796e-01 3.262960e-01
<GCONST> 1.346017e+02
<MIXTURE> 2 4.153475e-01
<MEAN> 39
 9.446766e-01 7.307823e+00 -7.002275e+00 -1.697105e+01 -5.781395e+00 2.594495e-02 -5.987723e+00 -6.917135e+00 -7.791560e+00 -5.611978e+00 -2.911395e-01 4.097239e-01 6.413971e+01 -1.077256e-01 7.608101e-03 5.449888e-02 2.841251e-01 1.541972e-01 -2.518879e-01 -2.673631e-01 7.001258e-02 1.792636e-01 1.607591e-01 9.416200e-03 -1.989202e-01 -3.374602e-02 -1.683490e-01 -4.541621e-01 2.808833e-02 3.420252e-01 6.151533e-02 -4.988167e-02 -2.426795e-01 9.758982e-02 4.397204e-01 2.654762e-01 -8.383766e-02 -2.456012e-01 2.280809e-01
<VARIANCE> 39
 1.801353e+01 3.195656e+01 3.627906e+01 7.940115e+01 4.757573e+01 5.732956e+01 5.755510e+01 5.805598e+01 4.606302e+01 3.862724e+01 3.379667e+01 3.176993e+01 2.103804e+01 5.435138e-01 2.220878e+00 1.513189e+00 2.857385e+00 2.006630e+00 2.049321e+00 2.540204e+00 2.557252e+00 2.865399e+00 2.803763e+00 1.926026e+00 1.987042e+00 1.313076e+00 1.477538e-01 3.424138e-01 2.638268e-01 6.571624e-01 4.281383e-01 5.004290e-01 4.895850e-01 6.401502e-01 6.454628e-01 4.837474e-01 5.223194e-01 4.225298e-01 1.919310e-01
<GCONST> 1.164059e+02
<MIXTURE> 3 4.136998e-01
<MEAN> 39
 2.306016e+00 7.022632e+00 -5.238913e+00 -1.655894e+01 -9.639827e+00 6.703485e+00 -6.839178e+00 -3.175202e+00 -4.296388e+00 -8.572384e+00 2.779184e+00 6.683281e-01 6.515024e+01 -1.603867e-01 3.285584e-01 1.339181e-01 2.782344e-01 2.724268e-01 -3.370562e-01 1.643758e-02 -1.853075e-02 -7.048529e-02 5.987917e-02 -3.955550e-02 -1.409346e-01 -2.986752e-01 -2.093685e-01 -4.490963e-01 8.484554e-03 3.817223e-01 3.632434e-01 -1.438683e-01 -2.073938e-01 -1.205809e-01 1.530019e-01 5.833875e-01 3.242778e-02 -2.672147e-01 1.989135e-01
<VARIANCE> 39
 1.114426e+01 3.049218e+01 2.704375e+01 4.525788e+01 4.205647e+01 4.823753e+01 6.168839e+01 6.586538e+01 4.285600e+01 3.481129e+01 3.601374e+01 3.246048e+01 2.047700e+01 4.446992e-01 2.720976e+00 1.153713e+00 2.567642e+00 2.106299e+00 2.261397e+00 2.737153e+00 2.549196e+00 2.418632e+00 3.026280e+00 2.409709e+00 2.063688e+00 1.411370e+00 1.122838e-01 3.515940e-01 2.042211e-01 4.800331e-01 3.885601e-01 4.796167e-01 5.513687e-01 5.181978e-01 6.084440e-01 5.049653e-01 4.980123e-01 4.838923e-01 1.958558e-01
<GCONST> 1.139298e+02
<STATE> 4
<NUMMIXES> 3
<MIXTURE> 1 2.032147e-01
<MEAN> 39
 -1.153439e+00 4.812380e+00 -2.458366e+00 -9.547125e+00 -6.750805e+00 2.559233e-01 -8.760165e+00 -3.007895e-01 -2.382509e+00 -6.003956e+00 -5.455825e-01 -3.169935e-01 6.499821e+01 -1.983197e+00 9.805286e-01 1.994991e+00 3.515394e+00 5.567036e-01 -1.381640e+00 1.964842e+00 2.278596e-01 -1.223530e+00 1.438305e-01 -2.035164e-01 2.722728e-01 -1.535555e+00 -4.689484e-01 -2.421703e-01 7.289793e-02 1.168555e-01 7.049157e-02 2.451811e-01 3.469706e-01 -2.552826e-01 -2.174104e-01 4.034439e-01 2.845243e-01 -1.728352e-01 -7.222559e-02
<VARIANCE> 39
 2.085441e+01 5.002728e+01 3.477653e+01 6.261016e+01 3.663192e+01 7.874283e+01 9.424530e+01 7.977216e+01 5.725218e+01 3.344088e+01 3.995923e+01 3.335987e+01 4.442122e+01 3.159658e+00 3.938977e+00 3.142045e+00 6.616463e+00 1.228607e+01 4.050659e+00 5.085310e+00 6.061944e+00 4.522649e+00 4.228544e+00 3.248370e+00 3.824476e+00 3.498788e+00 4.161136e-01 7.276879e-01 3.855154e-01 8.534095e-01 5.806149e-01 7.332346e-01 1.086470e+00 1.285508e+00 1.524164e+00 6.206188e-01 7.320752e-01 5.053343e-01 3.880544e-01
<GCONST> 1.365432e+02
<MIXTURE> 2 5.289542e-01
<MEAN> 39
 -6.094993e-01 -9.085765e-01 -8.236508e+00 -1.258345e+01 -2.838539e+00 -1.350856e-01 -1.306433e+01 -5.964680e+00 -7.649285e-02 1.078130e+00 2.590348e-01 -6.501012e+00 7.015528e+01 -5.586198e-01 -2.123615e+00 5.284770e-01 1.239600e+00 -4.654298e-01 -1.631935e+00 -1.190435e+00 2.362545e+00 2.722069e+00 3.469644e-01 -2.138734e+00 -9.113067e-01 1.330599e+00 -1.281473e-01 2.912458e-01 5.936395e-01 3.325919e-01 -6.444618e-01 -2.967659e-01 6.834091e-01 4.719180e-01 -5.066457e-01 -8.557721e-01 -1.812045e-01 6.622964e-01 -3.173397e-01
<VARIANCE> 39
 1.697923e+01 3.314132e+01 3.264549e+01 5.306844e+01 3.343119e+01 8.101586e+01 6.814548e+01 7.460854e+01 6.270315e+01 4.128728e+01 7.370615e+01 4.211221e+01 2.330335e+01 6.346667e-01 2.250799e+00 2.232586e+00 3.106044e+00 3.520310e+00 3.966313e+00 5.616437e+00 4.707671e+00 4.627160e+00 6.472043e+00 4.344248e+00 4.630971e+00 1.217040e+00 1.932599e-01 3.506630e-01 3.333758e-01 4.969599e-01 5.812950e-01 6.332104e-01 8.007626e-01 9.075863e-01 1.207507e+00 6.806864e-01 1.150412e+00 6.915573e-01 2.091426e-01
<GCONST> 1.279577e+02
<MIXTURE> 3 2.678321e-01
<MEAN> 39
 -1.374503e+00 1.135866e+00 -4.282404e+00 -9.204071e+00 -4.685785e+00 -8.316493e-01 -1.183064e+01 -4.053840e+00 -1.000405e+00 -1.876641e+00 -6.083370e-01 -3.631289e+00 6.738773e+01 -8.674619e-01 -8.084120e-01 1.303370e+00 2.080071e+00 -7.644602e-01 -1.454854e+00 -1.510713e-02 1.580732e+00 6.412624e-01 -1.059591e-01 -6.630017e-01 1.280308e-04 1.829267e-01 -1.928340e-01 1.615026e-01 3.371306e-01 7.383119e-02 -4.035748e-01 6.123165e-02 6.535729e-01 9.081738e-02 -5.133142e-01 -2.919879e-01 2.094512e-01 2.426278e-01 -1.806679e-01
<VARIANCE> 39
 2.043279e+01 4.597383e+01 4.108793e+01 6.801292e+01 4.462670e+01 8.655345e+01 9.477694e+01 9.593212e+01 7.901720e+01 4.631399e+01 6.299250e+01 4.251854e+01 4.361176e+01 1.729990e+00 3.952048e+00 3.431313e+00 6.299981e+00 6.702873e+00 4.612857e+00 6.383283e+00 6.242962e+00 5.343568e+00 5.917236e+00 3.977980e+00 4.649686e+00 3.710976e+00 3.197299e-01 5.291165e-01 4.913289e-01 7.743931e-01 7.823139e-01 7.836201e-01 1.184628e+00 1.241861e+00 1.748552e+00 7.804630e-01 1.120883e+00 6.778907e-01 4.210330e-01
<GCONST> 1.398253e+02
<TRANSP> 5
 0.000000e+00 1.000000e+00 0.000000e+00 0.000000e+00 0.000000e+00
 0.000000e+00 5.584839e-01 4.415161e-01 0.000000e+00 0.000000e+00
 0.000000e+00 0.000000e+00 7.370301e-01 2.629699e-01 0.000000e+00
 0.000000e+00 0.000000e+00 0.000000e+00 5.444371e-01 4.555629e-01
 0.000000e+00 0.000000e+00 0.000000e+00 0.000000e+00 0.000000e+00
<ENDHMM>
~h "m"
<BEGINHMM>
<NUMSTATES> 5
<STATE> 2
<NUMMIXES> 3
<MIXTURE> 1 1.489377e-01
<MEAN> 39
 2.782373e+00 -6.284051e+00 -3.063017e+00 -3.420064e+00 -4.589391e+00 1.889869e+00 -9.158709e+00 -1.742763e+00 -3.632498e-02 -4.053397e-01 1.268271e+00 -8.547838e+00 6.922943e+01 3.900205e-01 1.900530e+00 1.623461e+00 1.728249e+00 1.252212e+00 7.263044e-02 1.398792e-01 -3.019337e+00 -3.505008e+00 -2.489842e-01 2.160516e+00 9.839789e-01 -1.996281e+00 -3.923652e-01 4.119879e-01 5.123695e-01 3.356217e-01 6.502941e-02 -2.774321e-01 2.142542e-01 -9.745152e-02 -6.130176e-01 -5.441312e-01 -1.630308e-01 4.729270e-01 -1.486538e-01
<VARIANCE> 39
 1.216924e+01 2.268274e+01 3.891859e+01 3.434942e+01 2.040947e+01 5.944273e+01 3.970938e+01 4.765679e+01 4.370667e+01 2.833825e+01 3.992354e+01 2.934579e+01 2.358299e+01 9.257374e-01 2.106868e+00 3.245810e+00 2.966821e+00 3.206124e+00 3.974401e+00 4.319592e+00 5.027912e+00 5.399313e+00 4.743338e+00 4.399326e+00 3.381818e+00 1.279800e+00 1.141348e-01 1.885060e-01 3.117950e-01 3.441501e-01 3.779336e-01 4.144265e-01 5.242719e-01 5.467651e-01 6.389531e-01 5.100790e-01 5.887726e-01 4.530035e-01 1.652251e-01
<GCONST> 1.178187e+02
<MIXTURE> 2 4.400401e-01
<MEAN> 39
 -3.193794e-01 3.488328e+00 1.091430e+00 -7.007197e-01 -5.379374e+00 -5.530798e+00 -6.666736e+00 -9.549243e+00 -9.910714e+00 -3.911355e+00 -2.979043e+00 -3.693728e+00 6.206522e+01 5.597075e-01 8.267576e-01 8.519510e-01 1.070530e+00 8.190565e-02 -3.835348e-01 -3.549320e-01 -1.538078e+00 -1.342669e+00 8.603558e-02 3.028165e-01 -3.088057e-01 -3.311339e-01 -3.044774e-01 -4.337451e-01 -1.433929e-01 -3.673563e-01 -1.390235e-01 1.398370e-01 -1.812566e-02 6.157690e-01 4.915788e-01 1.371929e-03 -4.604805e-02 2.921887e-02 3.843563e-01
<VARIANCE> 39
 2.358821e+01 3.070493e+01 4.558682e+01 6.446618e+01 4.063569e+01 6.125336e+01 4.901994e+01 5.070992e+01 4.280870e+01 3.538201e+01 4.881650e+01 3.769714e+01 2.412682e+01 2.766670e+00 3.263493e+00 3.466456e+00 3.773005e+00 3.870429e+00 3.901956e+00 4.467954e+00 4.790211e+00 4.783870e+00 3.806066e+00 3.339393e+00 3.148045e+00 3.314460e+00 3.615803e-01 3.755402e-01 4.690450e-01 5.892931e-01 5.760604e-01 6.506956e-01 6.589557e-01 7.758943e-01 7.681745e-01 5.905411e-01 6.069046e-01 5.341198e-01 2.856142e-01
<GCONST> 1.288078e+02
<MIXTURE> 3 4.110220e-01
<MEAN> 39
 2.066980e+00 -4.751991e-01 1.060807e+00 -1.059456e+00 -3.389422e+00 -5.498257e-01 -7.920197e+00 -6.917550e+00 -8.636718e+00 -3.576410e+00 1.897674e+00 -4.694872e+00 6.525975e+01 -1.701056e-01 1.674295e+00 1.590339e+00 1.713748e+00 1.194314e+00 -2.926763e-01 2.037843e-01 -2.363242e+00 -2.513058e+00 -3.751160e-01 7.256396e-01 5.453994e-01 -1.448851e+00 -2.479346e-01 -1.197623e-01 -4.319307e-02 -1.626374e-01 -2.353773e-01 -9.283533e-02 1.037595e-02 4.515470e-01 3.548768e-01 -2.344836e-02 -3.635360e-01 -3.789476e-02 2.577537e-01
<VARIANCE> 39
 1.389300e+01 2.635777e+01 5.748589e+01 5.023926e+01 3.288506e+01 6.956464e+01 4.319228e+01 5.446194e+01 5.035892e+01 3.654593e+01 4.599267e+01 3.681796e+01 2.045391e+01 6.441802e-01 1.937015e+00 3.689255e+00 2.632181e+00 2.651895e+00 3.583116e+00 3.717904e+00 4.191582e+00 5.253575e+00 4.030328e+00 3.642015e+00 3.013883e+00 9.512436e-01 1.018565e-01 2.174182e-01 4.262689e-01 3.700889e-01 3.725393e-01 4.120450e-01 4.890515e-01 6.369283e-01 6.484150e-01 5.073640e-01 5.721276e-01 4.411117e-01 1.261269e-01
<GCONST> 1.186521e+02
<STATE> 3
<NUMMIXES> 3
<MIXTURE> 1 1.561757e-01
<MEAN> 39
 8.590032e-01 1.296361e+00 1.042024e+01 2.139806e+00 -2.176133e+00 8.144304e-01 -8.079435e+00 -3.362393e+00 -1.291619e+01 -6.215489e+00 3.911257e+00 -7.112666e+00 6.585706e+01 -9.371475e-02 2.266997e-01 1.087744e-01 1.541080e-01 1.299037e-01 -2.708631e-02 1.915170e-02 -3.894210e-02 -9.445342e-02 -2.047481e-01 -1.233362e-01 4.564033e-02 -1.668377e-02 -1.474457e-01 -9.747456e-02 -3.941071e-01 -2.551620e-01 -2.865215e-01 -1.400432e-02 4.792830e-02 3.189572e-01 5.612438e-01 1.618837e-01 -1.613662e-01 1.207493e-01 1.971753e-01
<VARIANCE> 39
 5.985149e+00 1.828536e+01 1.952184e+01 2.114499e+01 2.156733e+01 4.947369e+01 4.097642e+01 4.021380e+01 3.340356e+01 2.990273e+01 2.974405e+01 2.875691e+01 1.303121e+01 2.241746e-01 1.239369e+00 9.187773e-01 8.111111e-01 1.102213e+00 1.156630e+00 1.801456e+00 1.682750e+00 2.009243e+00 1.280134e+00 1.862022e+00 1.522786e+00 7.863343e-01 7.999341e-02 1.467110e-01 2.410366e-01 1.747177e-01 2.969220e-01 2.241654e-01 3.637879e-01 3.963461e-01 3.629928e-01 2.780123e-01 3.127317e-01 2.546194e-01 1.135955e-01
<GCONST> 9.526668e+01
<MIXTURE> 2 4.409708e-01
<MEAN> 39
 7.522590e-01 4.022433e+00 1.395655e+00 4.138343e-01 -5.363201e+00 -6.663669e+00 -7.460567e+00 -1.242226e+01 -1.114534e+01 -2.447624e+00 -3.178911e+00 -3.815189e+00 6.162659e+01 -5.627572e-02 -1.495731e-01 4.557117e-02 -1.137419e-01 -2.129223e-01 -1.435723e-02 -5.504121e-02 3.062589e-01 2.892576e-01 -1.219399e-01 -2.229988e-01 -1.450090e-01 2.520811e-01 -2.421419e-01 -6.479112e-01 -3.785457e-01 -6.456280e-01 -1.870948e-01 1.987822e-01 9.664121e-02 1.040344e+00 7.918272e-01 -2.006368e-01 -2.031129e-01 9.845415e-03 5.042447e-01
<VARIANCE> 39
 1.984839e+01 2.507364e+01 2.685031e+01 5.433707e+01 3.405300e+01 5.501625e+01 4.661685e+01 4.749577e+01 3.588999e+01 3.633778e+01 5.309533e+01 4.239843e+01 1.654240e+01 9.632446e-01 2.575482e+00 1.879852e+00 2.205057e+00 2.142701e+00 2.242209e+00 2.499536e+00 3.087109e+00 3.101966e+00 2.126771e+00 2.299754e+00 2.181864e+00 1.863756e+00 2.693055e-01 3.376855e-01 4.676403e-01 5.837088e-01 5.766893e-01 5.858131e-01 6.584308e-01 7.668983e-01 8.611743e-01 6.858937e-01 7.098640e-01 6.554586e-01 2.390378e-01
<GCONST> 1.199877e+02
<MIXTURE> 3 4.028544e-01
<MEAN> 39
 1.184244e+00 2.138095e+00 5.206075e+00 2.138700e+00 -2.260273e+00 -8.211726e-01 -6.961585e+00 -9.504873e+00 -1.265263e+01 -5.445189e+00 2.552655e+00 -3.523793e+00 6.362790e+01 -1.541308e-01 1.498561e-01 2.012350e-01 4.479916e-02 -8.049661e-02 1.613880e-02 9.983085e-02 7.508741e-02 -8.539007e-02 -9.807682e-02 -2.322817e-01 -1.121766e-01 3.228010e-02 -6.638361e-02 -3.215553e-01 -4.837379e-01 -5.011007e-01 -4.106224e-01 -1.962871e-02 -9.702502e-03 7.743000e-01 8.592306e-01 2.006419e-01 -3.098232e-01 -1.619540e-01 3.443640e-01
<VARIANCE> 39
 1.150929e+01 2.648987e+01 3.352642e+01 3.605209e+01 3.067950e+01 7.457632e+01 5.181963e+01 4.771759e+01 4.337283e+01 4.225637e+01 4.925438e+01 3.920681e+01 1.932470e+01 2.399466e-01 1.146991e+00 1.518697e+00 1.389815e+00 1.400806e+00 1.771843e+00 2.021565e+00 2.349697e+00 2.988332e+00 2.005961e+00 2.228804e+00 2.007576e+00 6.345044e-01 9.275471e-02 2.235202e-01 3.446425e-01 2.995224e-01 3.920523e-01 3.838510e-01 5.094439e-01 5.948233e-01 6.726741e-01 5.164411e-01 6.060669e-01 4.483733e-01 1.319328e-01
<GCONST> 1.092218e+02
<STATE> 4
<NUMMIXES> 3
<MIXTURE> 1 1.637149e-01
<MEAN> 39
 -2.802049e+00 5.429078e+00 4.392862e+00 1.313857e+00 -3.001767e+00 -7.068411e-01 -2.671771e+00 -5.200934e+00 -8.917184e+00 -4.856556e+00 -1.824140e+00 -3.667874e+00 5.992937e+01 -1.549244e+00 4.304040e-01 -3.228539e-01 -3.228759e-01 4.447583e-01 2.496946e-01 4.207206e-01 1.479785e+00 1.415986e+00 1.863199e-01 -3.705880e-01 2.721457e-01 -5.335267e-01 -3.355030e-01 -5.248718e-01 -4.343960e-01 -2.614079e-01 -2.470747e-02 6.028022e-02 -3.094137e-01 3.350356e-01 4.905787e-01 2.832755e-01 3.072234e-01 -1.224295e-02 3.756419e-01
<VARIANCE> 39
 3.098504e+01 3.063185e+01 3.561234e+01 3.801643e+01 3.871424e+01 4.919434e+01 4.880613e+01 5.564080e+01 5.356732e+01 3.351761e+01 2.974607e+01 2.648176e+01 3.967613e+01 2.818808e+00 3.727583e+00 3.258631e+00 3.896294e+00 4.725587e+00 3.279323e+00 5.482632e+00 4.686975e+00 4.765250e+00 3.291173e+00 3.614525e+00 2.642527e+00 3.533175e+00 5.790684e-01 7.037565e-01 4.772704e-01 5.306270e-01 7.388566e-01 5.553008e-01 7.991366e-01 7.697056e-01 9.183249e-01 5.764267e-01 5.293015e-01 4.303864e-01 4.584206e-01
<GCONST> 1.296538e+02
<MIXTURE> 2 4.286180e-01
<MEAN> 39
 1.185411e+00 -1.353082e+00 -6.860685e-01 -1.597764e+00 -6.591934e+00 -6.403562e+00 -9.783291e+00 -7.750680e+00 -5.912318e+00 -2.729143e+00 -3.572506e+00 -6.335423e+00 6.614529e+01 -4.796813e-01 -2.220692e+00 -1.059370e+00 -2.231722e+00 -1.175207e+00 2.347496e-01 5.692372e-01 3.172651e+00 2.402493e+00 -9.595537e-01 -1.173609e+00 2.066637e-01 2.189116e+00 -3.383943e-01 -3.943769e-02 1.021924e-01 -3.339839e-01 -4.505698e-02 1.095894e-01 5.144262e-01 4.424607e-01 -1.261107e-01 -2.378179e-01 -2.687950e-02 3.215646e-01 1.110139e-01
<VARIANCE> 39
 1.620959e+01 3.681384e+01 4.033558e+01 5.631369e+01 2.873981e+01 5.897932e+01 3.739041e+01 5.414771e+01 5.375595e+01 3.493224e+01 5.126611e+01 3.504479e+01 2.396932e+01 1.150362e+00 2.379216e+00 3.294524e+00 3.653771e+00 3.695092e+00 4.205722e+00 4.279786e+00 4.877676e+00 5.598071e+00 4.696310e+00 4.751088e+00 4.242424e+00 1.575613e+00 1.719853e-01 3.976058e-01 4.240638e-01 6.213056e-01 5.232105e-01 5.114385e-01 5.623708e-01 7.688556e-01 8.373721e-01 5.979025e-01 6.370964e-01 5.198950e-01 2.807990e-01
<GCONST> 1.258179e+02
<MIXTURE> 3 4.076671e-01
<MEAN> 39
 2.305759e-01 2.429085e-01 3.074864e+00 -1.534358e-01 -4.530413e+00 -8.621670e-01 -7.385596e+00 -5.087301e+00 -8.276215e+00 -4.880056e+00 9.134624e-01 -4.822701e+00 6.597861e+01 -4.260559e-01 -1.243032e+00 -1.335342e+00 -1.781559e+00 -1.616175e+00 -1.160301e-02 -1.123705e-01 2.713855e+00 2.653056e+00 4.110458e-01 -5.494025e-01 -2.802863e-01 1.619268e+00 -1.914763e-01 -1.016976e-01 -1.465994e-01 -2.833777e-01 -1.656436e-01 2.039818e-02 1.332639e-01 4.112884e-01 2.380554e-01 8.105503e-02 2.564535e-02 4.157217e-02 1.427237e-01
<VARIANCE> 39
 1.811951e+01 3.416143e+01 4.790202e+01 4.237421e+01 3.560120e+01 6.781490e+01 4.919872e+01 6.210222e+01 5.983210e+01 3.147628e+01 4.005368e+01 3.111122e+01 3.052351e+01 1.352359e+00 2.533743e+00 3.737949e+00 3.332493e+00 4.119306e+00 3.577384e+00 5.014080e+00 4.762087e+00 5.323738e+00 3.870712e+00 4.090502e+00 2.822216e+00 2.008290e+00 1.782633e-01 3.344531e-01 4.282121e-01 4.566410e-01 5.586562e-01 4.831357e-01 6.290506e-01 7.062101e-01 8.568499e-01 4.796858e-01 5.531729e-01 4.052212e-01 2.292454e-01
<GCONST> 1.249777e+02
<TRANSP> 5
 0.000000e+00 1.000000e+00 0.000000e+00 0.000000e+00 0.000000e+00
 0.000000e+00 4.908354e-01 5.091646e-01 0.000000e+00 0.000000e+00
 0.000000e+00 0.000000e+00 6.823621e-01 3.176380e-01 0.000000e+00
 0.000000e+00 0.000000e+00 0.000000e+00 4.496814e-01 5.503185e-01
 0.000000e+00 0.000000e+00 0.000000e+00 0.000000e+00 0.000000e+00
<ENDHMM>
~h "n"
<BEGINHMM>
<NUMSTATES> 5
<STATE> 2
<NUMMIXES> 3
<MIXTURE> 1 1.908739e-01
<MEAN> 39
 -1.664953e-01 -3.735598e+00 4.117448e+00 1.122054e-01 -8.368485e+00 -6.356953e-01 -8.398662e+00 2.634422e+00 -2.451115e+00 -2.596859e+00 -1.069546e+00 -7.982725e+00 6.863229e+01 5.798300e-01 2.383095e+00 2.229711e+00 1.903505e+00 9.428794e-01 -1.202213e+00 1.440053e+00 -2.875556e+00 -3.732203e+00 1.219913e+00 -3.916711e-01 8.470737e-01 -2.712139e+00 -2.699891e-01 3.181279e-01 -6.007759e-02 -6.476434e-02 1.450925e-01 5.532623e-02 4.848041e-01 -3.303703e-01 -2.297660e-01 -1.488818e-01 -1.083962e-01 2.853858e-01 -1.296164e-01
<VARIANCE> 39
 9.392549e+00 2.099439e+01 4.221968e+01 3.963099e+01 2.352721e+01 3.086226e+01 3.109618e+01 1.259681e+02 6.077885e+01 3.308831e+01 3.099251e+01 2.913729e+01 1.765130e+01 9.013814e-01 1.913292e+00 2.909210e+00 1.881563e+00 2.856234e+00 2.866153e+00 3.633353e+00 3.508525e+00 4.121839e+00 3.512158e+00 4.416815e+00 2.472969e+00 7.953575e-01 1.527252e-01 2.415656e-01 5.027120e-01 3.854364e-01 4.195299e-01 3.448199e-01 4.296133e-01 8.298331e-01 8.117899e-01 4.628524e-01 3.805972e-01 4.093341e-01 1.969423e-01
<GCONST> 1.158864e+02
<MIXTURE> 2 4.478943e-01
<MEAN> 39
 -1.133914e+00 -6.482265e-01 6.769617e-01 -5.711892e+00 -8.937076e+00 -6.426908e+00 -5.990667e+00 -3.401839e+00 -7.508704e+00 -5.428154e+00 -5.864277e+00 -1.654999e+00 6.651463e+01 3.913944e-01 1.058704e+00 3.732234e-01 8.529582e-01 -1.039246e-01 2.577290e-01 -1.258080e-01 -1.372311e+00 -4.076974e-01 3.324374e-01 -3.628919e-01 3.760639e-01 -9.326496e-01 -1.798001e-01 2.249070e-02 1.607275e-02 -1.204870e-02 7.400979e-02 1.500199e-01 -7.963561e-03 -4.108734e-02 1.088017e-01 7.278271e-02 1.357521e-01 -9.700870e-02 3.279243e-03
<VARIANCE> 39
 2.508461e+01 4.302111e+01 7.028156e+01 6.141887e+01 4.962923e+01 8.700258e+01 5.168515e+01 7.072955e+01 6.206156e+01 4.634727e+01 6.578188e+01 4.146370e+01 2.939512e+01 1.249312e+00 3.337940e+00 3.439394e+00 3.272038e+00 3.537828e+00 3.685393e+00 3.859698e+00 6.528695e+00 4.358801e+00 3.277047e+00 2.965928e+00 2.664820e+00 2.497560e+00 2.212120e-01 3.381122e-01 4.388407e-01 4.801157e-01 5.694973e-01 5.793443e-01 5.856228e-01 8.612182e-01 6.373774e-01 5.362081e-01 5.131313e-01 4.370646e-01 2.425562e-01
<GCONST> 1.282186e+02
<MIXTURE> 3 3.612327e-01
<MEAN> 39
 -1.366017e+00 -1.629274e+00 4.955970e+00 -3.110634e+00 -9.710867e+00 -2.012478e+00 -7.081979e+00 2.267738e+00 -6.246049e+00 -5.057127e+00 -5.942848e-01 -4.695965e+00 6.854392e+01 4.593373e-01 1.269588e+00 7.606490e-01 1.136565e+00 6.904041e-01 -3.195680e-01 6.886046e-01 -1.763011e+00 -1.596869e+00 4.910789e-01 -5.254208e-01 4.306561e-01 -1.471083e+00 -8.053288e-02 1.733889e-01 -2.521059e-02 2.369687e-02 6.857382e-02 1.275241e-02 1.749642e-01 -3.779618e-01 -5.735984e-02 1.219571e-01 -1.001315e-01 9.501064e-02 -1.169624e-01
<VARIANCE> 39
 1.560460e+01 3.034313e+01 7.488949e+01 4.102768e+01 3.559566e+01 6.053296e+01 3.816119e+01 8.570974e+01 6.824621e+01 3.220383e+01 5.007280e+01 3.490582e+01 2.603047e+01 7.261339e-01 1.912036e+00 3.251189e+00 2.225537e+00 3.021238e+00 3.061759e+00 3.570228e+00 5.180783e+00 5.253692e+00 2.834440e+00 2.869829e+00 2.201246e+00 1.477340e+00 9.732159e-02 1.976281e-01 4.018522e-01 3.080355e-01 3.914870e-01 3.804297e-01 4.101970e-01 6.636768e-01 6.645299e-01 3.742056e-01 3.736356e-01 3.228101e-01 1.618005e-01
<GCONST> 1.178662e+02
<STATE> 3
<NUMMIXES> 3
<MIXTURE> 1 2.197873e-01
<MEAN> 39
 5.341855e-01 3.383066e+00 1.093017e+01 7.973788e-01 -5.819582e+00 -3.146507e+00 -2.022390e+00 6.722841e-01 -1.588862e+01 -2.988387e+00 -9.447064e-01 -5.623605e+00 6.487064e+01 2.435277e-02 1.806699e+00 4.339529e-01 1.080998e+00 1.032485e+00 -6.062027e-01 1.403071e+00 -1.802713e+00 -1.206783e+00 2.644651e-02 -9.125535e-01 6.922835e-01 -1.632691e+00 -5.519611e-01 -3.456769e-01 -5.748044e-01 -2.414393e-01 -1.893189e-01 4.782566e-01 -5.180884e-01 5.696994e-01 1.318274e+00 -2.835432e-01 2.166710e-01 1.062617e-01 4.293811e-01
<VARIANCE> 39
 5.695402e+00 1.652842e+01 1.981160e+01 1.494160e+01 1.433654e+01 2.129190e+01 2.439502e+01 3.350068e+01 4.300183e+01 2.321848e+01 2.059167e+01 2.034398e+01 1.132379e+01 1.002085e+00 2.251544e+00 2.375804e+00 1.641673e+00 2.390290e+00 1.817045e+00 3.344436e+00 3.793882e+00 6.552667e+00 1.984483e+00 1.966332e+00 2.076296e+00 1.577978e+00 1.893113e-01 3.100813e-01 3.962531e-01 2.985137e-01 4.883409e-01 3.771466e-01 4.670639e-01 5.248505e-01 6.512402e-01 4.060219e-01 3.604735e-01 3.281467e-01 1.805237e-01
<GCONST> 1.070779e+02
<MIXTURE> 2 4.544539e-01
<MEAN> 39
 8.496866e-01 4.613491e+00 1.220322e+00 -3.437377e+00 -9.989155e+00 -6.468776e+00 -5.563513e+00 -1.230534e+01 -9.223169e+00 -3.959862e+00 -1.000233e+01 2.885951e+00 6.222007e+01 -5.821198e-02 9.483865e-01 3.316030e-01 5.152809e-01 2.068576e-01 4.675910e-01 -5.038339e-02 -9.597743e-01 -2.488410e-01 1.388927e-01 9.512123e-02 -3.331178e-02 -7.751520e-01 -4.361019e-01 -4.846553e-01 -5.616662e-02 -2.576376e-01 2.547654e-01 -5.755986e-02 1.963048e-02 1.008125e+00 2.542009e-01 -2.171860e-01 3.751026e-01 -4.291483e-01 3.827686e-01
<VARIANCE> 39
 1.920092e+01 1.994338e+01 2.294354e+01 3.874586e+01 2.583167e+01 3.497062e+01 3.363909e+01 3.971913e+01 3.465128e+01 3.551511e+01 5.094076e+01 4.421776e+01 1.596598e+01 6.291094e-01 2.326699e+00 1.695054e+00 1.949561e+00 2.124124e+00 2.225215e+00 2.132631e+00 4.922619e+00 2.426982e+00 2.430529e+00 2.344145e+00 2.255104e+00 1.268975e+00 2.639485e-01 4.005114e-01 4.206635e-01 5.129825e-01 4.927806e-01 4.801471e-01 5.449633e-01 7.641832e-01 5.508353e-01 5.663436e-01 5.561793e-01 5.012178e-01 2.193238e-01
<GCONST> 1.151258e+02
<MIXTURE> 3 3.257595e-01
<MEAN> 39
 6.123629e-02 3.573556e+00 7.217636e+00 3.167825e+00 -7.743319e+00 -3.461869e+00 -2.139579e+00 -6.863634e+00 -1.158274e+01 -2.465602e+00 -2.350587e+00 -2.390123e+00 6.245547e+01 -1.213700e-01 8.756056e-01 3.956538e-01 3.416644e-01 3.833476e-01 2.773813e-02 1.850667e-01 -6.761642e-01 -5.876730e-01 5.359033e-02 -1.014313e-01 2.604637e-01 -7.211045e-01 -2.646447e-01 -2.949439e-01 -3.209679e-01 -3.639199e-01 6.945966e-02 1.324498e-01 -3.501900e-01 6.834898e-01 7.811224e-01 -2.425022e-01 3.609578e-02 -1.165998e-01 3.104602e-01
<VARIANCE> 39
 1.222488e+01 2.569052e+01 2.867434e+01 3.500345e+01 2.597259e+01 3.145223e+01 2.959159e+01 6.925745e+01 4.396921e+01 3.638933e+01 2.701954e+01 3.189126e+01 2.083150e+01 4.724051e-01 1.792720e+00 1.737847e+00 1.524218e+00 1.895675e+00 1.743568e+00 2.071721e+00 3.241836e+00 3.996259e+00 1.905970e+00 1.835667e+00 1.621569e+00 1.079569e+00 1.473998e-01 2.815987e-01 3.895292e-01 3.744689e-01 4.759573e-01 3.711925e-01 4.932501e-01 5.799244e-01 6.954769e-01 4.376033e-01 3.968900e-01 3.320412e-01 1.791068e-01
<GCONST> 1.099199e+02
<STATE> 4
<NUMMIXES> 3
<MIXTURE> 1 1.718168e-01
<MEAN> 39
 -3.212683e+00 9.106465e+00 7.270963e+00 3.474697e+00 -2.181152e+00 -3.002262e+00 -1.687164e+00 -2.689917e+00 -8.814171e+00 -5.033838e+00 -3.402253e+00 -2.452322e+00 5.845077e+01 -2.324699e+00 7.850837e-01 -9.821388e-01 8.339272e-01 1.978810e+00 1.098508e+00 8.020491e-01 3.964244e-01 1.572442e+00 -1.898383e-01 1.710082e-01 2.893823e-01 -1.340994e+00 -6.750436e-01 -9.420721e-01 -6.277520e-01 -3.896170e-01 -3.109707e-01 3.226716e-01 -1.465276e-01 5.066518e-01 4.584497e-01 2.770786e-01 3.729449e-01 -7.302204e-02 6.126758e-01
<VARIANCE> 39
 2.087825e+01 1.799324e+01 2.452424e+01 1.593175e+01 2.275616e+01 2.530060e+01 2.892786e+01 3.127407e+01 3.581620e+01 2.294084e+01 1.707400e+01 1.884933e+01 2.397652e+01 2.417855e+00 2.833458e+00 3.094824e+00 2.130800e+00 2.800661e+00 2.723276e+00 3.567813e+00 4.178162e+00 4.020652e+00 2.826972e+00 2.466748e+00 2.722198e+00 1.938295e+00 4.414749e-01 5.286323e-01 4.867205e-01 4.111963e-01 5.316380e-01 5.299430e-01 6.674113e-01 5.724694e-01 6.870984e-01 4.007957e-01 3.682397e-01 3.954659e-01 3.478803e-01
<GCONST> 1.163755e+02
<MIXTURE> 2 4.489245e-01
<MEAN> 39
 -3.355807e+00 1.262035e+00 3.050901e+00 -2.167680e+00 -8.677552e+00 -5.089151e+00 -6.140233e+00 -6.122463e+00 -7.222138e+00 -3.428608e+00 -5.254260e+00 -1.082967e+00 6.399751e+01 -7.161877e-01 -8.108624e-01 -6.810630e-02 -5.908259e-01 1.405536e-01 1.909740e-02 -3.282385e-01 1.465639e+00 7.595672e-01 -3.782133e-01 5.063355e-01 -4.431825e-01 8.385462e-01 -2.218456e-01 -1.994280e-01 -2.149046e-01 -1.978595e-01 1.252928e-01 5.705895e-02 1.225608e-01 4.392479e-01 2.542344e-01 -8.916088e-02 1.258765e-01 -1.281184e-01 2.612951e-01
<VARIANCE> 39
 5.412769e+01 4.290825e+01 4.609148e+01 5.883369e+01 4.708291e+01 5.447716e+01 4.680160e+01 8.711349e+01 5.487721e+01 4.648668e+01 5.863717e+01 3.862946e+01 3.331723e+01 3.834686e+00 4.510966e+00 3.767481e+00 4.632751e+00 4.875976e+00 3.803543e+00 4.310417e+00 6.278916e+00 5.514138e+00 3.729061e+00 3.742746e+00 3.390413e+00 3.290278e+00 8.010093e-01 7.389886e-01 6.881251e-01 8.066952e-01 8.421718e-01 7.047447e-01 8.150563e-01 1.279080e+00 9.974425e-01 7.187620e-01 7.218760e-01 5.644112e-01 6.109192e-01
<GCONST> 1.379389e+02
<MIXTURE> 3 3.792607e-01
<MEAN> 39
 -3.917570e+00 4.942262e+00 5.309469e+00 1.818249e+00 -4.617696e+00 -2.984812e+00 -3.269327e+00 -4.286158e+00 -8.506009e+00 -3.676595e+00 -3.074838e+00 -2.690551e+00 5.996375e+01 -1.525089e+00 -2.202969e-01 -4.152445e-01 -1.282823e-01 8.124341e-01 5.655554e-01 -1.714022e-01 1.149599e+00 1.117249e+00 -1.657535e-01 3.852674e-01 -1.585442e-01 -2.945339e-02 -3.768651e-01 -5.389302e-01 -4.064425e-01 -3.766381e-01 -2.348294e-01 7.461399e-02 -1.201968e-01 4.630463e-01 5.537521e-01 5.481805e-02 1.884880e-01 3.830122e-02 5.953403e-01
<VARIANCE> 39
 3.977075e+01 3.221030e+01 3.689719e+01 2.966455e+01 3.720798e+01 3.309021e+01 3.664365e+01 6.716585e+01 5.197012e+01 3.149032e+01 3.020651e+01 2.962745e+01 3.884859e+01 3.301188e+00 3.761623e+00 3.230081e+00 3.298825e+00 5.139040e+00 2.977554e+00 4.060200e+00 4.753232e+00 4.928816e+00 2.995700e+00 2.905007e+00 2.943264e+00 2.970130e+00 5.848747e-01 6.015182e-01 5.789161e-01 4.971067e-01 7.427247e-01 5.675855e-01 7.385570e-01 8.306952e-01 1.038605e+00 5.426118e-01 5.148391e-01 4.719633e-01 4.530753e-01
<GCONST> 1.286893e+02
<TRANSP> 5
 0.000000e+00 1.000000e+00 0.000000e+00 0.000000e+00 0.000000e+00
 0.000000e+00 4.720144e-01 5.279856e-01 0.000000e+00 0.000000e+00
 0.000000e+00 0.000000e+00 6.349578e-01 3.650422e-01 0.000000e+00
 0.000000e+00 0.000000e+00 0.000000e+00 5.252043e-01 4.747956e-01
 0.000000e+00 0.000000e+00 0.000000e+00 0.000000e+00 0.000000e+00
<ENDHMM>
~h "p"
<BEGINHMM>
<NUMSTATES> 5
<STATE> 2
<NUMMIXES> 3
<MIXTURE> 1 1.593560e-01
<MEAN> 39
 -1.106323e+01 5.217065e+00 2.057285e+00 6.180176e-01 1.718456e+00 1.881760e-01 -3.145294e+00 9.383606e-01 7.038913e-01 -1.209464e-01 6.016338e-01 -4.845103e-01 5.563182e+01 9.344529e-01 7.940345e-01 5.221368e-02 1.929302e+00 6.988418e-01 5.714557e-01 2.248286e+00 -2.777833e-01 4.403873e-01 7.733152e-01 6.504419e-02 -1.418049e-01 -3.720354e+00 -6.872770e-01 -3.081736e-01 -6.186036e-01 -2.490334e-01 -2.154116e-01 -2.727579e-01 1.534227e-01 1.716695e-01 -1.355182e-01 -5.755045e-02 -6.650510e-02 2.201596e-02 6.070955e-01
<VARIANCE> 39
 5.761584e+01 2.676841e+01 2.710446e+01 2.065771e+01 3.050397e+01 3.468351e+01 3.488216e+01 2.970041e+01 2.351947e+01 2.144716e+01 1.829469e+01 1.958937e+01 3.418551e+01 6.545393e+00 3.822969e+00 3.066380e+00 2.724634e+00 3.748419e+00 4.218009e+00 3.553934e+00 3.284007e+00 2.853586e+00 2.189990e+00 2.386293e+00 2.229527e+00 2.503577e+00 5.039698e-01 4.468367e-01 6.665166e-01 4.210089e-01 5.213723e-01 5.249872e-01 6.563783e-01 5.197990e-01 4.134738e-01 4.222585e-01 3.880133e-01 3.829014e-01 5.580941e-01
<GCONST> 1.205044e+02
<MIXTURE> 2 4.471062e-01
<MEAN> 39
 -7.578001e+00 6.974387e+00 2.216775e+00 2.249402e+00 -5.450186e-01 -1.648585e+00 -2.092111e+00 -2.458914e+00 -2.534426e+00 -2.027194e+00 -1.670532e+00 -2.597199e+00 5.214983e+01 -2.493194e+00 -5.259667e-01 -7.307619e-02 3.155445e-01 5.169760e-01 7.611190e-01 1.257844e+00 1.264094e+00 9.980431e-01 3.145668e-01 2.117927e-01 5.066314e-01 -1.588094e+00 2.593659e-01 -1.172101e+00 -5.129696e-01 -5.523062e-01 -5.740969e-01 -1.843994e-01 -6.322430e-01 3.697924e-03 8.303563e-02 2.783166e-01 2.836640e-01 1.200194e-01 1.376558e+00
<VARIANCE> 39
 1.222182e+01 1.300374e+01 2.123279e+01 2.065978e+01 2.077277e+01 2.520815e+01 3.019645e+01 2.482815e+01 3.067129e+01 2.342751e+01 2.312880e+01 1.928877e+01 1.298126e+01 1.436953e+00 2.967809e+00 2.983645e+00 2.411021e+00 2.527823e+00 2.982674e+00 3.116551e+00 3.077547e+00 3.399802e+00 2.744138e+00 2.697541e+00 2.026438e+00 2.634668e+00 3.174126e-01 5.393839e-01 5.534645e-01 5.004553e-01 5.483711e-01 6.593011e-01 6.223210e-01 5.866435e-01 6.480099e-01 5.458852e-01 5.151485e-01 4.312958e-01 4.877238e-01
<GCONST> 1.152213e+02
<MIXTURE> 3 3.935376e-01
<MEAN> 39
 -4.415002e+00 7.572650e+00 1.901631e+00 2.028057e+00 -7.994862e-01 -2.446663e+00 -4.349774e+00 -4.076221e+00 -2.811643e+00 -1.395665e+00 -1.060204e+00 -2.818402e+00 5.449747e+01 -2.732035e+00 1.247610e+00 5.898532e-01 1.150902e+00 1.420243e+00 7.773653e-01 2.024006e+00 1.106452e+00 7.034515e-01 8.645508e-02 -7.612649e-02 3.559988e-01 -3.152148e+00 -2.783245e-01 -1.102580e+00 -3.059384e-01 -5.595821e-01 -5.575705e-01 3.362435e-02 -2.362886e-01 3.391362e-01 2.010143e-01 9.877743e-02 1.005381e-01 1.160800e-01 8.944912e-01
<VARIANCE> 39
 1.965017e+01 1.661368e+01 2.910823e+01 2.403160e+01 2.278112e+01 3.205104e+01 3.039453e+01 2.854774e+01 3.452708e+01 2.618386e+01 2.482957e+01 2.081604e+01 1.476969e+01 1.657525e+00 3.992324e+00 4.432107e+00 3.649582e+00 3.367769e+00 4.727228e+00 3.550769e+00 3.651775e+00 4.195911e+00 3.026390e+00 3.073172e+00 2.399181e+00 2.742909e+00 3.503053e-01 3.863129e-01 3.909598e-01 3.834673e-01 4.479363e-01 4.958622e-01 5.734971e-01 5.696510e-01 5.882534e-01 5.032067e-01 4.524858e-01 4.156818e-01 3.395924e-01
<GCONST> 1.181845e+02
<STATE> 3
<NUMMIXES> 3
<MIXTURE> 1 9.945026e-02
<MEAN> 39
 -1.165886e+01 1.908260e+00 -8.586107e-01 1.431738e+00 5.550655e-01 1.022567e+00 -1.354712e-01 1.227212e+00 1.176753e+00 -6.321396e-02 5.645728e-01 -2.703074e-01 5.105133e+01 -5.512685e-01 -4.040810e-01 -2.187908e-01 1.502406e-01 2.947167e-01 4.508838e-01 4.921594e-01 7.349167e-01 7.803810e-01 6.397340e-01 5.908855e-01 3.499815e-01 -8.323631e-02 1.568506e-01 -7.100140e-02 1.040739e-02 -4.431114e-02 -9.027061e-02 -8.234576e-02 -1.878208e-01 -1.231922e-01 -1.355780e-01 -6.653477e-02 -6.811264e-02 -7.270714e-02 4.609011e-01
<VARIANCE> 39
 8.226403e+00 2.108574e+01 1.345375e+01 1.403813e+01 1.562632e+01 2.073940e+01 1.819724e+01 1.659589e+01 1.822409e+01 1.710415e+01 1.744525e+01 1.593497e+01 1.880327e+01 9.398400e-01 1.986665e+00 1.293422e+00 1.276452e+00 1.377177e+00 1.714680e+00 1.964698e+00 2.469860e+00 2.577123e+00 2.058366e+00 1.941585e+00 1.638577e+00 2.041028e+00 1.841506e-01 1.835295e-01 2.177791e-01 2.210845e-01 2.780999e-01 3.387837e-01 3.543688e-01 3.759131e-01 3.806670e-01 3.347259e-01 3.397027e-01 3.062974e-01 2.938064e-01
<GCONST> 9.862640e+01
<MIXTURE> 2 4.469351e-01
<MEAN> 39
 -1.198762e+01 4.068797e+00 7.382401e-01 2.249610e+00 6.115367e-01 5.434287e-01 -3.850839e-02 2.904041e-01 6.404364e-02 -1.373377e-01 2.174500e-01 -8.770174e-01 5.062290e+01 -4.771726e-01 -2.138315e+00 -1.223814e+00 -5.723529e-01 -8.982237e-01 -3.404378e-01 -8.985480e-01 1.180302e-01 1.940525e-01 2.845344e-01 4.472542e-01 3.273203e-01 2.172294e+00 5.472879e-01 -4.906343e-01 -3.010046e-01 -4.162844e-01 -3.852861e-01 -2.574859e-01 -6.597052e-01 -1.675301e-01 -1.616759e-01 -2.750754e-02 3.947739e-02 -2.286511e-02 1.307923e+00
<VARIANCE> 39
 1.017988e+01 1.215365e+01 1.112482e+01 1.279602e+01 1.564155e+01 1.668949e+01 1.836058e+01 1.679224e+01 1.790778e+01 1.516663e+01 1.480429e+01 1.366383e+01 1.720090e+01 2.629512e+00 2.900735e+00 2.491815e+00 2.311123e+00 2.963039e+00 2.961438e+00 3.956406e+00 3.051260e+00 3.048801e+00 2.680007e+00 2.527627e+00 2.216789e+00 4.534591e+00 4.650812e-01 4.103872e-01 5.269412e-01 5.400847e-01 6.058729e-01 7.486299e-01 7.428647e-01 5.930571e-01 5.566404e-01 4.751433e-01 4.775935e-01 3.846941e-01 5.529138e-01
<GCONST> 1.121493e+02
<MIXTURE> 3 4.536163e-01
<MEAN> 39
 -1.230766e+01 1.424370e+00 -7.492844e-01 8.721224e-01 -1.884778e-01 -4.805034e-02 -3.490930e-01 1.567672e+00 1.226252e+00 -7.625204e-02 7.255175e-01 -2.033921e-01 5.123386e+01 -4.180710e-01 -5.115913e-01 -2.994403e-01 1.168914e-03 2.876880e-02 1.787146e-01 1.176350e-01 1.312765e-01 8.842891e-02 6.411752e-02 1.077486e-01 9.644237e-02 1.541370e-01 2.073720e-01 -1.584195e-01 -8.920534e-02 -8.985108e-02 -9.588654e-02 -4.991766e-02 -3.065091e-01 -1.524044e-01 -1.396897e-01 -7.808471e-02 -9.488002e-03 -3.204838e-02 6.435242e-01
<VARIANCE> 39
 9.079192e+00 2.901159e+01 1.145380e+01 1.352752e+01 1.530248e+01 1.716602e+01 1.817474e+01 1.877842e+01 1.811672e+01 1.738349e+01 1.574797e+01 1.469697e+01 1.902464e+01 7.892867e-01 1.305686e+00 1.038267e+00 1.052118e+00 1.191537e+00 1.474803e+00 1.786996e+00 1.630027e+00 1.728763e+00 1.596256e+00 1.461365e+00 1.367243e+00 1.872450e+00 2.129923e-01 2.322218e-01 2.365466e-01 2.520758e-01 2.903954e-01 3.507349e-01 4.275980e-01 3.798719e-01 3.916524e-01 3.571443e-01 3.293389e-01 3.083916e-01 4.256513e-01
<GCONST> 9.688983e+01
<STATE> 4
<NUMMIXES> 3
<MIXTURE> 1 2.220422e-01
<MEAN> 39
 -1.246474e+01 -6.231871e+00 -4.847688e+00 -6.964161e-01 -3.268377e+00 -1.256170e+00 -5.729834e+00 1.169858e+00 1.231011e+00 1.903424e+00 3.324681e+00 1.207168e+00 6.412865e+01 -3.215506e-02 -2.220925e+00 -1.492044e+00 -3.389237e-01 5.221524e-01 1.127492e+00 1.457956e-01 9.435906e-01 7.948061e-01 9.768057e-01 6.397737e-01 3.626888e-01 2.203059e+00 3.648185e-01 9.250991e-01 2.977707e-01 1.364190e-01 4.632685e-01 3.515531e-01 5.576816e-01 -2.102938e-01 -3.006375e-01 -3.276687e-01 -4.829156e-01 -3.671074e-01 -9.619206e-01
<VARIANCE> 39
 1.811646e+01 2.756367e+01 2.420090e+01 2.321800e+01 3.152747e+01 4.674466e+01 3.624499e+01 3.305816e+01 2.567496e+01 3.122324e+01 2.122649e+01 2.031108e+01 2.034894e+01 1.977649e+00 3.787443e+00 3.452221e+00 2.657974e+00 3.952614e+00 5.278399e+00 4.519213e+00 3.186917e+00 2.921802e+00 2.989937e+00 2.849952e+00 2.292402e+00 3.925267e+00 3.858662e-01 4.991390e-01 3.968937e-01 4.639564e-01 6.629767e-01 8.872505e-01 7.425874e-01 8.589262e-01 7.702659e-01 7.228309e-01 5.833550e-01 4.967066e-01 3.359038e-01
<GCONST> 1.224847e+02
<MIXTURE> 2 4.085683e-01
<MEAN> 39
 -1.139765e+01 -2.898671e+00 -4.718028e+00 -9.025874e-01 2.796580e-01 2.479458e+00 -1.407322e+00 2.141860e-01 -2.852773e-01 4.250973e-01 4.361894e-01 -1.085087e+00 6.055378e+01 2.473826e+00 6.403688e-01 -3.247096e-01 -1.318328e+00 -1.237124e+00 -9.649953e-01 -1.381594e+00 -1.305033e+00 -1.344646e+00 -1.291663e+00 -9.924194e-01 -8.220870e-01 1.551202e+00 7.159268e-01 1.990290e-01 7.756449e-02 -4.720057e-01 -6.408268e-01 -5.922291e-01 -5.248661e-01 -2.000749e-01 -2.150518e-01 -2.437154e-01 -6.596190e-02 -9.721251e-02 4.241104e-01
<VARIANCE> 39
 2.792541e+01 4.733537e+01 4.730667e+01 3.761156e+01 4.433157e+01 6.144781e+01 4.223556e+01 3.692666e+01 3.385490e+01 3.237590e+01 2.905074e+01 2.255206e+01 2.855930e+01 3.720791e+00 4.567944e+00 3.582342e+00 4.326671e+00 5.155343e+00 6.283985e+00 5.032241e+00 4.510917e+00 4.170174e+00 3.309515e+00 3.603259e+00 2.582676e+00 4.107435e+00 4.319974e-01 7.880001e-01 5.785344e-01 6.243463e-01 7.459037e-01 9.515311e-01 7.701049e-01 8.438024e-01 8.415960e-01 7.162220e-01 6.274600e-01 5.273121e-01 4.762400e-01
<GCONST> 1.316649e+02
<MIXTURE> 3 3.693898e-01
<MEAN> 39
 -1.329171e+01 -4.267050e+00 -4.576760e+00 -1.289428e+00 -1.762176e+00 1.225505e+00 -2.359150e+00 1.274113e+00 6.209469e-01 7.464865e-01 1.723483e+00 1.994234e-02 6.209509e+01 4.487590e-01 -5.454991e-01 -6.467603e-01 -3.837162e-01 -9.997393e-02 4.801634e-01 -1.903491e-01 -2.947875e-02 -5.548511e-02 5.741372e-03 5.458465e-02 -1.749605e-01 1.122981e+00 5.667470e-01 6.023061e-01 2.589767e-01 -2.866921e-02 -7.650544e-02 -2.122211e-01 -1.078636e-01 -2.270511e-01 -2.106097e-01 -2.735361e-01 -2.038861e-01 -1.763370e-01 -2.804233e-01
<VARIANCE> 39
 4.310883e+01 4.673709e+01 4.061969e+01 3.462098e+01 3.903071e+01 6.389108e+01 4.398043e+01 3.331693e+01 2.793467e+01 3.046586e+01 2.600474e+01 2.111573e+01 2.874435e+01 3.994378e+00 3.954365e+00 3.395216e+00 3.289589e+00 4.117289e+00 4.634864e+00 5.008696e+00 3.090080e+00 2.784515e+00 2.484563e+00 2.533295e+00 2.302272e+00 5.165053e+00 6.086346e-01 6.828551e-01 5.198893e-01 5.937843e-01 6.731924e-01 9.183138e-01 7.853968e-01 7.282625e-01 6.787820e-01 6.260637e-01 5.760052e-01 4.345289e-01 5.052100e-01
<GCONST> 1.282426e+02
<TRANSP> 5
 0.000000e+00 1.000000e+00 0.000000e+00 0.000000e+00 0.000000e+00
 0.000000e+00 5.519114e-01 4.480887e-01 0.000000e+00 0.000000e+00
 0.000000e+00 0.000000e+00 7.396476e-01 2.603524e-01 0.000000e+00
 0.000000e+00 0.000000e+00 0.000000e+00 7.563823e-01 2.436177e-01
 0.000000e+00 0.000000e+00 0.000000e+00 0.000000e+00 0.000000e+00
<ENDHMM>
~h "r"
<BEGINHMM>
<NUMSTATES> 5
<STATE> 2
<NUMMIXES> 3
<MIXTURE> 1 1.212618e-01
<MEAN> 39
 -5.051243e+00 -3.845402e+00 -5.713458e+00 3.008563e-01 -3.109319e+00 -2.389665e+00 -1.123986e+01 1.024059e+00 3.847389e+00 -8.347516e-01 1.303864e+00 -1.781349e+00 6.587685e+01 -1.563875e-01 6.883588e-01 3.949552e-01 6.928643e-01 6.873477e-01 -2.642956e-01 -7.490170e-02 -1.209735e-01 -8.365273e-03 -1.405970e-01 -2.338683e-01 4.110408e-01 -8.295186e-01 2.651158e-02 2.922709e-01 2.273167e-01 9.203590e-03 4.898325e-03 -2.561219e-02 4.892558e-01 -7.399465e-02 -5.183826e-01 -2.763397e-01 -9.342454e-02 3.432617e-02 -2.764573e-01
<VARIANCE> 39
 1.229429e+02 6.239115e+01 5.747752e+01 3.613511e+01 4.465183e+01 4.319487e+01 1.020592e+02 6.208831e+01 5.725035e+01 3.847911e+01 3.697738e+01 3.252329e+01 5.693013e+01 4.847671e+00 4.254843e+00 3.750287e+00 3.341727e+00 3.808608e+00 4.340993e+00 6.165654e+00 4.410538e+00 4.900266e+00 3.257314e+00 4.106962e+00 2.661460e+00 3.552029e+00 1.003614e+00 8.341181e-01 6.609832e-01 5.379398e-01 7.784383e-01 5.893434e-01 1.292901e+00 8.156478e-01 8.244374e-01 6.692014e-01 6.132842e-01 5.438164e-01 7.287117e-01
<GCONST> 1.375567e+02
<MIXTURE> 2 3.917608e-01
<MEAN> 39
 -1.794986e+00 -1.461329e+00 -6.881102e+00 -1.046890e-01 -1.797521e+00 -8.183836e+00 -1.039283e+01 -2.703201e+00 -4.359262e+00 -2.216345e+00 -1.319909e+00 -1.598487e+00 6.368435e+01 2.589558e+00 -1.557918e-01 -8.904337e-01 -6.698587e-01 -1.960968e-01 -1.722903e+00 -1.736799e+00 7.380124e-02 -2.465709e-01 -7.285128e-01 -2.622278e-01 4.997348e-02 1.063492e+00 -3.340516e-01 -3.103429e-01 3.178242e-01 -1.359504e-01 -4.106515e-01 8.068387e-02 3.604244e-01 3.942067e-01 8.464243e-02 -3.541789e-03 1.264553e-01 3.850833e-02 2.598656e-01
<VARIANCE> 39
 5.265326e+01 4.049909e+01 5.216233e+01 4.818706e+01 4.494501e+01 9.420169e+01 4.766867e+01 5.500616e+01 5.052297e+01 3.276921e+01 3.807446e+01 2.571786e+01 2.909405e+01 8.327997e+00 4.006849e+00 4.469747e+00 4.582908e+00 5.113760e+00 9.237601e+00 5.796557e+00 5.557127e+00 6.534800e+00 4.244921e+00 3.697587e+00 2.776957e+00 2.921052e+00 7.478133e-01 5.584366e-01 6.937898e-01 5.783368e-01 7.866808e-01 1.105933e+00 8.940811e-01 9.577937e-01 7.407382e-01 6.994860e-01 5.780598e-01 4.620644e-01 3.809990e-01
<GCONST> 1.366188e+02
<MIXTURE> 3 4.869783e-01
<MEAN> 39
 7.789810e-01 -2.490442e-01 -8.121723e+00 -1.563910e+00 -6.695794e-01 -2.516274e+00 -1.018149e+01 -3.902939e+00 -2.821058e+00 -3.025374e+00 9.146590e-01 1.129899e-01 6.342490e+01 3.663306e-01 -1.446296e-01 -2.637042e-01 1.876792e-01 1.816876e-01 -2.811683e-01 -6.807674e-01 6.228178e-02 4.064555e-01 -1.449455e-01 -4.709686e-02 1.466816e-01 1.978504e-01 -1.549495e-01 -2.943163e-01 3.173094e-01 1.326554e-01 -3.472520e-01 -2.681006e-01 1.198812e-02 3.526185e-01 8.645158e-02 -2.539790e-02 -5.718124e-03 -1.367044e-01 2.246620e-01
<VARIANCE> 39
 5.702322e+01 5.296231e+01 5.285461e+01 3.317958e+01 3.302240e+01 7.400586e+01 6.999637e+01 6.357714e+01 6.200314e+01 3.483842e+01 4.348680e+01 3.360048e+01 4.130112e+01 2.592018e+00 3.218487e+00 2.757927e+00 2.349667e+00 2.474726e+00 3.718827e+00 5.282149e+00 3.435780e+00 4.121253e+00 2.733546e+00 3.037904e+00 2.171309e+00 2.365113e+00 3.936971e-01 5.302761e-01 5.635826e-01 3.871291e-01 4.915387e-01 6.365455e-01 9.224249e-01 7.382514e-01 6.940423e-01 5.522483e-01 5.578057e-01 4.708808e-01 3.556098e-01
<GCONST> 1.283600e+02
<STATE> 3
<NUMMIXES> 3
<MIXTURE> 1 1.503142e-01
<MEAN> 39
 4.468859e+00 -7.758861e+00 -7.121167e+00 3.231092e+00 -3.215356e+00 -6.936141e+00 -2.332222e+01 1.174451e+00 7.981326e+00 -5.394633e+00 1.821452e+00 1.199098e+00 6.962936e+01 1.381582e-01 3.055662e-01 1.555773e+00 1.157802e+00 4.492849e-03 -1.555182e+00 -6.772646e-02 1.061826e+00 -9.348179e-02 -1.300834e+00 -4.215581e-01 5.887548e-01 -1.432718e-01 -1.095499e+00 5.440458e-01 7.154635e-01 -4.613853e-02 -2.396799e-01 4.404270e-01 1.837800e+00 5.712713e-02 -1.098335e+00 2.285815e-01 2.498633e-01 -2.022940e-01 -5.976576e-01
<VARIANCE> 39
 8.159478e+00 1.764663e+01 3.587624e+01 1.967781e+01 2.432191e+01 3.495890e+01 3.816577e+01 6.063991e+01 3.515267e+01 4.097638e+01 2.300623e+01 1.991267e+01 1.428592e+01 4.391186e+00 5.358666e+00 3.464946e+00 3.934636e+00 6.227786e+00 4.042424e+00 7.912099e+00 6.216620e+00 6.034983e+00 4.912354e+00 4.977069e+00 2.652867e+00 6.042723e+00 5.747068e-01 4.804898e-01 4.787016e-01 3.962338e-01 6.071208e-01 5.741629e-01 6.996672e-01 9.601752e-01 6.090683e-01 6.405123e-01 5.688218e-01 4.481362e-01 2.348654e-01
<GCONST> 1.262612e+02
<MIXTURE> 2 4.238185e-01
<MEAN> 39
 2.759953e+00 -5.560744e+00 -1.052852e+01 -2.374957e+00 -1.860201e+00 -1.768850e+01 -1.198597e+01 3.281084e+00 -5.922890e+00 -2.209251e+00 -4.144354e+00 -2.009699e+00 6.798052e+01 5.047903e-01 -7.291607e-01 8.664217e-01 -2.368700e-01 -1.458753e+00 -1.562996e+00 4.911824e-01 1.380879e+00 -5.021853e-01 -6.600086e-01 -1.283821e-01 -6.442564e-02 9.560601e-01 -7.500348e-01 7.121808e-02 7.471036e-01 -1.007005e-01 -4.707712e-01 1.011183e+00 8.162806e-01 -3.819157e-01 -7.850465e-02 1.029009e-01 2.680947e-01 -5.697655e-02 -1.835471e-01
<VARIANCE> 39
 1.823516e+01 2.603244e+01 4.498306e+01 3.291523e+01 4.065463e+01 1.230271e+02 4.655635e+01 5.403846e+01 5.912580e+01 3.589577e+01 4.831916e+01 2.943861e+01 1.726158e+01 3.271336e+00 2.886081e+00 4.032446e+00 3.676420e+00 4.635336e+00 7.336946e+00 4.460885e+00 5.437143e+00 5.288795e+00 3.391537e+00 3.610961e+00 2.673825e+00 2.454149e+00 5.507061e-01 3.954177e-01 4.279369e-01 4.078734e-01 6.053127e-01 1.000420e+00 6.472454e-01 8.006002e-01 8.009713e-01 6.846158e-01 5.900402e-01 4.720901e-01 1.589850e-01
<GCONST> 1.288188e+02
<MIXTURE> 3 4.258691e-01
<MEAN> 39
 4.439619e+00 -7.040079e+00 -9.627075e+00 1.346479e+00 -1.991136e+00 -9.184860e+00 -1.914970e+01 2.639317e+00 4.886608e+00 -3.593377e+00 5.695714e-01 7.365069e-02 6.900999e+01 -3.605321e-01 -7.430393e-01 1.326340e+00 6.933696e-01 -1.219987e+00 -1.357791e+00 2.013727e-01 1.840035e+00 3.263854e-01 -8.114470e-01 2.969447e-02 8.305773e-03 5.075412e-01 -4.705979e-01 2.564195e-01 6.714308e-01 -1.549383e-01 -4.596420e-01 2.907256e-01 1.130366e+00 -8.191852e-02 -8.694081e-01 -2.858645e-02 2.082131e-01 -8.914338e-02 -2.198785e-01
<VARIANCE> 39
 8.793557e+00 2.198703e+01 4.242920e+01 2.395614e+01 2.804437e+01 8.339800e+01 5.028125e+01 7.077412e+01 6.077446e+01 4.245851e+01 4.854820e+01 2.669507e+01 1.859194e+01 9.719975e-01 2.768058e+00 3.023895e+00 1.928598e+00 3.658393e+00 3.824411e+00 4.582240e+00 5.478866e+00 5.116759e+00 3.111110e+00 3.375432e+00 2.630622e+00 2.311009e+00 2.527778e-01 2.514749e-01 3.172448e-01 2.932291e-01 4.317386e-01 5.862573e-01 6.326392e-01 8.357984e-01 5.449499e-01 4.992022e-01 5.433335e-01 4.002194e-01 1.434761e-01
<GCONST> 1.202384e+02
<STATE> 4
<NUMMIXES> 3
<MIXTURE> 1 1.701712e-01
<MEAN> 39
 1.691577e+00 -2.904392e+00 -3.585762e+00 5.404120e+00 -3.198502e+00 -1.050257e+01 -1.622068e+01 2.018863e+00 3.739119e+00 -4.978187e+00 -1.032647e+00 1.673000e+00 6.509586e+01 -2.154068e+00 2.812912e+00 2.421097e+00 1.318318e+00 8.957797e-01 7.380887e-01 2.808769e+00 -7.412563e-01 -1.301861e+00 -1.215124e-01 -6.051411e-01 -1.370661e-01 -2.519828e+00 -8.543600e-01 9.811187e-02 7.320952e-03 -6.208283e-01 -3.790028e-02 8.671890e-01 7.794481e-01 -7.604669e-02 -3.641624e-01 4.261841e-01 3.234334e-01 -3.741392e-01 -9.810470e-02
<VARIANCE> 39
 1.687956e+01 3.462425e+01 4.254388e+01 4.175657e+01 4.647823e+01 5.448588e+01 5.211191e+01 6.309829e+01 3.963614e+01 4.176622e+01 3.333264e+01 3.081495e+01 2.799783e+01 5.503543e+00 3.716861e+00 3.600556e+00 3.296723e+00 4.296155e+00 6.341269e+00 6.272672e+00 4.847235e+00 4.508579e+00 3.679773e+00 3.529802e+00 2.864699e+00 3.755657e+00 5.199731e-01 7.749811e-01 6.189088e-01 7.433854e-01 1.107032e+00 8.698292e-01 9.099385e-01 9.510698e-01 7.279870e-01 7.700841e-01 7.985325e-01 6.261818e-01 5.570490e-01
<GCONST> 1.340768e+02
<MIXTURE> 2 4.895183e-01
<MEAN> 39
 9.785624e-01 -7.862760e+00 -3.688229e+00 -2.357189e+00 -9.029708e+00 -1.709860e+01 -7.221462e+00 5.702044e+00 -8.222151e+00 -3.963497e+00 -9.159910e-01 -2.218132e+00 6.985496e+01 -7.761772e-01 4.722759e-02 2.278321e+00 -1.001086e+00 -2.166290e+00 1.212791e+00 1.836097e+00 -7.877234e-01 -9.778756e-01 2.704533e-01 2.966375e-01 -5.489134e-01 3.036743e-01 -2.788219e-01 4.884764e-01 -2.569975e-03 -1.620974e-01 4.394392e-01 1.001649e+00 -1.845807e-01 -8.971441e-01 3.943146e-01 2.884849e-01 -2.251488e-01 -3.102333e-02 -3.674857e-01
<VARIANCE> 39
 1.630948e+01 2.645606e+01 7.430299e+01 3.857492e+01 4.266938e+01 1.405777e+02 5.402561e+01 5.318490e+01 8.868736e+01 3.700873e+01 5.476128e+01 2.842780e+01 1.845189e+01 1.020741e+00 2.304714e+00 3.656319e+00 2.449769e+00 3.533799e+00 4.018322e+00 4.061673e+00 5.096317e+00 4.417700e+00 3.312701e+00 3.210368e+00 2.840947e+00 1.482066e+00 3.576955e-01 3.046703e-01 4.469548e-01 4.732817e-01 5.509622e-01 9.805734e-01 6.414340e-01 8.160715e-01 8.276374e-01 5.243388e-01 5.532566e-01 4.310402e-01 1.622081e-01
<GCONST> 1.256280e+02
<MIXTURE> 3 3.403115e-01
<MEAN> 39
 1.172625e+00 -5.618981e+00 -2.253201e+00 2.156829e+00 -7.793869e+00 -1.233132e+01 -1.300853e+01 4.661419e+00 -1.142878e+00 -6.530090e+00 1.527731e+00 9.162430e-01 6.812546e+01 -1.044877e+00 8.218551e-01 2.609407e+00 2.366672e-01 -1.580862e+00 6.992808e-01 1.787119e+00 -3.396978e-01 -1.281792e+00 -4.071290e-01 5.878911e-01 -2.761741e-01 -4.883978e-01 -4.081017e-01 4.426189e-01 -3.009944e-02 -3.469813e-01 3.691632e-01 8.565422e-01 4.390740e-01 -5.845459e-01 -1.922072e-01 5.180729e-01 -1.416820e-01 -3.666875e-01 -3.416044e-01
<VARIANCE> 39
 1.675377e+01 3.586244e+01 6.121531e+01 4.715958e+01 4.395726e+01 9.668655e+01 6.011951e+01 7.074739e+01 7.096478e+01 5.030794e+01 5.219683e+01 3.437155e+01 3.331998e+01 1.872863e+00 3.946094e+00 4.152696e+00 3.172626e+00 5.750566e+00 4.979534e+00 4.413417e+00 6.828403e+00 6.598392e+00 3.198525e+00 3.928651e+00 2.996372e+00 3.842036e+00 4.158723e-01 5.222560e-01 4.838228e-01 6.693111e-01 7.049289e-01 8.454024e-01 7.799391e-01 1.071637e+00 8.732443e-01 7.368275e-01 6.591132e-01 5.672747e-01 3.824365e-01
<GCONST> 1.343951e+02
<TRANSP> 5
 0.000000e+00 1.000000e+00 0.000000e+00 0.000000e+00 0.000000e+00
 0.000000e+00 6.266658e-01 3.733341e-01 0.000000e+00 0.000000e+00
 0.000000e+00 0.000000e+00 4.895211e-01 5.104789e-01 0.000000e+00
 0.000000e+00 0.000000e+00 0.000000e+00 4.427376e-01 5.572624e-01
 0.000000e+00 0.000000e+00 0.000000e+00 0.000000e+00 0.000000e+00
<ENDHMM>
~h "s"
<BEGINHMM>
<NUMSTATES> 5
<STATE> 2
<NUMMIXES> 3
<MIXTURE> 1 2.091390e-01
<MEAN> 39
 -8.757813e+00 8.396609e+00 4.456505e-01 -7.678995e-01 -4.673955e+00 -1.079817e+01 -7.532518e+00 -2.372208e+00 -1.072487e+00 -4.652452e+00 -4.495980e+00 2.300678e+00 6.743037e+01 -5.225490e+00 3.352310e+00 -7.348498e-01 1.863727e+00 3.123040e+00 1.464831e+00 3.129149e+00 5.693419e-01 -8.997077e-02 2.959433e-02 9.025186e-01 2.954566e-01 -7.898716e-01 -8.920217e-01 -7.382346e-01 -5.342591e-01 -2.815390e-01 1.300778e-01 7.024828e-01 3.276705e-01 4.660660e-01 -1.347630e-01 3.199869e-01 5.145274e-01 -2.959317e-01 9.128551e-02
<VARIANCE> 39
 3.008373e+01 2.988551e+01 3.645983e+01 3.518941e+01 3.324242e+01 5.238419e+01 4.562939e+01 4.745227e+01 4.581214e+01 3.332709e+01 3.757627e+01 3.527205e+01 1.649449e+01 1.835123e+00 2.527764e+00 3.932493e+00 4.365839e+00 3.734172e+00 5.036485e+00 5.974574e+00 4.907119e+00 4.253913e+00 3.219202e+00 3.628215e+00 5.348701e+00 1.186368e+00 4.221804e-01 4.565574e-01 3.439797e-01 4.084621e-01 4.825750e-01 4.985721e-01 7.221750e-01 5.023003e-01 4.645472e-01 4.869259e-01 3.794273e-01 4.757380e-01 1.333557e-01
<GCONST> 1.232844e+02
<MIXTURE> 2 5.061123e-01
<MEAN> 39
 -2.346113e+01 8.418887e+00 -3.240896e+00 1.245262e+00 2.045998e+00 -2.471177e+00 -5.473053e-02 2.199617e+00 -1.475387e+00 -1.954525e+00 -5.208653e-02 5.038539e-01 6.503617e+01 -3.690471e+00 3.343788e-01 -1.837669e+00 -3.471976e-01 1.269983e+00 6.844236e-01 1.231941e+00 9.046451e-01 4.035219e-01 6.072409e-01 6.919789e-01 4.693195e-01 4.959331e-02 1.119870e+00 -5.198774e-01 7.346806e-02 -2.879167e-01 -5.996734e-01 -3.190352e-01 -5.486524e-01 -2.997538e-01 -4.457252e-02 -2.865785e-02 -1.583555e-01 -3.562671e-02 -1.118134e-01
<VARIANCE> 39
 3.592902e+01 3.122956e+01 4.506532e+01 3.778992e+01 2.927724e+01 3.944849e+01 3.753191e+01 3.172817e+01 2.943717e+01 2.428658e+01 2.160830e+01 2.218283e+01 2.285099e+01 3.560655e+00 3.030103e+00 3.697634e+00 2.917141e+00 2.859892e+00 3.817047e+00 3.467637e+00 3.238925e+00 3.135760e+00 2.935169e+00 2.616259e+00 2.250890e+00 1.763305e+00 4.936212e-01 6.170402e-01 7.006149e-01 6.781520e-01 6.748534e-01 7.911845e-01 7.244920e-01 6.089175e-01 5.604231e-01 5.366824e-01 4.831192e-01 5.503456e-01 3.029980e-01
<GCONST> 1.231748e+02
<MIXTURE> 3 2.847499e-01
<MEAN> 39
 -1.703679e+01 9.811928e+00 -4.371531e-01 1.315257e+00 -1.013117e+00 -6.288359e+00 -3.421242e+00 -1.782886e+00 -4.088677e+00 -4.685932e+00 -2.881185e+00 -1.043336e+00 6.604575e+01 -5.220544e+00 1.327385e+00 -1.075734e+00 7.270490e-01 2.302878e+00 1.739962e+00 1.988629e+00 1.569855e+00 4.197976e-01 8.175454e-01 1.199932e+00 1.209362e-01 -1.759456e-01 3.030277e-01 -8.630007e-01 -4.534114e-01 -5.417423e-01 -3.094875e-01 8.848922e-03 -1.388051e-01 1.183635e-01 2.140158e-01 3.050002e-01 9.772398e-02 1.721972e-01 2.278767e-02
<VARIANCE> 39
 5.338284e+01 3.336907e+01 5.316227e+01 3.818547e+01 3.850650e+01 5.336140e+01 4.445720e+01 4.054025e+01 4.143600e+01 3.352036e+01 3.015441e+01 2.690953e+01 2.298654e+01 3.854231e+00 3.466562e+00 4.895512e+00 5.150352e+00 4.123656e+00 6.167083e+00 4.187654e+00 4.395834e+00 4.077772e+00 3.938205e+00 3.751921e+00 3.556066e+00 1.553004e+00 7.608693e-01 6.329070e-01 7.055250e-01 5.687169e-01 7.447746e-01 7.981942e-01 7.521023e-01 6.409395e-01 5.886168e-01 5.806933e-01 5.000121e-01 5.557315e-01 2.492027e-01
<GCONST> 1.301115e+02
<STATE> 3
<NUMMIXES> 3
<MIXTURE> 1 1.069636e-01
<MEAN> 39
 -2.467751e+01 6.978680e+00 -8.959858e+00 2.088783e+00 1.542082e+00 -1.925280e+00 1.065230e+00 1.609478e+00 2.399883e-02 -1.363005e+00 1.386759e+00 1.738724e+00 6.239811e+01 -3.934837e-01 2.034070e-01 -1.184277e-02 1.332278e-01 4.653697e-01 2.691257e-01 3.375600e-01 4.313461e-01 6.697959e-01 6.567767e-01 4.785479e-01 2.654893e-01 -5.151006e-01 4.795784e-01 -7.956824e-02 4.753228e-01 -5.757586e-02 -6.046645e-03 2.981219e-04 -9.826928e-03 4.472416e-02 -1.390806e-02 8.277366e-03 -1.138628e-01 -8.654962e-02 -1.343423e-01
<VARIANCE> 39
 3.182061e+01 3.401728e+01 2.688168e+01 2.164752e+01 1.710373e+01 2.254972e+01 1.678824e+01 1.827864e+01 1.623852e+01 1.675157e+01 1.541082e+01 1.565136e+01 3.050650e+01 1.473329e+00 1.972366e+00 1.778616e+00 1.599143e+00 1.509264e+00 1.580767e+00 1.599357e+00 1.721000e+00 1.645373e+00 1.709439e+00 1.723268e+00 1.565845e+00 1.544727e+00 3.494107e-01 3.048512e-01 3.349480e-01 3.177242e-01 2.327799e-01 3.044032e-01 2.736192e-01 3.063006e-01 3.056858e-01 3.162090e-01 2.977556e-01 2.819153e-01 3.390229e-01
<GCONST> 1.021752e+02
<MIXTURE> 2 4.422408e-01
<MEAN> 39
 -2.792426e+01 8.182988e+00 -7.878300e+00 -3.541563e-01 3.140217e+00 -3.101409e+00 1.592061e+00 2.918519e+00 -3.557981e-01 -4.063548e-01 9.833190e-01 2.101085e+00 6.499394e+01 -1.486739e-01 -6.373523e-01 -3.085763e-02 -7.938017e-01 -1.618025e-01 -2.807992e-01 -1.505647e-01 2.512245e-01 3.532064e-02 2.190142e-02 -9.796388e-02 1.487351e-01 -1.031228e-01 1.275494e+00 -2.695529e-01 5.953702e-01 -6.069969e-02 -5.407149e-01 -3.022275e-01 -6.519673e-01 -3.087031e-01 -9.887798e-02 -2.228432e-01 -2.686004e-01 -1.845427e-01 -7.007357e-02
<VARIANCE> 39
 1.675217e+01 1.951707e+01 2.929464e+01 2.790495e+01 2.185169e+01 2.628483e+01 2.775644e+01 2.263987e+01 2.184605e+01 1.949411e+01 1.702345e+01 1.608458e+01 1.481889e+01 2.568603e+00 1.644705e+00 3.230586e+00 1.864810e+00 1.774917e+00 2.332031e+00 2.215832e+00 2.137280e+00 2.016525e+00 1.980760e+00 1.839586e+00 1.692993e+00 9.676731e-01 4.597103e-01 3.300487e-01 3.541794e-01 4.474766e-01 4.153624e-01 5.786955e-01 5.359640e-01 4.747137e-01 4.365531e-01 4.402447e-01 4.391828e-01 3.699165e-01 2.306971e-01
<GCONST> 1.085773e+02
<MIXTURE> 3 4.507912e-01
<MEAN> 39
 -2.625709e+01 6.390501e+00 -7.687085e+00 2.441137e-01 1.937050e+00 -2.798083e+00 1.096785e+00 2.471915e+00 -3.278169e-01 -9.250923e-01 1.218598e+00 1.499301e+00 6.373700e+01 -2.417362e-01 -1.333237e-01 -1.488616e-01 -2.282525e-01 1.205108e-01 1.216395e-02 4.388086e-02 9.788041e-02 9.162322e-02 9.743290e-02 9.298906e-03 6.972089e-02 -1.048264e-01 4.759634e-01 -1.004195e-01 3.707540e-01 -3.516288e-02 -1.006659e-01 -6.672234e-02 -1.320465e-01 -2.278808e-02 -1.882269e-02 -5.903579e-02 -9.611507e-02 -3.363753e-02 -6.883347e-02
<VARIANCE> 39
 3.363547e+01 5.111111e+01 3.448195e+01 2.587601e+01 2.228677e+01 2.344426e+01 2.485839e+01 2.091513e+01 1.868393e+01 1.760192e+01 1.552158e+01 1.459901e+01 2.274956e+01 7.937929e-01 1.107993e+00 1.272796e+00 1.263398e+00 1.223710e+00 1.372766e+00 1.429015e+00 1.544042e+00 1.492581e+00 1.458474e+00 1.376026e+00 1.311956e+00 6.944715e-01 2.672264e-01 2.251743e-01 2.592180e-01 2.664858e-01 2.509840e-01 3.029301e-01 3.030217e-01 3.134089e-01 3.099984e-01 3.078046e-01 2.920662e-01 2.683556e-01 1.435048e-01
<GCONST> 9.818604e+01
<STATE> 4
<NUMMIXES> 3
<MIXTURE> 1 2.446600e-01
<MEAN> 39
 -2.266896e+01 3.788884e+00 -1.085299e+00 -2.929069e+00 2.830421e+00 -2.267580e+00 -5.750224e+00 4.293622e+00 4.242319e-01 -2.719613e-01 1.119450e+00 6.916450e-01 6.236023e+01 2.643364e+00 -4.322388e-01 1.365481e+00 1.006278e+00 -1.602915e-01 1.253296e+00 -2.168068e-02 -5.478095e-01 4.605488e-01 3.068799e-01 1.980690e-01 -3.932983e-01 -2.753577e+00 4.321188e-01 1.004098e-01 -2.574040e-01 3.868212e-01 -1.326545e-01 1.106732e-01 7.018462e-01 -2.948303e-01 -1.513409e-01 -3.348555e-02 -1.020601e-01 -2.762641e-02 -4.008639e-01
<VARIANCE> 39
 6.607871e+01 4.030262e+01 3.895982e+01 3.665734e+01 4.575840e+01 5.623666e+01 4.878670e+01 3.767857e+01 3.533221e+01 3.212775e+01 2.297147e+01 2.350175e+01 3.174655e+01 2.900590e+00 2.616786e+00 3.345497e+00 2.238878e+00 2.666246e+00 2.982867e+00 3.660615e+00 2.823354e+00 2.669044e+00 2.432162e+00 2.081316e+00 1.911898e+00 2.396425e+00 9.345156e-01 7.162808e-01 6.060550e-01 7.358118e-01 7.244114e-01 9.066157e-01 7.808269e-01 7.120780e-01 6.830235e-01 6.383109e-01 4.746396e-01 4.611651e-01 6.365175e-01
<GCONST> 1.265394e+02
<MIXTURE> 2 4.114121e-01
<MEAN> 39
 -2.052274e+01 5.186983e+00 -4.229420e+00 -2.525023e+00 -1.155358e+00 -7.100952e+00 -1.353792e+00 1.451054e+00 -9.790077e-01 -2.245028e+00 -1.466720e+00 1.854582e+00 6.480201e+01 5.730313e+00 -1.625075e+00 1.691111e+00 -1.174437e+00 -2.821709e+00 -2.002091e+00 -3.176578e+00 -1.389134e+00 -2.898465e-01 -7.777806e-01 -1.260309e+00 -6.134396e-01 1.094492e+00 7.973469e-01 -3.293796e-01 2.704318e-02 -7.561944e-02 -4.104929e-01 1.610026e-01 -5.126762e-01 -1.642663e-01 4.880025e-02 6.676660e-02 1.845926e-02 -2.581559e-01 3.792075e-01
<VARIANCE> 39
 6.443964e+01 2.174199e+01 3.208815e+01 2.346900e+01 3.042129e+01 4.806559e+01 4.350079e+01 3.305736e+01 3.018138e+01 2.528907e+01 2.443624e+01 2.283075e+01 1.845143e+01 3.482432e+00 2.641997e+00 3.172182e+00 4.339165e+00 3.623959e+00 5.569073e+00 4.483654e+00 4.525140e+00 3.579577e+00 3.106229e+00 3.829782e+00 3.608372e+00 1.832936e+00 1.217229e+00 3.786882e-01 4.572388e-01 4.932948e-01 6.760257e-01 9.111212e-01 9.610579e-01 7.814622e-01 5.392308e-01 5.115672e-01 6.401784e-01 5.325392e-01 2.740388e-01
<GCONST> 1.257859e+02
<MIXTURE> 3 3.439291e-01
<MEAN> 39
 -2.072366e+01 4.445969e+00 -1.839210e+00 -1.438445e+00 1.652291e+00 -1.541502e+00 -1.477034e+00 3.129371e+00 -3.488697e-02 -4.014815e-01 1.034439e-01 4.777809e-01 5.948252e+01 2.259715e+00 -8.574466e-01 9.809567e-01 1.639050e-01 -9.038546e-01 2.100458e-01 -6.708019e-01 -5.394274e-01 -1.358560e-01 -1.583016e-01 -1.331003e-01 -5.572808e-01 -8.783761e-01 4.771987e-01 -1.356673e-01 -7.872353e-02 2.822769e-02 -2.730499e-01 -1.272347e-01 -1.898099e-01 -2.702321e-01 -1.119552e-01 -7.265968e-02 2.469407e-02 -4.760885e-02 3.256727e-01
<VARIANCE> 39
 6.814759e+01 3.771270e+01 3.414898e+01 3.241467e+01 3.407759e+01 4.084223e+01 4.035085e+01 3.100617e+01 2.677509e+01 2.204426e+01 1.968041e+01 1.996651e+01 4.805572e+01 5.594748e+00 2.979663e+00 3.385695e+00 3.192575e+00 3.391183e+00 3.817532e+00 4.789685e+00 3.665940e+00 3.037141e+00 2.443317e+00 2.194484e+00 2.164263e+00 4.935421e+00 1.041209e+00 6.430541e-01 5.129861e-01 7.421232e-01 6.667147e-01 7.789186e-01 7.797499e-01 7.091730e-01 5.824485e-01 4.790629e-01 4.493221e-01 4.439453e-01 9.051641e-01
<GCONST> 1.273113e+02
<TRANSP> 5
 0.000000e+00 1.000000e+00 0.000000e+00 0.000000e+00 0.000000e+00
 0.000000e+00 6.447846e-01 3.552154e-01 0.000000e+00 0.000000e+00
 0.000000e+00 0.000000e+00 8.096971e-01 1.903029e-01 0.000000e+00
 0.000000e+00 0.000000e+00 0.000000e+00 6.585286e-01 3.414714e-01
 0.000000e+00 0.000000e+00 0.000000e+00 0.000000e+00 0.000000e+00
<ENDHMM>
~h "t"
<BEGINHMM>
<NUMSTATES> 5
<STATE> 2
<NUMMIXES> 3
<MIXTURE> 1 1.185045e-01
<MEAN> 39
 -7.201144e+00 6.790796e+00 5.164582e+00 2.465688e+00 -4.914653e+00 -6.336418e+00 -6.423535e+00 5.865346e-01 -1.336806e+00 -2.413026e+00 -2.112842e-01 1.173320e+00 5.905986e+01 -1.758839e+00 1.776573e+00 -5.044635e-01 1.491767e+00 2.579549e+00 1.425860e+00 2.348437e+00 -2.314849e-01 9.234337e-01 5.362141e-01 -4.360634e-02 -1.202345e-03 -3.562448e+00 -2.364068e-01 -8.401281e-01 -4.372213e-01 -5.429152e-01 -1.687123e-01 4.438196e-01 9.468938e-02 1.318841e-01 -1.155680e-01 1.061871e-01 1.007590e-01 -3.042837e-01 4.338783e-01
<VARIANCE> 39
 3.319830e+01 3.100398e+01 3.977303e+01 3.044624e+01 3.626822e+01 4.488099e+01 3.766614e+01 3.536779e+01 4.197257e+01 2.654462e+01 2.675929e+01 2.783994e+01 3.760298e+01 3.396106e+00 3.506755e+00 3.839768e+00 3.180954e+00 3.334591e+00 4.556386e+00 3.690061e+00 4.670312e+00 3.972031e+00 2.820366e+00 3.589907e+00 3.278494e+00 3.422733e+00 3.584952e-01 4.638398e-01 3.750066e-01 4.063077e-01 5.484829e-01 5.386086e-01 5.925024e-01 4.776375e-01 5.474526e-01 4.471438e-01 4.526971e-01 4.588945e-01 4.970223e-01
<GCONST> 1.243834e+02
<MIXTURE> 2 4.405964e-01
<MEAN> 39
 -7.163067e+00 5.136425e+00 2.909568e+00 1.916466e+00 -3.396275e+00 -4.422537e+00 -4.661639e+00 -2.355886e+00 -2.725193e+00 -3.017993e+00 -3.341617e+00 -2.604235e+00 5.674588e+01 -1.102288e+00 -8.355086e-02 1.087200e-01 2.686484e-01 9.505416e-01 1.139515e+00 7.251516e-01 1.537165e-01 -1.277959e-02 1.406524e-02 4.262514e-01 -2.011281e-02 -1.302733e+00 -2.729784e-01 -8.459240e-01 -3.088892e-01 -7.639881e-01 -5.880209e-01 -1.095108e-01 -2.093731e-01 2.699698e-01 -6.995493e-02 1.907189e-01 4.003143e-01 2.694607e-01 1.286028e+00
<VARIANCE> 39
 4.984695e+01 3.448272e+01 3.881041e+01 4.256001e+01 4.668349e+01 4.932277e+01 4.706013e+01 4.455742e+01 4.309632e+01 3.312507e+01 3.224246e+01 2.510758e+01 3.587866e+01 5.458103e+00 5.466102e+00 4.368063e+00 4.363936e+00 4.902968e+00 4.570557e+00 4.288883e+00 4.938917e+00 4.730624e+00 3.562232e+00 3.594461e+00 3.074661e+00 4.366498e+00 5.699353e-01 7.577104e-01 6.275751e-01 7.104039e-01 9.442141e-01 8.132991e-01 9.012030e-01 8.603911e-01 8.550602e-01 7.121140e-01 7.076420e-01 5.435414e-01 7.769907e-01
<GCONST> 1.348037e+02
<MIXTURE> 3 4.408998e-01
<MEAN> 39
 -8.373249e+00 7.092554e+00 3.928448e+00 2.947704e+00 -2.041018e+00 -3.585381e+00 -3.621994e+00 -1.264889e+00 -2.237650e+00 -2.360770e+00 -1.792377e+00 -1.659303e+00 5.466393e+01 -1.252626e+00 2.219009e-02 -4.382348e-01 4.643868e-01 1.507062e+00 1.435278e+00 1.370469e+00 2.426307e-01 5.177027e-01 3.292527e-01 2.894949e-01 -7.029550e-02 -2.139256e+00 -3.416035e-01 -9.404532e-01 -3.979625e-01 -7.398174e-01 -5.444886e-01 -2.612716e-02 -2.209491e-01 2.107705e-01 -8.913942e-02 1.316394e-01 2.846598e-01 1.653109e-01 1.274706e+00
<VARIANCE> 39
 3.839471e+01 2.021571e+01 3.267540e+01 2.609727e+01 3.180675e+01 3.649836e+01 3.505136e+01 3.234095e+01 3.359980e+01 2.476211e+01 2.427658e+01 2.108399e+01 2.485534e+01 5.378002e+00 4.567873e+00 4.142987e+00 3.714442e+00 4.076863e+00 3.918234e+00 3.687550e+00 4.352179e+00 4.065995e+00 3.051323e+00 3.205471e+00 2.835102e+00 3.900815e+00 4.437833e-01 5.283570e-01 4.876246e-01 4.883332e-01 6.081972e-01 6.331773e-01 6.640904e-01 5.689873e-01 6.137910e-01 5.158543e-01 4.776646e-01 4.628469e-01 6.505423e-01
<GCONST> 1.250110e+02
<STATE> 3
<NUMMIXES> 3
<MIXTURE> 1 2.167647e-01
<MEAN> 39
 -1.632261e+01 -4.969631e+00 -1.030460e-01 -1.537287e+00 -1.621827e+00 -1.209452e+00 4.059133e-01 4.485107e+00 -4.927562e-01 -1.978182e+00 2.016162e+00 1.089554e+00 5.867226e+01 -7.051712e-02 1.122338e-01 -2.984159e-02 1.797144e-01 2.041733e-01 2.550747e-01 2.367140e-01 1.557993e-01 3.193389e-01 2.351605e-01 1.115643e-01 8.025378e-02 -2.458708e-01 9.919174e-02 1.352142e-01 3.797309e-02 1.198797e-01 3.957812e-02 4.310757e-02 1.595183e-02 -8.288672e-02 1.428112e-02 -1.856405e-03 -9.881367e-02 -9.219439e-02 -8.950875e-02
<VARIANCE> 39
 2.294842e+01 4.573288e+01 2.004932e+01 1.711102e+01 1.905688e+01 2.724195e+01 2.218432e+01 2.291969e+01 2.132133e+01 2.021982e+01 1.819343e+01 1.548840e+01 4.037145e+01 1.288685e+00 1.167547e+00 9.320298e-01 1.178767e+00 1.141606e+00 1.463755e+00 1.489308e+00 1.799064e+00 1.630661e+00 1.584559e+00 1.583629e+00 1.413476e+00 1.393927e+00 1.225596e-01 1.833904e-01 1.747945e-01 2.254691e-01 2.252413e-01 2.780297e-01 2.785274e-01 3.368212e-01 3.276276e-01 3.071752e-01 2.961432e-01 2.865074e-01 1.640591e-01
<GCONST> 9.771250e+01
<MIXTURE> 2 4.053007e-01
<MEAN> 39
 -1.189746e+01 2.709957e+00 1.843410e+00 1.109177e+00 -7.842342e-01 -1.378627e-01 -1.662469e+00 -2.267458e-01 -1.515714e+00 -1.290168e+00 -5.607167e-01 -1.259332e+00 5.501083e+01 -1.336819e+00 -1.680516e+00 -5.135710e-01 -1.375234e+00 -7.615165e-01 6.547544e-02 -3.335772e-01 3.019810e-01 -2.615927e-01 2.235510e-01 8.183568e-01 4.913779e-01 2.109756e+00 2.037834e-02 -1.410674e-01 -4.777240e-02 -4.166166e-01 -6.954389e-01 -5.887902e-01 -4.589434e-01 9.330682e-02 -1.501303e-01 -5.269841e-02 5.639022e-02 1.662102e-01 1.223389e+00
<VARIANCE> 39
 3.730014e+01 3.345346e+01 2.936626e+01 3.105440e+01 3.493201e+01 3.611852e+01 3.764680e+01 2.958946e+01 2.987924e+01 2.344949e+01 2.098514e+01 1.725830e+01 4.329742e+01 5.388029e+00 3.873981e+00 3.760456e+00 4.017416e+00 4.278364e+00 4.395860e+00 4.292574e+00 3.840739e+00 3.972892e+00 2.982996e+00 3.094908e+00 2.477720e+00 5.390937e+00 8.316141e-01 7.162797e-01 6.606863e-01 7.226784e-01 7.842569e-01 7.810260e-01 8.457559e-01 7.511280e-01 6.903978e-01 5.992454e-01 6.228176e-01 4.965965e-01 8.263725e-01
<GCONST> 1.292267e+02
<MIXTURE> 3 3.779351e-01
<MEAN> 39
 -1.405787e+01 8.949049e-01 -2.968414e-01 9.293032e-01 -1.299769e-01 1.992239e-01 3.613383e-01 2.198167e+00 3.324887e-01 -6.881716e-01 6.830164e-01 -1.369352e-02 5.337593e+01 -6.193936e-01 -4.793007e-01 -3.261063e-01 -3.128918e-01 -1.084099e-02 1.162990e-01 6.485795e-02 3.655744e-02 -7.850367e-02 3.862062e-02 1.434191e-01 8.393396e-02 4.506655e-01 -4.920325e-02 -3.211318e-02 1.730709e-02 -1.581023e-01 -2.020689e-01 -2.217654e-01 -2.137976e-01 -1.264312e-02 -1.262807e-01 -9.506722e-02 -1.286670e-02 3.886202e-02 5.644384e-01
<VARIANCE> 39
 2.191379e+01 3.876459e+01 1.698089e+01 1.592845e+01 1.756022e+01 2.054516e+01 1.940373e+01 2.012382e+01 1.864775e+01 1.777672e+01 1.462753e+01 1.326413e+01 3.527814e+01 2.425447e+00 2.276082e+00 1.811307e+00 1.905754e+00 1.754142e+00 2.056059e+00 2.090524e+00 1.991863e+00 1.962785e+00 1.796697e+00 1.720299e+00 1.567703e+00 3.487009e+00 3.469593e-01 3.683030e-01 3.017032e-01 3.103902e-01 3.435554e-01 4.044156e-01 4.257217e-01 3.873319e-01 3.985497e-01 3.520323e-01 3.217510e-01 3.004725e-01 5.946902e-01
<GCONST> 1.066488e+02
<STATE> 4
<NUMMIXES> 3
<MIXTURE> 1 1.895452e-01
<MEAN> 39
 -2.213122e+01 -1.096160e-01 -1.207927e+00 -5.962237e+00 -2.982132e+00 -1.895613e+00 -2.757944e+00 2.705993e+00 -1.830567e+00 1.070151e+00 4.168307e+00 1.941154e+00 6.783289e+01 -1.855836e+00 -1.321755e-01 1.301737e-01 -2.748242e-01 -6.028444e-01 -6.015145e-01 6.797512e-01 1.475670e+00 4.282901e-01 1.695145e-01 4.703780e-01 1.016912e+00 1.957018e+00 1.445178e+00 3.053209e-01 4.491086e-01 8.663653e-01 -7.994075e-02 -1.372820e-01 5.762976e-02 -2.984398e-01 -8.403619e-02 -4.353439e-01 -7.603362e-01 -2.978300e-01 -1.210649e+00
<VARIANCE> 39
 4.068838e+01 3.768422e+01 3.446732e+01 3.176055e+01 3.468188e+01 3.850018e+01 4.397868e+01 3.304085e+01 2.529808e+01 2.409170e+01 2.037385e+01 2.115133e+01 1.948568e+01 5.331500e+00 2.922158e+00 3.182117e+00 3.755786e+00 3.252457e+00 3.196930e+00 3.771084e+00 3.189138e+00 2.993884e+00 2.623761e+00 2.833421e+00 2.217541e+00 5.859915e+00 9.707943e-01 7.464247e-01 6.287271e-01 6.156534e-01 8.188540e-01 9.094439e-01 9.422784e-01 8.421357e-01 6.394235e-01 6.074614e-01 5.999314e-01 5.647773e-01 4.951769e-01
<GCONST> 1.271319e+02
<MIXTURE> 2 4.195164e-01
<MEAN> 39
 -1.509526e+01 -1.029707e+00 1.702121e+00 -1.765461e+00 -5.121580e+00 -3.796564e+00 -2.580972e+00 1.499108e+00 -2.892411e+00 -1.990569e+00 -2.888679e-01 5.657997e-01 6.412260e+01 2.898213e+00 -3.964600e-01 3.484009e-01 -3.469349e-01 -1.651557e+00 -1.378362e+00 -1.763538e+00 -9.457105e-01 -9.458201e-01 -8.763026e-01 -7.800440e-01 -4.470812e-01 1.309487e+00 8.084371e-01 9.003676e-02 -1.008297e-01 -1.598074e-01 -1.586975e-01 -5.542116e-02 -4.622940e-01 -2.507647e-01 5.934317e-03 1.678191e-03 -1.830779e-02 -2.048732e-01 6.472705e-02
<VARIANCE> 39
 6.740975e+01 4.643526e+01 4.521561e+01 4.842273e+01 5.070282e+01 5.723698e+01 4.945473e+01 4.870696e+01 4.076404e+01 3.154915e+01 3.092249e+01 2.432371e+01 3.147073e+01 7.053524e+00 3.868799e+00 4.222011e+00 5.124275e+00 6.162486e+00 7.001669e+00 5.484846e+00 4.926374e+00 4.447919e+00 3.914932e+00 4.429724e+00 3.153769e+00 5.355712e+00 1.083247e+00 6.904703e-01 6.626065e-01 8.523563e-01 9.862654e-01 1.017972e+00 9.358695e-01 9.930912e-01 8.571389e-01 6.913750e-01 7.109852e-01 5.731732e-01 7.691589e-01
<GCONST> 1.384089e+02
<MIXTURE> 3 3.909371e-01
<MEAN> 39
 -1.469206e+01 -1.266600e+00 2.390133e-01 -1.723303e+00 -5.553602e+00 -2.004354e+00 -4.324105e+00 1.797027e+00 -1.005858e+00 -1.238513e+00 9.820072e-01 5.199698e-02 6.448026e+01 2.805203e-02 -4.755875e-01 -2.065560e-01 6.493883e-02 -4.779307e-01 -3.308066e-01 -2.455040e-01 3.638125e-01 1.290682e-01 8.671314e-03 1.019833e-01 6.018627e-02 8.250374e-01 5.896735e-01 2.593566e-01 5.871893e-02 1.534090e-01 1.017374e-01 -1.400729e-01 -9.577633e-02 -1.775370e-01 -1.030992e-01 -8.538537e-02 -1.693859e-01 -1.541606e-01 -2.317214e-01
<VARIANCE> 39
 1.014586e+02 5.428815e+01 5.315127e+01 4.843906e+01 5.483527e+01 5.870608e+01 5.881246e+01 4.552701e+01 3.985059e+01 2.909977e+01 2.970732e+01 2.897612e+01 4.669987e+01 7.025501e+00 3.729243e+00 3.556780e+00 3.808033e+00 4.967770e+00 4.482649e+00 4.675544e+00 3.489602e+00 3.304028e+00 2.681259e+00 2.894870e+00 2.484951e+00 6.042751e+00 1.277364e+00 7.723902e-01 5.995677e-01 7.378150e-01 9.101561e-01 9.042562e-01 9.447274e-01 7.824053e-01 6.993991e-01 5.708300e-01 5.563317e-01 5.445654e-01 8.432145e-01
<GCONST> 1.358831e+02
<TRANSP> 5
 0.000000e+00 1.000000e+00 0.000000e+00 0.000000e+00 0.000000e+00
 0.000000e+00 4.142035e-01 5.857966e-01 0.000000e+00 0.000000e+00
 0.000000e+00 0.000000e+00 6.906715e-01 3.093285e-01 0.000000e+00
 0.000000e+00 0.000000e+00 0.000000e+00 6.796507e-01 3.203492e-01
 0.000000e+00 0.000000e+00 0.000000e+00 0.000000e+00 0.000000e+00
<ENDHMM>
~h "v"
<BEGINHMM>
<NUMSTATES> 5
<STATE> 2
<NUMMIXES> 3
<MIXTURE> 1 1.404579e-01
<MEAN> 39
 2.999705e+00 -3.158345e+00 -3.280090e+00 -6.048223e-01 -3.958886e+00 1.400910e+00 -1.195336e+01 -4.393307e+00 8.673699e-01 2.558878e+00 4.585080e+00 -4.187188e+00 6.624581e+01 -9.941766e-01 4.007509e+00 6.134660e-01 2.651988e+00 3.093904e+00 2.751147e-01 2.090850e+00 -2.142868e+00 -2.411911e+00 -1.231038e+00 -3.655343e-02 1.121166e+00 -3.931936e+00 -9.364980e-01 3.463278e-01 4.787597e-01 -6.231764e-02 -7.356342e-03 -2.315274e-01 6.006573e-01 7.712228e-01 3.319528e-02 -4.806173e-01 -9.176244e-01 -1.299012e-01 -1.108079e-01
<VARIANCE> 39
 8.859104e+00 2.499604e+01 2.435765e+01 3.033470e+01 2.388020e+01 4.413583e+01 4.589138e+01 3.294286e+01 2.811484e+01 2.692349e+01 2.365241e+01 2.843060e+01 1.569978e+01 1.439594e+00 1.282164e+00 2.187276e+00 2.523377e+00 1.801209e+00 3.698734e+00 3.556663e+00 4.143692e+00 3.382153e+00 2.932799e+00 3.331060e+00 2.094466e+00 8.992856e-01 1.515429e-01 4.259482e-01 3.608716e-01 4.183930e-01 4.490402e-01 5.390818e-01 5.329905e-01 4.739905e-01 4.944767e-01 4.526860e-01 5.006526e-01 5.711371e-01 2.983078e-01
<GCONST> 1.135130e+02
<MIXTURE> 2 4.766763e-01
<MEAN> 39
 -1.148483e+00 3.496333e+00 -2.492051e+00 -1.953396e+00 -4.462534e+00 -5.447866e+00 -1.012814e+01 -7.636072e+00 -3.227000e+00 -2.893768e-01 -1.219355e+00 -2.442298e+00 6.197475e+01 -1.355816e+00 1.846019e+00 5.875849e-01 1.679743e+00 1.539367e+00 1.168759e+00 7.551280e-01 -2.680548e-01 -4.586378e-01 -3.134893e-01 2.018696e-01 -2.472252e-01 -1.875662e+00 -4.263965e-01 -2.787398e-01 1.940880e-01 -1.419967e-01 -1.950816e-01 -1.203888e-02 2.720578e-01 4.678187e-01 3.868727e-02 -1.322338e-01 -1.204418e-01 6.347126e-02 2.563798e-01
<VARIANCE> 39
 2.484318e+01 2.255386e+01 4.417043e+01 4.916767e+01 2.521087e+01 4.995877e+01 3.042127e+01 3.609632e+01 3.983342e+01 3.845259e+01 4.031548e+01 2.359470e+01 1.818724e+01 2.047935e+00 2.535420e+00 2.772550e+00 3.687172e+00 3.133915e+00 3.838357e+00 3.273724e+00 3.721437e+00 3.604569e+00 2.417379e+00 2.800193e+00 2.620094e+00 1.555687e+00 2.459677e-01 2.998683e-01 3.085636e-01 4.114232e-01 3.901026e-01 4.849289e-01 5.076928e-01 5.080822e-01 5.482569e-01 4.373690e-01 4.043718e-01 3.671088e-01 2.016457e-01
<GCONST> 1.178525e+02
<MIXTURE> 3 3.828661e-01
<MEAN> 39
 9.852429e-01 9.182559e-01 -2.451908e+00 4.191617e-01 -2.705224e+00 -3.289181e+00 -1.151595e+01 -6.602053e+00 -1.815338e+00 8.216709e-01 1.080123e+00 -2.904867e+00 6.312033e+01 -1.435925e+00 3.140489e+00 7.003549e-01 1.980839e+00 2.352910e+00 1.017940e+00 1.720704e+00 -1.047995e+00 -1.370458e+00 -6.052635e-01 -2.001461e-01 3.993583e-02 -3.017566e+00 -6.968512e-01 -1.172591e-01 3.778959e-01 -2.061027e-01 -3.452961e-01 -3.924676e-02 3.833236e-01 7.628699e-01 1.168581e-01 -3.252522e-01 -4.131026e-01 1.458207e-02 2.136868e-01
<VARIANCE> 39
 1.196654e+01 2.276474e+01 3.389934e+01 3.423455e+01 2.483045e+01 5.707504e+01 3.268394e+01 3.465921e+01 3.101635e+01 2.648597e+01 3.284120e+01 2.305148e+01 1.628688e+01 1.459274e+00 2.006827e+00 2.596172e+00 3.044397e+00 2.590236e+00 4.649375e+00 4.165417e+00 4.160409e+00 3.456941e+00 2.536852e+00 3.038912e+00 2.309655e+00 1.352515e+00 1.869223e-01 3.603028e-01 3.564021e-01 3.983045e-01 4.047009e-01 5.320503e-01 5.199663e-01 5.162923e-01 5.804257e-01 4.340355e-01 4.467386e-01 4.317974e-01 2.504941e-01
<GCONST> 1.157563e+02
<STATE> 3
<NUMMIXES> 3
<MIXTURE> 1 1.236025e-01
<MEAN> 39
 -4.608163e+00 8.979861e+00 3.699975e+00 4.523524e+00 8.154978e-01 -1.113680e-01 -5.729890e+00 -3.249425e+00 -1.710720e+00 -8.166239e-01 -9.790121e-01 -3.113086e+00 5.701062e+01 -2.882520e+00 1.388755e+00 6.181883e-01 1.635469e+00 1.452160e+00 1.940817e-01 2.463357e+00 1.188005e+00 1.924039e-02 -6.968549e-01 -9.074857e-01 4.436916e-01 -2.077195e+00 -2.238000e-01 -1.079836e+00 -3.795502e-01 -6.694061e-01 -6.334735e-01 1.984148e-01 -3.664377e-01 3.931831e-01 1.068919e-01 5.951189e-02 1.887205e-01 3.435301e-02 8.463860e-01
<VARIANCE> 39
 1.951855e+01 1.566769e+01 2.132252e+01 1.600621e+01 1.449113e+01 2.578562e+01 3.224002e+01 2.870266e+01 2.891982e+01 2.090531e+01 2.171384e+01 2.174369e+01 2.237645e+01 2.523398e+00 3.581070e+00 3.879196e+00 2.916184e+00 2.583038e+00 3.734563e+00 3.620258e+00 3.943114e+00 3.752559e+00 2.633236e+00 2.555433e+00 2.681299e+00 2.039673e+00 2.696357e-01 3.052685e-01 3.043390e-01 3.197431e-01 3.170092e-01 4.349465e-01 4.765052e-01 5.986641e-01 4.902274e-01 3.422150e-01 3.731950e-01 3.733089e-01 2.380310e-01
<GCONST> 1.128822e+02
<MIXTURE> 2 4.414981e-01
<MEAN> 39
 -4.900176e+00 6.112456e+00 1.804196e-01 2.375903e+00 -1.401742e+00 -2.966358e+00 -7.450218e+00 -6.365367e+00 -5.753392e+00 -3.326587e+00 -2.559214e+00 -3.660914e+00 5.906021e+01 -1.743758e+00 6.725976e-01 6.757748e-01 8.149412e-01 3.576868e-01 5.594694e-01 7.976209e-01 6.163684e-01 -1.424962e-01 -3.394850e-01 -1.888765e-01 4.145434e-02 -5.954491e-01 3.572615e-01 -1.156430e+00 -3.746579e-01 -8.704345e-01 -8.298734e-01 -5.805915e-01 -3.713714e-01 4.556293e-01 4.678714e-01 2.280455e-01 1.031463e-01 1.858907e-01 1.135359e+00
<VARIANCE> 39
 2.360443e+01 2.014469e+01 3.056150e+01 2.721622e+01 2.455437e+01 3.260773e+01 2.760583e+01 2.602969e+01 2.498970e+01 2.237545e+01 2.727886e+01 2.111862e+01 2.042112e+01 2.149826e+00 2.331316e+00 1.889227e+00 2.541089e+00 2.367844e+00 2.806412e+00 2.414700e+00 2.540647e+00 2.413789e+00 1.954275e+00 2.087507e+00 1.739040e+00 1.540557e+00 4.482011e-01 5.063128e-01 5.479279e-01 6.387579e-01 7.308796e-01 8.090394e-01 7.957076e-01 7.428964e-01 7.667818e-01 5.361300e-01 6.013376e-01 4.587477e-01 4.320058e-01
<GCONST> 1.170880e+02
<MIXTURE> 3 4.348990e-01
<MEAN> 39
 -4.002876e+00 8.151261e+00 2.721143e+00 4.786489e+00 1.147975e+00 -7.168226e-01 -6.425008e+00 -5.549651e+00 -4.074896e+00 -2.071927e+00 -1.335495e+00 -3.221209e+00 5.652191e+01 -2.302231e+00 1.322975e+00 9.883359e-01 1.164884e+00 8.670720e-01 5.588665e-01 1.767048e+00 9.028431e-01 -4.058120e-01 -8.067512e-01 -9.395461e-01 8.172296e-03 -1.576087e+00 9.325244e-03 -1.136920e+00 -3.823817e-01 -7.183161e-01 -8.337963e-01 -1.481439e-01 -4.273513e-01 4.981826e-01 4.204952e-01 2.264336e-01 2.024081e-01 9.779013e-02 1.067021e+00
<VARIANCE> 39
 1.720383e+01 1.620314e+01 2.343459e+01 1.707549e+01 1.692025e+01 2.689571e+01 2.490088e+01 2.350200e+01 2.112965e+01 1.807423e+01 1.965750e+01 1.605150e+01 1.642278e+01 1.767219e+00 3.347582e+00 2.238704e+00 2.374998e+00 2.172498e+00 3.182718e+00 2.917197e+00 2.972661e+00 2.539073e+00 2.134948e+00 2.372854e+00 1.937868e+00 1.875893e+00 3.408446e-01 3.836977e-01 4.295617e-01 4.311809e-01 4.731980e-01 5.479236e-01 5.882102e-01 6.528365e-01 5.355313e-01 3.955717e-01 4.342582e-01 3.429748e-01 3.480035e-01
<GCONST> 1.111381e+02
<STATE> 4
<NUMMIXES> 3
<MIXTURE> 1 2.432366e-01
<MEAN> 39
 -1.440845e+01 1.169544e+00 -2.235748e+00 -4.010820e-02 -1.481479e+00 -1.307454e+00 -4.362730e+00 2.207919e+00 1.690775e+00 4.851016e-01 8.242848e-01 3.771122e-01 6.181794e+01 -5.490651e-01 4.088900e-02 -8.923426e-03 3.096542e-02 3.995273e-01 2.923434e-01 6.801283e-01 4.675814e-01 2.389244e-01 1.929172e-01 1.948668e-01 2.560903e-01 -4.733194e-01 3.549903e-01 2.042717e-01 1.510344e-01 1.154260e-01 5.229904e-02 -1.021189e-02 2.565611e-02 -2.582704e-01 -2.741679e-01 -2.140878e-01 -1.334309e-01 -1.396224e-01 -1.998920e-01
<VARIANCE> 39
 9.055851e+01 5.585802e+01 3.760177e+01 3.423841e+01 3.544684e+01 4.112218e+01 6.236300e+01 3.389978e+01 2.825681e+01 2.684959e+01 2.794740e+01 2.586366e+01 5.380047e+01 5.035241e+00 2.945424e+00 2.467028e+00 2.467586e+00 2.311262e+00 2.819132e+00 3.470104e+00 3.009037e+00 2.519573e+00 2.407569e+00 2.266938e+00 2.026551e+00 3.039224e+00 9.864892e-01 6.910292e-01 4.748226e-01 6.293519e-01 5.496147e-01 6.227492e-01 9.306434e-01 5.895719e-01 4.850806e-01 4.807003e-01 4.654462e-01 4.352797e-01 6.089652e-01
<GCONST> 1.258576e+02
<MIXTURE> 2 3.916237e-01
<MEAN> 39
 -7.389019e+00 3.429736e+00 -8.120730e-01 2.221674e+00 -2.268341e+00 -2.316756e+00 -7.043731e+00 -4.153716e+00 -4.629963e+00 -2.630757e+00 -1.513628e+00 -2.441657e+00 6.175428e+01 1.238024e+00 -2.073848e+00 -1.116357e+00 -2.020989e+00 -1.964660e+00 -1.258395e+00 -1.259746e+00 3.410214e-01 7.417769e-01 4.974529e-01 5.085925e-01 2.655883e-01 2.462470e+00 7.979004e-01 -5.285270e-01 -1.732624e-01 -7.071785e-01 -4.747888e-01 -3.016172e-01 -3.096231e-01 1.184714e-01 2.806106e-01 1.576751e-01 8.131716e-02 -5.034981e-03 5.977483e-01
<VARIANCE> 39
 3.377526e+01 2.425557e+01 3.185269e+01 3.216619e+01 2.491006e+01 4.218834e+01 2.781513e+01 2.716428e+01 2.322145e+01 2.040256e+01 2.279462e+01 1.731535e+01 2.478881e+01 3.971535e+00 2.838596e+00 3.704087e+00 4.285670e+00 3.657275e+00 3.790195e+00 4.324471e+00 4.184939e+00 3.509323e+00 2.651236e+00 3.122418e+00 2.359083e+00 2.386465e+00 5.988356e-01 5.969393e-01 6.411052e-01 7.402852e-01 6.571789e-01 7.731801e-01 7.244471e-01 7.006101e-01 6.100350e-01 4.775159e-01 5.668802e-01 4.522370e-01 4.508010e-01
<GCONST> 1.235405e+02
<MIXTURE> 3 3.651402e-01
<MEAN> 39
 -1.165952e+01 5.499156e+00 1.570485e+00 4.684771e+00 7.288057e-01 7.030625e-01 -2.497304e+00 -4.697429e-01 -2.294521e+00 -2.133189e+00 -1.568538e+00 -1.666119e+00 5.680883e+01 -1.108066e+00 -1.156351e+00 -6.839021e-01 -5.702045e-01 -4.774934e-01 -1.347168e-02 1.201388e-01 6.346357e-01 2.254154e-01 1.102476e-01 3.303877e-01 4.182930e-01 7.749335e-01 7.818007e-01 -5.245941e-01 -3.331179e-01 -6.953484e-01 -5.968855e-01 -3.726308e-01 -6.932576e-01 -2.824778e-01 5.724259e-02 1.899574e-01 3.120283e-01 2.712004e-02 8.032262e-01
<VARIANCE> 39
 3.667859e+01 3.151522e+01 2.822940e+01 2.345276e+01 2.092839e+01 2.432379e+01 2.845508e+01 2.406584e+01 2.303832e+01 1.930616e+01 1.777800e+01 1.620941e+01 3.292463e+01 4.659328e+00 2.617181e+00 2.691878e+00 2.717993e+00 2.890214e+00 2.750398e+00 3.926009e+00 3.233284e+00 2.858498e+00 2.218432e+00 2.231151e+00 1.858959e+00 2.969449e+00 6.859394e-01 7.269961e-01 6.513368e-01 6.242952e-01 5.802062e-01 6.063048e-01 6.954557e-01 6.123992e-01 5.830756e-01 4.655928e-01 5.085411e-01 4.203019e-01 5.849128e-01
<GCONST> 1.198285e+02
<TRANSP> 5
 0.000000e+00 1.000000e+00 0.000000e+00 0.000000e+00 0.000000e+00
 0.000000e+00 4.217028e-01 5.782972e-01 0.000000e+00 0.000000e+00
 0.000000e+00 0.000000e+00 4.846858e-01 5.153142e-01 0.000000e+00
 0.000000e+00 0.000000e+00 0.000000e+00 6.408957e-01 3.591044e-01
 0.000000e+00 0.000000e+00 0.000000e+00 0.000000e+00 0.000000e+00
<ENDHMM>
~h "w"
<BEGINHMM>
<NUMSTATES> 5
<STATE> 2
<NUMMIXES> 3
<MIXTURE> 1 2.672285e-01
<MEAN> 39
 -1.156404e+01 -2.295683e+00 -3.425954e+00 3.391507e-01 1.224694e+00 3.199011e+00 -4.038063e+00 -6.838816e-02 1.023399e-01 7.716498e-02 1.663492e+00 -7.267046e-01 5.821980e+01 1.350677e+00 9.863895e-01 -1.017840e-01 -6.886331e-01 -3.786736e-01 1.224495e-01 4.976449e-01 -6.751352e-01 -1.049096e+00 -4.751447e-01 1.121524e-01 1.461333e-01 -4.657605e-01 2.871463e-01 3.900360e-01 1.568289e-01 -5.253567e-01 -5.532638e-01 -3.178477e-01 -9.110813e-02 5.653935e-02 -2.270853e-01 -3.625437e-01 -1.967770e-01 -2.486720e-02 3.382368e-01
<VARIANCE> 39
 4.611372e+01 5.034326e+01 2.956682e+01 3.731750e+01 3.103986e+01 3.990147e+01 5.398910e+01 3.648802e+01 3.345724e+01 2.898317e+01 2.569800e+01 2.124730e+01 5.176799e+01 5.333757e+00 4.957761e+00 2.583793e+00 4.161452e+00 3.879644e+00 3.644555e+00 4.674531e+00 4.229413e+00 4.534149e+00 3.320481e+00 2.922763e+00 2.218704e+00 2.885484e+00 4.545518e-01 9.121586e-01 5.588251e-01 9.032159e-01 7.555168e-01 6.577935e-01 1.094536e+00 7.509460e-01 8.064656e-01 6.768055e-01 5.976077e-01 4.695344e-01 6.191195e-01
<GCONST> 1.303762e+02
<MIXTURE> 2 3.574056e-01
<MEAN> 39
 1.184708e+00 7.729512e+00 -3.173177e+00 -7.981654e+00 -8.049626e+00 -1.937845e+00 -6.088132e+00 -5.933490e+00 -7.247797e+00 -4.714367e+00 -2.119797e+00 -2.206151e+00 6.014378e+01 1.652179e+00 8.781106e-01 -4.904321e-01 -2.056276e+00 -1.463686e+00 1.081024e-01 -6.618264e-02 -2.182831e-01 -6.367421e-01 -7.346450e-01 -2.050580e-01 -1.223498e-01 7.576526e-01 -4.004396e-01 -7.125544e-01 -6.878698e-02 8.849284e-02 1.837135e-01 1.985657e-01 -3.059995e-01 2.560363e-01 2.834083e-01 3.474970e-01 2.699719e-01 4.011529e-02 4.415323e-01
<VARIANCE> 39
 2.044679e+01 2.771380e+01 2.466232e+01 3.896775e+01 3.396971e+01 4.114754e+01 3.640223e+01 4.022132e+01 3.480082e+01 2.474471e+01 3.104696e+01 2.139767e+01 2.035188e+01 4.207471e+00 4.035665e+00 3.393474e+00 5.692917e+00 4.805742e+00 4.433353e+00 5.644181e+00 4.934916e+00 5.070022e+00 3.565039e+00 3.538429e+00 2.801934e+00 3.721508e+00 3.776974e-01 5.446436e-01 5.159123e-01 7.689170e-01 7.046943e-01 8.838163e-01 9.052312e-01 8.414423e-01 8.814950e-01 6.902078e-01 6.198609e-01 5.052522e-01 2.705144e-01
<GCONST> 1.281517e+02
<MIXTURE> 3 3.753647e-01
<MEAN> 39
 7.180903e-01 8.437235e+00 -9.498990e-01 -6.152966e+00 -7.358692e+00 -1.580269e+00 -4.581357e+00 -3.970973e+00 -5.801475e+00 -3.510883e+00 -9.755708e-01 -2.697220e+00 5.948740e+01 2.907834e-01 2.544958e-01 -1.229443e-01 -6.819562e-01 -5.330577e-01 -3.009915e-02 1.271045e-01 2.233590e-01 1.522668e-01 -9.260465e-02 -3.821690e-02 -1.308692e-01 1.576130e-01 -1.082376e-02 -4.694023e-01 -2.138386e-01 -2.196446e-01 -4.786894e-02 3.131367e-01 -2.964708e-01 6.760594e-02 -2.280369e-02 5.068229e-02 1.860663e-01 1.082505e-01 4.203840e-01
<VARIANCE> 39
 3.108551e+01 3.858250e+01 2.556616e+01 3.988890e+01 3.975935e+01 3.752293e+01 2.945313e+01 3.282620e+01 3.349634e+01 1.993012e+01 2.281764e+01 1.785830e+01 2.477496e+01 1.295412e+00 2.267536e+00 2.260018e+00 3.494185e+00 2.939098e+00 2.929682e+00 2.738613e+00 2.700334e+00 2.938264e+00 2.304234e+00 2.066319e+00 1.883942e+00 1.528486e+00 1.651064e-01 4.009163e-01 4.184546e-01 5.827003e-01 5.875377e-01 6.408454e-01 6.483126e-01 5.502144e-01 6.572829e-01 5.241019e-01 4.767988e-01 4.098830e-01 2.140228e-01
<GCONST> 1.162193e+02
<STATE> 3
<NUMMIXES> 3
<MIXTURE> 1 1.544126e-01
<MEAN> 39
 3.977813e+00 5.270682e+00 -4.439037e+00 -1.576439e+01 -9.229109e+00 9.724060e+00 -1.163313e+01 -1.416771e+00 -1.155147e+01 -6.486469e+00 3.893348e+00 1.053075e+00 6.688544e+01 -1.205715e-01 -3.030604e+00 -4.009665e-01 1.239992e-01 7.167325e-01 1.738902e+00 -3.982385e+00 -1.170651e+00 -2.188386e-01 2.596751e+00 2.598261e+00 1.837645e-01 2.899549e+00 -7.226554e-01 -4.666790e-01 5.336777e-01 1.413940e+00 3.259956e-01 -1.292537e+00 -9.235816e-02 2.664251e-01 1.396008e+00 1.010679e+00 -4.094255e-01 -8.671390e-01 -9.791783e-02
<VARIANCE> 39
 6.797126e+00 1.944102e+01 1.382250e+01 3.031067e+01 2.008212e+01 3.123241e+01 3.162163e+01 3.749326e+01 3.344608e+01 2.274693e+01 2.808059e+01 2.429347e+01 1.521371e+01 1.351950e+00 1.688355e+00 1.559308e+00 4.089201e+00 2.515081e+00 3.494320e+00 4.712537e+00 2.746200e+00 3.368951e+00 3.938922e+00 2.806083e+00 3.311960e+00 1.064078e+00 2.963228e-01 3.636851e-01 3.868422e-01 5.230892e-01 5.511886e-01 5.919386e-01 6.806346e-01 7.281715e-01 6.237129e-01 6.400182e-01 7.457870e-01 6.724796e-01 1.713708e-01
<GCONST> 1.152689e+02
<MIXTURE> 2 4.257049e-01
<MEAN> 39
 3.425981e+00 4.212833e+00 -7.309885e+00 -1.327327e+01 -9.887137e+00 -4.486643e-01 -6.058482e+00 -6.496184e+00 -8.533443e+00 -5.160268e+00 -1.736221e+00 -1.160440e+00 6.451003e+01 7.030296e-01 -1.755858e+00 -1.410154e+00 -1.316099e+00 2.102630e-01 4.645976e-01 -1.258458e+00 -1.933466e-01 -1.838628e-01 7.309588e-01 6.961108e-01 7.881353e-02 1.979975e+00 -5.699984e-01 -4.836464e-01 2.818480e-01 7.345248e-01 5.458347e-01 -2.213455e-01 -2.969831e-01 2.106560e-01 5.453959e-01 4.268975e-01 -9.674080e-02 -2.535834e-01 1.823468e-02
<VARIANCE> 39
 1.648230e+01 3.207560e+01 3.470001e+01 4.650536e+01 3.512080e+01 5.284608e+01 4.690393e+01 5.079139e+01 4.793830e+01 3.357031e+01 4.225747e+01 3.033382e+01 1.934448e+01 1.928352e+00 2.165003e+00 2.318176e+00 4.204309e+00 4.697064e+00 5.069015e+00 4.843180e+00 4.709437e+00 4.774407e+00 4.480410e+00 3.452376e+00 3.411787e+00 1.419676e+00 3.300447e-01 3.903733e-01 3.963073e-01 5.142438e-01 6.215171e-01 7.326828e-01 8.073565e-01 1.033528e+00 9.087011e-01 6.487186e-01 7.456095e-01 5.458841e-01 1.949259e-01
<GCONST> 1.263508e+02
<MIXTURE> 3 4.198828e-01
<MEAN> 39
 3.575806e+00 4.462635e+00 -4.328237e+00 -1.417783e+01 -1.284198e+01 4.997123e+00 -4.788384e+00 -5.646783e-01 -5.955110e+00 -6.961247e+00 1.597298e+00 -2.381940e+00 6.615564e+01 9.508964e-02 -2.061721e+00 -1.157086e+00 -8.507054e-01 4.557479e-01 2.083402e+00 -1.030106e+00 -2.758435e-01 -5.728071e-01 7.710254e-02 1.386684e+00 5.713390e-01 1.915937e+00 -3.977906e-01 -4.491322e-01 1.194914e-01 8.192883e-01 7.131011e-01 -2.602342e-01 -5.133212e-01 -4.103725e-01 3.297129e-01 7.805727e-01 5.627824e-02 -2.581491e-01 3.297655e-02
<VARIANCE> 39
 9.264687e+00 3.879493e+01 2.900625e+01 3.503221e+01 3.716679e+01 4.612985e+01 4.614913e+01 4.850114e+01 4.700569e+01 2.864782e+01 3.143635e+01 3.387403e+01 2.398313e+01 8.696211e-01 1.883596e+00 1.819127e+00 3.542836e+00 3.969795e+00 3.578046e+00 5.155646e+00 4.670420e+00 4.191391e+00 4.321086e+00 3.396212e+00 3.226238e+00 1.110170e+00 2.071045e-01 4.266959e-01 3.775157e-01 4.285958e-01 5.895690e-01 6.274015e-01 8.015340e-01 7.837286e-01 9.342315e-01 7.771943e-01 7.069594e-01 7.266432e-01 2.105104e-01
<GCONST> 1.223343e+02
<STATE> 4
<NUMMIXES> 3
<MIXTURE> 1 2.070803e-01
<MEAN> 39
 2.698613e+00 -7.302231e-02 -4.955739e+00 -1.133346e+01 -6.838072e+00 8.608018e+00 -1.737851e+01 -5.817568e+00 -1.084440e+01 1.592688e+00 8.946897e+00 -1.578987e-02 7.028027e+01 -7.807701e-01 -2.980045e+00 7.160576e-01 1.811533e+00 3.619624e-01 -1.262858e+00 -3.597729e+00 1.106620e-01 2.534762e+00 3.346200e+00 7.676306e-01 -1.848547e+00 2.510540e+00 -5.607027e-01 4.109888e-01 7.106389e-01 8.127118e-01 -2.421661e-01 -1.421154e+00 1.058692e+00 1.027888e+00 1.203130e+00 -4.823412e-01 -1.323488e+00 -6.066378e-01 -5.897117e-01
<VARIANCE> 39
 9.799400e+00 1.792527e+01 2.081788e+01 4.375883e+01 2.345256e+01 5.315043e+01 4.995392e+01 4.425655e+01 3.576977e+01 3.837267e+01 3.213795e+01 3.023546e+01 1.736572e+01 1.427733e+00 1.560421e+00 2.739488e+00 3.526839e+00 3.114990e+00 3.393313e+00 4.575715e+00 3.768872e+00 3.473139e+00 4.277501e+00 2.954720e+00 3.044361e+00 9.403197e-01 2.747141e-01 3.407938e-01 3.984005e-01 7.101505e-01 7.831583e-01 8.211467e-01 9.883524e-01 6.805431e-01 6.643060e-01 8.108339e-01 6.678109e-01 7.551624e-01 2.085937e-01
<GCONST> 1.212161e+02
<MIXTURE> 2 4.480645e-01
<MEAN> 39
 1.861591e+00 -3.921551e+00 -9.201375e+00 -1.167450e+01 -5.382884e+00 -2.840341e-01 -1.209806e+01 -6.203709e+00 -3.077178e+00 1.275009e+00 -2.161971e+00 -6.042462e+00 7.032475e+01 -7.148073e-01 -1.433155e+00 3.463930e-01 1.068762e+00 3.684050e-01 -1.943009e+00 -9.732313e-01 1.467870e+00 2.203398e+00 2.907705e-01 -2.078184e+00 -9.416416e-01 1.012672e+00 -1.842227e-01 4.860946e-01 5.355423e-01 2.716039e-01 -4.491694e-01 -3.442481e-01 6.460115e-01 5.344191e-01 -2.047702e-01 -8.758830e-01 -2.545637e-01 5.152101e-01 -4.357455e-01
<VARIANCE> 39
 1.532227e+01 3.724198e+01 3.517710e+01 5.096920e+01 3.601896e+01 1.075482e+02 6.930379e+01 5.403386e+01 6.703741e+01 5.500161e+01 5.580267e+01 4.344546e+01 2.324248e+01 5.832597e-01 1.509569e+00 2.143976e+00 2.928574e+00 3.553266e+00 4.937334e+00 4.233716e+00 5.396153e+00 3.732017e+00 4.575965e+00 4.192245e+00 3.533148e+00 6.767252e-01 2.095976e-01 2.652509e-01 3.693282e-01 4.924191e-01 6.467556e-01 7.722144e-01 8.944095e-01 7.360050e-01 9.732195e-01 8.263687e-01 8.339779e-01 7.072425e-01 1.163471e-01
<GCONST> 1.254002e+02
<MIXTURE> 3 3.448559e-01
<MEAN> 39
 1.645750e+00 -3.012746e+00 -5.429992e+00 -8.786652e+00 -7.305170e+00 3.377471e+00 -1.445965e+01 -4.480438e+00 -3.923796e+00 3.174855e+00 5.265267e+00 -4.759480e+00 7.122235e+01 -8.497815e-01 -1.782025e+00 6.773112e-01 1.370089e+00 1.317491e-01 -1.887202e+00 -1.515581e+00 1.196651e+00 2.834235e+00 1.418515e+00 -1.229998e+00 -1.761571e+00 1.367243e+00 -2.128091e-01 5.959829e-01 4.506712e-01 1.473250e-01 -2.988468e-01 -5.718598e-01 8.428860e-01 6.711102e-01 1.505928e-01 -9.493436e-01 -8.887572e-01 1.525351e-01 -5.284256e-01
<VARIANCE> 39
 1.555753e+01 3.016157e+01 3.992815e+01 4.412556e+01 2.721632e+01 7.826460e+01 9.740260e+01 6.721905e+01 4.512925e+01 5.462680e+01 4.800320e+01 4.620261e+01 2.804784e+01 7.499682e-01 1.492012e+00 2.749236e+00 3.160633e+00 3.923754e+00 5.110948e+00 4.671693e+00 6.029138e+00 4.877110e+00 4.712974e+00 4.766167e+00 4.128318e+00 8.161313e-01 1.973409e-01 3.142303e-01 3.776270e-01 4.966954e-01 6.359487e-01 7.624053e-01 1.376453e+00 8.188686e-01 9.792482e-01 1.051956e+00 8.708648e-01 8.229343e-01 1.394257e-01
<GCONST> 1.277916e+02
<TRANSP> 5
 0.000000e+00 1.000000e+00 0.000000e+00 0.000000e+00 0.000000e+00
 0.000000e+00 7.988116e-01 2.011884e-01 0.000000e+00 0.000000e+00
 0.000000e+00 0.000000e+00 5.819463e-01 4.180537e-01 0.000000e+00
 0.000000e+00 0.000000e+00 0.000000e+00 5.231678e-01 4.768321e-01
 0.000000e+00 0.000000e+00 0.000000e+00 0.000000e+00 0.000000e+00
<ENDHMM>
~h "y"
<BEGINHMM>
<NUMSTATES> 5
<STATE> 2
<NUMMIXES> 3
<MIXTURE> 1 2.380712e-01
<MEAN> 39
 -1.504350e+01 7.671564e-01 4.410130e+00 6.045010e-01 -3.380948e+00 -2.965587e-01 -3.348066e+00 1.572193e+00 -2.472726e+00 -2.358606e+00 1.174354e+00 -1.019522e+00 6.087700e+01 -2.259259e-01 -7.315804e-02 7.503120e-01 -1.079115e-01 -6.517447e-01 -7.567729e-02 -1.070641e-01 -1.644012e-01 -4.803567e-01 -2.352951e-01 2.624725e-01 -2.034887e-02 4.322393e-01 3.759230e-01 9.775274e-03 2.108358e-01 -8.526637e-02 -3.949743e-01 -1.482909e-01 -2.147879e-01 -2.612243e-01 -2.857853e-01 -6.210820e-02 9.293482e-02 -1.214188e-01 1.873160e-01
<VARIANCE> 39
 8.661482e+01 6.678782e+01 5.211453e+01 3.296634e+01 3.895908e+01 4.507356e+01 5.933301e+01 3.665974e+01 3.802648e+01 2.764308e+01 2.382313e+01 2.337317e+01 5.183555e+01 4.247416e+00 3.847555e+00 4.719170e+00 2.683458e+00 5.416557e+00 3.283750e+00 3.947460e+00 4.115513e+00 4.518454e+00 2.499372e+00 2.591550e+00 2.246810e+00 4.114529e+00 7.666969e-01 8.621616e-01 5.653824e-01 6.132911e-01 8.239046e-01 7.225898e-01 7.882916e-01 7.114726e-01 6.986861e-01 5.028377e-01 5.465503e-01 5.021118e-01 7.937757e-01
<GCONST> 1.316319e+02
<MIXTURE> 2 3.485367e-01
<MEAN> 39
 -9.793481e+00 4.942577e+00 1.328248e+01 -4.326360e+00 -1.306759e+01 -5.519127e+00 -7.956929e+00 -9.432077e+00 -1.112720e+01 -2.366176e+00 -3.580765e+00 -2.950233e+00 6.493370e+01 2.619289e+00 7.900631e-02 1.554793e+00 -5.492186e-01 -2.568128e+00 -9.739270e-01 -1.351830e+00 -1.613585e+00 -2.142609e+00 -2.630365e-01 -9.321231e-02 -8.059422e-01 1.159665e+00 -2.137983e-01 -4.839088e-01 -7.187411e-01 1.071357e-01 3.110905e-01 -2.861286e-02 2.580882e-01 7.659202e-01 3.919660e-01 9.105095e-02 2.814969e-01 7.763521e-02 4.583559e-02
<VARIANCE> 39
 4.574562e+01 2.639261e+01 4.200327e+01 7.197716e+01 3.779393e+01 5.138396e+01 3.396356e+01 4.192813e+01 3.951538e+01 3.513718e+01 4.381358e+01 2.603228e+01 2.068875e+01 6.456482e+00 3.264152e+00 4.141357e+00 5.625359e+00 5.142790e+00 7.878817e+00 4.741861e+00 5.120147e+00 5.870741e+00 6.087731e+00 4.871446e+00 3.866013e+00 2.154828e+00 6.997448e-01 4.194839e-01 4.791149e-01 5.959534e-01 7.760241e-01 8.068888e-01 8.375098e-01 7.176601e-01 7.600647e-01 6.357861e-01 5.226017e-01 4.292671e-01 2.239833e-01
<GCONST> 1.321179e+02
<MIXTURE> 3 4.133921e-01
<MEAN> 39
 -6.825648e+00 4.341223e+00 1.459452e+01 -9.348829e-01 -1.174235e+01 -1.954095e+00 -9.252111e+00 -3.588300e+00 -1.080060e+01 -4.918280e+00 1.866755e+00 -3.730864e+00 6.491862e+01 -1.713649e-01 2.047769e-01 2.148300e+00 -5.056426e-01 -1.387686e+00 7.746987e-01 2.427094e-02 -6.547453e-01 -9.553635e-01 3.213316e-03 3.255087e-01 -5.944896e-01 4.262376e-01 5.683290e-02 -1.351347e-01 -4.583156e-01 -4.751373e-02 1.918809e-01 -2.313290e-03 -2.514935e-02 1.483447e-02 3.301584e-01 1.950067e-01 -3.975674e-02 -9.042130e-02 2.622945e-02
<VARIANCE> 39
 3.009029e+01 4.018231e+01 5.663278e+01 5.848197e+01 4.912722e+01 6.599355e+01 4.233355e+01 5.418191e+01 3.896531e+01 3.549294e+01 3.747687e+01 3.337268e+01 3.249234e+01 2.357172e+00 2.575386e+00 4.589213e+00 3.140440e+00 5.797978e+00 3.330239e+00 5.827338e+00 3.954287e+00 5.315030e+00 3.387484e+00 2.862619e+00 2.919130e+00 3.075165e+00 2.523345e-01 3.906665e-01 5.411948e-01 6.790074e-01 8.737876e-01 8.016366e-01 7.187561e-01 6.824854e-01 6.975310e-01 5.349479e-01 4.613746e-01 5.237781e-01 2.987790e-01
<GCONST> 1.292526e+02
<STATE> 3
<NUMMIXES> 3
<MIXTURE> 1 1.528089e-01
<MEAN> 39
 -6.831161e+00 -5.767035e-02 1.751753e+01 -2.449261e+00 -1.795812e+01 -1.209438e+00 -1.159434e+01 -4.418342e-01 -1.323939e+01 -5.509572e+00 8.078769e+00 -6.896890e+00 7.100281e+01 1.249319e+00 -1.508230e+00 -9.414250e-01 1.312099e-01 -1.334507e+00 -1.504697e+00 -6.634200e-01 1.609377e+00 2.931666e-01 -4.937214e-01 1.584819e+00 -1.904498e-01 1.731513e+00 -2.337017e-01 3.934278e-02 -1.084866e+00 1.201102e-01 1.136411e+00 -8.093853e-02 3.335866e-01 2.594750e-01 9.242684e-01 2.519360e-01 -5.903639e-01 3.425182e-01 -5.103480e-01
<VARIANCE> 39
 1.306258e+01 1.764054e+01 3.850591e+01 3.346327e+01 2.494120e+01 4.579737e+01 3.006302e+01 3.320936e+01 3.478148e+01 4.006692e+01 2.872029e+01 2.832960e+01 1.757527e+01 2.531139e+00 1.756515e+00 4.027438e+00 2.711102e+00 3.041858e+00 3.863062e+00 4.195582e+00 3.122907e+00 3.943877e+00 4.440852e+00 2.479043e+00 2.774305e+00 1.347360e+00 4.601791e-01 2.341215e-01 5.065490e-01 3.706160e-01 4.947606e-01 6.576142e-01 7.657364e-01 4.555421e-01 6.844200e-01 6.333829e-01 4.569698e-01 5.247160e-01 2.027662e-01
<GCONST> 1.191052e+02
<MIXTURE> 2 3.975047e-01
<MEAN> 39
 -6.069379e+00 3.101619e+00 1.377501e+01 -8.069126e+00 -1.731820e+01 -6.977317e+00 -6.858971e+00 -1.158381e+01 -1.426404e+01 1.655155e+00 -6.190218e+00 -2.837909e+00 6.708757e+01 4.171920e-01 -1.094577e+00 -5.412351e-01 4.382360e-01 -9.977023e-01 -1.297225e+00 8.057630e-01 6.403493e-01 -6.698461e-01 1.851682e-01 5.501031e-01 -5.917173e-02 6.631303e-01 9.851338e-03 -1.571828e-01 -5.842286e-01 3.637079e-01 4.584452e-01 -3.925134e-01 -1.541944e-02 6.715694e-01 3.375308e-01 -4.344680e-01 2.547465e-01 1.741016e-01 -6.763943e-02
<VARIANCE> 39
 2.189576e+01 2.588106e+01 3.957854e+01 1.027369e+02 3.311382e+01 5.574977e+01 3.516535e+01 3.451897e+01 4.601443e+01 4.213919e+01 4.833106e+01 3.300402e+01 1.946313e+01 8.445475e-01 1.410707e+00 1.805987e+00 2.247976e+00 2.028775e+00 3.419622e+00 3.010018e+00 3.180473e+00 2.344438e+00 2.322929e+00 2.110122e+00 1.568613e+00 5.579749e-01 2.466220e-01 1.928176e-01 3.336273e-01 4.481556e-01 5.557219e-01 5.489048e-01 5.840784e-01 5.014756e-01 6.072062e-01 5.169092e-01 3.727967e-01 3.438184e-01 1.073900e-01
<GCONST> 1.141377e+02
<MIXTURE> 3 4.496863e-01
<MEAN> 39
 -7.897437e+00 3.238888e+00 2.232534e+01 -3.857083e+00 -1.575868e+01 3.131234e+00 -1.261140e+01 -3.830233e+00 -1.292228e+01 -5.600013e+00 5.836370e+00 -8.617214e+00 6.908247e+01 2.119494e-01 -6.537030e-01 -3.408807e-01 2.101587e-01 -7.002519e-01 -5.058075e-01 8.330630e-02 3.989449e-01 -1.871628e-01 -1.572648e-01 6.221408e-01 -9.190688e-02 5.445207e-01 1.072513e-01 -1.040182e-01 -4.795262e-01 1.926745e-01 1.865786e-01 -3.530210e-01 5.958565e-02 2.114514e-01 1.261010e-01 -4.086033e-02 4.767973e-03 2.791519e-01 -2.754847e-02
<VARIANCE> 39
 1.058833e+01 2.311123e+01 2.805656e+01 2.721030e+01 3.090167e+01 3.212589e+01 2.808118e+01 4.449081e+01 2.908689e+01 3.142032e+01 3.454057e+01 2.498084e+01 2.023722e+01 3.672648e-01 7.927738e-01 1.455024e+00 1.206492e+00 1.391323e+00 1.698569e+00 1.234620e+00 1.716916e+00 1.296284e+00 1.204513e+00 1.450439e+00 1.369246e+00 5.134564e-01 6.618076e-02 1.020835e-01 2.528080e-01 1.734710e-01 3.167265e-01 2.313789e-01 3.386095e-01 2.747015e-01 2.965463e-01 2.659777e-01 2.647240e-01 2.446048e-01 9.536725e-02
<GCONST> 9.509706e+01
<STATE> 4
<NUMMIXES> 3
<MIXTURE> 1 1.536446e-01
<MEAN> 39
 -2.488405e+00 -5.642931e+00 1.285349e+01 9.536607e-01 -1.479184e+01 -7.728883e+00 -1.504130e+01 6.271439e+00 -9.533011e+00 -1.087837e+01 1.470994e+01 -2.098803e+00 7.313707e+01 1.173528e+00 -1.137887e+00 -2.573644e+00 5.626870e-01 1.689759e+00 -1.838248e+00 -8.308124e-01 1.411694e+00 2.600277e+00 -6.251338e-01 -5.131661e-01 1.575686e+00 7.076892e-02 -3.316800e-02 2.818563e-01 -1.335818e-01 -1.394202e-01 4.435951e-01 4.166723e-01 -1.599004e-01 -3.689201e-01 4.671551e-01 2.139356e-01 -8.485993e-01 -7.442233e-02 -2.566716e-01
<VARIANCE> 39
 1.004145e+01 1.311448e+01 2.124182e+01 1.620068e+01 2.132172e+01 3.200331e+01 2.435534e+01 2.762618e+01 3.714446e+01 4.562005e+01 1.969359e+01 2.921652e+01 1.024578e+01 3.656521e-01 5.096294e-01 8.266465e-01 7.395349e-01 1.150250e+00 1.616150e+00 2.266792e+00 1.980498e+00 2.688457e+00 2.195511e+00 2.536824e+00 1.670924e+00 3.350348e-01 6.513123e-02 7.704707e-02 1.640842e-01 1.186652e-01 2.925843e-01 2.662944e-01 2.908013e-01 3.818339e-01 4.497735e-01 4.748935e-01 3.412604e-01 2.705145e-01 1.038097e-01
<GCONST> 9.345347e+01
<MIXTURE> 2 4.340873e-01
<MEAN> 39
 -4.226938e+00 -1.822208e+00 8.068133e+00 -2.728012e+00 -1.820919e+01 -1.413795e+01 -5.303125e+00 -3.511395e+00 -1.425766e+01 -2.637635e+00 -1.279934e+00 -2.469165e+00 6.912074e+01 9.604027e-01 -8.720149e-01 -2.405817e+00 7.997246e-01 1.216098e+00 -1.727138e+00 -9.965774e-01 2.089875e+00 1.278662e+00 -1.203981e+00 5.648828e-02 6.793070e-01 3.569932e-01 -1.059707e-01 3.620194e-01 -3.039035e-01 -1.798615e-01 8.774012e-01 7.435426e-01 -5.465394e-01 -2.998328e-01 6.924486e-01 6.711205e-02 -3.885392e-01 4.581861e-03 -3.892481e-01
<VARIANCE> 39
 2.259194e+01 3.091297e+01 4.549276e+01 8.745305e+01 3.205707e+01 7.721748e+01 4.892387e+01 5.338097e+01 6.444628e+01 5.543681e+01 5.905133e+01 3.574035e+01 2.036143e+01 9.067413e-01 1.224018e+00 2.897978e+00 2.178242e+00 2.965255e+00 3.547154e+00 4.307686e+00 3.875907e+00 3.668023e+00 3.169619e+00 2.556113e+00 1.719635e+00 6.374912e-01 2.751842e-01 2.224384e-01 4.752285e-01 5.271640e-01 6.520286e-01 6.832489e-01 7.169175e-01 8.529688e-01 6.590089e-01 8.314589e-01 4.769617e-01 4.478457e-01 1.755936e-01
<GCONST> 1.222818e+02
<MIXTURE> 3 4.122680e-01
<MEAN> 39
 -3.014076e+00 -4.240877e+00 1.042343e+01 1.520112e+00 -1.646079e+01 -1.107586e+01 -8.869620e+00 2.026954e+00 -1.168048e+01 -6.434797e+00 6.310286e+00 -2.150546e+00 7.108049e+01 8.199978e-01 -6.020348e-01 -2.293001e+00 5.139793e-01 1.556807e+00 -1.290672e+00 -1.269580e+00 1.671509e+00 1.600672e+00 -7.270314e-01 -5.343111e-01 9.058300e-01 8.455645e-02 -9.352800e-03 2.841904e-01 -7.581744e-02 -1.650710e-01 3.751319e-01 5.355340e-01 -3.643628e-01 -4.363740e-01 4.353663e-01 2.325766e-01 -5.623838e-01 -6.973992e-02 -2.275717e-01
<VARIANCE> 39
 1.574019e+01 2.646942e+01 4.887703e+01 5.077668e+01 2.729484e+01 9.717033e+01 5.233721e+01 5.727125e+01 5.015971e+01 5.725280e+01 4.321051e+01 4.516932e+01 1.730349e+01 2.703770e-01 5.263575e-01 9.985430e-01 8.949092e-01 1.260862e+00 1.582062e+00 2.594610e+00 2.255171e+00 2.235332e+00 1.724905e+00 1.947649e+00 1.159976e+00 2.951904e-01 5.499734e-02 7.954232e-02 1.891842e-01 1.589637e-01 2.876358e-01 2.863379e-01 3.301153e-01 3.948821e-01 3.396216e-01 4.156986e-01 2.546121e-01 2.639387e-01 5.451325e-02
<GCONST> 1.001071e+02
<TRANSP> 5
 0.000000e+00 1.000000e+00 0.000000e+00 0.000000e+00 0.000000e+00
 0.000000e+00 7.194535e-01 2.805466e-01 0.000000e+00 0.000000e+00
 0.000000e+00 0.000000e+00 7.416971e-01 2.583029e-01 0.000000e+00
 0.000000e+00 0.000000e+00 0.000000e+00 5.939895e-01 4.060105e-01
 0.000000e+00 0.000000e+00 0.000000e+00 0.000000e+00 0.000000e+00
<ENDHMM>
~h "z"
<BEGINHMM>
<NUMSTATES> 5
<STATE> 2
<NUMMIXES> 3
<MIXTURE> 1 1.724246e-01
<MEAN> 39
 -1.050295e+01 1.171499e+01 1.831349e+00 2.811479e+00 -3.010999e+00 -8.604878e+00 -1.127107e+01 -6.460676e-01 9.823684e-01 -4.677964e+00 -1.395807e+00 4.853806e+00 6.892734e+01 -3.995560e+00 3.944338e+00 -1.808675e+00 1.528160e+00 3.038060e+00 -4.289143e-02 4.106257e+00 -7.904223e-01 5.331841e-01 4.239424e-01 -4.371355e-01 1.274632e+00 -1.418264e+00 -4.816962e-01 -8.618301e-01 -1.477679e-01 -3.780414e-01 -6.977497e-02 9.410734e-01 3.084144e-01 6.780394e-01 -4.659015e-01 1.560299e-01 5.904508e-01 -7.084360e-01 -2.534558e-02
<VARIANCE> 39
 1.838528e+01 3.331937e+01 2.424843e+01 1.888676e+01 2.194968e+01 2.455090e+01 4.719255e+01 2.028397e+01 2.892761e+01 1.969578e+01 1.667188e+01 2.017339e+01 1.377760e+01 1.637757e+00 2.605509e+00 2.120692e+00 2.173785e+00 2.143210e+00 4.008708e+00 2.979828e+00 4.232898e+00 3.247946e+00 2.193261e+00 2.493600e+00 2.502694e+00 6.394392e-01 2.943266e-01 7.238408e-01 2.691012e-01 3.105213e-01 3.575720e-01 3.798890e-01 7.424092e-01 4.544956e-01 3.421702e-01 3.482996e-01 3.379787e-01 3.138517e-01 8.626146e-02
<GCONST> 1.092414e+02
<MIXTURE> 2 4.359670e-01
<MEAN> 39
 -1.095545e+01 1.023979e+01 -9.368502e-01 -1.691185e+00 -4.600496e+00 -1.230816e+01 -1.033450e+01 -6.025995e+00 -4.198686e+00 -6.013101e+00 -5.633563e+00 9.557335e-01 6.583284e+01 -3.965021e+00 2.571902e+00 -3.287404e-01 1.290063e+00 1.983982e+00 1.319478e+00 9.278307e-01 1.042694e+00 -1.464725e-01 -9.838957e-02 9.426610e-01 -1.002590e+00 -9.370765e-02 -2.452284e-01 -5.162482e-01 -1.332962e-01 -8.339106e-02 1.012720e-01 3.505563e-01 5.389925e-01 3.795998e-01 4.775979e-02 2.993415e-01 1.711757e-01 -1.606693e-02 9.798714e-03
<VARIANCE> 39
 6.410418e+01 4.588012e+01 4.522087e+01 4.936767e+01 3.954685e+01 6.444241e+01 4.373799e+01 3.571890e+01 3.759356e+01 3.428486e+01 3.685964e+01 3.927693e+01 2.364530e+01 3.134527e+00 4.341312e+00 2.885636e+00 5.241509e+00 3.776571e+00 4.904688e+00 4.345252e+00 3.827286e+00 3.241318e+00 2.929055e+00 2.916227e+00 3.735151e+00 1.136723e+00 9.857201e-01 8.852408e-01 5.194045e-01 6.276047e-01 6.523154e-01 7.867686e-01 6.373219e-01 6.089652e-01 5.503613e-01 5.073609e-01 5.185659e-01 6.621321e-01 1.904820e-01
<GCONST> 1.291247e+02
<MIXTURE> 3 3.916087e-01
<MEAN> 39
 -1.427996e+01 1.197929e+01 2.099109e+00 1.288041e+00 -5.599405e-01 -7.907135e+00 -7.578305e+00 -2.926124e+00 -2.799291e+00 -2.844097e+00 -1.442288e+00 5.952969e-01 6.479176e+01 -4.854385e+00 2.105163e+00 -8.101187e-01 2.650956e-01 2.991146e+00 1.298799e+00 2.263949e+00 1.665145e+00 -4.249483e-03 3.816466e-01 2.779198e-01 -1.126304e-01 -4.742377e-01 1.429103e-01 -1.018531e+00 -3.582438e-01 -3.096119e-01 -3.458413e-01 3.159217e-01 1.061452e-01 2.700769e-01 1.115512e-01 1.414093e-02 1.128920e-01 -8.558512e-03 6.040278e-02
<VARIANCE> 39
 4.186416e+01 4.046005e+01 4.310440e+01 4.461362e+01 3.752819e+01 6.052915e+01 4.742248e+01 4.047187e+01 3.335135e+01 3.297438e+01 2.244932e+01 2.525265e+01 2.630155e+01 2.561702e+00 3.791687e+00 3.789685e+00 5.469618e+00 3.484227e+00 5.905015e+00 4.287139e+00 4.125723e+00 3.811299e+00 3.056458e+00 2.697850e+00 3.250716e+00 1.733290e+00 6.983122e-01 7.704943e-01 5.527770e-01 6.150559e-01 7.798302e-01 8.183814e-01 7.397594e-01 6.719265e-01 5.559469e-01 5.438160e-01 4.181038e-01 4.875316e-01 1.900134e-01
<GCONST> 1.276585e+02
<STATE> 3
<NUMMIXES> 3
<MIXTURE> 1 1.386486e-01
<MEAN> 39
 -2.493338e+01 1.249570e+01 -7.927317e+00 4.117840e+00 3.212795e+00 -3.004886e+00 1.485716e+00 3.504047e-01 -3.270343e-01 -2.545252e+00 8.329931e-01 1.374055e+00 6.370839e+01 -1.551545e+00 -8.100704e-01 -1.058382e+00 -2.263440e-01 5.741760e-01 7.347789e-01 1.150135e+00 1.031476e+00 7.466384e-01 7.653096e-01 7.830958e-01 3.751345e-01 -2.186965e-01 8.445387e-01 -4.664104e-01 5.230335e-01 -4.066978e-01 -3.385583e-01 -2.567855e-01 -5.135646e-01 -9.306908e-03 -5.096604e-02 6.917963e-03 -1.775227e-01 1.341878e-02 -7.071796e-02
<VARIANCE> 39
 1.722842e+01 2.059042e+01 2.104236e+01 2.278605e+01 2.103581e+01 2.149853e+01 1.828786e+01 1.850621e+01 1.920708e+01 1.728024e+01 1.649539e+01 1.661234e+01 1.693724e+01 3.449742e+00 1.724362e+00 2.564531e+00 2.018181e+00 1.887954e+00 2.618481e+00 2.864072e+00 1.999331e+00 2.049674e+00 1.769112e+00 1.736092e+00 1.739751e+00 8.157797e-01 2.661126e-01 4.887210e-01 2.976633e-01 4.126011e-01 3.810740e-01 3.997718e-01 4.613481e-01 3.684391e-01 3.517361e-01 3.263180e-01 3.064123e-01 3.349953e-01 1.457742e-01
<GCONST> 1.047101e+02
<MIXTURE> 2 4.320494e-01
<MEAN> 39
 -2.511317e+01 1.135781e+01 -2.637453e+00 -2.257269e-01 3.932718e+00 -3.716822e+00 -1.956511e+00 2.065022e+00 -2.760244e+00 -2.629173e+00 -1.009720e+00 3.150750e-01 6.498758e+01 -1.929328e-02 -1.249815e+00 -2.658256e-01 -8.498348e-01 -2.463654e-01 -9.716126e-02 -2.272472e-02 4.259333e-01 2.922611e-01 1.864031e-01 -5.702487e-02 8.165964e-02 -1.615533e-01 1.806076e+00 -6.498793e-01 3.351295e-01 -1.184703e-01 -9.918592e-01 -4.599160e-01 -7.953604e-01 -5.685672e-01 1.527047e-01 -2.948399e-02 -1.332907e-01 2.747258e-02 1.579464e-02
<VARIANCE> 39
 2.817402e+01 2.544882e+01 4.756385e+01 3.618771e+01 3.037076e+01 4.567481e+01 4.847848e+01 3.384539e+01 3.127364e+01 2.607376e+01 2.168015e+01 2.114944e+01 1.644961e+01 7.075297e+00 2.586205e+00 3.654252e+00 2.955735e+00 3.849795e+00 5.148135e+00 4.920147e+00 3.340218e+00 2.719265e+00 2.429526e+00 2.088051e+00 2.047540e+00 1.252209e+00 5.578749e-01 6.198941e-01 6.638996e-01 8.250373e-01 6.555102e-01 9.568686e-01 8.508114e-01 7.127681e-01 6.008177e-01 5.491762e-01 5.086312e-01 5.247908e-01 3.354749e-01
<GCONST> 1.244592e+02
<MIXTURE> 3 4.293014e-01
<MEAN> 39
 -2.517390e+01 1.186915e+01 -5.812507e+00 2.059260e+00 4.208480e+00 -3.263436e+00 5.794560e-01 1.607513e+00 -1.166119e+00 -1.799629e+00 2.744501e-01 1.610471e+00 6.393206e+01 -1.354424e+00 -9.074228e-01 -9.471123e-01 -4.255777e-01 4.790394e-01 5.264176e-01 8.778740e-01 7.867211e-01 3.447540e-01 3.610417e-01 2.395278e-01 7.541746e-02 -3.553587e-01 1.184160e+00 -5.241864e-01 5.114685e-01 -2.453157e-01 -6.121927e-01 -2.907197e-01 -6.805974e-01 -2.230955e-01 3.455907e-03 -9.219096e-02 -1.304168e-01 -3.085830e-02 -6.551895e-02
<VARIANCE> 39
 2.145684e+01 2.385082e+01 3.038418e+01 3.115681e+01 2.351941e+01 2.873651e+01 2.995240e+01 2.536215e+01 2.207653e+01 2.060902e+01 1.803908e+01 1.828600e+01 1.764915e+01 3.789769e+00 2.123240e+00 3.137621e+00 2.349064e+00 2.353637e+00 3.083066e+00 3.242864e+00 2.458382e+00 2.158627e+00 1.894309e+00 1.760229e+00 1.778649e+00 9.368097e-01 3.815726e-01 5.396435e-01 4.233764e-01 5.836843e-01 4.937931e-01 6.056069e-01 5.737469e-01 4.847766e-01 4.278621e-01 3.859995e-01 3.632459e-01 4.024648e-01 2.342140e-01
<GCONST> 1.126912e+02
<STATE> 4
<NUMMIXES> 3
<MIXTURE> 1 1.121212e-01
<MEAN> 39
 -1.565545e+01 1.676738e+00 -1.089010e+00 -1.911868e+00 -4.159570e-01 -3.371233e+00 -6.920654e+00 3.185118e+00 2.553603e+00 -8.451084e-01 -2.742439e-01 1.353675e+00 6.114196e+01 1.837783e+00 -3.876037e-01 6.667947e-01 1.157142e+00 -1.808703e-04 1.178971e+00 7.001410e-01 -3.114704e-01 5.813878e-01 8.036118e-01 4.761570e-01 -2.657519e-01 -2.429901e+00 -1.534071e-01 5.095072e-01 -8.514506e-02 3.210161e-01 2.223056e-01 1.665752e-01 6.909225e-01 -2.343029e-01 -4.485182e-01 -8.914982e-02 -2.267262e-02 -1.448536e-01 -2.608539e-01
<VARIANCE> 39
 8.153137e+01 3.988816e+01 3.932814e+01 3.777696e+01 5.319146e+01 7.136241e+01 6.942445e+01 3.999421e+01 3.746416e+01 3.036626e+01 2.702221e+01 3.291390e+01 4.451003e+01 4.131498e+00 3.618511e+00 2.694066e+00 2.384364e+00 2.720515e+00 3.614234e+00 3.803465e+00 3.305806e+00 2.834138e+00 2.375289e+00 2.170480e+00 2.257823e+00 2.730027e+00 1.157389e+00 6.843852e-01 5.701844e-01 7.451667e-01 7.995547e-01 1.079794e+00 1.041420e+00 7.552903e-01 7.167153e-01 6.259350e-01 5.181813e-01 6.034915e-01 6.798635e-01
<GCONST> 1.309182e+02
<MIXTURE> 2 3.527194e-01
<MEAN> 39
 -1.559756e+01 5.175708e+00 -1.265342e+00 -1.190555e+00 -1.165328e+00 -5.033890e+00 -4.278321e+00 2.866744e-01 -1.074973e+00 -2.107392e+00 -1.259695e+00 2.795172e-01 6.236219e+01 3.154645e+00 -1.614731e+00 5.756752e-01 -6.833066e-01 -1.788245e+00 -4.898762e-01 -1.451943e+00 -7.459840e-01 2.330266e-02 -1.164450e-01 -3.442188e-01 -2.610459e-01 3.620244e-01 3.467240e-01 -8.503145e-02 -1.498881e-02 -1.525593e-02 -1.682241e-01 1.485459e-01 -7.492889e-02 -6.847008e-02 -7.717939e-02 -1.524054e-02 5.105692e-02 -8.307095e-02 1.972192e-01
<VARIANCE> 39
 6.815010e+01 4.544850e+01 3.663103e+01 3.644976e+01 4.485720e+01 6.868606e+01 5.663469e+01 4.485066e+01 3.589230e+01 2.838244e+01 2.646701e+01 2.494471e+01 4.896984e+01 8.375716e+00 4.406082e+00 3.999320e+00 4.644070e+00 5.086893e+00 5.845951e+00 6.686257e+00 4.831652e+00 4.289112e+00 3.175844e+00 2.955655e+00 3.179341e+00 4.446033e+00 1.093425e+00 7.292512e-01 5.595470e-01 7.781582e-01 8.194491e-01 1.035786e+00 1.020412e+00 8.641939e-01 6.294717e-01 5.555459e-01 5.142761e-01 5.339463e-01 6.680837e-01
<GCONST> 1.357431e+02
<MIXTURE> 3 5.351570e-01
<MEAN> 39
 -1.691801e+01 -2.216973e+00 -1.454444e+00 -8.999567e-01 9.254372e-02 -1.171207e+00 -4.566097e-02 4.078266e+00 5.565466e-01 -1.561334e+00 1.056107e+00 6.591225e-01 5.788231e+01 5.199065e-01 -2.992747e-01 2.008413e-01 1.557681e-01 -1.640138e-01 2.302868e-01 3.364716e-02 -9.180790e-02 -2.221934e-03 -8.198343e-03 -4.751197e-02 -1.327624e-01 -4.559791e-01 2.768911e-02 7.200146e-02 -4.680102e-03 5.928162e-03 -1.365875e-02 -3.345215e-02 -4.632202e-02 -6.939701e-02 -4.817588e-02 -2.779001e-02 -3.029681e-02 -2.111242e-02 8.983882e-02
<VARIANCE> 39
 3.106539e+01 5.628235e+01 2.007829e+01 1.982584e+01 2.360791e+01 2.815002e+01 2.611628e+01 2.246894e+01 2.132923e+01 2.017216e+01 1.812939e+01 1.706078e+01 4.674008e+01 1.892310e+00 1.819740e+00 1.267383e+00 1.335511e+00 1.405073e+00 1.789748e+00 1.764068e+00 1.779733e+00 1.760233e+00 1.645874e+00 1.530726e+00 1.460812e+00 2.016158e+00 2.781399e-01 2.482851e-01 2.107469e-01 2.734943e-01 2.756969e-01 3.562301e-01 3.613425e-01 3.529351e-01 3.567055e-01 3.368704e-01 3.178021e-01 2.935359e-01 3.146264e-01
<GCONST> 1.044923e+02
<TRANSP> 5
 0.000000e+00 1.000000e+00 0.000000e+00 0.000000e+00 0.000000e+00
 0.000000e+00 6.419550e-01 3.580450e-01 0.000000e+00 0.000000e+00
 0.000000e+00 0.000000e+00 7.450815e-01 2.549185e-01 0.000000e+00
 0.000000e+00 0.000000e+00 0.000000e+00 8.113272e-01 1.886728e-01
 0.000000e+00 0.000000e+00 0.000000e+00 0.000000e+00 0.000000e+00
<ENDHMM>
~h "aa"
<BEGINHMM>
<NUMSTATES> 5
<STATE> 2
<NUMMIXES> 3
<MIXTURE> 1 1.419607e-01
<MEAN> 39
 -2.784448e-01 -4.829164e+00 -6.809451e+00 -5.886758e+00 -6.636471e+00 4.351340e+00 -9.632820e+00 -5.449865e-01 2.750370e+00 1.413052e+00 -6.720855e-01 -7.587244e+00 7.024535e+01 2.996860e+00 -1.857613e+00 -1.023211e+00 -1.275323e+00 -1.225535e+00 1.887867e+00 3.171670e-02 -7.418069e-01 7.400995e-01 3.929536e-01 1.353759e-01 -2.003594e+00 2.244663e+00 -9.583997e-01 5.059159e-02 4.376668e-02 2.626870e-01 7.373977e-01 -4.212781e-02 8.591637e-01 2.867275e-02 -3.006509e-01 -2.605448e-01 -2.626578e-02 4.263870e-01 -4.568173e-01
<VARIANCE> 39
 1.952652e+01 2.102050e+01 3.289481e+01 3.657278e+01 2.734929e+01 6.482948e+01 7.297275e+01 5.408831e+01 3.312453e+01 2.689615e+01 3.216124e+01 3.035449e+01 2.531346e+01 4.648995e+00 3.455123e+00 2.896509e+00 3.143382e+00 3.986973e+00 5.135783e+00 6.053262e+00 4.733137e+00 4.580808e+00 3.064175e+00 3.231404e+00 3.562569e+00 2.562365e+00 6.067946e-01 7.095238e-01 5.231121e-01 6.592854e-01 5.996493e-01 8.606550e-01 1.166497e+00 8.157014e-01 6.738700e-01 5.338391e-01 4.928319e-01 5.552513e-01 5.107450e-01
<GCONST> 1.292327e+02
<MIXTURE> 2 4.003155e-01
<MEAN> 39
 -5.396658e-01 -6.070033e+00 -9.154610e+00 -1.079992e+01 -3.013881e+00 -4.006251e+00 -5.608006e+00 -2.804713e+00 -3.128110e+00 -5.172500e+00 -7.440126e+00 -4.536644e+00 7.038847e+01 1.355359e+00 -1.268274e+00 -1.700848e+00 -1.286924e+00 3.889520e-01 6.184767e-01 -1.289707e-01 -4.197578e-01 2.581596e-01 -3.054020e-01 -6.966841e-01 -7.375765e-01 1.176919e+00 -5.915403e-01 6.981163e-02 2.382427e-01 4.408551e-01 2.450868e-01 2.880284e-01 9.432571e-02 -2.257682e-02 5.857683e-02 2.817663e-01 3.685811e-01 7.814793e-02 -3.390168e-01
<VARIANCE> 39
 1.860391e+01 3.252736e+01 3.815115e+01 5.058216e+01 5.525391e+01 1.086219e+02 4.992833e+01 6.930326e+01 5.332952e+01 4.969349e+01 6.049716e+01 3.594719e+01 1.829202e+01 3.364194e+00 2.315169e+00 2.559985e+00 3.318201e+00 4.926397e+00 5.201264e+00 3.927713e+00 5.290730e+00 3.943695e+00 3.334211e+00 3.572185e+00 2.643121e+00 1.378667e+00 4.416508e-01 4.828508e-01 4.029038e-01 5.033900e-01 6.102468e-01 8.431401e-01 6.371856e-01 1.105972e+00 7.094060e-01 6.168478e-01 5.866165e-01 4.864012e-01 2.071388e-01
<GCONST> 1.287723e+02
<MIXTURE> 3 4.577236e-01
<MEAN> 39
 4.252111e-01 -7.222489e+00 -7.731652e+00 -8.440526e+00 -6.630127e+00 3.845477e+00 -5.657363e+00 1.082540e+00 1.425071e+00 -1.795278e+00 -1.708870e+00 -7.216852e+00 7.241994e+01 4.316850e-01 -1.503345e+00 -1.348190e+00 -7.263902e-01 7.332717e-01 1.547753e+00 9.277071e-01 -4.767250e-01 5.616153e-01 -1.124343e-02 -4.007598e-01 -9.772008e-01 1.001622e+00 -3.891796e-01 3.135867e-01 3.298469e-01 3.558460e-01 3.890594e-01 -1.026066e-01 1.448911e-01 -4.743446e-01 -4.455412e-01 -3.130377e-02 5.179812e-02 2.735589e-01 -5.053480e-01
<VARIANCE> 39
 1.524676e+01 2.455286e+01 4.115430e+01 3.946275e+01 4.267479e+01 8.759683e+01 7.028802e+01 7.851342e+01 4.542426e+01 3.876733e+01 5.540596e+01 3.631355e+01 2.313258e+01 1.266062e+00 1.483629e+00 2.960536e+00 2.421875e+00 3.178466e+00 3.993424e+00 4.003312e+00 5.617875e+00 4.865019e+00 3.026744e+00 3.314876e+00 2.851218e+00 1.241865e+00 3.704301e-01 3.308663e-01 3.297642e-01 4.025089e-01 5.423006e-01 6.852475e-01 8.173621e-01 1.079671e+00 8.043995e-01 5.619112e-01 6.198600e-01 5.457447e-01 2.317514e-01
<GCONST> 1.248924e+02
<STATE> 3
<NUMMIXES> 3
<MIXTURE> 1 1.344346e-01
<MEAN> 39
 1.239280e+00 -1.095929e+01 -8.692685e+00 -7.255070e+00 -3.455075e+00 9.822089e+00 -3.440155e+00 -3.509420e+00 1.148663e+00 9.862366e-02 -9.465143e-01 -9.998175e+00 7.408942e+01 1.071921e-01 -2.520514e-01 -7.210960e-02 2.233116e-01 1.693653e-01 -1.608666e-01 -7.302143e-02 -8.881956e-02 2.037798e-01 -5.035736e-02 -6.854217e-02 -1.282316e-01 3.725941e-02 -1.326380e-01 5.640868e-01 1.504309e-01 2.710588e-01 -1.670919e-03 -4.572992e-01 -1.759439e-01 3.122702e-01 -5.567138e-02 -1.866848e-01 2.709722e-02 3.349116e-01 -4.186493e-01
<VARIANCE> 39
 1.004785e+01 1.662283e+01 2.261562e+01 2.013842e+01 3.091639e+01 5.228685e+01 7.107751e+01 3.815405e+01 3.744692e+01 2.673191e+01 3.195730e+01 2.466839e+01 1.650090e+01 5.678117e-01 9.558293e-01 1.155451e+00 1.537097e+00 1.911287e+00 3.462775e+00 3.013498e+00 4.695445e+00 2.699224e+00 1.978566e+00 2.175590e+00 1.535616e+00 5.326056e-01 1.622442e-01 2.464067e-01 2.049585e-01 2.298888e-01 3.444628e-01 3.096364e-01 6.258374e-01 5.156099e-01 5.200704e-01 3.731503e-01 3.635276e-01 3.383701e-01 1.515377e-01
<GCONST> 1.060808e+02
<MIXTURE> 2 3.920296e-01
<MEAN> 39
 9.275660e-02 -9.086020e+00 -1.301419e+01 -1.369628e+01 5.756779e-01 7.053809e-01 -5.663084e+00 -5.841263e+00 -2.465138e+00 -4.833912e+00 -6.928930e+00 -7.216146e+00 7.214271e+01 -4.595714e-03 -7.782713e-02 -1.714734e-01 1.297498e-01 1.687442e-01 -1.851306e-01 -1.887612e-01 1.246634e-01 4.735349e-02 -7.331072e-02 -9.038622e-02 -1.336566e-01 -1.125651e-02 -1.470775e-02 2.572913e-01 2.434476e-01 1.848295e-01 -2.667395e-01 -3.039345e-01 -2.750533e-02 1.995674e-01 -4.474138e-02 1.040972e-02 3.391518e-02 1.617737e-01 -1.686922e-01
<VARIANCE> 39
 1.436823e+01 2.591761e+01 1.828899e+01 5.014997e+01 3.843285e+01 9.352843e+01 5.574699e+01 5.977611e+01 5.070484e+01 5.118685e+01 5.742036e+01 3.269335e+01 1.230504e+01 2.388134e-01 7.988295e-01 7.395265e-01 1.185260e+00 1.590606e+00 2.554381e+00 1.703978e+00 2.618085e+00 1.814599e+00 1.704877e+00 1.812757e+00 1.562419e+00 2.098704e-01 6.092737e-02 1.277631e-01 1.480089e-01 1.921657e-01 2.371445e-01 3.161476e-01 3.039847e-01 3.517216e-01 3.037038e-01 2.983333e-01 2.916375e-01 2.545080e-01 5.272087e-02
<GCONST> 9.915768e+01
<MIXTURE> 3 4.735352e-01
<MEAN> 39
 1.673476e+00 -1.068220e+01 -1.050395e+01 -9.365810e+00 -3.065659e+00 1.113869e+01 -1.477938e+00 -4.889544e+00 -3.749155e-01 -1.791016e+00 -2.163199e-01 -8.447663e+00 7.360301e+01 2.281546e-02 -1.368372e-01 -1.512821e-01 1.520604e-01 2.200223e-01 2.359091e-02 -2.007509e-01 -1.441597e-01 1.418482e-01 4.207498e-02 -3.057461e-02 -1.499618e-01 -3.899549e-02 -6.790571e-03 1.920238e-01 9.345682e-02 1.059808e-01 -1.258271e-01 -3.130324e-01 -1.911829e-01 2.961511e-01 7.992993e-02 -8.439252e-03 -4.830651e-02 1.333581e-02 -9.115234e-02
<VARIANCE> 39
 8.995390e+00 1.329279e+01 1.628311e+01 2.721102e+01 3.884206e+01 4.715096e+01 4.648633e+01 3.541514e+01 3.641702e+01 2.527637e+01 4.566170e+01 2.643478e+01 1.316252e+01 1.501807e-01 4.565901e-01 3.987779e-01 8.190762e-01 9.577109e-01 1.533316e+00 1.871364e+00 2.091920e+00 1.862959e+00 1.232774e+00 1.462016e+00 1.114775e+00 1.570756e-01 3.101615e-02 7.224466e-02 8.708915e-02 1.224535e-01 1.543727e-01 1.874396e-01 2.267693e-01 2.793123e-01 2.317438e-01 2.012194e-01 2.219409e-01 1.978412e-01 3.192871e-02
<GCONST> 8.481221e+01
<STATE> 4
<NUMMIXES> 3
<MIXTURE> 1 1.707662e-01
<MEAN> 39
 1.373747e+00 -6.185239e+00 -7.483862e+00 -4.499541e+00 -5.326757e+00 5.851002e+00 -7.026682e+00 -1.028033e-01 1.214048e+00 1.260388e+00 -5.456197e-01 -1.137260e+01 7.017235e+01 -1.215768e+00 3.774247e+00 1.727104e+00 2.349702e+00 1.379290e+00 -2.236432e+00 7.509181e-01 6.653110e-01 -1.002846e+00 -5.137002e-02 -3.789340e-01 1.207825e+00 -3.004971e+00 -9.162587e-01 5.228082e-01 2.856024e-01 1.039263e-01 6.966177e-01 8.872934e-03 7.329075e-01 -3.984814e-01 -3.343388e-01 -3.888191e-01 -1.235376e-01 6.803190e-01 -5.533632e-01
<VARIANCE> 39
 1.101337e+01 2.755304e+01 3.135205e+01 2.760571e+01 2.243457e+01 5.615299e+01 7.796408e+01 5.668919e+01 3.334837e+01 2.731853e+01 3.698128e+01 3.226996e+01 2.112673e+01 2.815446e+00 2.268568e+00 2.284563e+00 1.973889e+00 3.764910e+00 2.902532e+00 3.500566e+00 5.409526e+00 3.825288e+00 3.193950e+00 3.231157e+00 2.655385e+00 2.466786e+00 3.259145e-01 6.054948e-01 3.841979e-01 4.134920e-01 4.298203e-01 6.045402e-01 7.381792e-01 8.951686e-01 5.807803e-01 4.891120e-01 5.286885e-01 5.080200e-01 3.004418e-01
<GCONST> 1.218858e+02
<MIXTURE> 2 4.665766e-01
<MEAN> 39
 -6.322978e-03 -8.104107e+00 -1.145374e+01 -1.079433e+01 -1.608697e+00 -3.128911e+00 -6.711761e+00 -2.052285e+00 -1.545755e+00 -5.262609e+00 -7.721674e+00 -5.929216e+00 7.136958e+01 5.530992e-02 1.280559e+00 9.294105e-01 8.832934e-01 -9.912921e-01 -1.415817e+00 -4.001034e-01 9.208603e-01 -2.006991e-02 -4.429797e-02 -1.066605e-01 6.728907e-01 -9.884734e-01 -1.413252e-01 5.294990e-01 4.556446e-01 4.118440e-01 -1.067220e-01 8.345963e-02 5.343069e-02 -2.765675e-01 -2.477092e-01 1.674932e-01 2.757463e-01 1.079039e-01 -4.739926e-01
<VARIANCE> 39
 1.831538e+01 3.513761e+01 3.060455e+01 5.096873e+01 4.395167e+01 1.183891e+02 5.861879e+01 7.117390e+01 6.842182e+01 5.964155e+01 5.858973e+01 3.605171e+01 1.870996e+01 6.716944e-01 2.065589e+00 1.972138e+00 2.139321e+00 2.642161e+00 3.388639e+00 3.301349e+00 3.737687e+00 3.127915e+00 3.025181e+00 2.737608e+00 2.353678e+00 1.152147e+00 1.905691e-01 2.959554e-01 2.851654e-01 4.175313e-01 4.622490e-01 6.569459e-01 4.927426e-01 6.990187e-01 6.167451e-01 5.619764e-01 5.095934e-01 4.035088e-01 2.124503e-01
<GCONST> 1.205610e+02
<MIXTURE> 3 3.626576e-01
<MEAN> 39
 1.279900e+00 -8.221595e+00 -9.510798e+00 -6.917077e+00 -4.677357e+00 4.233680e+00 -5.962874e+00 -2.099270e+00 2.107900e+00 -1.513002e+00 -3.166924e+00 -9.250181e+00 7.129191e+01 -8.230485e-02 1.885737e+00 1.303688e+00 1.606588e+00 -4.001880e-01 -1.598933e+00 -4.516699e-01 6.592023e-01 -4.818919e-01 8.661334e-02 3.002318e-01 4.730305e-01 -1.701455e+00 -3.176630e-01 5.422022e-01 4.913033e-01 3.698403e-01 3.374184e-01 -1.010815e-01 2.253199e-01 -2.653167e-01 -4.921210e-01 -6.562486e-02 8.428720e-02 3.906834e-01 -5.231597e-01
<VARIANCE> 39
 1.241904e+01 2.967809e+01 3.021228e+01 4.090004e+01 3.279959e+01 9.788297e+01 5.890901e+01 6.061626e+01 5.346834e+01 3.177150e+01 5.414725e+01 3.814766e+01 2.393185e+01 1.034051e+00 2.268511e+00 2.783598e+00 2.626637e+00 2.818458e+00 3.215812e+00 4.129596e+00 4.819251e+00 4.202864e+00 3.168768e+00 2.916214e+00 2.551806e+00 1.946020e+00 2.458300e-01 3.892002e-01 3.829386e-01 4.522084e-01 4.826964e-01 6.892332e-01 5.380763e-01 7.252093e-01 6.831602e-01 5.014812e-01 5.570819e-01 4.454928e-01 2.659153e-01
<GCONST> 1.225748e+02
<TRANSP> 5
 0.000000e+00 1.000000e+00 0.000000e+00 0.000000e+00 0.000000e+00
 0.000000e+00 6.748261e-01 3.251739e-01 0.000000e+00 0.000000e+00
 0.000000e+00 0.000000e+00 8.409200e-01 1.590800e-01 0.000000e+00
 0.000000e+00 0.000000e+00 0.000000e+00 6.087863e-01 3.912138e-01
 0.000000e+00 0.000000e+00 0.000000e+00 0.000000e+00 0.000000e+00
<ENDHMM>
~h "ae"
<BEGINHMM>
<NUMSTATES> 5
<STATE> 2
<NUMMIXES> 3
<MIXTURE> 1 1.862668e-01
<MEAN> 39
 -5.731680e+00 -2.602901e+00 1.089260e+00 -2.612758e+00 -1.111298e+01 -2.080898e+00 -6.477951e+00 5.481738e+00 -1.562922e+00 -2.850683e+00 1.518250e-01 -3.854642e+00 6.742730e+01 1.938554e+00 -1.262172e+00 3.328044e-01 -6.240917e-01 -1.389470e+00 -2.134387e-02 -4.771282e-01 1.241708e+00 3.593390e-01 -6.201548e-01 -8.502168e-02 -1.233382e+00 2.085950e+00 -6.095332e-01 7.856919e-02 -1.108522e-01 2.200241e-02 7.452570e-01 1.553088e-01 7.234473e-01 -1.481838e-01 -1.228518e-02 -8.787423e-02 -9.899040e-02 2.093716e-01 -2.598212e-01
<VARIANCE> 39
 3.258116e+01 2.840737e+01 3.723394e+01 3.159126e+01 5.090804e+01 6.451804e+01 6.766747e+01 5.018235e+01 4.313715e+01 2.965802e+01 2.689594e+01 2.903007e+01 6.177726e+01 4.597927e+00 3.672854e+00 2.690170e+00 3.285592e+00 4.463635e+00 3.814672e+00 4.162020e+00 5.032852e+00 4.105937e+00 2.895893e+00 3.089455e+00 2.835475e+00 4.028458e+00 7.872735e-01 6.422683e-01 4.313497e-01 5.868042e-01 8.891699e-01 8.872151e-01 9.456967e-01 7.059748e-01 7.135310e-01 4.690830e-01 4.735491e-01 4.931274e-01 8.451272e-01
<GCONST> 1.312505e+02
<MIXTURE> 2 4.237572e-01
<MEAN> 39
 -3.296580e+00 -7.467405e+00 -1.661118e+00 -7.831811e+00 -1.055632e+01 -6.797095e+00 8.084184e-02 1.977776e+00 -2.252698e+00 -6.321055e+00 -5.996621e+00 -3.128849e+00 7.216916e+01 1.878982e-01 -1.254299e+00 -5.067362e-01 -7.647105e-01 9.506892e-02 1.162925e-01 1.038631e+00 5.390445e-01 -1.804909e-01 -1.104174e+00 -5.682358e-01 3.280237e-02 1.094650e+00 -2.900389e-01 3.333634e-01 1.797293e-02 3.998642e-01 4.079071e-01 2.710253e-01 -1.733272e-01 -2.528761e-01 -1.457340e-01 1.526401e-01 2.626714e-01 7.580768e-02 -4.841742e-01
<VARIANCE> 39
 2.170028e+01 3.467240e+01 3.874435e+01 5.273082e+01 4.020874e+01 7.675825e+01 4.944241e+01 7.138223e+01 6.384936e+01 5.533622e+01 4.206151e+01 4.021223e+01 2.633606e+01 1.616894e+00 1.633161e+00 2.218811e+00 2.312011e+00 2.929612e+00 3.359313e+00 3.541737e+00 3.543429e+00 3.127713e+00 3.099665e+00 2.803057e+00 2.363696e+00 1.382460e+00 3.464080e-01 3.811558e-01 2.983262e-01 4.157056e-01 4.539095e-01 5.807067e-01 5.393227e-01 7.394541e-01 6.391100e-01 5.709544e-01 4.993924e-01 4.377202e-01 3.083176e-01
<GCONST> 1.228393e+02
<MIXTURE> 3 3.899764e-01
<MEAN> 39
 -4.254167e+00 -5.346617e+00 6.148369e-01 -4.214116e+00 -1.122329e+01 -2.457937e+00 -3.719963e+00 7.532156e+00 -1.066497e+00 -4.586464e+00 -9.018462e-01 -4.623445e+00 7.032951e+01 -1.424392e-02 -1.076355e+00 -1.323010e-01 -5.758589e-01 -2.427322e-01 2.322213e-01 9.969740e-01 7.799504e-01 1.621988e-01 -7.617577e-01 -2.088276e-01 -2.773007e-01 1.100237e+00 -2.253492e-01 2.474436e-01 -1.822520e-02 1.832914e-01 4.850154e-01 6.196664e-02 1.086126e-01 -4.898589e-01 -2.110454e-01 4.560540e-02 -1.419898e-02 1.324742e-01 -3.874823e-01
<VARIANCE> 39
 2.848074e+01 3.005458e+01 4.547469e+01 3.470655e+01 4.732442e+01 6.219164e+01 5.320972e+01 6.084710e+01 4.993890e+01 3.681961e+01 3.768189e+01 3.260844e+01 4.986547e+01 1.310181e+00 1.644290e+00 2.291860e+00 1.864306e+00 2.970489e+00 2.861801e+00 3.235933e+00 3.384772e+00 3.086771e+00 2.455122e+00 2.456238e+00 2.105480e+00 1.389636e+00 3.372583e-01 3.332512e-01 3.353080e-01 3.657179e-01 4.788907e-01 4.823993e-01 5.748987e-01 6.469915e-01 5.834671e-01 4.479196e-01 4.475256e-01 3.922964e-01 3.508997e-01
<GCONST> 1.202868e+02
<STATE> 3
<NUMMIXES> 3
<MIXTURE> 1 2.615951e-01
<MEAN> 39
 -1.480930e+01 -4.785534e+00 6.437699e-01 -4.816096e-01 -2.188573e+00 -7.381854e-01 1.374054e+00 3.690105e+00 -8.363310e-01 -2.182469e+00 1.562920e+00 3.652517e-01 5.719381e+01 8.504251e-02 6.273456e-02 3.739523e-02 8.008114e-02 -1.317954e-02 2.244352e-01 1.578101e-01 2.457112e-03 7.917456e-03 1.589113e-02 2.301767e-03 -1.231505e-02 -1.590681e-01 1.830294e-02 7.805723e-02 -3.727734e-02 1.181096e-03 8.607179e-03 2.289460e-02 5.493730e-02 -1.322551e-02 -2.411854e-02 -2.971232e-02 -3.779534e-02 -1.630802e-02 -4.984142e-02
<VARIANCE> 39
 2.259034e+01 3.181725e+01 1.278084e+01 1.577383e+01 2.333144e+01 2.866708e+01 2.952603e+01 2.160717e+01 2.093713e+01 1.883205e+01 1.767155e+01 1.542883e+01 4.737589e+01 5.076909e-01 1.053367e+00 7.983980e-01 9.072970e-01 1.196576e+00 1.601591e+00 1.532007e+00 1.602818e+00 1.682424e+00 1.591478e+00 1.476573e+00 1.387741e+00 7.406422e-01 9.905641e-02 2.091972e-01 1.482271e-01 1.849261e-01 2.876253e-01 3.158467e-01 3.418253e-01 3.591013e-01 3.561924e-01 3.219663e-01 2.902974e-01 2.927540e-01 1.653054e-01
<GCONST> 9.557047e+01
<MIXTURE> 2 4.357941e-01
<MEAN> 39
 -2.741453e+00 -1.035235e+01 -4.100801e+00 -7.522415e+00 -7.771809e+00 -4.788542e+00 7.069521e-01 3.249573e+00 -2.844507e+00 -9.745216e+00 -6.726494e+00 -3.207945e+00 7.433480e+01 6.500442e-02 -7.241690e-02 -2.945517e-01 1.039174e-01 3.475370e-01 1.535562e-02 -1.745707e-01 -9.854291e-02 1.192137e-01 -1.335494e-01 -2.478302e-01 -4.000653e-02 -5.096105e-02 4.978205e-02 2.978291e-01 8.408633e-02 1.264241e-01 -6.077953e-02 -4.145692e-02 -2.510431e-01 -1.064601e-01 3.945440e-02 2.861573e-01 8.852495e-02 -7.771987e-02 -2.441214e-01
<VARIANCE> 39
 1.627815e+01 2.287103e+01 3.335154e+01 3.868396e+01 3.796166e+01 6.402573e+01 4.389766e+01 6.246297e+01 5.437375e+01 4.309355e+01 4.133050e+01 3.486654e+01 1.505071e+01 2.823837e-01 6.160758e-01 9.609365e-01 8.821917e-01 1.493955e+00 1.452837e+00 1.774811e+00 1.578270e+00 1.636142e+00 1.573367e+00 1.312207e+00 1.174418e+00 2.503053e-01 6.692056e-02 1.290044e-01 1.553677e-01 1.939832e-01 2.452373e-01 2.437502e-01 3.003722e-01 3.273070e-01 2.764164e-01 2.639596e-01 2.626755e-01 2.212588e-01 8.593848e-02
<GCONST> 9.679138e+01
<MIXTURE> 3 3.026121e-01
<MEAN> 39
 -7.249678e+00 -8.802797e+00 1.081255e+00 -4.502019e+00 -8.368298e+00 -4.973039e-01 -3.090608e-01 8.226382e+00 -1.597874e+00 -7.190872e+00 8.991611e-02 -4.951533e+00 7.204715e+01 7.228046e-02 -8.847706e-02 -1.706676e-01 8.518402e-02 1.345314e-01 9.121533e-02 -6.422052e-02 -7.535440e-02 1.152135e-01 -1.729970e-01 -1.407981e-01 -8.825041e-02 -2.821714e-02 8.246958e-02 1.218612e-01 -2.613716e-02 9.211845e-02 3.699103e-02 -5.117888e-02 -1.598486e-01 -4.793506e-02 3.321921e-02 1.475455e-01 -2.841563e-02 2.178694e-02 -1.415333e-01
<VARIANCE> 39
 5.337049e+01 1.724901e+01 3.382944e+01 1.681848e+01 3.778346e+01 3.386739e+01 3.234086e+01 3.511095e+01 3.003199e+01 3.174326e+01 3.606149e+01 2.814742e+01 4.587146e+01 1.875586e-01 3.145411e-01 6.383898e-01 5.921441e-01 8.487163e-01 9.149938e-01 1.218188e+00 1.075318e+00 1.143670e+00 1.128878e+00 1.024611e+00 9.660417e-01 2.280790e-01 3.007438e-02 6.735219e-02 1.072571e-01 1.092435e-01 1.651778e-01 1.600243e-01 2.069521e-01 2.175012e-01 2.156590e-01 2.131507e-01 1.989039e-01 1.852612e-01 3.930453e-02
<GCONST> 8.462510e+01
<STATE> 4
<NUMMIXES> 3
<MIXTURE> 1 1.531997e-01
<MEAN> 39
 -4.709370e-01 -6.195590e+00 -3.895025e+00 -1.786077e+00 -8.295285e+00 -9.696817e-01 -5.890724e+00 7.390714e+00 2.259044e+00 -2.780752e+00 -2.944168e+00 -9.184622e+00 7.089085e+01 -8.015131e-01 3.675682e+00 8.319503e-01 1.923657e+00 1.563642e+00 -4.171059e-01 6.069976e-01 -1.270316e+00 -6.619429e-01 1.150475e+00 4.030274e-01 8.905998e-01 -3.030414e+00 -9.782534e-01 5.627917e-01 2.479039e-01 1.748992e-01 6.749998e-01 4.571623e-02 7.311163e-01 -3.656005e-01 -2.290191e-01 -3.752354e-01 -1.073428e-01 7.153507e-01 -5.361658e-01
<VARIANCE> 39
 1.094286e+01 2.640512e+01 3.142097e+01 2.545833e+01 2.576876e+01 4.444311e+01 7.197012e+01 6.005167e+01 4.989994e+01 3.786327e+01 3.431951e+01 2.933501e+01 1.976526e+01 2.306309e+00 2.257569e+00 2.023407e+00 1.805078e+00 2.494078e+00 2.556657e+00 3.473889e+00 4.601636e+00 3.091671e+00 2.649697e+00 2.528677e+00 2.541222e+00 2.148323e+00 3.112451e-01 5.254266e-01 3.916077e-01 3.948241e-01 4.491719e-01 4.682348e-01 7.496150e-01 7.174479e-01 8.012164e-01 4.777798e-01 5.512924e-01 4.505891e-01 3.000748e-01
<GCONST> 1.197695e+02
<MIXTURE> 2 3.889010e-01
<MEAN> 39
 -6.496512e+00 -3.731779e+00 -1.151465e+00 -4.229956e+00 -7.024835e+00 -3.446997e+00 1.048823e-01 1.193135e+00 -3.189545e+00 -5.618039e+00 -3.613195e+00 -1.849182e+00 6.483171e+01 4.981919e-01 1.738631e-01 1.015386e-01 -1.344380e-01 -5.642905e-01 -3.805117e-01 -5.880649e-01 -1.949653e-03 -8.578797e-02 -6.114149e-02 -2.423310e-01 -2.652839e-01 5.503646e-01 -9.178139e-03 8.756101e-02 4.825187e-02 7.841996e-02 -8.726299e-03 6.698817e-02 -1.321003e-01 -7.243901e-03 1.189692e-02 9.850626e-02 5.467682e-02 -8.836848e-02 -1.993169e-02
<VARIANCE> 39
 4.412121e+01 5.026262e+01 4.272834e+01 6.790125e+01 4.884995e+01 8.898792e+01 5.570676e+01 5.589555e+01 4.549459e+01 5.000809e+01 4.458904e+01 3.162173e+01 8.925734e+01 2.457640e+00 4.553495e+00 2.382627e+00 3.979221e+00 4.078903e+00 3.465135e+00 3.465887e+00 3.373204e+00 3.500653e+00 3.299670e+00 2.644099e+00 2.433464e+00 6.614930e+00 4.398165e-01 7.798097e-01 4.162626e-01 7.567475e-01 7.305291e-01 6.710730e-01 5.922423e-01 6.797778e-01 6.277809e-01 6.107601e-01 5.090702e-01 4.316657e-01 9.262894e-01
<GCONST> 1.328189e+02
<MIXTURE> 3 4.578992e-01
<MEAN> 39
 -2.129988e+00 -7.975315e+00 -2.804779e+00 -5.000042e+00 -9.412995e+00 -4.440808e+00 -3.591677e+00 5.060641e+00 3.357889e-01 -6.036584e+00 -5.067900e+00 -4.983883e+00 7.234475e+01 3.204537e-01 1.449001e+00 5.628203e-01 8.394617e-01 1.845157e-01 -1.075820e-01 -7.781885e-01 -6.285396e-01 -2.802234e-01 1.033777e+00 3.796290e-01 -2.462002e-01 -1.379351e+00 -2.329805e-01 6.966200e-01 3.332553e-01 4.196181e-01 3.608810e-01 1.058863e-01 1.970290e-01 -4.441272e-01 -4.371640e-01 1.471777e-01 1.567076e-01 1.667718e-01 -6.835468e-01
<VARIANCE> 39
 1.629559e+01 2.890971e+01 4.269423e+01 3.456863e+01 3.591017e+01 7.824043e+01 6.362241e+01 7.204174e+01 5.579913e+01 4.469693e+01 5.299881e+01 4.084362e+01 2.631450e+01 8.542259e-01 2.040746e+00 2.135587e+00 1.944341e+00 2.640464e+00 2.694123e+00 3.389946e+00 3.722420e+00 3.363385e+00 2.809317e+00 2.944460e+00 2.305039e+00 2.028610e+00 2.515650e-01 2.962915e-01 3.320850e-01 3.288853e-01 4.606248e-01 5.402201e-01 5.658814e-01 6.948993e-01 6.943887e-01 4.961860e-01 5.538363e-01 4.318286e-01 2.596861e-01
<GCONST> 1.206374e+02
<TRANSP> 5
 0.000000e+00 1.000000e+00 0.000000e+00 0.000000e+00 0.000000e+00
 0.000000e+00 6.494043e-01 3.505957e-01 0.000000e+00 0.000000e+00
 0.000000e+00 0.000000e+00 8.612880e-01 1.387120e-01 0.000000e+00
 0.000000e+00 0.000000e+00 0.000000e+00 7.353411e-01 2.646589e-01
 0.000000e+00 0.000000e+00 0.000000e+00 0.000000e+00 0.000000e+00
<ENDHMM>
~h "ah"
<BEGINHMM>
<NUMSTATES> 5
<STATE> 2
<NUMMIXES> 3
<MIXTURE> 1 1.761894e-01
<MEAN> 39
 -2.611217e+00 -3.439834e+00 3.206298e+00 -4.377895e+00 -1.124964e+01 -2.757472e+00 -1.792397e+01 4.066234e+00 1.600608e-03 -1.938672e+00 2.783961e+00 -3.650648e+00 7.236961e+01 1.774691e+00 -1.117048e+00 1.072740e+00 -6.373920e-01 -1.291687e+00 3.554929e-01 -1.931299e+00 1.163392e+00 4.291166e-01 1.710786e-01 5.407342e-01 -9.505203e-01 1.537002e+00 -7.484543e-01 8.754582e-01 -1.681904e-01 5.920892e-01 1.099556e+00 2.375460e-01 1.539759e+00 -4.729549e-01 -3.769686e-01 -6.500994e-02 -3.520031e-01 2.622193e-01 -1.235335e+00
<VARIANCE> 39
 1.600663e+01 2.029744e+01 4.858062e+01 3.067943e+01 3.266872e+01 4.067189e+01 4.374053e+01 5.721325e+01 5.702741e+01 3.729591e+01 3.276631e+01 3.294140e+01 1.435188e+01 4.475637e+00 2.321124e+00 3.634186e+00 3.616406e+00 3.590497e+00 4.129934e+00 5.815338e+00 5.587257e+00 4.869730e+00 3.233687e+00 3.651202e+00 3.316868e+00 2.142759e+00 7.359464e-01 4.777898e-01 6.091075e-01 5.680875e-01 6.230027e-01 5.620329e-01 8.082489e-01 9.384589e-01 1.022920e+00 6.529426e-01 6.567755e-01 6.404623e-01 4.539420e-01
<GCONST> 1.287103e+02
<MIXTURE> 2 4.453999e-01
<MEAN> 39
 -5.778258e+00 8.942773e-01 -3.004918e-02 -5.567536e+00 -7.885920e+00 -8.449199e+00 -7.189532e+00 -3.721633e+00 -4.191751e+00 -3.239600e+00 -4.334537e+00 -5.331184e-01 6.667605e+01 2.210457e+00 -6.268393e-01 -4.817147e-02 -1.173057e+00 -1.070392e+00 -5.436351e-01 -1.010662e+00 -5.508065e-01 2.917146e-02 -2.355001e-01 -6.212718e-01 -4.040836e-02 9.849330e-01 -3.993036e-01 -5.565114e-03 -8.296547e-02 1.852615e-01 2.764136e-01 4.954768e-01 1.696698e-01 2.088224e-01 1.279189e-01 1.388391e-01 2.969673e-01 -7.385755e-02 -2.129832e-01
<VARIANCE> 39
 6.512675e+01 4.473698e+01 6.527525e+01 6.584079e+01 6.029428e+01 9.745734e+01 5.462865e+01 5.268675e+01 5.266894e+01 4.180523e+01 4.918840e+01 3.696629e+01 3.333720e+01 8.790926e+00 4.405387e+00 4.521350e+00 5.549460e+00 5.804477e+00 6.270391e+00 6.098863e+00 6.359484e+00 4.970504e+00 3.995778e+00 4.580646e+00 3.875734e+00 3.083921e+00 1.034621e+00 6.647075e-01 5.761413e-01 8.069043e-01 9.035138e-01 1.075086e+00 8.885133e-01 8.842792e-01 7.624939e-01 6.811879e-01 6.924699e-01 5.705504e-01 6.347763e-01
<GCONST> 1.410475e+02
<MIXTURE> 3 3.784114e-01
<MEAN> 39
 -3.758935e+00 -2.253778e+00 1.002376e+00 -4.221403e+00 -1.029792e+01 -4.703556e+00 -1.001074e+01 -9.128593e-01 -2.345945e+00 -1.925895e+00 2.428298e-01 -2.243679e+00 6.912317e+01 1.150813e+00 -7.951669e-01 1.984056e-01 -6.607882e-01 -1.020808e+00 7.658991e-02 -7.317520e-01 3.302670e-01 5.909491e-01 6.337420e-02 9.537422e-02 -3.967821e-01 1.143866e+00 -3.747118e-01 3.841771e-01 -8.104263e-03 2.335620e-01 5.617169e-01 2.646660e-01 4.275710e-01 -4.927353e-02 -1.270850e-01 -5.610488e-02 -1.119801e-01 9.234246e-03 -5.450656e-01
<VARIANCE> 39
 5.132764e+01 3.805433e+01 7.976266e+01 5.683767e+01 5.348323e+01 9.333098e+01 5.660362e+01 7.015142e+01 6.608616e+01 4.158278e+01 4.950311e+01 4.215173e+01 2.821912e+01 5.421617e+00 3.125467e+00 4.309172e+00 4.035663e+00 4.917886e+00 4.781702e+00 5.684208e+00 6.007303e+00 5.289235e+00 3.558115e+00 3.812107e+00 3.654048e+00 2.958776e+00 8.338600e-01 5.329901e-01 5.960026e-01 5.906205e-01 7.652856e-01 8.637978e-01 7.944621e-01 9.105456e-01 9.058959e-01 6.236635e-01 6.563085e-01 6.110467e-01 4.525441e-01
<GCONST> 1.375355e+02
<STATE> 3
<NUMMIXES> 3
<MIXTURE> 1 1.422088e-01
<MEAN> 39
 -1.294715e+00 -3.774786e+00 2.018444e+00 -3.882431e+00 -1.043531e+01 -3.755422e+00 -1.697813e+01 1.441626e+00 5.612119e-01 -6.961324e-01 1.305781e+00 -3.457550e+00 7.105078e+01 6.430196e-01 1.591281e+00 5.473558e-01 1.083974e+00 1.040996e+00 2.537077e-01 7.193035e-01 -1.001653e+00 -6.431547e-01 1.791904e-02 3.142581e-02 3.457041e-01 -1.584134e+00 -1.053508e+00 1.155220e+00 -1.430047e-01 5.602273e-01 1.119046e+00 1.858144e-01 1.571422e+00 -3.430630e-01 -3.786791e-01 -1.915270e-01 -2.642464e-01 2.964532e-01 -1.304316e+00
<VARIANCE> 39
 1.762881e+01 2.699876e+01 4.528104e+01 4.513881e+01 3.189313e+01 6.904779e+01 5.091265e+01 8.937730e+01 5.349193e+01 4.359998e+01 4.129381e+01 3.904650e+01 1.822048e+01 3.622939e+00 2.682352e+00 3.450099e+00 4.005924e+00 3.353809e+00 4.053119e+00 4.049968e+00 4.705761e+00 4.311534e+00 3.111468e+00 3.619766e+00 3.260461e+00 2.820648e+00 7.488900e-01 5.230712e-01 6.231936e-01 7.585338e-01 7.025675e-01 9.825336e-01 8.933374e-01 1.539846e+00 1.175719e+00 8.200653e-01 8.293757e-01 7.254379e-01 4.420421e-01
<GCONST> 1.330877e+02
<MIXTURE> 2 5.460884e-01
<MEAN> 39
 -2.219213e+00 -4.994453e+00 -9.525430e-01 -9.216735e+00 -9.009873e+00 -3.467997e+00 -7.974089e+00 -3.134457e-01 -2.023624e+00 -3.098196e+00 -3.253258e+00 -4.353413e+00 7.223912e+01 1.034278e-01 4.699433e-02 -1.421922e-01 -5.853485e-02 1.739553e-01 9.431420e-02 -1.071253e-01 -5.492665e-03 1.418314e-01 -7.562360e-02 -1.437079e-01 -6.044597e-02 -6.837998e-02 -1.118110e-01 4.134347e-01 9.619759e-02 4.145269e-01 1.379770e-01 -1.710296e-02 -4.450174e-02 -1.649542e-01 -1.573031e-01 3.081674e-02 1.277414e-01 1.133705e-01 -4.231407e-01
<VARIANCE> 39
 2.242064e+01 3.947817e+01 1.038524e+02 5.461724e+01 5.956437e+01 1.180974e+02 5.912872e+01 7.419716e+01 7.096440e+01 5.060688e+01 7.952410e+01 5.728778e+01 2.244185e+01 5.351246e-01 1.253930e+00 1.654504e+00 1.752352e+00 2.004795e+00 2.366685e+00 2.236221e+00 2.824483e+00 2.314716e+00 2.165741e+00 2.308264e+00 2.016849e+00 7.325829e-01 2.129814e-01 2.914049e-01 3.384974e-01 3.633933e-01 4.581052e-01 4.889435e-01 4.558226e-01 6.290982e-01 5.175631e-01 4.372295e-01 5.358214e-01 4.199059e-01 2.023418e-01
<GCONST> 1.187814e+02
<MIXTURE> 3 3.117006e-01
<MEAN> 39
 -1.924741e+00 -4.369399e+00 8.716921e-01 -6.125008e+00 -1.085462e+01 -3.834490e+00 -1.132801e+01 2.285556e+00 -8.016813e-01 -1.975083e+00 -3.721949e-01 -4.028421e+00 7.195481e+01 3.171566e-01 4.346054e-01 1.589499e-01 2.448252e-01 1.900692e-01 1.401075e-01 1.451764e-03 -9.649790e-02 -9.099989e-02 -5.428813e-02 1.998238e-02 1.695473e-01 -4.464274e-01 -4.078362e-01 7.104682e-01 6.391882e-02 5.102096e-01 6.255011e-01 1.162928e-01 4.875315e-01 -4.233287e-01 -3.239805e-01 -5.531082e-02 -6.394250e-02 1.853237e-01 -8.086287e-01
<VARIANCE> 39
 1.881970e+01 3.139198e+01 7.471809e+01 4.465631e+01 4.324236e+01 9.840031e+01 5.805228e+01 8.243695e+01 6.944086e+01 4.408573e+01 6.568208e+01 5.360634e+01 2.365780e+01 1.154235e+00 1.871997e+00 2.680431e+00 2.715635e+00 2.726504e+00 3.209999e+00 2.850380e+00 3.955936e+00 3.517336e+00 2.797503e+00 3.334028e+00 2.768817e+00 1.605809e+00 4.861170e-01 3.990698e-01 5.002366e-01 4.631517e-01 6.095138e-01 7.750973e-01 6.931581e-01 9.750926e-01 9.126229e-01 6.006596e-01 7.886793e-01 6.285073e-01 3.193954e-01
<GCONST> 1.279993e+02
<STATE> 4
<NUMMIXES> 3
<MIXTURE> 1 1.516841e-01
<MEAN> 39
 -2.340739e+00 6.813999e-01 3.275039e+00 -9.148840e-01 -7.650063e+00 -5.258002e+00 -1.562490e+01 1.845488e+00 1.117517e-02 -2.120722e+00 3.038403e-01 -1.099541e+00 6.802003e+01 -1.752598e+00 3.534117e+00 -2.358474e-02 1.940644e+00 2.842609e+00 -1.473700e-01 2.970361e+00 -1.159410e+00 9.843959e-02 -9.744595e-02 -8.732749e-01 9.364597e-01 -2.891343e+00 -1.116933e+00 3.120129e-01 -2.819627e-01 3.829613e-02 4.931277e-01 3.353392e-01 1.128990e+00 -3.285265e-02 -1.678324e-01 3.156071e-02 8.130039e-02 3.226818e-02 -4.813628e-01
<VARIANCE> 39
 1.880717e+01 2.786538e+01 4.389126e+01 2.641254e+01 3.026478e+01 5.018417e+01 4.288480e+01 5.920858e+01 4.559145e+01 3.846827e+01 3.014273e+01 3.627560e+01 2.146594e+01 3.236117e+00 1.913336e+00 2.839005e+00 2.625494e+00 2.252615e+00 3.759637e+00 3.499264e+00 4.336137e+00 4.108723e+00 2.519236e+00 3.120701e+00 3.183872e+00 3.441690e+00 4.441470e-01 4.912276e-01 4.769530e-01 3.911123e-01 4.908773e-01 6.006152e-01 6.280798e-01 7.915477e-01 6.026137e-01 5.208600e-01 4.990208e-01 5.102997e-01 3.007789e-01
<GCONST> 1.234001e+02
<MIXTURE> 2 4.435002e-01
<MEAN> 39
 -3.628860e+00 1.761307e+00 2.253022e+00 -5.358011e+00 -8.803144e+00 -4.903041e+00 -7.572126e+00 -5.220062e+00 -6.167381e+00 -2.759929e+00 -2.635178e+00 -1.739218e+00 6.535995e+01 -3.629410e-02 5.350904e-01 3.423516e-02 2.629885e-01 1.769606e-01 2.300133e-01 9.975633e-02 -1.289129e-01 -1.677508e-01 -4.109848e-02 6.340563e-02 7.977050e-02 -5.424874e-01 -1.220781e-01 -1.967336e-02 -3.674640e-02 1.130484e-01 6.831533e-02 7.841371e-03 -2.177180e-02 9.236338e-02 6.832740e-02 2.063323e-02 5.373330e-02 -5.045779e-02 -1.949688e-02
<VARIANCE> 39
 4.392218e+01 4.545708e+01 9.482285e+01 9.375645e+01 6.577744e+01 9.472745e+01 5.846082e+01 7.716300e+01 7.005282e+01 5.199680e+01 6.401899e+01 3.971239e+01 4.047100e+01 2.331288e+00 4.012201e+00 4.047081e+00 4.981109e+00 4.729353e+00 4.612220e+00 4.431067e+00 5.228683e+00 4.877025e+00 3.773164e+00 3.477641e+00 2.819383e+00 3.820082e+00 4.920560e-01 7.407118e-01 6.266512e-01 9.261803e-01 9.092215e-01 9.092989e-01 8.414472e-01 1.069762e+00 9.734245e-01 7.174452e-01 7.115453e-01 5.483607e-01 6.927559e-01
<GCONST> 1.397468e+02
<MIXTURE> 3 4.048168e-01
<MEAN> 39
 -1.058124e+00 -5.286844e-01 1.072244e+00 -3.503827e+00 -8.819447e+00 -6.408611e+00 -1.059255e+01 -2.469554e+00 -2.346577e+00 -2.322252e+00 -1.555902e+00 -1.632355e+00 6.703780e+01 -4.288153e-01 2.445434e+00 5.684946e-01 1.598956e+00 1.554265e+00 5.996182e-01 1.081838e+00 -8.964285e-01 -8.872672e-01 -3.018773e-01 -1.512338e-01 1.048207e-02 -2.544309e+00 -6.247524e-01 3.057207e-01 1.765212e-02 1.541762e-01 3.885922e-01 2.605352e-01 5.227317e-01 3.087920e-02 -1.591299e-01 -1.962841e-02 -4.170021e-02 -6.221712e-02 -3.756933e-01
<VARIANCE> 39
 2.259367e+01 3.723878e+01 6.837547e+01 6.299541e+01 4.371594e+01 9.869318e+01 5.061174e+01 8.350516e+01 6.390596e+01 4.717635e+01 5.872052e+01 5.064882e+01 2.801473e+01 2.284555e+00 2.756697e+00 3.516876e+00 3.744822e+00 3.738774e+00 4.283460e+00 4.131011e+00 4.976161e+00 5.242578e+00 3.478088e+00 3.828670e+00 3.403794e+00 2.876534e+00 4.118022e-01 5.580244e-01 5.718523e-01 6.293346e-01 6.543149e-01 8.265741e-01 6.353819e-01 1.119810e+00 9.389057e-01 6.845989e-01 6.773731e-01 6.449773e-01 3.995352e-01
<GCONST> 1.339480e+02
<TRANSP> 5
 0.000000e+00 1.000000e+00 0.000000e+00 0.000000e+00 0.000000e+00
 0.000000e+00 4.680759e-01 5.319241e-01 0.000000e+00 0.000000e+00
 0.000000e+00 0.000000e+00 6.363834e-01 3.636166e-01 0.000000e+00
 0.000000e+00 0.000000e+00 0.000000e+00 4.603300e-01 5.396700e-01
 0.000000e+00 0.000000e+00 0.000000e+00 0.000000e+00 0.000000e+00
<ENDHMM>
~h "ao"
<BEGINHMM>
<NUMSTATES> 5
<STATE> 2
<NUMMIXES> 3
<MIXTURE> 1 1.750547e-01
<MEAN> 39
 1.096010e+00 -4.540382e+00 -5.538683e+00 -5.444993e+00 -7.399249e+00 1.222061e+00 -1.544189e+01 -2.844188e+00 2.020502e+00 2.232003e+00 2.700034e+00 -5.673719e+00 7.111463e+01 2.171574e+00 -1.033376e+00 -1.160149e+00 -1.507056e+00 -5.150648e-01 1.549324e+00 -1.356543e-01 -6.397151e-01 5.093902e-03 5.496383e-01 1.184814e+00 -7.984122e-01 1.311768e+00 -8.476439e-01 3.692982e-01 2.481007e-01 2.737400e-01 2.369877e-01 1.898935e-01 1.321830e+00 1.980536e-01 -6.511824e-01 -5.598215e-01 -4.014002e-02 4.623629e-01 -5.654511e-01
<VARIANCE> 39
 2.070930e+01 2.496728e+01 4.591789e+01 4.248135e+01 3.160800e+01 5.524110e+01 5.756601e+01 5.591918e+01 4.725832e+01 3.494577e+01 4.226968e+01 4.644474e+01 2.041675e+01 5.222120e+00 2.998071e+00 3.988449e+00 2.945424e+00 3.661601e+00 5.152445e+00 9.440022e+00 5.150669e+00 6.351903e+00 4.065530e+00 4.741254e+00 4.196607e+00 2.389448e+00 7.674454e-01 3.660576e-01 5.182108e-01 4.808483e-01 5.872235e-01 6.629653e-01 8.354734e-01 1.060913e+00 8.461288e-01 6.590594e-01 7.226292e-01 8.214415e-01 2.569357e-01
<GCONST> 1.320125e+02
<MIXTURE> 2 4.396723e-01
<MEAN> 39
 1.597426e+00 4.117033e+00 -8.484164e+00 -1.246021e+01 -1.060835e+01 -2.143595e+00 -5.178923e+00 -3.814425e+00 -5.813726e+00 -4.311587e+00 -3.157231e+00 -3.383890e+00 6.396099e+01 3.019094e+00 4.877468e-01 -7.138914e-01 -2.604909e+00 -1.952526e+00 -1.033825e+00 -3.733345e-01 -3.573730e-01 -7.373006e-01 -5.992544e-01 -3.918791e-01 -5.872184e-01 1.543713e+00 -8.751642e-01 -6.777034e-01 -3.182442e-02 6.506886e-01 6.708889e-01 1.956609e-01 1.129490e-01 3.606878e-01 1.890913e-01 4.024189e-01 4.677095e-01 2.223925e-01 1.252908e-02
<VARIANCE> 39
 2.423990e+01 4.094201e+01 2.366003e+01 5.070473e+01 6.206712e+01 6.506804e+01 4.547246e+01 3.494449e+01 4.982040e+01 2.825199e+01 3.691069e+01 2.322467e+01 2.244618e+01 5.030476e+00 4.684554e+00 3.282669e+00 4.485620e+00 6.036150e+00 5.860049e+00 5.211595e+00 4.079524e+00 5.575185e+00 3.511470e+00 3.608510e+00 3.176339e+00 1.761224e+00 5.142342e-01 5.028871e-01 4.524151e-01 6.886243e-01 6.898303e-01 6.205868e-01 5.815801e-01 6.055132e-01 6.768538e-01 4.908378e-01 5.337775e-01 4.305683e-01 2.159282e-01
<GCONST> 1.283917e+02
<MIXTURE> 3 3.852727e-01
<MEAN> 39
 4.958174e-01 -3.265451e-01 -5.768917e+00 -1.035294e+01 -1.051620e+01 1.672750e+00 -6.974261e+00 -2.941735e+00 -2.066751e+00 -2.149899e+00 4.587888e-01 -4.464171e+00 6.808440e+01 8.003104e-01 -6.353686e-01 -9.109067e-01 -1.317383e+00 -4.213243e-01 7.638123e-01 6.687661e-01 2.464556e-01 1.837939e-03 -3.065674e-01 2.810651e-01 -1.458488e-01 7.966540e-01 -3.781630e-01 -4.125939e-02 9.732229e-02 3.868462e-01 3.733124e-01 2.990655e-02 2.707539e-01 4.985512e-02 -2.388144e-01 -1.920129e-01 -3.114355e-02 2.196256e-01 -2.312943e-01
<VARIANCE> 39
 3.136004e+01 5.451474e+01 5.422362e+01 7.034164e+01 7.038649e+01 9.273827e+01 7.059480e+01 5.722093e+01 5.578691e+01 4.478178e+01 6.351347e+01 4.072066e+01 3.170331e+01 2.084261e+00 2.523518e+00 3.068789e+00 2.806853e+00 4.085751e+00 4.586999e+00 5.394282e+00 4.553752e+00 4.653713e+00 3.695172e+00 3.444166e+00 3.161676e+00 1.780372e+00 4.975100e-01 5.084612e-01 5.013985e-01 5.989527e-01 7.750010e-01 7.638202e-01 7.941769e-01 8.775909e-01 9.075503e-01 6.696616e-01 7.849685e-01 6.277082e-01 2.891576e-01
<GCONST> 1.334385e+02
<STATE> 3
<NUMMIXES> 3
<MIXTURE> 1 2.082682e-01
<MEAN> 39
 3.949574e+00 2.451597e-01 -9.033441e+00 -1.161979e+01 -1.301221e+01 1.285523e-01 -5.320351e+00 8.776965e-01 -4.712465e+00 -5.923164e+00 1.709098e+00 -2.518164e+00 6.826874e+01 3.866706e-01 -1.432825e+00 -1.124220e+00 5.220540e-01 7.224076e-01 -5.543811e-02 4.367899e-01 8.173719e-02 -1.286100e+00 -4.347135e-01 1.516482e+00 1.300656e+00 8.601061e-01 -4.123782e-01 -7.752071e-02 1.273684e-01 5.271796e-01 5.360408e-01 3.055069e-02 -3.078644e-01 -2.575446e-01 1.435636e-01 4.380135e-01 2.273161e-01 -3.878551e-03 -1.970159e-01
<VARIANCE> 39
 1.924912e+01 3.402523e+01 3.000758e+01 5.129640e+01 5.851322e+01 8.071577e+01 7.002065e+01 3.948987e+01 7.501718e+01 4.614637e+01 4.718904e+01 3.928187e+01 1.757196e+01 1.173498e+00 1.489753e+00 1.801404e+00 1.928416e+00 2.487680e+00 3.195322e+00 4.242921e+00 3.004416e+00 4.028028e+00 3.255170e+00 4.242153e+00 3.581610e+00 7.865096e-01 4.197831e-01 2.998668e-01 3.160146e-01 3.646547e-01 4.167680e-01 5.185655e-01 9.289542e-01 5.952778e-01 9.289664e-01 6.740493e-01 7.379053e-01 5.969925e-01 1.825797e-01
<GCONST> 1.225571e+02
<MIXTURE> 2 3.807986e-01
<MEAN> 39
 1.291171e+00 -6.280284e+00 -1.127844e+01 -1.565369e+01 -5.051999e+00 5.208066e+00 -1.826401e+00 -5.890856e+00 -3.792212e+00 -4.498203e+00 -2.427831e+00 -5.781683e+00 7.131982e+01 2.039042e-02 -8.685451e-02 -1.065979e-01 3.204236e-03 1.282793e-01 2.549004e-02 -1.178040e-02 7.826840e-02 -1.067805e-01 -1.168162e-01 2.356223e-02 -1.151166e-01 -1.006430e-02 -2.108655e-02 1.678127e-01 8.672473e-02 1.965452e-01 -5.080703e-02 -1.980837e-01 -1.779355e-01 1.159063e-01 3.703434e-02 1.958305e-02 1.674295e-02 5.577373e-02 -1.252318e-01
<VARIANCE> 39
 1.417634e+01 3.879299e+01 2.259741e+01 5.954100e+01 6.110845e+01 1.044876e+02 5.614489e+01 5.326989e+01 5.444202e+01 4.864625e+01 5.139220e+01 3.021358e+01 1.803877e+01 2.308110e-01 7.439609e-01 6.209556e-01 1.032689e+00 1.233221e+00 1.777197e+00 1.782318e+00 1.903631e+00 1.771770e+00 1.577976e+00 1.536763e+00 1.200369e+00 2.861602e-01 5.140026e-02 1.366187e-01 1.203215e-01 1.772111e-01 2.179617e-01 2.548133e-01 2.699814e-01 2.968383e-01 2.758440e-01 2.486494e-01 2.622436e-01 2.134657e-01 5.665232e-02
<GCONST> 9.761337e+01
<MIXTURE> 3 4.109313e-01
<MEAN> 39
 3.398386e+00 -3.244470e+00 -7.079956e+00 -1.331098e+01 -1.148445e+01 8.674451e+00 -6.672706e-01 1.250740e+00 -2.925445e+00 -6.031970e+00 2.842603e+00 -4.528013e+00 7.062451e+01 5.563688e-02 -2.805922e-01 -2.148394e-01 1.197077e-01 8.880060e-02 8.091784e-02 2.950233e-01 8.291703e-02 -1.313939e-01 -1.040593e-01 4.990387e-02 -4.752758e-02 7.028481e-02 -3.864301e-02 3.958671e-02 -1.729394e-02 1.386535e-01 1.285756e-01 -6.947358e-02 -1.252139e-01 -1.084639e-01 -5.256784e-02 8.011562e-02 1.909492e-02 4.173139e-02 -5.112346e-02
<VARIANCE> 39
 8.967043e+00 5.473835e+01 3.271167e+01 3.459352e+01 4.105515e+01 7.305179e+01 7.318663e+01 4.941111e+01 3.591455e+01 3.248628e+01 3.657972e+01 3.219157e+01 1.766693e+01 1.360509e-01 7.472987e-01 6.131257e-01 6.890866e-01 8.737383e-01 1.171477e+00 1.644239e+00 1.421279e+00 1.593202e+00 1.393024e+00 1.415464e+00 1.292182e+00 2.609687e-01 2.807864e-02 1.264997e-01 1.078894e-01 1.245553e-01 1.552694e-01 1.953828e-01 2.688066e-01 2.475624e-01 2.817909e-01 2.434262e-01 2.655445e-01 2.522323e-01 3.993144e-02
<GCONST> 9.113239e+01
<STATE> 4
<NUMMIXES> 3
<MIXTURE> 1 1.922610e-01
<MEAN> 39
 8.528039e-01 -5.850782e+00 -7.774704e+00 -8.721038e+00 -8.145262e+00 3.838919e+00 -6.210329e+00 -2.117124e+00 -6.661844e-01 -2.401947e+00 4.389329e-01 -5.215168e+00 7.044154e+01 -2.362111e-01 1.701895e+00 8.749441e-01 1.446209e+00 3.990240e-01 -9.020241e-01 -5.233845e-01 4.862747e-02 -1.837929e-01 2.020526e-01 -7.909673e-02 4.456784e-01 -1.148113e+00 -7.088248e-01 6.623582e-01 3.661513e-01 5.261131e-01 6.096762e-01 -8.932441e-02 4.391657e-01 -3.828326e-02 -2.036873e-01 -1.516943e-02 -1.343265e-01 1.589169e-01 -6.212673e-01
<VARIANCE> 39
 2.620567e+01 2.966171e+01 3.740845e+01 5.896474e+01 4.351838e+01 1.498848e+02 1.008349e+02 6.371141e+01 5.775662e+01 5.756339e+01 6.107320e+01 4.927370e+01 2.154592e+01 2.035846e+00 3.702816e+00 2.597692e+00 3.137985e+00 3.426098e+00 3.337452e+00 3.259006e+00 4.232127e+00 3.379655e+00 3.170818e+00 3.457720e+00 2.923068e+00 2.373060e+00 6.683637e-01 4.310269e-01 4.228748e-01 5.032573e-01 5.449541e-01 8.399725e-01 1.006552e+00 8.226197e-01 7.894523e-01 7.136326e-01 6.719354e-01 6.790162e-01 3.291485e-01
<GCONST> 1.312679e+02
<MIXTURE> 2 4.153768e-01
<MEAN> 39
 3.613045e+00 -5.050777e+00 -1.511297e+01 -1.040535e+01 -1.948000e+00 -5.848259e+00 -7.433484e+00 -2.908888e+00 -7.795042e+00 1.616983e+00 -6.482824e-01 -4.363057e+00 6.944159e+01 -2.084353e-01 -4.705083e-01 5.713939e-02 1.508295e+00 1.025900e+00 -1.725382e+00 -1.978563e+00 7.775124e-01 1.812725e+00 6.546724e-01 -1.219414e+00 -3.894187e-01 1.070986e-02 -1.512400e-01 2.443070e-01 5.156284e-01 2.457307e-01 -3.995031e-01 -1.545299e-01 1.248603e-02 3.273810e-01 2.445242e-01 -4.932840e-01 -3.397512e-01 1.904514e-01 -2.222190e-01
<VARIANCE> 39
 1.512088e+01 2.544639e+01 2.153780e+01 5.243414e+01 4.352702e+01 1.036224e+02 5.821145e+01 4.743541e+01 1.189244e+02 5.132796e+01 7.196136e+01 4.142983e+01 1.623585e+01 2.946399e-01 1.684623e+00 1.371958e+00 1.717448e+00 2.751378e+00 2.460652e+00 3.344367e+00 2.920677e+00 4.325803e+00 3.116063e+00 3.595907e+00 2.412337e+00 5.470924e-01 1.074961e-01 1.689780e-01 2.255813e-01 3.174897e-01 3.694644e-01 5.097729e-01 6.011051e-01 5.992576e-01 9.574670e-01 6.280705e-01 8.105499e-01 4.784114e-01 7.653116e-02
<GCONST> 1.156464e+02
<MIXTURE> 3 3.923627e-01
<MEAN> 39
 4.797221e+00 -3.665385e+00 -1.253301e+01 -7.490655e+00 -9.248199e+00 1.289091e+00 -7.632237e+00 -1.600616e+00 -7.133582e+00 -3.864477e+00 9.701644e+00 8.033915e-01 7.019341e+01 -9.580630e-02 -9.712394e-01 -4.925936e-01 1.573187e+00 1.779986e+00 -7.572307e-01 -2.453252e+00 -6.221522e-01 1.551194e+00 1.718982e+00 6.538478e-02 -3.622640e-01 2.226638e-01 -1.327144e-01 2.109207e-01 4.466137e-01 1.957136e-01 5.764169e-02 -3.793972e-01 -4.490723e-01 1.848551e-01 8.508512e-01 9.511423e-02 -1.054499e+00 -4.755248e-01 -2.092310e-01
<VARIANCE> 39
 9.584373e+00 2.179291e+01 2.425460e+01 3.966415e+01 3.288589e+01 5.767631e+01 7.591169e+01 3.619705e+01 7.961743e+01 4.718182e+01 6.182758e+01 4.135697e+01 1.490951e+01 2.534753e-01 1.458403e+00 1.497259e+00 1.537073e+00 2.172885e+00 2.071203e+00 3.509325e+00 2.577090e+00 5.041860e+00 3.447109e+00 5.580155e+00 3.020560e+00 4.791838e-01 6.797083e-02 1.692783e-01 1.943305e-01 2.516537e-01 3.075385e-01 3.991145e-01 7.781707e-01 5.103483e-01 1.024951e+00 7.811347e-01 7.774389e-01 6.485786e-01 8.221263e-02
<GCONST> 1.127137e+02
<TRANSP> 5
 0.000000e+00 1.000000e+00 0.000000e+00 0.000000e+00 0.000000e+00
 0.000000e+00 6.468738e-01 3.531262e-01 0.000000e+00 0.000000e+00
 0.000000e+00 0.000000e+00 8.368019e-01 1.631981e-01 0.000000e+00
 0.000000e+00 0.000000e+00 0.000000e+00 6.502701e-01 3.497299e-01
 0.000000e+00 0.000000e+00 0.000000e+00 0.000000e+00 0.000000e+00
<ENDHMM>
~h "aw"
<BEGINHMM>
<NUMSTATES> 5
<STATE> 2
<NUMMIXES> 3
<MIXTURE> 1 1.639598e-01
<MEAN> 39
 -3.703757e+00 -7.434015e+00 1.152584e-01 -4.550538e+00 -1.028846e+01 -8.744283e-01 -3.078979e+00 1.112846e+01 7.961743e-02 -7.399170e+00 -1.667081e+00 -6.154362e+00 7.489808e+01 2.315372e-01 -1.267540e+00 -8.717575e-01 -6.191565e-01 8.607287e-01 2.657068e-01 1.017592e+00 8.021962e-01 8.946008e-01 -1.481377e+00 -9.057820e-01 -3.280873e-01 1.366681e+00 -2.673134e-01 2.329732e-01 -6.616356e-02 2.812633e-01 6.491557e-01 7.931434e-02 1.544627e-01 -8.921984e-01 -3.277999e-01 1.934883e-01 -1.298379e-01 2.601787e-01 -6.337018e-01
<VARIANCE> 39
 1.121560e+01 1.523297e+01 2.944188e+01 2.373284e+01 2.828735e+01 4.855817e+01 3.760023e+01 2.925075e+01 3.519790e+01 2.051036e+01 2.843777e+01 1.611037e+01 2.476208e+01 1.592219e+00 1.149495e+00 2.080785e+00 1.762743e+00 3.114437e+00 3.242993e+00 3.785722e+00 3.610710e+00 3.160055e+00 2.374655e+00 2.369831e+00 2.059945e+00 1.212568e+00 4.007220e-01 3.031422e-01 2.517017e-01 4.104413e-01 4.306961e-01 5.470997e-01 6.426256e-01 5.601162e-01 6.366753e-01 4.339215e-01 4.226530e-01 3.552801e-01 2.605384e-01
<GCONST> 1.127664e+02
<MIXTURE> 2 4.035071e-01
<MEAN> 39
 -1.388310e+00 -1.039964e+01 -6.641035e+00 -8.948990e+00 -6.144822e+00 -7.483705e+00 -3.338664e-01 4.372315e-01 -2.585322e+00 -8.341029e+00 -1.080630e+01 -2.627918e+00 7.294814e+01 1.599073e-01 -9.321902e-01 -1.092570e+00 -3.869923e-01 1.222989e+00 1.098377e+00 -2.649311e-01 -3.117106e-01 3.170362e-01 -5.669454e-01 -8.490995e-01 -3.074970e-01 4.596938e-01 -1.439440e-01 4.156353e-01 7.956582e-02 1.919317e-01 2.599273e-01 3.048876e-01 -3.632501e-01 -4.104852e-01 -4.629999e-02 3.582084e-01 3.421125e-01 -1.406691e-01 -4.284996e-01
<VARIANCE> 39
 1.493095e+01 2.438028e+01 2.431153e+01 3.876348e+01 4.148577e+01 5.249497e+01 4.203830e+01 4.575699e+01 6.957610e+01 5.922779e+01 2.862444e+01 4.284941e+01 1.349153e+01 7.347183e-01 1.143396e+00 1.643458e+00 1.631564e+00 2.041948e+00 2.115995e+00 4.962193e+00 3.245125e+00 2.571388e+00 3.011143e+00 1.996842e+00 1.944760e+00 6.074181e-01 2.366910e-01 2.339115e-01 2.421655e-01 3.788120e-01 4.687450e-01 4.554588e-01 5.504417e-01 5.705326e-01 5.490137e-01 5.394026e-01 4.092072e-01 4.370806e-01 1.901938e-01
<GCONST> 1.130853e+02
<MIXTURE> 3 4.325330e-01
<MEAN> 39
 -3.234586e+00 -1.067822e+01 -3.524526e+00 -5.084545e+00 -5.182223e+00 -1.658787e+00 -1.606093e+00 8.405403e+00 5.780756e-01 -1.085852e+01 -6.305079e+00 -4.955573e+00 7.603736e+01 1.938277e-01 -5.234271e-01 -8.303947e-01 2.188586e-01 1.275191e+00 6.774830e-01 -5.595297e-01 -8.598316e-01 6.295726e-01 -1.625638e-01 -6.868944e-01 -3.655980e-01 -7.267296e-04 1.026442e-01 1.683917e-01 -4.280889e-02 -1.656672e-02 -2.177711e-02 1.944721e-01 -3.799338e-01 -4.143440e-01 9.258088e-02 5.130127e-01 1.776862e-01 -2.390439e-01 -1.982362e-01
<VARIANCE> 39
 9.777491e+00 1.460307e+01 2.213226e+01 2.184962e+01 2.807931e+01 4.675048e+01 3.700425e+01 3.523058e+01 3.117302e+01 1.877986e+01 2.659766e+01 1.922766e+01 1.193380e+01 2.523777e-01 3.986769e-01 8.172612e-01 9.301548e-01 1.241089e+00 1.443950e+00 2.478323e+00 1.513170e+00 1.731748e+00 1.782268e+00 1.239964e+00 1.334819e+00 1.913573e-01 5.259991e-02 7.399778e-02 1.124355e-01 1.788328e-01 2.427456e-01 2.619907e-01 3.157871e-01 2.991282e-01 2.586172e-01 2.449395e-01 2.920338e-01 2.285425e-01 4.861885e-02
<GCONST> 8.851322e+01
<STATE> 3
<NUMMIXES> 3
<MIXTURE> 1 1.845784e-01
<MEAN> 39
 1.111979e+00 -1.146778e+01 -8.656944e+00 -7.089082e+00 -6.609741e-01 1.037608e+01 -4.334358e+00 -4.916945e+00 3.041735e+00 -1.975672e-01 -2.146058e+00 -1.335333e+01 7.434221e+01 8.935662e-01 6.055315e-01 -5.493633e-01 -9.418348e-01 -1.296901e+00 1.665116e+00 1.307738e+00 -1.262197e+00 -2.020635e+00 1.149498e+00 2.548352e+00 -8.275466e-02 -7.239297e-01 -1.982245e-02 3.396593e-01 1.976266e-01 1.837205e-01 -4.490251e-01 -6.099268e-01 3.753425e-01 7.820309e-01 -3.583892e-01 -6.301266e-01 5.907217e-02 7.232857e-01 -1.569086e-01
<VARIANCE> 39
 5.761860e+00 1.055591e+01 1.222669e+01 1.651562e+01 1.531206e+01 2.973720e+01 3.216896e+01 2.256181e+01 2.649593e+01 2.097832e+01 3.505938e+01 1.752334e+01 1.071463e+01 1.881433e-01 5.585651e-01 3.862092e-01 8.744873e-01 1.343377e+00 1.661160e+00 1.898018e+00 2.599468e+00 2.088504e+00 2.575083e+00 1.960050e+00 2.269701e+00 1.456534e-01 4.069858e-02 9.830217e-02 9.334022e-02 1.548644e-01 2.351121e-01 2.719994e-01 5.140262e-01 3.158729e-01 5.627546e-01 3.464195e-01 5.797364e-01 3.171919e-01 4.746351e-02
<GCONST> 8.852112e+01
<MIXTURE> 2 4.437097e-01
<MEAN> 39
 -6.660264e-01 -9.813898e+00 -1.200849e+01 -1.200496e+01 1.368639e+00 -1.379324e+00 -6.705447e+00 -4.922679e+00 -9.171160e-01 -6.722633e+00 -1.052702e+01 -6.877075e+00 7.200508e+01 3.216955e-01 5.406937e-01 -4.933148e-01 -7.692022e-01 3.253302e-01 9.619551e-01 -5.643581e-01 -8.481112e-01 -1.624328e-01 1.024215e+00 6.868556e-01 -8.867001e-01 -3.705838e-01 1.749348e-02 2.068364e-01 2.236057e-01 2.352300e-02 -4.296954e-01 -1.497700e-01 1.868580e-01 1.160478e-01 -1.685263e-01 6.834647e-02 2.281290e-01 1.615173e-01 -1.141677e-01
<VARIANCE> 39
 1.867784e+01 2.233223e+01 1.675764e+01 3.971456e+01 3.173306e+01 5.429531e+01 4.903199e+01 4.630273e+01 5.256496e+01 6.141780e+01 3.469025e+01 3.234728e+01 1.574406e+01 2.141727e-01 6.909254e-01 7.628163e-01 1.064318e+00 1.716775e+00 1.839918e+00 2.117217e+00 1.848249e+00 1.980589e+00 1.749957e+00 1.550140e+00 1.888846e+00 1.986388e-01 4.299203e-02 1.011387e-01 1.314963e-01 2.109251e-01 2.269763e-01 2.674288e-01 3.821449e-01 3.130639e-01 3.711244e-01 3.178721e-01 3.293185e-01 3.048900e-01 4.010132e-02
<GCONST> 9.674591e+01
<MIXTURE> 3 3.717117e-01
<MEAN> 39
 -2.659782e-01 -1.210608e+01 -8.922434e+00 -5.913182e+00 -1.740537e+00 6.788552e+00 -5.128844e+00 -2.004307e+00 4.187918e+00 -3.903778e+00 -7.579648e+00 -1.051389e+01 7.378687e+01 5.089499e-01 3.381134e-01 -6.402268e-01 -6.441952e-01 1.260041e-01 1.494697e+00 -2.065489e-01 -1.634093e+00 -1.532071e-01 1.298033e+00 8.783314e-01 -7.602927e-01 -4.511131e-01 2.510952e-02 2.623701e-01 1.245222e-01 -8.012241e-02 -3.741049e-01 -1.566529e-01 2.474483e-01 1.099250e-01 -3.361692e-01 5.982253e-02 3.988015e-01 2.112277e-01 -1.119963e-01
<VARIANCE> 39
 9.394608e+00 1.442895e+01 1.847201e+01 2.559179e+01 2.868028e+01 5.384842e+01 3.813234e+01 5.129066e+01 3.161080e+01 3.473976e+01 3.418766e+01 1.917939e+01 1.505513e+01 1.985396e-01 5.471686e-01 5.256882e-01 9.683626e-01 1.295953e+00 1.459075e+00 1.626720e+00 1.969579e+00 1.688073e+00 1.951164e+00 1.616572e+00 1.881555e+00 1.381918e-01 3.654550e-02 7.347596e-02 1.002790e-01 1.818222e-01 1.908345e-01 2.607804e-01 3.722903e-01 2.986465e-01 3.747783e-01 2.448592e-01 3.504604e-01 2.333599e-01 3.104198e-02
<GCONST> 8.961053e+01
<STATE> 4
<NUMMIXES> 3
<MIXTURE> 1 1.581122e-01
<MEAN> 39
 3.120472e+00 -7.526340e+00 -9.132631e+00 -7.806112e+00 -7.966376e+00 1.107008e+01 -2.505433e+00 -3.905300e+00 -6.754621e-01 1.366263e+00 5.002979e+00 -1.129854e+01 7.148447e+01 -2.561065e-01 3.017747e+00 6.421866e-01 1.177705e+00 1.113826e-01 -1.524100e+00 1.392419e-02 -4.261971e-03 -6.578029e-01 2.389013e-01 5.853218e-01 1.610488e+00 -1.985217e+00 -7.806982e-01 7.212852e-01 4.327731e-01 6.413476e-01 9.917495e-01 -6.928543e-01 9.691879e-02 4.931767e-02 1.923902e-01 -2.576118e-01 -1.044104e+00 4.007899e-01 -5.265371e-01
<VARIANCE> 39
 7.367457e+00 2.068397e+01 1.611966e+01 1.685213e+01 1.970767e+01 2.866437e+01 4.010135e+01 3.274384e+01 2.886012e+01 2.842982e+01 3.032636e+01 3.102472e+01 1.226528e+01 2.216114e+00 3.100479e+00 2.011610e+00 2.376041e+00 4.801671e+00 2.414960e+00 3.248680e+00 3.202077e+00 2.782058e+00 3.040097e+00 4.110947e+00 2.466452e+00 1.491013e+00 3.288263e-01 3.750867e-01 3.072680e-01 2.830866e-01 3.927500e-01 3.449515e-01 7.211102e-01 6.470796e-01 6.147642e-01 5.711945e-01 4.898063e-01 5.645521e-01 1.594738e-01
<GCONST> 1.135598e+02
<MIXTURE> 2 4.587891e-01
<MEAN> 39
 1.383888e+00 -3.092311e+00 -1.185190e+01 -1.419852e+01 -2.776807e+00 5.735506e-01 -6.120421e+00 -5.359949e+00 -3.412186e+00 -2.371736e+00 -4.301044e+00 -6.549592e+00 6.742485e+01 -1.982902e-01 1.476506e+00 1.123457e+00 9.779329e-01 -7.804679e-01 -8.506340e-01 -3.231062e-01 -1.029963e-01 -2.123543e-02 3.438926e-01 2.934550e-01 6.304169e-01 -1.195100e+00 -3.194193e-01 6.487325e-02 4.481137e-01 6.666622e-01 3.933999e-02 -1.734685e-01 2.189375e-02 -1.757456e-02 8.081747e-02 -1.383455e-01 -1.372665e-01 9.196746e-02 -1.734361e-01
<VARIANCE> 39
 1.849966e+01 3.566511e+01 2.427730e+01 4.897232e+01 3.997186e+01 7.124393e+01 6.240884e+01 4.479316e+01 7.540318e+01 5.425722e+01 4.539166e+01 3.554138e+01 2.551052e+01 9.397916e-01 2.213130e+00 2.064389e+00 4.080864e+00 3.134490e+00 3.256378e+00 3.688319e+00 3.182556e+00 3.477659e+00 2.878458e+00 3.175466e+00 2.343037e+00 1.563498e+00 1.976147e-01 3.476267e-01 3.143837e-01 5.075054e-01 5.071939e-01 6.530755e-01 7.386305e-01 5.782510e-01 6.950861e-01 5.496528e-01 5.268041e-01 4.953017e-01 2.321959e-01
<GCONST> 1.222536e+02
<MIXTURE> 3 3.830988e-01
<MEAN> 39
 2.757134e+00 -5.398465e+00 -1.036024e+01 -9.541497e+00 -7.544897e+00 6.975770e+00 -8.994130e-01 -4.313901e+00 -2.034632e+00 -3.009767e-01 5.273749e-01 -6.852123e+00 6.836341e+01 -1.074807e-01 1.525447e+00 8.409938e-01 7.205330e-01 -4.345786e-01 -1.008323e+00 -3.405190e-01 1.364341e-01 -2.412703e-01 1.707809e-01 4.816987e-01 8.030685e-01 -1.282342e+00 -2.967671e-01 1.281379e-01 4.017482e-01 4.438877e-01 4.309382e-01 -4.074648e-01 -2.849563e-01 2.429632e-02 1.378475e-01 -7.531556e-02 -3.608491e-01 1.038351e-02 -1.793288e-01
<VARIANCE> 39
 1.193230e+01 4.041740e+01 2.667014e+01 3.191695e+01 3.675987e+01 6.530479e+01 5.987086e+01 4.907591e+01 4.374987e+01 3.866198e+01 4.755082e+01 3.846665e+01 2.784675e+01 8.712391e-01 2.449625e+00 2.349697e+00 3.049636e+00 3.710295e+00 2.835323e+00 4.111898e+00 3.454874e+00 3.506094e+00 3.307696e+00 3.503341e+00 2.773604e+00 1.895681e+00 1.359198e-01 3.832918e-01 3.134345e-01 3.238102e-01 4.349961e-01 5.266320e-01 6.189824e-01 6.456540e-01 6.720336e-01 6.004456e-01 5.537329e-01 5.092488e-01 2.176062e-01
<GCONST> 1.204099e+02
<TRANSP> 5
 0.000000e+00 1.000000e+00 0.000000e+00 0.000000e+00 0.000000e+00
 0.000000e+00 8.164198e-01 1.835803e-01 0.000000e+00 0.000000e+00
 0.000000e+00 0.000000e+00 8.124402e-01 1.875598e-01 0.000000e+00
 0.000000e+00 0.000000e+00 0.000000e+00 7.751721e-01 2.248279e-01
 0.000000e+00 0.000000e+00 0.000000e+00 0.000000e+00 0.000000e+00
<ENDHMM>
~h "ay"
<BEGINHMM>
<NUMSTATES> 5
<STATE> 2
<NUMMIXES> 3
<MIXTURE> 1 2.649578e-01
<MEAN> 39
 6.546905e-01 -7.499157e+00 -8.056257e+00 -9.984612e+00 -6.823728e+00 2.579829e+00 -6.239392e+00 -3.094849e+00 1.932034e+00 1.902003e+00 -3.114341e+00 -8.525328e+00 7.267149e+01 2.056691e+00 -2.482633e+00 -9.774743e-01 -2.135218e+00 -1.063260e-01 1.620900e+00 5.977161e-01 -3.286382e-01 8.283635e-01 1.873819e-01 -1.385048e+00 -1.776039e+00 2.575457e+00 -1.169562e+00 4.412843e-01 3.998453e-01 8.797109e-01 8.286473e-01 1.566508e-02 5.270517e-01 1.055136e-01 -2.967134e-01 -4.493183e-01 -7.756222e-02 4.917049e-01 -8.413132e-01
<VARIANCE> 39
 1.279832e+01 1.772836e+01 2.287326e+01 2.897169e+01 2.930452e+01 8.441242e+01 5.248355e+01 4.931045e+01 3.319692e+01 4.357004e+01 6.181969e+01 2.652742e+01 1.564962e+01 4.569994e+00 2.127544e+00 2.785749e+00 3.477372e+00 3.724721e+00 4.025988e+00 3.980108e+00 4.768713e+00 3.338109e+00 3.287469e+00 3.878275e+00 3.292758e+00 1.963986e+00 5.064426e-01 4.316474e-01 4.117232e-01 5.715011e-01 5.572643e-01 7.927782e-01 8.012431e-01 9.237600e-01 6.353617e-01 6.452283e-01 7.908431e-01 5.070981e-01 3.495048e-01
<GCONST> 1.255719e+02
<MIXTURE> 2 3.864795e-01
<MEAN> 39
 -3.127812e-01 -8.807587e+00 -1.118429e+01 -1.293934e+01 -1.797035e+00 1.708088e+00 -2.936243e+00 -5.793993e+00 -1.058926e+00 -1.902418e+00 -6.202853e+00 -7.595406e+00 7.247559e+01 -2.454414e-01 -1.192543e+00 -1.992000e-01 1.725756e-01 8.464267e-01 1.615928e-01 -2.119657e-01 5.539662e-02 7.694082e-01 -4.100925e-01 -1.164576e+00 -6.232531e-01 5.576975e-01 -1.850679e-01 3.910906e-01 4.007020e-01 5.045588e-01 -3.194816e-01 -4.407980e-01 -2.166676e-01 3.100187e-01 -6.439222e-02 -2.555891e-01 1.662660e-01 4.236633e-01 -3.433976e-01
<VARIANCE> 39
 1.800321e+01 3.002541e+01 2.243919e+01 4.030559e+01 4.494474e+01 1.097392e+02 6.362713e+01 5.238943e+01 4.933961e+01 6.922028e+01 5.645231e+01 3.668291e+01 1.775010e+01 6.042279e-01 1.171096e+00 1.643029e+00 2.076421e+00 2.375494e+00 3.831055e+00 2.751945e+00 3.911795e+00 2.934906e+00 2.901809e+00 2.832086e+00 2.505059e+00 5.740014e-01 1.943065e-01 2.229865e-01 2.294599e-01 3.408270e-01 4.828856e-01 5.806091e-01 5.695279e-01 8.054133e-01 5.687537e-01 5.923502e-01 5.178544e-01 4.909304e-01 1.268742e-01
<GCONST> 1.167923e+02
<MIXTURE> 3 3.485625e-01
<MEAN> 39
 7.937983e-01 -9.977283e+00 -9.084592e+00 -9.337074e+00 -4.799585e+00 6.223918e+00 -2.861365e+00 -2.632042e+00 7.515914e-01 -6.125864e-01 -3.381880e+00 -8.563490e+00 7.350410e+01 -1.485719e-01 -1.127546e+00 -3.829768e-01 -3.091313e-01 1.062455e+00 1.030549e+00 6.143987e-01 -5.864736e-01 1.433129e-01 -1.025158e-01 -9.182649e-01 -7.422669e-01 5.096166e-01 -3.252662e-01 4.330589e-01 2.741349e-01 4.575191e-01 9.901768e-02 -4.337287e-01 -2.989054e-01 1.581727e-02 -9.669811e-02 -1.857487e-01 6.177669e-02 3.828907e-01 -4.826874e-01
<VARIANCE> 39
 1.177743e+01 1.924574e+01 2.750124e+01 3.028479e+01 3.609939e+01 8.694839e+01 5.313566e+01 4.852532e+01 3.857106e+01 4.514330e+01 6.345663e+01 3.392293e+01 1.412856e+01 6.377910e-01 1.012782e+00 1.652097e+00 1.686776e+00 1.808399e+00 2.702541e+00 2.829772e+00 3.416965e+00 2.746223e+00 2.673721e+00 2.723638e+00 2.382686e+00 6.016724e-01 2.759851e-01 2.272424e-01 2.371594e-01 3.491538e-01 3.822436e-01 4.863722e-01 5.151030e-01 7.553103e-01 5.730647e-01 4.463391e-01 5.417475e-01 4.096477e-01 1.817789e-01
<GCONST> 1.128556e+02
<STATE> 3
<NUMMIXES> 3
<MIXTURE> 1 2.439506e-01
<MEAN> 39
 -1.870337e+00 -1.159126e+01 -6.082816e+00 -5.601009e+00 -5.314039e+00 -2.390335e-01 -6.047674e+00 5.673910e+00 4.679794e+00 -6.775090e+00 -8.739909e+00 -7.886806e+00 7.494009e+01 -4.562075e-01 5.656471e-01 1.754963e+00 8.293037e-01 -2.428072e+00 -2.574507e+00 7.080044e-01 2.961902e+00 -1.033235e+00 -1.339787e+00 9.461224e-01 1.363303e+00 -4.142037e-02 5.976315e-02 4.023426e-01 3.955867e-01 -1.989401e-01 -3.951392e-01 1.575114e-01 1.308190e-01 -5.566310e-01 -6.960112e-01 6.260000e-01 1.003502e+00 2.530380e-02 -2.542531e-01
<VARIANCE> 39
 1.078829e+01 1.785180e+01 2.224390e+01 2.891454e+01 3.240083e+01 5.816932e+01 3.802661e+01 4.726308e+01 3.000441e+01 4.166861e+01 2.799287e+01 3.134916e+01 1.315580e+01 2.867266e-01 6.579528e-01 9.239953e-01 1.307789e+00 1.589018e+00 1.948895e+00 2.861644e+00 2.792540e+00 2.683339e+00 2.286173e+00 3.091808e+00 1.605126e+00 1.858038e-01 5.771073e-02 1.416785e-01 1.604140e-01 2.125019e-01 4.296294e-01 3.753165e-01 4.751186e-01 6.242495e-01 4.921367e-01 5.129179e-01 4.543728e-01 4.909023e-01 6.184430e-02
<GCONST> 1.015022e+02
<MIXTURE> 2 4.381349e-01
<MEAN> 39
 1.831567e-01 -1.102644e+01 -1.031444e+01 -1.072362e+01 -1.258583e-01 1.777580e+00 -4.194716e+00 -4.932542e+00 -1.081800e+00 -5.318382e+00 -8.414648e+00 -6.198002e+00 7.283601e+01 -1.637908e-01 -1.669084e-01 3.300407e-01 3.112872e-01 -2.671978e-01 -4.416707e-01 1.360073e-01 4.269465e-01 -2.978451e-02 -4.891959e-01 -1.313321e-01 2.442514e-01 4.992092e-02 -1.137065e-02 1.597488e-01 1.670416e-01 7.157685e-02 -3.296807e-01 -2.756904e-01 5.508910e-02 2.394913e-01 -3.758197e-02 3.232158e-02 9.550686e-02 4.547216e-02 -5.320473e-02
<VARIANCE> 39
 1.542198e+01 1.595619e+01 1.452015e+01 2.547418e+01 2.938026e+01 1.155454e+02 4.321033e+01 3.952855e+01 4.355181e+01 5.691616e+01 5.994973e+01 3.187132e+01 1.193405e+01 1.994310e-01 4.730538e-01 6.695446e-01 8.385781e-01 1.688842e+00 1.682915e+00 1.709369e+00 1.863502e+00 1.602158e+00 1.341474e+00 1.318669e+00 1.256081e+00 1.348738e-01 3.590441e-02 8.451349e-02 9.914225e-02 1.256188e-01 2.006713e-01 2.296050e-01 2.740189e-01 2.803709e-01 2.558854e-01 2.556089e-01 2.404854e-01 2.077888e-01 2.816852e-02
<GCONST> 8.993058e+01
<MIXTURE> 3 3.179154e-01
<MEAN> 39
 3.680579e-01 -1.199594e+01 -8.984430e+00 -6.889809e+00 -1.969484e+00 7.855293e+00 -4.493556e+00 -2.786931e+00 2.607220e+00 -1.395339e+00 -5.085844e+00 -1.055620e+01 7.379855e+01 -1.892701e-01 -6.898236e-02 4.113807e-01 7.289023e-01 -3.604877e-01 -1.206420e+00 -3.949703e-01 1.348247e+00 5.077469e-01 -7.943705e-01 -7.053330e-01 1.705014e-01 6.924149e-03 -2.010627e-02 2.162700e-01 1.832470e-01 5.314329e-02 -3.763009e-01 -3.643283e-01 6.008711e-02 3.965018e-01 -1.420130e-01 -1.334760e-01 2.029189e-01 2.645963e-01 -6.140950e-02
<VARIANCE> 39
 8.757577e+00 1.462827e+01 1.811912e+01 1.978093e+01 2.708513e+01 7.302051e+01 3.919703e+01 4.137678e+01 3.208339e+01 3.571061e+01 5.288366e+01 3.012540e+01 1.345728e+01 2.121427e-01 4.379671e-01 6.030981e-01 9.469052e-01 1.420061e+00 2.226369e+00 1.861957e+00 3.026393e+00 1.731106e+00 1.500196e+00 2.134470e+00 1.351378e+00 1.720568e-01 3.622310e-02 7.533471e-02 9.528348e-02 1.259273e-01 2.246410e-01 2.401327e-01 3.042794e-01 4.187004e-01 3.035852e-01 2.705521e-01 3.638765e-01 2.528926e-01 3.069713e-02
<GCONST> 9.093130e+01
<STATE> 4
<NUMMIXES> 3
<MIXTURE> 1 1.614555e-01
<MEAN> 39
 -1.624921e+00 -7.833865e+00 1.646606e+00 -2.707644e+00 -1.381188e+01 -4.603330e+00 -9.049778e+00 1.122628e+01 1.641019e-01 -2.812256e+00 1.479447e+00 -6.849925e+00 7.298665e+01 2.835155e-02 2.439195e+00 1.831839e+00 1.475420e+00 1.172895e-01 -1.051918e+00 -5.431836e-01 -1.501602e+00 -1.805842e+00 7.930516e-01 1.536219e+00 1.344009e+00 -2.145584e+00 -2.188405e-01 6.441334e-01 -3.839615e-01 2.082020e-01 1.205099e+00 5.807952e-01 6.701182e-01 -1.211504e+00 1.996830e-04 -3.654289e-02 -6.805176e-01 1.988026e-02 -7.730641e-01
<VARIANCE> 39
 1.231090e+01 2.060560e+01 4.057341e+01 2.254840e+01 3.125705e+01 4.806746e+01 3.909380e+01 4.503307e+01 5.570093e+01 3.423955e+01 4.203471e+01 2.437678e+01 1.351096e+01 1.107108e+00 2.076288e+00 3.157421e+00 2.643177e+00 5.908113e+00 3.282960e+00 3.864507e+00 5.729584e+00 4.178476e+00 3.943835e+00 4.929969e+00 2.895487e+00 2.071159e+00 2.733637e-01 2.669152e-01 4.992070e-01 4.408081e-01 5.750000e-01 5.602631e-01 6.523874e-01 8.044216e-01 1.116877e+00 7.910132e-01 8.749325e-01 4.655555e-01 2.055226e-01
<GCONST> 1.226012e+02
<MIXTURE> 2 4.753478e-01
<MEAN> 39
 -3.104342e+00 -7.064820e+00 2.947931e-01 -1.044995e+01 -1.346141e+01 -9.779992e+00 1.149114e-01 -2.934915e-01 -6.430045e+00 -5.934343e+00 -5.882539e+00 -2.201345e+00 7.160032e+01 -1.531439e-01 1.511626e+00 1.463619e+00 1.688693e-01 -1.358960e+00 -6.472734e-01 -8.120313e-03 -8.688956e-01 -6.927548e-01 1.397903e+00 8.698610e-01 -6.256685e-03 -8.994773e-01 4.547925e-02 2.628344e-01 -2.791181e-01 3.305546e-01 6.475387e-01 2.543823e-01 -5.097766e-01 -2.608869e-01 2.922564e-01 4.410195e-02 -1.528226e-01 -7.718457e-02 -3.172197e-01
<VARIANCE> 39
 2.276976e+01 3.082427e+01 5.614334e+01 4.323526e+01 4.483109e+01 5.719100e+01 4.843157e+01 6.809367e+01 4.384624e+01 6.670055e+01 4.411621e+01 2.922227e+01 1.963330e+01 5.006146e-01 1.336390e+00 2.170893e+00 2.485969e+00 3.906084e+00 2.506436e+00 3.690996e+00 3.497776e+00 2.990772e+00 3.521330e+00 2.456227e+00 1.874026e+00 8.765556e-01 1.366263e-01 2.284205e-01 3.233522e-01 4.596398e-01 4.850156e-01 4.535221e-01 5.574293e-01 8.188660e-01 4.500360e-01 8.508274e-01 4.188761e-01 4.050243e-01 1.441462e-01
<GCONST> 1.176255e+02
<MIXTURE> 3 3.631961e-01
<MEAN> 39
 -2.171634e+00 -7.027495e+00 1.136287e+00 -4.051058e+00 -1.368663e+01 -6.933515e+00 -4.810466e+00 6.989637e+00 -1.573685e+00 -3.751158e+00 -6.472082e-01 -4.675515e+00 7.180719e+01 5.893677e-02 1.560725e+00 1.420272e+00 9.250678e-01 -4.791012e-01 -7.792565e-01 -7.139797e-01 -6.983024e-01 -1.077916e+00 6.460183e-01 1.420183e+00 5.124853e-01 -1.393795e+00 -2.658511e-02 3.114187e-01 -2.558111e-01 1.575183e-01 8.165265e-01 5.035384e-01 -7.801309e-02 -6.350111e-01 6.075253e-02 5.219932e-02 -3.466564e-01 -1.217193e-01 -4.341100e-01
<VARIANCE> 39
 1.490580e+01 3.046394e+01 5.635618e+01 3.415765e+01 3.584203e+01 8.036111e+01 5.033007e+01 7.487386e+01 5.403417e+01 4.281118e+01 5.297643e+01 3.423101e+01 2.462554e+01 6.898590e-01 1.770472e+00 2.867543e+00 2.482795e+00 4.648816e+00 2.717770e+00 3.650612e+00 4.007757e+00 3.832249e+00 3.355990e+00 3.590165e+00 2.302608e+00 1.682102e+00 1.647550e-01 2.485010e-01 3.590086e-01 3.633839e-01 4.797764e-01 5.680689e-01 6.357703e-01 8.256672e-01 6.652566e-01 6.923804e-01 5.920708e-01 4.124582e-01 2.011348e-01
<GCONST> 1.216148e+02
<TRANSP> 5
 0.000000e+00 1.000000e+00 0.000000e+00 0.000000e+00 0.000000e+00
 0.000000e+00 7.078197e-01 2.921803e-01 0.000000e+00 0.000000e+00
 0.000000e+00 0.000000e+00 8.461827e-01 1.538173e-01 0.000000e+00
 0.000000e+00 0.000000e+00 0.000000e+00 7.604659e-01 2.395341e-01
 0.000000e+00 0.000000e+00 0.000000e+00 0.000000e+00 0.000000e+00
<ENDHMM>
~h "ch"
<BEGINHMM>
<NUMSTATES> 5
<STATE> 2
<NUMMIXES> 3
<MIXTURE> 1 2.137657e-01
<MEAN> 39
 -8.364651e+00 8.096897e+00 7.494422e+00 2.566925e+00 -4.939043e+00 -5.465355e+00 -6.547893e+00 -5.809474e-01 -3.210822e+00 -4.865301e+00 -2.078473e+00 -1.052490e+00 5.895153e+01 -2.137136e+00 1.449059e+00 -4.828341e-01 9.998066e-01 2.587260e+00 2.036055e+00 1.957596e+00 8.792719e-02 1.170866e+00 8.586491e-01 1.655001e-01 -2.622331e-01 -3.426653e+00 -5.634384e-01 -1.330760e+00 -6.355541e-01 -8.665642e-01 -2.004266e-01 4.584907e-01 -1.664274e-01 1.493932e-01 7.739726e-02 4.090313e-01 3.330562e-01 6.593743e-02 8.605623e-01
<VARIANCE> 39
 4.475026e+01 2.945933e+01 3.453138e+01 3.853424e+01 4.759366e+01 3.793188e+01 3.270322e+01 3.831945e+01 3.273779e+01 2.551582e+01 2.608393e+01 2.498586e+01 2.801318e+01 4.172405e+00 4.069498e+00 3.832170e+00 3.506711e+00 3.529401e+00 5.187205e+00 3.847091e+00 3.952425e+00 3.913702e+00 2.639723e+00 3.261186e+00 2.949233e+00 3.972388e+00 7.014513e-01 5.563660e-01 4.253373e-01 5.568103e-01 6.923117e-01 7.107243e-01 7.811438e-01 6.398228e-01 5.480096e-01 5.260078e-01 4.844049e-01 5.622293e-01 6.774671e-01
<GCONST> 1.275460e+02
<MIXTURE> 2 4.737749e-01
<MEAN> 39
 -1.330373e+01 1.406895e+00 3.361179e+00 5.684057e-01 -1.504539e+00 1.674786e+00 -2.577551e+00 -5.872406e-01 -2.961713e-01 -9.106894e-01 4.200594e-01 -5.880158e-01 5.409919e+01 -3.426156e+00 -2.198095e+00 -3.874701e-01 -1.636714e+00 -6.140499e-01 1.705396e+00 6.715068e-02 2.046299e-01 5.948886e-01 4.310548e-01 1.016813e+00 3.509403e-01 2.149451e+00 -6.476513e-01 2.134240e-02 4.434392e-01 -2.189201e-01 -7.582817e-01 -4.301659e-01 -3.161448e-01 8.848083e-02 -1.918446e-01 -2.698707e-01 1.030486e-01 4.502391e-02 1.380486e+00
<VARIANCE> 39
 1.947078e+01 4.288268e+01 2.327274e+01 2.383942e+01 2.662478e+01 2.788722e+01 2.946298e+01 2.645213e+01 2.355350e+01 1.876448e+01 1.870230e+01 1.511335e+01 2.725440e+01 3.963739e+00 3.093085e+00 3.042326e+00 2.595627e+00 3.667982e+00 3.359925e+00 3.704469e+00 2.901406e+00 3.029758e+00 2.380736e+00 2.340680e+00 1.999984e+00 4.516385e+00 4.891188e-01 8.912874e-01 4.243846e-01 5.947546e-01 6.526303e-01 6.743726e-01 6.374546e-01 5.895177e-01 5.445957e-01 4.151210e-01 4.021120e-01 3.756210e-01 7.552692e-01
<GCONST> 1.198545e+02
<MIXTURE> 3 3.124591e-01
<MEAN> 39
 -1.119594e+01 5.762358e+00 5.076677e+00 2.144851e+00 -1.825039e+00 -1.304578e+00 -4.174183e+00 -9.599031e-01 -1.909816e+00 -2.860680e+00 -1.271418e+00 -1.679845e+00 5.497437e+01 -2.568640e+00 -9.130230e-01 -7.614304e-01 -4.414164e-01 1.094778e+00 1.972871e+00 8.543098e-01 4.030207e-01 8.356001e-01 8.140184e-01 6.978623e-01 1.358056e-01 -7.232856e-01 -6.128864e-01 -8.583035e-01 -9.342663e-02 -6.865239e-01 -7.173311e-01 -7.007897e-03 -3.249782e-01 1.032194e-01 -8.049671e-02 7.128808e-02 3.105408e-01 2.028738e-01 1.466124e+00
<VARIANCE> 39
 3.623217e+01 3.295770e+01 3.201255e+01 2.773087e+01 2.807723e+01 3.311867e+01 3.483720e+01 2.948582e+01 2.724486e+01 2.401778e+01 2.515411e+01 1.928350e+01 2.658723e+01 5.250684e+00 3.505982e+00 2.866647e+00 2.981900e+00 4.223001e+00 4.180402e+00 3.538621e+00 3.179060e+00 3.546547e+00 2.802029e+00 2.555272e+00 2.407381e+00 5.718699e+00 7.286559e-01 9.316072e-01 4.948569e-01 6.198068e-01 6.269591e-01 6.986715e-01 7.415189e-01 6.023214e-01 5.605114e-01 4.995424e-01 4.777821e-01 4.445982e-01 8.058441e-01
<GCONST> 1.252369e+02
<STATE> 3
<NUMMIXES> 3
<MIXTURE> 1 2.111895e-01
<MEAN> 39
 -2.605815e+01 1.075259e+00 2.794926e+00 -5.801381e+00 -2.886375e+00 5.282459e+00 -7.110824e+00 1.946515e+00 -1.635384e+00 -1.277754e+00 3.889688e+00 -3.112690e-01 6.580257e+01 -4.093465e+00 -3.447332e-01 5.889632e-01 -6.928810e-01 -1.323729e+00 1.035955e+00 5.829011e-01 6.440645e-01 5.281858e-01 7.719874e-02 1.003130e+00 5.285357e-01 2.742504e+00 1.081221e+00 2.741359e-01 3.735899e-01 8.430174e-01 -3.889724e-01 -7.691253e-01 6.018932e-01 -1.515601e-01 -2.627722e-02 -1.749025e-01 -4.518307e-01 -2.928432e-02 -6.086044e-01
<VARIANCE> 39
 2.394593e+01 4.214948e+01 2.210775e+01 1.733226e+01 3.017184e+01 2.415342e+01 2.264869e+01 2.957645e+01 2.470460e+01 1.775549e+01 1.461801e+01 1.492243e+01 1.594783e+01 3.486083e+00 2.365410e+00 1.797309e+00 2.286933e+00 2.385752e+00 2.500012e+00 3.071359e+00 2.524058e+00 2.307817e+00 2.158640e+00 1.786771e+00 1.641423e+00 2.325913e+00 5.549153e-01 6.934742e-01 3.823578e-01 3.964039e-01 5.751379e-01 5.922798e-01 4.624134e-01 4.999232e-01 4.685640e-01 4.086875e-01 3.614486e-01 3.860442e-01 3.307849e-01
<GCONST> 1.126503e+02
<MIXTURE> 2 4.717715e-01
<MEAN> 39
 -2.984511e+01 -2.740507e+00 7.428922e+00 -1.971967e+00 -9.297019e+00 2.412055e+00 1.724759e-01 5.286101e-01 1.564245e+00 -1.251138e+00 3.125666e+00 4.518413e-01 6.832500e+01 9.275772e-01 -5.978324e-01 -1.034335e-01 9.052357e-01 -9.578157e-01 -1.338651e+00 5.081913e-01 3.302996e-01 -3.196812e-01 -6.532050e-02 -2.809826e-01 -8.503877e-02 7.661897e-02 1.599715e+00 2.048207e-01 -2.856499e-01 5.550642e-02 2.115606e-01 -4.922596e-01 -5.915110e-01 -2.288157e-01 -4.196968e-01 -2.161357e-01 -2.687393e-01 -1.815217e-01 -5.644245e-01
<VARIANCE> 39
 1.480538e+01 1.986915e+01 1.477089e+01 2.237656e+01 2.306222e+01 2.837971e+01 2.003421e+01 2.355880e+01 2.517736e+01 1.969735e+01 1.939794e+01 1.357193e+01 1.416499e+01 3.932498e+00 1.541500e+00 1.751975e+00 1.671691e+00 2.416807e+00 2.159143e+00 2.081374e+00 2.081456e+00 2.029364e+00 1.780781e+00 1.545939e+00 1.427203e+00 1.352151e+00 6.199372e-01 3.157452e-01 3.592035e-01 3.450609e-01 4.455185e-01 5.390207e-01 4.465539e-01 4.634189e-01 4.826513e-01 4.413477e-01 3.732838e-01 3.136583e-01 2.491224e-01
<GCONST> 1.068041e+02
<MIXTURE> 3 3.170393e-01
<MEAN> 39
 -2.795297e+01 -2.280353e-01 5.294765e+00 -3.717582e+00 -5.770239e+00 3.954149e+00 -2.112724e+00 2.689701e-02 1.012056e+00 -1.927541e+00 2.793967e+00 4.320629e-01 6.637326e+01 -2.011606e+00 -3.820954e-01 5.950396e-01 4.568167e-02 -1.139588e+00 -3.941910e-01 7.876090e-01 2.790563e-01 2.525042e-01 -4.838457e-02 3.148046e-01 2.153459e-01 1.612704e+00 1.217401e+00 1.506798e-01 -1.293563e-01 4.530121e-01 8.892818e-02 -6.081045e-01 -5.883563e-02 8.363192e-02 -2.123011e-01 -7.181797e-03 -2.473700e-01 -1.197162e-01 -6.283696e-01
<VARIANCE> 39
 3.773256e+01 3.494434e+01 3.332477e+01 2.546198e+01 3.446230e+01 3.133845e+01 2.447053e+01 3.263237e+01 2.504045e+01 1.744111e+01 1.785022e+01 1.486837e+01 1.931007e+01 5.343224e+00 2.345149e+00 2.349463e+00 2.103711e+00 2.485096e+00 2.174927e+00 2.211713e+00 2.239176e+00 1.926729e+00 1.857380e+00 1.653057e+00 1.486115e+00 2.998204e+00 6.484821e-01 5.078249e-01 4.080105e-01 3.987012e-01 4.596671e-01 5.329264e-01 4.579030e-01 4.680127e-01 3.859559e-01 3.643767e-01 3.272814e-01 3.150290e-01 3.392234e-01
<GCONST> 1.133903e+02
<STATE> 4
<NUMMIXES> 3
<MIXTURE> 1 2.113694e-01
<MEAN> 39
 -1.856497e+01 -1.452774e+00 -4.528679e-01 1.472935e+00 -3.659168e+00 -2.033519e+00 -6.059458e+00 3.118675e+00 1.839671e+00 -8.401873e-01 6.991270e-01 -2.241327e-01 6.334992e+01 2.981579e+00 4.106587e-01 -9.701822e-01 1.208381e-01 1.048639e+00 2.433275e-01 -4.296211e-01 -7.533144e-01 2.014046e-03 7.292764e-01 8.478226e-02 -5.040546e-01 -1.510942e+00 2.232968e-01 2.948186e-01 2.029490e-01 -4.320081e-01 -1.144533e-02 5.559036e-01 3.370745e-01 -3.464860e-01 -3.436249e-01 -2.631431e-02 1.796837e-01 -3.478749e-02 -7.782438e-02
<VARIANCE> 39
 8.511612e+01 4.617595e+01 4.094878e+01 4.428957e+01 4.717991e+01 3.995250e+01 4.295286e+01 3.716928e+01 3.821873e+01 2.764085e+01 2.506835e+01 2.626172e+01 4.196909e+01 5.302527e+00 2.918586e+00 3.157640e+00 3.655793e+00 3.834386e+00 3.990157e+00 4.676645e+00 4.192637e+00 3.399240e+00 2.304883e+00 2.864686e+00 2.250806e+00 4.871758e+00 1.180227e+00 7.044970e-01 5.293521e-01 7.697385e-01 9.480946e-01 6.998286e-01 8.364204e-01 7.675658e-01 7.793314e-01 6.096560e-01 5.772558e-01 4.829493e-01 8.878713e-01
<GCONST> 1.318821e+02
<MIXTURE> 2 4.181576e-01
<MEAN> 39
 -1.915726e+01 -1.776002e+00 7.012550e+00 -3.869592e-01 -1.099076e+01 -3.339212e+00 -1.574017e+00 -1.229098e+00 -3.216856e+00 -3.730919e+00 2.089652e-01 -7.852765e-01 6.620922e+01 6.146543e+00 7.469236e-01 4.236233e-02 -4.453114e-01 -1.219228e+00 -3.235297e+00 -2.310089e+00 -1.630328e+00 -2.647825e+00 -1.468253e+00 -1.254667e+00 -8.013057e-01 1.394939e-01 4.493917e-01 -1.217600e-01 -1.579022e-01 -6.040617e-01 1.136229e-02 -1.016828e-01 -5.313763e-01 -2.038124e-02 -2.494669e-02 8.103245e-02 8.492726e-02 -2.748096e-02 3.986075e-01
<VARIANCE> 39
 6.246991e+01 2.536873e+01 2.136938e+01 3.059979e+01 2.688909e+01 4.797047e+01 3.558388e+01 3.298186e+01 3.398907e+01 2.627201e+01 2.419223e+01 1.766731e+01 1.462617e+01 1.970322e+00 1.912133e+00 3.349767e+00 3.300546e+00 3.697024e+00 4.671425e+00 3.205153e+00 4.048111e+00 3.438603e+00 2.869950e+00 3.369485e+00 2.672158e+00 1.045225e+00 1.147967e+00 3.620149e-01 3.765731e-01 4.234557e-01 5.073242e-01 8.732370e-01 6.484167e-01 7.063221e-01 7.832485e-01 5.595370e-01 5.209104e-01 5.227748e-01 1.816759e-01
<GCONST> 1.208259e+02
<MIXTURE> 3 3.704729e-01
<MEAN> 39
 -1.965144e+01 -4.569770e+00 3.297425e+00 3.224670e+00 -1.000436e+01 -4.100251e+00 -9.097236e-01 3.890715e+00 -8.222070e-02 -1.959628e+00 2.502369e+00 -2.285410e-01 6.436013e+01 4.748075e+00 -1.285781e-02 -1.092374e+00 4.937086e-01 4.283296e-01 -1.804214e+00 -2.076294e+00 -1.187229e-01 -2.825908e-01 -6.904923e-01 -4.882387e-01 -4.520963e-01 -1.056609e-01 8.565202e-01 1.529254e-01 -3.667205e-02 -5.987351e-01 3.220122e-01 4.417606e-01 -7.956273e-01 -5.507786e-01 -4.018009e-02 -1.270477e-01 -4.397121e-02 -1.090691e-01 3.729397e-01
<VARIANCE> 39
 4.678942e+01 2.097686e+01 2.367045e+01 2.697668e+01 3.500384e+01 3.543668e+01 2.869976e+01 2.421684e+01 2.775760e+01 1.927270e+01 1.917587e+01 1.776957e+01 2.395033e+01 4.705339e+00 2.001925e+00 2.699254e+00 3.742755e+00 4.129999e+00 4.483125e+00 4.860743e+00 3.649586e+00 3.423903e+00 2.817919e+00 2.561969e+00 2.386366e+00 2.448613e+00 1.062946e+00 4.045280e-01 4.416234e-01 5.451565e-01 9.687895e-01 8.084718e-01 8.713796e-01 6.976271e-01 7.036052e-01 5.695488e-01 5.272715e-01 5.189641e-01 5.171233e-01
<GCONST> 1.234249e+02
<TRANSP> 5
 0.000000e+00 1.000000e+00 0.000000e+00 0.000000e+00 0.000000e+00
 0.000000e+00 7.426571e-01 2.573429e-01 0.000000e+00 0.000000e+00
 0.000000e+00 0.000000e+00 8.066012e-01 1.933987e-01 0.000000e+00
 0.000000e+00 0.000000e+00 0.000000e+00 6.275513e-01 3.724487e-01
 0.000000e+00 0.000000e+00 0.000000e+00 0.000000e+00 0.000000e+00
<ENDHMM>
~h "dh"
<BEGINHMM>
<NUMSTATES> 5
<STATE> 2
<NUMMIXES> 3
<MIXTURE> 1 1.028127e-01
<MEAN> 39
 -1.316557e+01 -2.661947e+00 -1.755742e+00 9.852955e-01 3.651047e-01 9.910286e-01 6.956780e-01 4.153846e+00 9.201182e-01 -3.268210e+00 -2.528191e-01 1.264201e+00 5.370314e+01 1.404976e-01 9.932964e-01 8.353636e-02 4.483657e-01 4.157513e-01 3.879229e-01 3.217767e-01 -1.522222e-01 3.952359e-01 7.107306e-01 2.727922e-01 1.887439e-02 -8.143209e-01 -1.015905e-01 6.507510e-02 1.582755e-01 7.147342e-05 -8.880082e-03 -5.896918e-02 -2.418230e-02 -8.009037e-02 -1.038207e-02 1.685870e-01 1.032737e-01 -1.172274e-01 4.591627e-02
<VARIANCE> 39
 9.123775e+00 2.863488e+01 1.255175e+01 1.031553e+01 1.406136e+01 2.373290e+01 1.952253e+01 1.847297e+01 1.770547e+01 2.026805e+01 1.548022e+01 1.550504e+01 2.813358e+01 5.356044e-01 2.122700e+00 1.095523e+00 1.204332e+00 1.218759e+00 1.612842e+00 1.672618e+00 2.105292e+00 1.695773e+00 1.790968e+00 1.603184e+00 1.585885e+00 9.192514e-01 7.822289e-02 1.938439e-01 1.832993e-01 1.723894e-01 1.932262e-01 2.592028e-01 2.847947e-01 3.257214e-01 3.167509e-01 3.463792e-01 2.826811e-01 2.832355e-01 7.674759e-02
<GCONST> 9.248773e+01
<MIXTURE> 2 3.467197e-01
<MEAN> 39
 -1.148767e+01 3.437167e+00 1.427732e-01 1.903747e+00 -9.877262e-01 -1.080514e+00 -1.574176e+00 -1.922202e-01 -1.149958e+00 -1.649366e+00 -1.161192e+00 -1.171418e+00 5.586511e+01 -4.255758e-01 -1.892381e-01 -1.407406e-01 1.290960e-01 2.321526e-01 1.423447e-01 2.078178e-01 1.240340e-01 -3.145070e-02 -1.838031e-01 3.638006e-02 -8.361016e-02 -1.228961e-01 7.650667e-02 -3.754413e-01 -1.403024e-01 -3.404776e-01 -3.851728e-01 -2.386689e-01 -2.726229e-01 6.789286e-02 4.049136e-02 -2.888055e-02 8.362664e-02 9.129414e-02 6.936674e-01
<VARIANCE> 39
 5.311545e+01 4.429020e+01 2.924586e+01 2.664542e+01 2.678867e+01 3.690469e+01 3.779573e+01 4.199869e+01 3.081360e+01 2.443622e+01 2.839338e+01 2.386908e+01 4.019787e+01 2.393579e+00 3.398445e+00 2.650076e+00 2.651849e+00 2.743633e+00 3.001839e+00 3.180686e+00 3.139547e+00 3.057650e+00 2.268054e+00 2.264484e+00 2.116548e+00 3.966436e+00 3.903435e-01 6.415020e-01 4.416869e-01 5.405303e-01 5.702643e-01 6.133137e-01 6.360301e-01 6.460531e-01 5.935431e-01 4.835322e-01 4.988300e-01 4.277690e-01 7.047900e-01
<GCONST> 1.226390e+02
<MIXTURE> 3 5.504662e-01
<MEAN> 39
 -1.633943e+01 -5.535273e+00 -1.635958e-01 -1.193641e+00 -1.334393e+00 -1.501714e+00 8.027205e-01 4.256031e+00 -4.401878e-02 -2.315808e+00 1.478817e+00 7.952743e-01 5.831082e+01 3.893376e-02 -2.232194e-02 -1.738716e-02 3.032452e-02 -7.799566e-04 6.199926e-02 -9.500161e-03 -2.370578e-02 -1.581975e-02 -8.087042e-02 -6.426401e-02 -1.793725e-02 -7.367716e-02 5.808957e-02 6.067634e-02 -2.959142e-02 2.713604e-02 4.412025e-03 1.514295e-02 -1.284676e-02 -2.605835e-02 -1.165523e-02 -2.382495e-02 -3.660528e-02 -2.138782e-05 -2.760337e-02
<VARIANCE> 39
 1.842193e+01 3.709043e+01 1.398820e+01 1.733351e+01 1.677700e+01 2.297198e+01 2.211735e+01 1.984757e+01 2.103577e+01 2.000068e+01 1.749672e+01 1.485221e+01 5.052935e+01 2.929741e-01 5.751154e-01 5.324666e-01 7.222770e-01 8.831090e-01 1.136166e+00 1.232991e+00 1.382197e+00 1.427479e+00 1.377898e+00 1.283032e+00 1.203775e+00 3.830183e-01 4.285108e-02 1.090984e-01 1.065988e-01 1.443099e-01 1.826683e-01 2.290868e-01 2.564895e-01 2.899132e-01 2.965192e-01 2.846732e-01 2.577933e-01 2.433058e-01 6.318341e-02
<GCONST> 8.589454e+01
<STATE> 3
<NUMMIXES> 3
<MIXTURE> 1 8.699904e-02
<MEAN> 39
 -1.071426e+01 7.723300e+00 1.699343e+00 4.901612e+00 -1.263748e-01 -4.559787e-01 -3.949207e+00 -4.017613e-01 -1.591879e+00 -2.569961e+00 -1.661560e+00 -2.209869e+00 5.806624e+01 -6.879706e-01 -6.217380e-01 -6.322966e-01 -2.848684e-01 -3.278629e-01 3.925071e-01 -1.180710e-01 3.593271e-01 3.762061e-01 -2.045327e-02 7.338319e-01 3.425345e-01 5.937077e-01 3.879868e-01 -7.652286e-01 -1.326766e-01 -7.393883e-01 -8.445458e-01 -1.898095e-01 -7.266346e-01 1.116458e-01 7.861470e-02 9.982870e-02 3.550290e-01 5.548858e-02 1.038692e+00
<VARIANCE> 39
 7.302761e+01 3.108119e+01 4.104007e+01 2.322261e+01 2.563054e+01 3.124030e+01 5.139007e+01 2.679831e+01 2.759323e+01 1.813412e+01 2.211453e+01 2.291582e+01 4.572344e+01 4.320593e+00 3.555290e+00 3.684098e+00 2.978789e+00 4.305781e+00 3.009084e+00 6.986006e+00 3.373289e+00 3.593726e+00 1.945955e+00 2.622359e+00 1.928843e+00 5.866367e+00 9.028615e-01 7.175413e-01 8.435368e-01 5.846174e-01 7.282026e-01 7.128532e-01 1.133360e+00 6.891540e-01 6.172776e-01 4.134984e-01 5.596680e-01 4.304899e-01 1.090297e+00
<GCONST> 1.278814e+02
<MIXTURE> 2 4.514787e-01
<MEAN> 39
 -1.233455e+01 2.785317e+00 -2.458210e+00 1.551523e+00 -2.586888e+00 -1.735561e+00 -2.245480e+00 -1.239142e+00 -1.277229e+00 -1.951564e+00 -7.955407e-01 -7.001160e-01 5.847902e+01 1.119432e+00 -1.340194e+00 -6.177197e-01 -1.408407e+00 -2.185001e+00 -1.993275e+00 -1.693264e+00 -2.631501e-01 1.329876e-01 -3.146295e-01 -1.454188e-01 4.039422e-01 3.252542e+00 7.600552e-01 -1.594472e-01 3.246548e-01 -5.002006e-01 -5.895361e-01 -6.515523e-01 -6.245295e-01 -6.167844e-02 3.737789e-02 5.483627e-02 -2.511371e-01 2.102847e-02 7.400638e-01
<VARIANCE> 39
 3.963801e+01 2.765143e+01 2.268789e+01 2.481512e+01 2.583846e+01 4.459343e+01 3.638372e+01 3.356944e+01 2.437586e+01 2.235056e+01 3.011551e+01 1.992775e+01 4.328414e+01 4.308259e+00 2.659200e+00 3.044133e+00 3.082103e+00 3.773752e+00 4.224539e+00 5.433301e+00 5.205547e+00 4.050711e+00 2.867451e+00 3.450649e+00 3.400857e+00 3.317980e+00 5.052388e-01 5.911564e-01 6.344966e-01 6.222829e-01 5.423238e-01 8.630304e-01 8.447274e-01 7.392803e-01 6.250013e-01 5.310408e-01 6.296501e-01 5.752828e-01 6.167099e-01
<GCONST> 1.265659e+02
<MIXTURE> 3 4.615220e-01
<MEAN> 39
 -8.431953e+00 7.193758e+00 1.638061e+00 4.919988e+00 -3.002708e-01 -7.928712e-01 -3.971799e+00 -2.708353e+00 -2.359482e+00 -2.721907e+00 -2.523714e+00 -3.301493e+00 5.565434e+01 -4.620777e-01 -1.503954e+00 -1.126400e+00 -8.638760e-01 -1.417066e+00 -3.266660e-01 -9.668585e-01 3.610720e-01 4.821030e-01 -6.290170e-02 8.229972e-01 5.028305e-01 2.290054e+00 4.375265e-01 -8.101594e-01 -1.305038e-01 -8.452299e-01 -1.054744e+00 -5.160949e-01 -8.153905e-01 2.237891e-01 2.742688e-01 1.802150e-01 2.825603e-01 2.039095e-01 1.403175e+00
<VARIANCE> 39
 3.426869e+01 2.270875e+01 2.142515e+01 1.812135e+01 1.896202e+01 3.345200e+01 3.790664e+01 3.137272e+01 2.359032e+01 1.918052e+01 2.163699e+01 1.868475e+01 3.236418e+01 2.912159e+00 2.800384e+00 2.504710e+00 2.653145e+00 3.500706e+00 3.329106e+00 5.326220e+00 3.834364e+00 4.294906e+00 2.289726e+00 2.553274e+00 2.398929e+00 3.861198e+00 4.427643e-01 6.106319e-01 6.264369e-01 5.865744e-01 5.763707e-01 8.225868e-01 9.052430e-01 8.599766e-01 7.281683e-01 5.008776e-01 6.269530e-01 5.872484e-01 5.742399e-01
<GCONST> 1.224691e+02
<STATE> 4
<NUMMIXES> 3
<MIXTURE> 1 1.867510e-01
<MEAN> 39
 -4.312397e+00 -7.096909e-01 1.098773e-01 -2.763635e+00 -1.195103e+01 -3.396429e+00 -1.913451e+01 4.228765e+00 3.032663e+00 -2.747468e+00 1.687853e+00 -2.912400e+00 7.181883e+01 1.842576e+00 -2.069346e+00 1.330248e+00 -2.307071e+00 -2.176890e+00 -5.030493e-01 -3.146990e+00 2.277070e+00 1.123995e+00 4.284906e-01 8.404562e-01 -4.923733e-01 3.365300e+00 -6.826359e-02 4.943632e-01 4.326116e-01 5.392094e-01 1.097084e+00 3.368871e-01 1.402289e+00 -3.183130e-01 -5.837275e-01 6.878328e-02 -2.708048e-01 -7.141086e-02 -1.221977e+00
<VARIANCE> 39
 1.222026e+01 1.503095e+01 1.973487e+01 1.980268e+01 1.930551e+01 1.933983e+01 3.610012e+01 4.433024e+01 2.490823e+01 2.378922e+01 1.926164e+01 1.880041e+01 1.837845e+01 2.597734e+00 2.682713e+00 3.220584e+00 2.860338e+00 2.583060e+00 2.453543e+00 5.852912e+00 4.386335e+00 3.769188e+00 2.896745e+00 3.495397e+00 2.861166e+00 2.134391e+00 5.369433e-01 2.864800e-01 4.960208e-01 3.563792e-01 3.831860e-01 3.706661e-01 6.017908e-01 6.809983e-01 5.474710e-01 4.277319e-01 3.937089e-01 3.559669e-01 3.158102e-01
<GCONST> 1.150340e+02
<MIXTURE> 2 4.849577e-01
<MEAN> 39
 -8.200666e+00 6.219256e-01 -2.784755e+00 -3.173567e+00 -8.361250e+00 -1.028514e+01 -5.876881e+00 -2.889796e+00 -2.274587e+00 -3.139904e+00 -3.461901e+00 1.861749e+00 6.627413e+01 1.961321e+00 -1.306652e+00 3.748559e-01 -2.045337e+00 -2.354546e+00 -2.764461e+00 -1.554807e+00 -1.033863e-02 -1.714470e-01 3.893130e-02 -6.904875e-01 6.973679e-01 3.178936e+00 2.242379e-01 2.283170e-01 4.807398e-01 1.199043e-01 2.910958e-01 4.406712e-01 5.083606e-03 7.592079e-02 -5.330591e-02 1.309138e-01 -3.461391e-03 -3.838598e-01 -5.450603e-01
<VARIANCE> 39
 4.362069e+01 3.106822e+01 2.999039e+01 4.141745e+01 3.286753e+01 7.097318e+01 4.260275e+01 3.223644e+01 3.395142e+01 2.451157e+01 4.817532e+01 2.734234e+01 2.975798e+01 4.120957e+00 3.429044e+00 4.090296e+00 4.307735e+00 4.670123e+00 5.328059e+00 6.903258e+00 5.295460e+00 4.778037e+00 3.418941e+00 4.944782e+00 4.097232e+00 4.086218e+00 6.575116e-01 5.612111e-01 5.594226e-01 6.189145e-01 5.681236e-01 8.861926e-01 7.038163e-01 6.610887e-01 6.121041e-01 4.925328e-01 6.880260e-01 5.303165e-01 6.445655e-01
<GCONST> 1.316784e+02
<MIXTURE> 3 3.282924e-01
<MEAN> 39
 -5.623925e+00 3.617562e-01 -3.407397e+00 -4.475462e-02 -9.508848e+00 -5.000549e+00 -1.042086e+01 -3.415739e+00 1.903495e+00 -8.343710e-01 2.098875e-01 -2.441634e+00 6.738618e+01 1.461119e+00 -2.068261e+00 1.526535e-01 -1.810231e+00 -2.759615e+00 -9.943889e-01 -2.524954e+00 8.775759e-01 1.484309e+00 3.621986e-01 5.847046e-01 -1.809515e-01 3.706654e+00 9.186510e-02 1.655739e-01 6.945089e-01 1.721628e-02 4.813687e-01 3.487739e-01 4.384192e-01 2.424570e-01 -3.768761e-01 -3.412152e-02 -1.137187e-01 -9.617887e-02 -5.740633e-01
<VARIANCE> 39
 3.069081e+01 2.668785e+01 2.947354e+01 3.254919e+01 3.079892e+01 4.925119e+01 4.920473e+01 8.150238e+01 3.626907e+01 3.616762e+01 2.846496e+01 3.028870e+01 2.746715e+01 3.682833e+00 2.963967e+00 4.122098e+00 4.262152e+00 3.719207e+00 4.253481e+00 6.910981e+00 8.057612e+00 5.502832e+00 3.661469e+00 4.157133e+00 3.380963e+00 3.341396e+00 5.309006e-01 3.790511e-01 4.651867e-01 4.139705e-01 5.562252e-01 5.117000e-01 6.754729e-01 8.422772e-01 6.771866e-01 5.628492e-01 4.559057e-01 5.206398e-01 4.459095e-01
<GCONST> 1.287326e+02
<TRANSP> 5
 0.000000e+00 1.000000e+00 0.000000e+00 0.000000e+00 0.000000e+00
 0.000000e+00 8.583655e-01 1.416345e-01 0.000000e+00 0.000000e+00
 0.000000e+00 0.000000e+00 5.364249e-01 4.635752e-01 0.000000e+00
 0.000000e+00 0.000000e+00 0.000000e+00 4.196048e-01 5.803952e-01
 0.000000e+00 0.000000e+00 0.000000e+00 0.000000e+00 0.000000e+00
<ENDHMM>
~h "eh"
<BEGINHMM>
<NUMSTATES> 5
<STATE> 2
<NUMMIXES> 3
<MIXTURE> 1 1.986512e-01
<MEAN> 39
 -3.434271e+00 -4.952064e+00 4.268819e+00 -5.864705e+00 -1.387911e+01 -5.253136e+00 -1.388374e+01 8.516985e+00 -9.138150e-01 -2.622215e+00 3.404936e+00 -3.110668e+00 7.466027e+01 1.772567e+00 -1.761335e+00 6.070160e-01 -1.394980e+00 -1.369332e+00 -2.770015e-01 -7.976053e-01 2.517287e+00 1.036259e+00 -3.286867e-01 4.715950e-01 -1.497676e+00 2.520684e+00 -9.835288e-01 4.640194e-01 -5.486827e-01 4.128564e-01 1.067873e+00 3.699496e-01 1.409117e+00 -2.536049e-01 1.410034e-01 -1.917805e-01 -4.377068e-01 1.060696e-01 -9.277100e-01
<VARIANCE> 39
 1.015305e+01 1.293586e+01 3.406953e+01 1.535164e+01 2.202678e+01 2.091553e+01 2.667564e+01 3.356400e+01 3.961248e+01 2.065425e+01 3.403461e+01 1.910695e+01 1.420251e+01 3.486919e+00 1.461422e+00 2.603527e+00 1.880173e+00 3.560652e+00 2.763339e+00 5.575131e+00 2.718096e+00 2.485769e+00 2.159776e+00 2.683390e+00 1.871497e+00 2.263492e+00 5.690262e-01 2.510245e-01 3.682151e-01 3.037300e-01 3.776951e-01 4.149927e-01 4.251142e-01 5.846683e-01 5.367389e-01 3.349055e-01 5.626982e-01 4.435427e-01 2.647187e-01
<GCONST> 1.120999e+02
<MIXTURE> 2 4.095289e-01
<MEAN> 39
 -3.058426e+00 -3.787970e+00 -1.773649e+00 -9.336062e+00 -1.137119e+01 -1.465766e+01 -3.776665e+00 -1.205756e+00 -3.791540e+00 -4.942661e+00 -7.599636e+00 3.638285e-01 7.096577e+01 2.274272e+00 -2.142284e+00 -4.503853e-01 -1.714719e+00 -1.248861e+00 -1.108245e+00 2.757320e-02 8.610938e-01 7.414801e-02 -7.353235e-01 -1.083213e+00 -1.493407e-01 1.694561e+00 -9.704139e-01 1.740753e-01 -1.753385e-01 4.271315e-01 6.862244e-01 8.669642e-01 3.877427e-01 2.420076e-01 6.289165e-02 1.930842e-01 4.680490e-01 -7.219760e-02 -4.053857e-01
<VARIANCE> 39
 2.241212e+01 3.142453e+01 4.087294e+01 3.939053e+01 3.406316e+01 6.178471e+01 4.696824e+01 4.428461e+01 5.344568e+01 4.620995e+01 3.906641e+01 3.787009e+01 1.614826e+01 6.243999e+00 2.900365e+00 3.380536e+00 3.275531e+00 4.172194e+00 5.426832e+00 5.440777e+00 4.082503e+00 3.751473e+00 3.579827e+00 3.705687e+00 3.020844e+00 1.934895e+00 6.855357e-01 4.999326e-01 3.817655e-01 4.896249e-01 4.692689e-01 6.908167e-01 7.228982e-01 8.314568e-01 6.358722e-01 6.288303e-01 5.641212e-01 5.003999e-01 2.701423e-01
<GCONST> 1.281241e+02
<MIXTURE> 3 3.918202e-01
<MEAN> 39
 -2.444028e+00 -6.959653e+00 -5.569924e-01 -4.731152e+00 -1.304434e+01 -6.758798e+00 -7.969825e+00 4.701227e+00 1.948767e+00 -1.103240e+00 -1.379708e+00 -5.155243e+00 7.383175e+01 1.824024e-01 -1.404685e+00 -2.631676e-01 -7.511933e-01 -6.546427e-01 -4.270714e-01 9.571565e-01 1.780426e+00 1.119700e+00 -8.135446e-01 -8.828669e-01 -3.406279e-01 1.394010e+00 -3.983704e-01 5.065896e-01 -4.585276e-02 1.427305e-01 6.658266e-01 3.038687e-01 3.384297e-01 -3.868166e-01 -5.158477e-01 -2.259404e-01 6.533664e-02 3.228130e-01 -6.894574e-01
<VARIANCE> 39
 1.796528e+01 2.495983e+01 4.456031e+01 3.952312e+01 4.022892e+01 8.095708e+01 5.296550e+01 7.053481e+01 6.497183e+01 4.666031e+01 4.924466e+01 3.488610e+01 2.266889e+01 2.103364e+00 1.675947e+00 2.751953e+00 2.536343e+00 3.400246e+00 3.307320e+00 4.259715e+00 4.195565e+00 3.517999e+00 3.333896e+00 3.717052e+00 2.881049e+00 1.633581e+00 5.002869e-01 3.432285e-01 3.732347e-01 4.101555e-01 5.482790e-01 5.831430e-01 6.554904e-01 8.318264e-01 8.062342e-01 5.984018e-01 7.679490e-01 5.569837e-01 2.593498e-01
<GCONST> 1.256745e+02
<STATE> 3
<NUMMIXES> 3
<MIXTURE> 1 1.696093e-01
<MEAN> 39
 -3.661033e+00 -6.826593e+00 4.014187e-01 -6.981627e+00 -1.067848e+01 -3.458709e+00 -8.069849e+00 1.241320e+01 2.963238e+00 -5.206634e+00 -1.802670e+00 -6.775787e+00 7.705729e+01 1.898984e-01 -1.926915e-02 2.071207e-01 2.270985e-01 1.005520e-01 1.859404e-04 -3.264780e-02 -1.549746e-02 -3.405584e-01 -1.195488e-01 1.191715e-01 1.269172e-01 -2.726583e-01 9.553607e-02 5.312166e-01 1.776226e-01 4.460150e-01 3.174069e-01 1.244381e-01 -1.155068e-01 -8.900076e-01 -5.952846e-01 3.403536e-01 3.597604e-01 2.774511e-01 -7.218615e-01
<VARIANCE> 39
 8.857716e+00 1.420171e+01 2.050749e+01 1.518481e+01 2.622141e+01 4.115382e+01 4.407458e+01 3.053661e+01 3.207000e+01 3.321149e+01 4.263614e+01 1.765536e+01 1.105864e+01 6.212640e-01 6.670864e-01 1.961033e+00 1.415203e+00 1.913334e+00 2.033189e+00 3.654022e+00 2.708102e+00 2.740765e+00 2.622251e+00 3.530045e+00 2.268358e+00 5.395951e-01 1.948999e-01 2.238748e-01 2.584852e-01 2.706632e-01 3.095882e-01 3.797820e-01 6.910632e-01 5.174695e-01 5.340672e-01 4.349542e-01 8.986754e-01 3.502818e-01 1.850169e-01
<GCONST> 1.064019e+02
<MIXTURE> 2 4.229232e-01
<MEAN> 39
 -1.905970e+00 -8.531895e+00 -4.133750e+00 -1.062658e+01 -1.016227e+01 -1.351084e+01 -7.617838e-01 2.128498e+00 -3.896289e+00 -6.628940e+00 -8.760507e+00 -4.276776e-01 7.296265e+01 7.881315e-02 -1.288311e-01 -3.684953e-01 5.669494e-02 3.598395e-01 4.622164e-02 -1.022953e-01 6.112038e-02 -6.775440e-02 -2.602666e-01 -2.452229e-01 -9.247381e-03 -5.207034e-02 -2.991195e-02 5.010062e-01 1.254510e-01 3.327064e-01 1.036506e-01 5.828968e-02 -4.234972e-01 -3.535980e-01 -4.379373e-02 2.329561e-01 2.015212e-01 -1.330534e-02 -3.791776e-01
<VARIANCE> 39
 2.116767e+01 2.365600e+01 3.267130e+01 3.827584e+01 3.666412e+01 6.473266e+01 4.290613e+01 4.551913e+01 6.933447e+01 5.019434e+01 3.829491e+01 3.539303e+01 1.465235e+01 4.333072e-01 9.827991e-01 1.746536e+00 1.381261e+00 1.937089e+00 2.113321e+00 2.721674e+00 2.388269e+00 2.156984e+00 2.058719e+00 1.640006e+00 1.638958e+00 3.207080e-01 1.565091e-01 2.379559e-01 2.621610e-01 2.990451e-01 3.338667e-01 3.987775e-01 4.124875e-01 4.724931e-01 4.070495e-01 4.007758e-01 3.723107e-01 2.864085e-01 1.355565e-01
<GCONST> 1.075378e+02
<MIXTURE> 3 4.074665e-01
<MEAN> 39
 -2.205579e+00 -8.180186e+00 -7.002212e-01 -5.699024e+00 -1.118153e+01 -6.616029e+00 -6.418795e+00 9.976467e+00 1.526594e+00 -5.664944e+00 -8.892045e-01 -4.384065e+00 7.506314e+01 1.865483e-01 -1.431473e-01 -5.244626e-01 8.862884e-02 5.083001e-01 4.092952e-02 -1.772414e-01 9.901334e-02 4.234708e-01 -2.755113e-01 -4.087314e-01 1.195812e-02 -8.535966e-02 5.043888e-02 2.358456e-01 7.677507e-02 1.516701e-01 1.027423e-01 5.228106e-02 -2.935988e-01 -3.790623e-01 -1.468493e-01 2.396448e-01 9.751315e-02 6.047488e-02 -2.600132e-01
<VARIANCE> 39
 1.713002e+01 2.049323e+01 3.934395e+01 2.593788e+01 3.488696e+01 7.033763e+01 5.470142e+01 5.146962e+01 5.173150e+01 3.314334e+01 5.674251e+01 2.805310e+01 1.722025e+01 3.074197e-01 5.133043e-01 1.210301e+00 7.550533e-01 1.236979e+00 1.333879e+00 2.315527e+00 1.625771e+00 1.644563e+00 1.486723e+00 1.807537e+00 1.234205e+00 2.468609e-01 6.427386e-02 1.045649e-01 1.700783e-01 1.610641e-01 2.089908e-01 2.475542e-01 3.467977e-01 3.358696e-01 2.896344e-01 2.647789e-01 3.470540e-01 2.207104e-01 8.434689e-02
<GCONST> 9.674585e+01
<STATE> 4
<NUMMIXES> 3
<MIXTURE> 1 1.657629e-01
<MEAN> 39
 -1.099253e+00 -5.968166e+00 -2.458236e-01 -3.044989e+00 -1.043826e+01 -4.246261e+00 -1.210881e+01 8.421536e+00 2.650699e+00 -2.000101e+00 -2.076564e-01 -5.845139e+00 7.271976e+01 -6.156918e-01 3.120378e+00 7.067878e-01 2.232593e+00 2.066563e+00 2.406666e-01 8.724544e-01 -2.037055e+00 -8.702951e-01 2.026735e-01 4.146397e-04 1.182509e+00 -2.963150e+00 -9.188203e-01 7.971732e-01 4.678354e-02 1.496313e-01 6.626213e-01 6.013259e-02 1.024121e+00 -2.738411e-01 -1.496381e-01 -1.774824e-01 -1.679171e-01 3.706082e-01 -5.900603e-01
<VARIANCE> 39
 1.179111e+01 2.088747e+01 3.056627e+01 2.000378e+01 2.485538e+01 2.988465e+01 5.402372e+01 5.073009e+01 3.412958e+01 2.990364e+01 3.551969e+01 2.618110e+01 1.589613e+01 2.581336e+00 2.051553e+00 2.279907e+00 1.634374e+00 2.568295e+00 2.898429e+00 3.845751e+00 3.702860e+00 3.223365e+00 2.446595e+00 3.606920e+00 2.052536e+00 2.506334e+00 4.124697e-01 3.747995e-01 3.784102e-01 3.606247e-01 3.716854e-01 3.903494e-01 5.194336e-01 6.001177e-01 6.428708e-01 4.167991e-01 6.939687e-01 4.395977e-01 2.839192e-01
<GCONST> 1.165689e+02
<MIXTURE> 2 4.621082e-01
<MEAN> 39
 -1.750035e+00 -5.863814e+00 -4.128155e+00 -9.454055e+00 -9.304247e+00 -1.409685e+01 -4.971020e+00 1.822367e-01 -2.766181e+00 -5.561679e+00 -8.850883e+00 1.952192e-01 7.114113e+01 1.048421e-01 1.741682e+00 4.091132e-01 1.127389e+00 3.613474e-01 5.146033e-01 -1.144700e+00 -1.287599e+00 -3.795494e-01 5.027575e-01 3.440805e-01 -2.177241e-01 -1.506406e+00 -2.992031e-01 6.009035e-01 2.082091e-01 4.537725e-01 1.520641e-01 5.123976e-01 5.505981e-02 -1.864942e-01 -1.529574e-01 8.829869e-02 3.477835e-01 -1.957570e-01 -4.769377e-01
<VARIANCE> 39
 2.284269e+01 3.432030e+01 4.559059e+01 4.411251e+01 4.635598e+01 8.347415e+01 5.854173e+01 6.095083e+01 8.076015e+01 5.009555e+01 4.935788e+01 5.104675e+01 1.925733e+01 1.219095e+00 2.297593e+00 3.065041e+00 3.077735e+00 2.863776e+00 3.230973e+00 3.190568e+00 3.385623e+00 3.289847e+00 3.291797e+00 2.991714e+00 2.668690e+00 1.501259e+00 3.295586e-01 3.479407e-01 3.881527e-01 4.522608e-01 5.622258e-01 6.111577e-01 5.803773e-01 8.330060e-01 7.782614e-01 5.698327e-01 6.167353e-01 5.651466e-01 2.906622e-01
<GCONST> 1.254255e+02
<MIXTURE> 3 3.721296e-01
<MEAN> 39
 -1.772979e+00 -7.245458e+00 -8.482158e-01 -4.155313e+00 -1.194736e+01 -7.228305e+00 -8.563265e+00 5.095885e+00 1.486239e+00 -2.457994e+00 -1.838797e+00 -4.788894e+00 7.294636e+01 2.686233e-01 1.729220e+00 8.949434e-01 1.384247e+00 8.949941e-01 4.070102e-01 -4.863802e-01 -1.430594e+00 -1.280990e+00 5.397078e-01 7.108065e-01 1.240653e-01 -2.209442e+00 -2.589829e-01 6.579502e-01 1.325418e-01 2.470745e-01 5.088792e-01 2.420930e-01 4.222788e-01 -3.265064e-01 -2.689051e-01 -7.329343e-02 -5.099078e-02 1.885290e-01 -6.928473e-01
<VARIANCE> 39
 1.711830e+01 2.747223e+01 4.869076e+01 3.859008e+01 4.368796e+01 7.503117e+01 5.976995e+01 8.254635e+01 7.695187e+01 4.407652e+01 4.751223e+01 3.716985e+01 2.489434e+01 1.213728e+00 2.127384e+00 2.969928e+00 2.710179e+00 2.974563e+00 3.193361e+00 3.563167e+00 4.125911e+00 4.019199e+00 3.318789e+00 3.643008e+00 2.454131e+00 2.365973e+00 2.622000e-01 3.161151e-01 4.481254e-01 4.078848e-01 5.987805e-01 5.960525e-01 5.975193e-01 8.047649e-01 1.055650e+00 6.258796e-01 7.525418e-01 5.430123e-01 3.355489e-01
<GCONST> 1.260502e+02
<TRANSP> 5
 0.000000e+00 1.000000e+00 0.000000e+00 0.000000e+00 0.000000e+00
 0.000000e+00 5.486944e-01 4.513056e-01 0.000000e+00 0.000000e+00
 0.000000e+00 0.000000e+00 7.630875e-01 2.369125e-01 0.000000e+00
 0.000000e+00 0.000000e+00 0.000000e+00 5.015055e-01 4.984944e-01
 0.000000e+00 0.000000e+00 0.000000e+00 0.000000e+00 0.000000e+00
<ENDHMM>
~h "er"
<BEGINHMM>
<NUMSTATES> 5
<STATE> 2
<NUMMIXES> 3
<MIXTURE> 1 1.857194e-01
<MEAN> 39
 3.509056e+00 -7.057027e+00 -5.655020e+00 1.975797e+00 -4.842617e+00 -4.807714e+00 -2.183475e+01 -9.785173e-01 5.935267e+00 -5.071124e+00 3.983490e+00 1.140514e-01 7.045444e+01 2.293939e+00 -1.663131e+00 -1.146488e-01 -1.453058e-01 -8.801322e-02 -7.099477e-01 -3.276875e+00 3.344496e-01 2.519048e+00 -8.811972e-01 2.280897e-01 9.723866e-02 1.726774e+00 -1.193202e+00 4.573428e-01 5.067616e-01 1.913870e-01 2.095028e-01 2.949319e-01 1.289375e+00 2.434204e-01 -4.888103e-01 1.620321e-01 -3.365311e-01 -1.824862e-02 -6.798912e-01
<VARIANCE> 39
 1.140660e+01 1.341549e+01 6.576367e+01 1.559310e+01 2.556766e+01 3.543307e+01 4.158611e+01 6.069292e+01 3.289909e+01 5.913953e+01 2.871423e+01 2.152961e+01 1.161915e+01 3.599467e+00 1.263572e+00 2.771719e+00 2.087035e+00 3.530841e+00 2.568993e+00 4.137061e+00 3.915045e+00 2.970180e+00 3.893328e+00 2.833891e+00 2.357170e+00 1.516237e+00 5.489962e-01 3.373998e-01 6.663932e-01 3.156326e-01 5.936137e-01 5.218068e-01 6.838328e-01 7.563108e-01 5.811577e-01 8.340570e-01 5.112954e-01 3.977429e-01 2.074713e-01
<GCONST> 1.187929e+02
<MIXTURE> 2 4.647814e-01
<MEAN> 39
 5.873227e-02 -4.244088e+00 -4.835414e+00 -2.861725e+00 -7.144118e+00 -1.542576e+01 -1.080385e+01 -7.267520e-03 -6.285983e+00 -2.360574e+00 -3.188452e+00 -1.810698e+00 6.739272e+01 2.729649e+00 -7.452165e-01 -1.590135e+00 -2.868916e-01 5.310948e-01 -2.828949e+00 -1.308171e+00 1.127071e+00 -4.230178e-01 -3.356671e-01 -1.096924e-01 1.936354e-01 6.336200e-01 -7.274414e-01 1.239672e-01 1.817560e-01 1.263410e-01 3.086546e-01 6.392355e-01 2.991584e-01 1.086965e-01 3.054915e-01 2.042886e-02 1.300238e-01 1.117907e-01 -2.152810e-01
<VARIANCE> 39
 2.662742e+01 3.090514e+01 6.964465e+01 3.998197e+01 6.478283e+01 9.531581e+01 4.427903e+01 4.564536e+01 5.395196e+01 3.555405e+01 4.208488e+01 2.505877e+01 1.984109e+01 5.907635e+00 2.910031e+00 3.853154e+00 3.707638e+00 4.712978e+00 6.993682e+00 5.098519e+00 4.795787e+00 4.994094e+00 3.462834e+00 3.873108e+00 2.630544e+00 1.559947e+00 6.994714e-01 4.949785e-01 7.110115e-01 4.915113e-01 8.667307e-01 1.013899e+00 7.105304e-01 8.294617e-01 6.660315e-01 5.749062e-01 5.883328e-01 3.927194e-01 2.524413e-01
<GCONST> 1.314097e+02
<MIXTURE> 3 3.494989e-01
<MEAN> 39
 1.867470e+00 -6.478463e+00 -3.861598e+00 1.635149e+00 -7.027403e+00 -8.530453e+00 -1.535021e+01 3.311766e-01 1.585274e+00 -3.677065e+00 2.360531e+00 3.364661e-02 6.919129e+01 1.979613e+00 -1.153027e+00 -1.100128e+00 1.171589e-03 5.189220e-01 -1.384074e+00 -2.466624e+00 8.106347e-01 1.745528e+00 -6.532717e-01 1.471872e-01 5.452484e-01 9.953291e-01 -5.749974e-01 3.669077e-01 2.384759e-01 -6.915666e-03 2.866832e-01 4.277592e-01 4.446242e-01 -2.682415e-02 -1.261947e-01 1.143007e-02 -2.156552e-01 -9.240365e-02 -3.987633e-01
<VARIANCE> 39
 1.601409e+01 2.515487e+01 6.973358e+01 3.028497e+01 4.385276e+01 6.447368e+01 4.335540e+01 6.551656e+01 4.885512e+01 5.256098e+01 3.884353e+01 2.879215e+01 2.194077e+01 3.804762e+00 1.910792e+00 3.260288e+00 2.568916e+00 3.748935e+00 3.806396e+00 4.951534e+00 4.990120e+00 4.331488e+00 3.957386e+00 3.626322e+00 2.950193e+00 1.829549e+00 5.683375e-01 3.932647e-01 5.647448e-01 3.928306e-01 6.339789e-01 5.857226e-01 6.400682e-01 7.473189e-01 6.696426e-01 6.356528e-01 5.222236e-01 4.539831e-01 2.231486e-01
<GCONST> 1.264532e+02
<STATE> 3
<NUMMIXES> 3
<MIXTURE> 1 1.656643e-01
<MEAN> 39
 3.567641e+00 -7.980521e+00 -4.914111e+00 2.314207e+00 -4.209320e+00 -8.377779e+00 -2.201989e+01 1.507733e+00 6.645459e+00 -5.874657e+00 1.512097e+00 7.348338e-01 7.004223e+01 -3.904870e-02 4.554203e-01 5.657095e-01 6.230628e-01 1.560485e-02 -3.551920e-01 5.922899e-01 4.573197e-01 -5.473855e-01 -4.377154e-01 -1.874798e-01 4.889406e-01 -4.588789e-01 -8.504774e-01 8.019971e-01 4.994979e-01 1.809646e-01 -2.141213e-02 4.172222e-01 1.376904e+00 -2.512054e-01 -8.160780e-01 3.375906e-01 -4.335318e-02 -1.388412e-01 -6.644545e-01
<VARIANCE> 39
 1.138245e+01 1.749440e+01 5.109076e+01 2.456316e+01 2.904370e+01 6.270075e+01 6.092857e+01 5.859468e+01 6.318473e+01 4.990957e+01 3.538402e+01 2.985265e+01 1.438995e+01 1.175988e+00 2.238659e+00 3.590472e+00 2.485736e+00 4.182925e+00 3.624152e+00 3.480243e+00 5.633620e+00 3.849162e+00 3.679353e+00 2.685289e+00 2.080431e+00 1.671222e+00 4.466300e-01 3.177816e-01 4.475012e-01 4.080736e-01 6.073020e-01 7.961946e-01 6.255908e-01 7.481993e-01 8.586667e-01 6.791705e-01 5.939115e-01 4.563719e-01 2.703700e-01
<GCONST> 1.229234e+02
<MIXTURE> 2 4.197022e-01
<MEAN> 39
 2.767161e+00 -6.377949e+00 -9.527404e+00 -2.809277e+00 -2.404125e+00 -1.885837e+01 -1.229791e+01 4.464486e+00 -3.812044e+00 -2.038156e+00 -3.964170e+00 -9.595086e-01 6.840902e+01 -6.225733e-02 -3.002676e-03 1.615793e-01 1.321924e-01 -3.765367e-02 -1.625150e-01 9.653382e-03 2.867417e-01 2.870334e-02 -2.626825e-01 6.422709e-02 1.049709e-01 -1.196497e-01 -2.118131e-01 1.730709e-01 4.066505e-01 3.518544e-02 -3.344353e-01 4.786760e-01 1.950694e-01 -3.744838e-01 -3.508273e-02 -4.882282e-02 1.184742e-01 -1.026662e-02 -1.142336e-01
<VARIANCE> 39
 1.516342e+01 2.789849e+01 4.848266e+01 3.327808e+01 4.847318e+01 1.296954e+02 5.815044e+01 5.683549e+01 7.357523e+01 3.974105e+01 4.611078e+01 2.921527e+01 2.043220e+01 3.743728e-01 9.047751e-01 1.934154e+00 1.063035e+00 2.783130e+00 2.571678e+00 2.305262e+00 2.634709e+00 2.428152e+00 1.896398e+00 2.023021e+00 1.429292e+00 4.308423e-01 1.234884e-01 1.978055e-01 2.369241e-01 2.155970e-01 3.517444e-01 5.276293e-01 3.448923e-01 5.406041e-01 4.328673e-01 3.334944e-01 3.903686e-01 2.633013e-01 8.613183e-02
<GCONST> 1.086082e+02
<MIXTURE> 3 4.146332e-01
<MEAN> 39
 4.256408e+00 -8.192152e+00 -6.214157e+00 2.208203e+00 -3.539196e+00 -9.055429e+00 -2.119127e+01 2.575295e+00 8.360229e+00 -5.243596e+00 1.727456e+00 5.090656e-01 7.029239e+01 3.105113e-02 1.154433e-01 -8.500274e-02 1.748996e-01 2.769969e-01 -1.641126e-01 -3.303682e-01 1.186432e-01 2.286336e-01 -1.418231e-01 -2.172052e-01 1.664426e-01 -2.524754e-01 -2.417361e-01 2.229705e-01 2.557818e-01 6.946816e-02 -1.526312e-01 1.184627e-01 5.011490e-01 -7.234334e-02 -4.683752e-01 5.787141e-02 -1.026572e-02 -2.150601e-02 -1.685578e-01
<VARIANCE> 39
 7.946723e+00 1.662842e+01 4.570322e+01 1.702052e+01 2.112540e+01 5.753828e+01 4.777588e+01 6.420416e+01 4.976056e+01 5.101970e+01 2.983449e+01 2.543768e+01 1.843855e+01 2.897470e-01 6.189029e-01 1.367471e+00 7.393630e-01 1.382401e+00 1.496066e+00 2.075469e+00 2.158094e+00 2.243889e+00 1.733147e+00 1.336186e+00 1.166545e+00 3.533497e-01 1.048630e-01 1.569566e-01 1.783167e-01 1.460866e-01 2.245061e-01 2.848653e-01 3.228335e-01 4.265720e-01 3.311205e-01 3.320130e-01 2.526491e-01 2.291188e-01 8.718611e-02
<GCONST> 9.703155e+01
<STATE> 4
<NUMMIXES> 3
<MIXTURE> 1 1.736437e-01
<MEAN> 39
 2.229091e+00 -5.017395e+00 -2.669807e+00 7.357818e+00 -2.579108e+00 -1.081171e+01 -2.053883e+01 3.556985e+00 5.858735e+00 -7.850973e+00 6.230414e-01 3.746489e+00 6.690409e+01 -2.627891e+00 2.888336e+00 1.761408e+00 1.236601e+00 2.662480e-01 6.066996e-01 3.818789e+00 -1.095453e-01 -1.814059e+00 1.134599e+00 -6.014616e-01 -2.857269e-01 -2.027279e+00 -1.056933e+00 4.098604e-01 3.730868e-01 -5.281914e-01 6.353997e-03 8.359625e-01 8.564763e-01 -2.138453e-01 -2.721323e-01 5.279013e-01 1.420800e-01 -4.244109e-01 -2.924349e-01
<VARIANCE> 39
 1.326727e+01 2.017285e+01 4.008443e+01 2.569668e+01 3.392532e+01 2.974171e+01 3.849103e+01 4.575426e+01 3.244926e+01 3.748304e+01 2.316180e+01 1.772681e+01 1.962882e+01 3.105615e+00 2.283478e+00 2.790969e+00 2.205271e+00 3.776470e+00 3.617866e+00 3.332367e+00 4.268269e+00 3.034194e+00 3.509773e+00 2.914883e+00 1.921775e+00 2.772723e+00 3.905640e-01 4.949125e-01 3.993147e-01 4.545440e-01 6.333658e-01 5.240264e-01 5.853649e-01 6.072097e-01 4.483743e-01 5.118427e-01 3.473247e-01 3.204636e-01 2.238473e-01
<GCONST> 1.181954e+02
<MIXTURE> 2 4.810578e-01
<MEAN> 39
 -6.399836e-01 -4.381429e+00 -1.010344e+00 -1.169633e+00 -8.989357e+00 -1.404434e+01 -9.372089e+00 2.005082e+00 -5.780363e+00 -3.771242e+00 -2.928793e-01 -7.869761e-01 6.655147e+01 -9.256260e-01 1.102066e+00 1.623758e+00 -1.080527e-01 -8.791305e-01 1.887886e+00 1.114776e+00 -1.464705e+00 -2.663469e-01 1.413076e-02 -1.508746e-01 -1.819444e-01 -6.757040e-01 -2.841730e-01 4.009489e-01 -7.060172e-02 -8.415788e-03 4.514288e-01 4.143869e-01 -1.002326e-01 -2.366010e-01 2.843924e-01 4.666884e-02 -2.320144e-01 -4.288767e-02 -1.737155e-01
<VARIANCE> 39
 2.675668e+01 3.934597e+01 7.955890e+01 4.570036e+01 5.988675e+01 1.256584e+02 5.421741e+01 6.753106e+01 8.583498e+01 3.800780e+01 5.288038e+01 4.010490e+01 3.798044e+01 1.598044e+00 3.073805e+00 3.046194e+00 3.033783e+00 4.311395e+00 4.654492e+00 4.119225e+00 4.372925e+00 5.185391e+00 2.955603e+00 3.546478e+00 2.697210e+00 2.010920e+00 4.271021e-01 6.238652e-01 5.589259e-01 5.611376e-01 7.807007e-01 9.960680e-01 6.425581e-01 1.020040e+00 8.701141e-01 5.559148e-01 6.573957e-01 5.101512e-01 4.452434e-01
<GCONST> 1.329614e+02
<MIXTURE> 3 3.452978e-01
<MEAN> 39
 5.614700e-01 -3.272816e+00 -2.064261e+00 3.941599e+00 -5.765779e+00 -1.247081e+01 -1.420209e+01 1.554609e+00 6.413865e-01 -5.021457e+00 -3.935227e-01 1.981186e+00 6.510912e+01 -1.931020e+00 2.031823e+00 1.982481e+00 4.068495e-01 -6.259301e-02 1.720513e+00 2.278576e+00 -7.865649e-01 -9.696801e-01 1.066139e-01 -1.635638e-01 -3.441866e-01 -1.492982e+00 -6.438545e-01 2.971928e-01 9.831862e-02 -3.625537e-01 3.467738e-01 5.818138e-01 3.704672e-01 -5.000345e-02 -1.283366e-01 2.646102e-01 2.559802e-02 -3.009691e-01 -1.416933e-01
<VARIANCE> 39
 2.052497e+01 3.147956e+01 6.686327e+01 4.117854e+01 5.756077e+01 7.644798e+01 4.768800e+01 6.534297e+01 5.882003e+01 4.071644e+01 3.927518e+01 2.865574e+01 3.170070e+01 3.452272e+00 3.761240e+00 3.477875e+00 3.041514e+00 5.180844e+00 6.461327e+00 4.803706e+00 5.029612e+00 5.558875e+00 3.637216e+00 3.575456e+00 2.562407e+00 2.762962e+00 4.640946e-01 5.670737e-01 6.126482e-01 5.516592e-01 9.279997e-01 8.654326e-01 6.074874e-01 9.642908e-01 6.478305e-01 6.139343e-01 5.667468e-01 4.464452e-01 2.958103e-01
<GCONST> 1.319339e+02
<TRANSP> 5
 0.000000e+00 1.000000e+00 0.000000e+00 0.000000e+00 0.000000e+00
 0.000000e+00 5.646643e-01 4.353357e-01 0.000000e+00 0.000000e+00
 0.000000e+00 0.000000e+00 7.845894e-01 2.154106e-01 0.000000e+00
 0.000000e+00 0.000000e+00 0.000000e+00 6.035977e-01 3.964022e-01
 0.000000e+00 0.000000e+00 0.000000e+00 0.000000e+00 0.000000e+00
<ENDHMM>
~h "ey"
<BEGINHMM>
<NUMSTATES> 5
<STATE> 2
<NUMMIXES> 3
<MIXTURE> 1 1.967954e-01
<MEAN> 39
 -4.983209e+00 -3.381726e+00 7.583129e+00 -5.335666e+00 -1.564465e+01 -5.665493e+00 -1.361300e+01 5.663237e+00 -4.309263e+00 -2.311170e+00 5.569675e+00 -1.697225e+00 7.372121e+01 1.676590e+00 -1.334580e+00 1.969292e+00 -1.247236e+00 -2.993477e+00 -3.778280e-01 -1.552562e+00 1.368286e+00 -4.148966e-01 4.319978e-01 2.194643e+00 -1.353003e+00 2.638777e+00 -9.015913e-01 4.662274e-01 -2.751652e-01 2.893835e-01 8.470858e-01 4.910611e-01 1.176194e+00 -4.096030e-01 3.484778e-03 2.851430e-01 -8.881802e-02 -1.559573e-01 -9.464166e-01
<VARIANCE> 39
 1.033034e+01 1.672298e+01 3.346663e+01 2.001805e+01 2.270013e+01 3.294834e+01 3.129052e+01 3.694564e+01 3.968910e+01 2.140133e+01 2.795953e+01 2.066164e+01 1.480428e+01 3.758075e+00 2.026780e+00 2.955361e+00 2.105370e+00 4.135064e+00 3.031596e+00 4.937325e+00 3.319892e+00 3.296370e+00 2.187733e+00 2.550385e+00 2.124769e+00 1.794135e+00 5.499320e-01 3.643091e-01 3.691609e-01 3.348395e-01 3.888059e-01 4.949899e-01 5.147258e-01 5.710365e-01 5.715187e-01 3.619499e-01 5.756615e-01 4.460884e-01 3.064181e-01
<GCONST> 1.155501e+02
<MIXTURE> 2 4.126821e-01
<MEAN> 39
 -3.786626e+00 -4.296517e+00 3.677520e+00 -1.019598e+01 -1.650110e+01 -1.326666e+01 -1.552686e+00 -2.920460e+00 -6.295184e+00 -1.760083e+00 -3.645579e+00 -4.968548e-01 7.168898e+01 4.688771e-01 -7.410595e-01 8.167859e-01 -1.499756e+00 -1.622350e+00 7.818231e-02 7.518169e-01 -4.116635e-01 -5.440829e-01 7.781795e-01 3.751302e-02 -4.111418e-01 8.198231e-01 -5.301936e-01 4.190988e-01 -7.426655e-02 3.709964e-01 6.292666e-01 6.176534e-01 -1.260291e-01 -2.294067e-01 1.287403e-01 2.130301e-01 5.488387e-02 -1.360396e-01 -5.161375e-01
<VARIANCE> 39
 1.973125e+01 3.088375e+01 4.472292e+01 5.606676e+01 3.004412e+01 6.452081e+01 3.903338e+01 5.040289e+01 4.637265e+01 4.308484e+01 4.370938e+01 3.290329e+01 1.690010e+01 2.968515e+00 2.350646e+00 2.996339e+00 2.563166e+00 3.034755e+00 3.706825e+00 3.580225e+00 3.733280e+00 2.788133e+00 2.836204e+00 2.558331e+00 2.247987e+00 1.249145e+00 5.865154e-01 4.217760e-01 3.319912e-01 3.966095e-01 4.563303e-01 6.116938e-01 6.733118e-01 7.287160e-01 5.375025e-01 6.058627e-01 5.375764e-01 4.903383e-01 2.154889e-01
<GCONST> 1.224007e+02
<MIXTURE> 3 3.905232e-01
<MEAN> 39
 -3.872051e+00 -6.176803e+00 4.783755e+00 -4.423732e+00 -1.643458e+01 -8.204569e+00 -8.220365e+00 6.061016e+00 -1.422436e+00 -2.245484e+00 3.528964e+00 -2.392985e+00 7.447888e+01 -5.619683e-01 -1.333348e-01 1.392296e+00 -5.174818e-01 -1.753053e+00 -2.107399e-01 1.470349e+00 6.113091e-02 -1.286020e+00 4.037663e-01 1.424746e+00 -1.331517e-01 5.397969e-01 -1.141159e-01 4.973637e-01 7.586848e-03 7.976815e-02 5.533203e-01 4.366683e-01 -6.608836e-03 -9.064928e-01 -4.496349e-01 2.906406e-01 -3.512599e-02 -1.913475e-01 -5.980557e-01
<VARIANCE> 39
 1.291797e+01 2.355970e+01 3.448513e+01 3.375863e+01 2.948042e+01 5.581920e+01 5.129281e+01 6.129812e+01 4.881425e+01 3.727843e+01 5.797661e+01 2.691785e+01 1.813896e+01 7.190183e-01 1.194970e+00 2.449449e+00 1.954562e+00 2.500075e+00 2.361339e+00 3.014252e+00 3.976450e+00 4.426724e+00 2.535022e+00 2.434043e+00 2.620502e+00 1.004418e+00 2.545319e-01 2.081497e-01 2.699144e-01 3.543223e-01 4.015273e-01 3.931554e-01 6.362390e-01 7.055815e-01 6.114968e-01 4.976059e-01 7.129382e-01 3.817518e-01 1.872233e-01
<GCONST> 1.155218e+02
<STATE> 3
<NUMMIXES> 3
<MIXTURE> 1 1.509892e-01
<MEAN> 39
 -6.274964e+00 -1.340424e+00 1.553837e+01 -7.252224e+00 -1.804482e+01 -5.517036e-01 -1.142938e+01 1.582423e+00 -1.172706e+01 1.295448e+00 8.373680e+00 -8.062219e+00 7.351138e+01 2.553984e-01 2.117128e-01 6.350434e-01 5.793329e-01 1.823558e-01 5.100417e-02 5.434609e-02 -3.543377e-01 -1.079290e+00 -1.336961e-01 -2.538922e-01 -6.783206e-02 -6.429380e-01 9.790603e-02 2.485232e-01 -4.531644e-01 4.949961e-01 5.449978e-01 -2.462356e-01 3.471980e-01 6.365631e-02 3.515984e-01 -2.132530e-01 -3.657993e-01 3.525996e-01 -5.030233e-01
<VARIANCE> 39
 8.557878e+00 1.804232e+01 3.381464e+01 1.737939e+01 2.218602e+01 4.429021e+01 2.629552e+01 3.870674e+01 3.518446e+01 2.329619e+01 3.037003e+01 2.000893e+01 1.385490e+01 3.652267e-01 6.099549e-01 1.515519e+00 1.122750e+00 1.024582e+00 1.565317e+00 1.379629e+00 2.168816e+00 2.047627e+00 1.746326e+00 1.617024e+00 1.241369e+00 6.061462e-01 1.265575e-01 1.663022e-01 2.479842e-01 1.971066e-01 3.390057e-01 3.219384e-01 3.740382e-01 3.852570e-01 5.518588e-01 3.145535e-01 3.730655e-01 2.606438e-01 2.012951e-01
<GCONST> 9.800803e+01
<MIXTURE> 2 4.378102e-01
<MEAN> 39
 -4.296259e+00 -3.714211e+00 6.784999e+00 -1.152471e+01 -1.925578e+01 -1.065927e+01 -1.268626e+00 -6.609723e+00 -7.303445e+00 1.868779e+00 -3.541109e+00 -1.478926e+00 7.131507e+01 -1.173335e-01 4.512842e-01 6.554462e-01 3.287474e-02 -2.628510e-01 3.361736e-01 -3.061337e-01 -9.222402e-01 -3.919246e-01 4.014319e-01 -1.528827e-01 -3.774403e-02 -3.101815e-01 5.072924e-02 9.441216e-02 -1.236151e-01 3.104888e-01 2.336922e-01 -8.342761e-02 -1.897833e-01 1.147561e-01 4.486488e-02 -2.194377e-01 -2.692576e-02 5.587173e-02 -1.524822e-01
<VARIANCE> 39
 1.982273e+01 3.027868e+01 3.494769e+01 7.901620e+01 2.388646e+01 5.696882e+01 4.236071e+01 5.208901e+01 4.016314e+01 3.708967e+01 5.338025e+01 2.534896e+01 1.906685e+01 2.890972e-01 7.032886e-01 1.220942e+00 1.120759e+00 1.078877e+00 1.406256e+00 1.549481e+00 1.992007e+00 1.628420e+00 1.855676e+00 1.656750e+00 1.209775e+00 2.792167e-01 7.223980e-02 1.346915e-01 1.856131e-01 2.095670e-01 2.405327e-01 2.624376e-01 3.169760e-01 3.331228e-01 2.761255e-01 3.004925e-01 3.002336e-01 2.184538e-01 6.357024e-02
<GCONST> 9.830798e+01
<MIXTURE> 3 4.112009e-01
<MEAN> 39
 -5.559054e+00 -2.949491e+00 1.147381e+01 -7.674847e+00 -1.829638e+01 -3.154012e+00 -7.625590e+00 1.894816e+00 -7.576345e+00 9.663350e-01 6.581920e+00 -6.175159e+00 7.399631e+01 -5.496806e-02 2.868834e-01 6.950692e-01 3.742960e-02 -8.535747e-02 3.177416e-01 -1.329721e-01 -7.150451e-01 -7.736968e-01 2.211609e-01 -3.129021e-03 -2.389357e-01 -2.828393e-01 6.758736e-02 3.404389e-02 -7.489869e-02 1.735844e-01 1.778773e-01 -4.718702e-02 -7.383561e-02 1.319038e-02 -1.339963e-02 -1.509695e-01 -1.903869e-01 1.292343e-01 -1.345395e-01
<VARIANCE> 39
 1.030733e+01 2.132297e+01 3.938955e+01 2.799537e+01 2.287307e+01 6.018617e+01 4.127306e+01 5.566407e+01 3.751345e+01 2.890940e+01 4.943742e+01 2.549388e+01 1.706862e+01 1.714356e-01 3.322226e-01 8.312581e-01 5.574741e-01 7.077206e-01 8.285610e-01 9.925241e-01 1.346512e+00 1.343580e+00 1.231425e+00 1.103322e+00 9.440556e-01 1.901448e-01 3.762220e-02 6.010655e-02 1.180367e-01 9.965015e-02 1.502269e-01 1.610444e-01 1.933056e-01 2.332771e-01 2.007877e-01 1.866269e-01 2.148104e-01 1.549907e-01 4.373093e-02
<GCONST> 8.384191e+01
<STATE> 4
<NUMMIXES> 3
<MIXTURE> 1 2.031169e-01
<MEAN> 39
 -5.304815e+00 4.748536e-01 1.840473e+01 -2.413049e+00 -1.673670e+01 -2.146821e+00 -1.089878e+01 3.075367e-01 -1.619383e+01 1.174165e-01 7.564945e+00 -6.756743e+00 6.923363e+01 -2.562119e-01 2.235320e+00 -1.176618e+00 2.524609e+00 2.610211e+00 -5.680462e-01 2.216657e+00 -7.388943e-01 1.600988e+00 -4.824535e-01 -1.699906e+00 1.475672e+00 -2.952335e+00 -6.451202e-01 2.473923e-01 -9.986044e-01 1.353082e-01 7.500085e-01 9.660550e-02 4.505940e-01 8.916537e-02 1.149777e+00 -1.437834e-02 -1.532207e-01 4.490873e-01 -3.556479e-01
<VARIANCE> 39
 6.764861e+00 2.081281e+01 2.181500e+01 2.032859e+01 1.881287e+01 2.529861e+01 2.496850e+01 2.566393e+01 1.989039e+01 2.410324e+01 2.162824e+01 1.827601e+01 1.856948e+01 1.985585e+00 1.424655e+00 2.515666e+00 1.468515e+00 2.584065e+00 2.328431e+00 2.003436e+00 2.350841e+00 3.511524e+00 2.485274e+00 2.106197e+00 2.186754e+00 2.550890e+00 3.095597e-01 4.359393e-01 2.953349e-01 3.828254e-01 4.007178e-01 4.324521e-01 4.340671e-01 4.593851e-01 4.395883e-01 4.007224e-01 3.923244e-01 3.423438e-01 3.619536e-01
<GCONST> 1.084337e+02
<MIXTURE> 2 5.190979e-01
<MEAN> 39
 -4.114285e+00 -2.212095e+00 7.266469e+00 -6.727727e+00 -1.819005e+01 -1.135215e+01 -3.702393e+00 -7.162606e+00 -7.800480e+00 4.006012e-01 -3.183256e+00 -7.040932e-01 6.897103e+01 2.559549e-01 7.876092e-01 -7.801496e-01 1.627694e+00 1.476141e+00 2.126979e-02 -7.599123e-01 4.248134e-01 2.414099e-01 -1.020081e+00 -8.150595e-02 -1.594501e-02 -1.246746e+00 -1.728484e-01 2.729636e-01 -3.339441e-01 1.637709e-01 6.790574e-01 3.613666e-01 -8.728485e-02 2.346765e-01 2.870570e-01 -1.205667e-01 1.115887e-01 -1.849568e-01 -2.892790e-01
<VARIANCE> 39
 2.044856e+01 4.027725e+01 4.714393e+01 8.983983e+01 3.861650e+01 6.878374e+01 4.500174e+01 8.104150e+01 5.331960e+01 4.738888e+01 5.961543e+01 3.341050e+01 2.734884e+01 1.163827e+00 2.239416e+00 3.150210e+00 3.092707e+00 3.610948e+00 3.364674e+00 3.062339e+00 3.797138e+00 3.292626e+00 2.911108e+00 2.886536e+00 2.059263e+00 1.813225e+00 3.130697e-01 3.557166e-01 3.698144e-01 5.817616e-01 5.406622e-01 5.983936e-01 5.448228e-01 9.569523e-01 5.536929e-01 6.388698e-01 5.374467e-01 3.721062e-01 3.010382e-01
<GCONST> 1.250311e+02
<MIXTURE> 3 2.777858e-01
<MEAN> 39
 -3.937698e+00 -6.331460e-01 1.177055e+01 -2.331108e+00 -1.687737e+01 -7.356640e+00 -8.364495e+00 -2.953768e+00 -1.052277e+01 -3.334736e-01 3.448530e+00 -3.106134e+00 6.766979e+01 -6.629580e-02 1.749706e+00 -9.066154e-01 1.912151e+00 2.607448e+00 1.947873e-01 4.618599e-01 9.464964e-02 5.683736e-01 -8.656501e-01 -6.472148e-01 2.246371e-01 -2.474214e+00 -4.363503e-01 2.274758e-01 -4.933252e-01 -7.209361e-02 6.669506e-01 3.173009e-01 3.771654e-01 6.437649e-02 5.001977e-01 3.111716e-02 -1.717272e-01 7.389325e-02 -2.527318e-01
<VARIANCE> 39
 1.581744e+01 3.445839e+01 3.867622e+01 5.660173e+01 3.771150e+01 6.195591e+01 4.230797e+01 6.837572e+01 4.340280e+01 4.408695e+01 5.429069e+01 3.519369e+01 3.237112e+01 2.082793e+00 2.850462e+00 3.576855e+00 2.671820e+00 4.153388e+00 3.480732e+00 3.386106e+00 4.500492e+00 4.301658e+00 3.471915e+00 3.452298e+00 2.207124e+00 2.545963e+00 3.594035e-01 5.269967e-01 4.610346e-01 5.947939e-01 6.470531e-01 5.854096e-01 5.801661e-01 7.618412e-01 6.403419e-01 5.932375e-01 5.417644e-01 3.805296e-01 4.689735e-01
<GCONST> 1.270381e+02
<TRANSP> 5
 0.000000e+00 1.000000e+00 0.000000e+00 0.000000e+00 0.000000e+00
 0.000000e+00 6.608263e-01 3.391737e-01 0.000000e+00 0.000000e+00
 0.000000e+00 0.000000e+00 8.412272e-01 1.587728e-01 0.000000e+00
 0.000000e+00 0.000000e+00 0.000000e+00 6.600149e-01 3.399850e-01
 0.000000e+00 0.000000e+00 0.000000e+00 0.000000e+00 0.000000e+00
<ENDHMM>
~h "hh"
<BEGINHMM>
<NUMSTATES> 5
<STATE> 2
<NUMMIXES> 3
<MIXTURE> 1 1.181998e-01
<MEAN> 39
 -5.838027e+00 5.171568e-01 1.510098e+00 -3.557035e-01 -7.721017e+00 -1.595040e+00 -4.652928e+00 1.572457e+00 -1.489194e+00 -2.664161e+00 -8.340490e-01 -1.944115e+00 6.397954e+01 -1.230427e+00 7.993014e-01 2.079553e-01 1.480110e+00 1.384464e+00 1.189512e+00 1.509807e+00 -7.196386e-02 5.090377e-01 1.376946e-01 -3.782204e-02 4.074825e-01 -1.396243e+00 -3.046944e-01 -1.257800e-01 -1.359259e-01 -1.788245e-01 4.296715e-01 8.298531e-02 1.878561e-01 -3.706492e-02 -1.031594e-01 7.342255e-02 1.843921e-02 -2.513459e-02 -5.082840e-02
<VARIANCE> 39
 4.074271e+01 4.551891e+01 5.376625e+01 4.361059e+01 6.318035e+01 1.028696e+02 6.681234e+01 7.393220e+01 4.713619e+01 4.669324e+01 3.121039e+01 3.578566e+01 5.221524e+01 4.132410e+00 4.781586e+00 4.018726e+00 3.862496e+00 5.715596e+00 5.391399e+00 4.594967e+00 5.473709e+00 4.953633e+00 3.612524e+00 3.056238e+00 2.890339e+00 3.386325e+00 4.549787e-01 6.944051e-01 4.760628e-01 6.241185e-01 9.140158e-01 7.999575e-01 8.298272e-01 9.409080e-01 7.262378e-01 7.495071e-01 4.990825e-01 5.435098e-01 4.629905e-01
<GCONST> 1.359697e+02
<MIXTURE> 2 4.598874e-01
<MEAN> 39
 -9.165557e+00 -2.603570e+00 -4.764695e-01 -2.096430e+00 -1.941852e+00 8.949590e-01 -1.068357e+00 1.088391e+00 -3.481338e+00 -3.474302e+00 -2.598248e+00 -2.014269e+00 6.454601e+01 -3.523282e-01 -9.126934e-01 -2.227681e-01 -7.554496e-02 2.907394e-01 5.292336e-01 3.711914e-01 3.776727e-02 7.813198e-02 -1.902201e-01 -1.874089e-01 -1.531655e-01 2.698309e-01 3.646696e-01 2.154582e-01 -7.627127e-02 -1.422761e-01 -3.167128e-01 -3.054450e-01 -3.248005e-01 -2.637198e-01 1.307179e-02 2.119237e-02 1.003594e-02 -1.552462e-02 4.026181e-02
<VARIANCE> 39
 6.641591e+01 4.993497e+01 6.344037e+01 5.877376e+01 6.967110e+01 9.037197e+01 6.976398e+01 7.295938e+01 5.993224e+01 4.423620e+01 4.557204e+01 3.305679e+01 3.784003e+01 3.232883e+00 2.765983e+00 2.987719e+00 3.082794e+00 4.431245e+00 4.498130e+00 4.229831e+00 4.124500e+00 3.558771e+00 3.312161e+00 2.945406e+00 2.448982e+00 1.464992e+00 4.811939e-01 5.150053e-01 5.179538e-01 6.608924e-01 7.697696e-01 7.088397e-01 7.913201e-01 8.267738e-01 7.778291e-01 6.607593e-01 6.213415e-01 4.980221e-01 2.656350e-01
<GCONST> 1.325500e+02
<MIXTURE> 3 4.219119e-01
<MEAN> 39
 -9.143169e+00 -7.359940e-02 -1.071073e-01 -9.023046e-01 -2.969187e+00 8.459363e-01 -1.699619e+00 1.781600e+00 -1.610755e+00 -2.129182e+00 -1.029901e+00 -1.457440e+00 6.213296e+01 -6.289244e-01 -7.224056e-01 -1.035072e-01 1.920550e-01 4.295376e-01 6.164750e-01 5.827721e-01 2.632819e-01 1.747089e-01 -1.207855e-02 1.299751e-02 8.907089e-02 -5.046310e-02 1.910329e-01 -7.199713e-02 -7.979088e-02 -1.651083e-01 -1.661577e-01 -2.023401e-01 -1.989904e-01 -1.619693e-01 -9.983982e-02 -2.480118e-02 1.678217e-02 -4.057111e-02 1.974513e-01
<VARIANCE> 39
 6.724966e+01 5.305017e+01 5.628239e+01 4.849418e+01 5.620818e+01 8.281742e+01 5.556039e+01 6.142399e+01 4.550845e+01 3.358449e+01 3.004406e+01 3.035299e+01 5.404291e+01 3.876153e+00 3.483325e+00 3.415946e+00 3.464982e+00 4.612113e+00 4.421282e+00 4.059044e+00 4.128659e+00 3.822045e+00 2.986752e+00 2.690786e+00 2.398077e+00 2.486827e+00 4.877990e-01 6.739369e-01 4.977050e-01 6.228742e-01 7.475622e-01 6.953575e-01 7.280270e-01 7.955581e-01 7.131288e-01 5.752988e-01 5.000426e-01 4.748435e-01 4.803540e-01
<GCONST> 1.320594e+02
<STATE> 3
<NUMMIXES> 3
<MIXTURE> 1 1.615331e-01
<MEAN> 39
 -1.290053e+01 -9.024221e-01 -1.349359e+00 7.663417e-01 2.041346e-01 1.896366e+00 3.753045e-01 1.795207e+00 2.125131e-01 -9.507809e-01 -8.821218e-02 2.160584e-01 5.459054e+01 6.383056e-01 4.458278e-01 1.251527e-01 3.115905e-01 -6.575793e-03 2.300137e-01 2.295773e-01 -3.424812e-01 -1.281276e-01 6.056169e-02 5.206648e-02 -1.044462e-01 -3.495256e-01 1.221829e-01 -3.614897e-02 4.186920e-02 -2.040536e-01 -2.380128e-01 -2.048568e-01 -1.882713e-01 -4.169002e-02 -9.964450e-02 -1.041111e-01 3.784221e-03 -6.355177e-02 4.402006e-01
<VARIANCE> 39
 1.904529e+01 3.722773e+01 2.471553e+01 1.895456e+01 2.365349e+01 3.208348e+01 2.937087e+01 2.521505e+01 2.226976e+01 1.925756e+01 1.673405e+01 1.779727e+01 3.857893e+01 3.563993e+00 4.152562e+00 2.436559e+00 2.283143e+00 2.672144e+00 2.961794e+00 3.135710e+00 3.294712e+00 2.630274e+00 2.321947e+00 2.394667e+00 2.092334e+00 2.464867e+00 4.364659e-01 7.321514e-01 4.209632e-01 4.079492e-01 4.365371e-01 4.937046e-01 6.115791e-01 5.273072e-01 5.347611e-01 4.343196e-01 4.162121e-01 3.929538e-01 2.888569e-01
<GCONST> 1.160966e+02
<MIXTURE> 2 3.031903e-01
<MEAN> 39
 -1.345648e+01 -5.220651e+00 -1.008992e-01 -1.937343e+00 -2.286034e+00 1.754524e+00 9.140779e-01 2.379429e+00 -1.803639e+00 -2.873643e+00 -6.287276e-01 -7.034473e-01 6.267982e+01 1.231152e-01 -2.173763e-01 -1.877085e-01 -2.410479e-01 -2.242996e-01 -1.148744e-01 -2.145702e-01 -3.202643e-01 -9.415653e-02 -2.870631e-01 -2.949429e-01 -1.942472e-01 2.828907e-01 3.361973e-01 2.863258e-01 -4.294205e-02 -4.576799e-02 -1.413576e-01 -1.740860e-01 -2.541137e-01 -1.834125e-01 -2.592269e-02 -3.428036e-02 -5.326753e-02 -7.663018e-02 1.001336e-02
<VARIANCE> 39
 5.036143e+01 5.291811e+01 3.860765e+01 3.377675e+01 4.688882e+01 6.166693e+01 5.163565e+01 4.458461e+01 4.103431e+01 3.159966e+01 3.298235e+01 2.609836e+01 3.772649e+01 7.694384e-01 1.353992e+00 1.222729e+00 1.430590e+00 1.842189e+00 2.149234e+00 2.072242e+00 2.293202e+00 2.174418e+00 2.131998e+00 2.017550e+00 1.619530e+00 8.799209e-01 2.117143e-01 2.781673e-01 2.603699e-01 3.619625e-01 4.629441e-01 4.571866e-01 5.130020e-01 4.567021e-01 4.928643e-01 4.488800e-01 4.254529e-01 3.729198e-01 1.161097e-01
<GCONST> 1.124293e+02
<MIXTURE> 3 5.352774e-01
<MEAN> 39
 -1.545025e+01 -5.749250e+00 -3.954980e-01 -8.840182e-01 -1.333861e+00 -1.113427e+00 2.669051e-01 3.684707e+00 3.339630e-01 -2.201859e+00 1.190803e+00 4.490848e-01 5.737783e+01 5.377139e-02 4.577201e-02 1.547510e-03 3.801611e-02 5.182673e-02 1.449210e-01 4.348569e-02 -4.037946e-02 5.033704e-02 7.437922e-02 -9.917699e-03 -1.403310e-02 -1.312878e-01 4.380611e-02 5.060737e-02 -1.303063e-02 1.812249e-02 2.340023e-02 3.712169e-02 1.078857e-02 -1.279178e-02 -1.271890e-02 6.571981e-03 -1.741423e-02 -1.460501e-03 -3.960812e-02
<VARIANCE> 39
 1.652767e+01 3.467080e+01 1.428774e+01 1.590411e+01 1.848794e+01 2.126826e+01 2.186531e+01 1.897215e+01 2.025711e+01 1.883066e+01 1.724123e+01 1.481318e+01 4.513714e+01 2.398966e-01 6.168104e-01 5.045196e-01 7.103814e-01 9.162627e-01 1.156593e+00 1.249812e+00 1.310964e+00 1.394938e+00 1.418685e+00 1.320673e+00 1.252753e+00 3.625338e-01 3.692363e-02 9.226508e-02 9.629668e-02 1.341552e-01 1.746972e-01 2.190161e-01 2.392629e-01 2.509619e-01 2.690108e-01 2.832040e-01 2.614365e-01 2.494818e-01 3.793238e-02
<GCONST> 8.385571e+01
<STATE> 4
<NUMMIXES> 3
<MIXTURE> 1 1.416028e-01
<MEAN> 39
 -9.578629e+00 -5.137610e-01 -1.992602e+00 -1.862820e+00 -3.643000e+00 1.182973e+00 -3.760875e+00 2.594148e-01 -7.688237e-01 -8.330753e-01 4.586176e-01 -1.009659e+00 6.189711e+01 -9.548819e-02 6.274882e-01 4.241487e-02 4.758236e-01 3.733367e-01 2.254004e-01 4.924390e-01 -1.431922e-01 -3.977594e-02 4.830004e-02 3.999582e-01 1.429916e-01 -2.828452e-01 -1.312117e-02 -5.683861e-02 2.034457e-01 -6.072105e-02 -9.428227e-02 -1.617762e-01 4.959078e-02 -1.359367e-02 -1.326954e-01 -1.414972e-01 -1.704707e-01 -4.153873e-02 1.464839e-01
<VARIANCE> 39
 7.118009e+01 5.657914e+01 5.461670e+01 4.330688e+01 6.118489e+01 7.921310e+01 6.096901e+01 5.005415e+01 3.853751e+01 2.994937e+01 2.905070e+01 2.723831e+01 6.615313e+01 5.571606e+00 6.129448e+00 3.690917e+00 4.170638e+00 4.633215e+00 3.862086e+00 4.996956e+00 4.407566e+00 3.992662e+00 3.246739e+00 2.946916e+00 3.103287e+00 6.234778e+00 8.388954e-01 1.128219e+00 6.662610e-01 7.752495e-01 8.080131e-01 8.741418e-01 1.025815e+00 8.570918e-01 7.953371e-01 6.443787e-01 5.970742e-01 5.701970e-01 1.063425e+00
<GCONST> 1.381433e+02
<MIXTURE> 2 4.179124e-01
<MEAN> 39
 -9.697800e+00 -2.775415e+00 2.462602e-01 -2.329336e+00 -1.257843e+00 -5.937719e-01 -5.912735e-01 -3.248382e+00 -4.867535e+00 -5.269660e+00 -5.455913e+00 -1.989487e+00 6.453444e+01 2.705705e+00 7.361027e-01 -2.700836e-01 -1.344110e+00 -1.827091e+00 -1.464100e+00 -1.867418e+00 -1.551417e+00 -1.006005e+00 -8.763793e-01 -1.038710e+00 -6.671456e-01 1.294512e+00 3.452583e-01 -5.808941e-02 -3.550093e-01 -4.011978e-01 -4.182540e-01 -2.110672e-01 -2.855692e-01 1.780800e-01 7.912245e-02 1.711654e-01 1.463425e-01 -1.225675e-02 2.431698e-01
<VARIANCE> 39
 4.106897e+01 4.239935e+01 5.701363e+01 4.232285e+01 6.888890e+01 8.500544e+01 7.404424e+01 5.473767e+01 4.757567e+01 5.213548e+01 4.180373e+01 3.668000e+01 3.339322e+01 3.099126e+00 2.532946e+00 3.542978e+00 3.172978e+00 3.591399e+00 4.315913e+00 4.539392e+00 4.347973e+00 4.531632e+00 3.621885e+00 3.240761e+00 2.769753e+00 1.676473e+00 5.180842e-01 5.438756e-01 4.479707e-01 5.138972e-01 6.508281e-01 7.166845e-01 8.020575e-01 7.778144e-01 6.471657e-01 6.301456e-01 5.669183e-01 5.021664e-01 2.393559e-01
<GCONST> 1.307302e+02
<MIXTURE> 3 4.404846e-01
<MEAN> 39
 -8.691064e+00 1.442141e-01 -3.988495e-01 -1.118084e+00 -4.710257e+00 2.208172e+00 -1.453107e+00 5.705874e-01 -1.666263e+00 -1.888845e+00 -8.885687e-01 -2.139249e+00 6.175905e+01 1.224720e+00 -3.835978e-01 -2.742828e-01 -6.796021e-01 -1.062561e+00 -3.789652e-01 -7.685360e-01 -2.928148e-01 -9.126022e-03 -1.341228e-01 9.664148e-04 -3.598428e-01 1.488676e+00 2.048824e-01 -2.250335e-01 -5.002795e-04 -2.290002e-01 -1.653327e-01 -1.295197e-01 -2.528907e-01 -1.069262e-01 -8.638512e-02 -6.960623e-02 2.045846e-02 -1.201807e-02 3.674350e-01
<VARIANCE> 39
 6.111729e+01 4.861906e+01 5.833651e+01 4.954165e+01 6.321994e+01 6.610910e+01 4.776710e+01 4.715675e+01 3.687752e+01 3.008493e+01 2.848519e+01 2.584964e+01 6.563046e+01 3.771947e+00 3.807935e+00 3.524650e+00 3.229487e+00 4.040756e+00 3.678272e+00 3.686975e+00 3.842910e+00 3.362220e+00 2.890955e+00 2.551215e+00 2.494637e+00 3.304475e+00 6.377704e-01 7.462549e-01 5.419331e-01 6.567273e-01 8.388883e-01 6.643351e-01 6.933188e-01 7.273632e-01 6.723125e-01 5.431794e-01 5.180616e-01 4.714429e-01 6.496445e-01
<GCONST> 1.313719e+02
<TRANSP> 5
 0.000000e+00 1.000000e+00 0.000000e+00 0.000000e+00 0.000000e+00
 0.000000e+00 6.724890e-01 3.275110e-01 0.000000e+00 0.000000e+00
 0.000000e+00 0.000000e+00 8.464572e-01 1.535428e-01 0.000000e+00
 0.000000e+00 0.000000e+00 0.000000e+00 6.757506e-01 3.242494e-01
 0.000000e+00 0.000000e+00 0.000000e+00 0.000000e+00 0.000000e+00
<ENDHMM>
~h "ih"
<BEGINHMM>
<NUMSTATES> 5
<STATE> 2
<NUMMIXES> 3
<MIXTURE> 1 1.604439e-01
<MEAN> 39
 -2.655975e+00 -4.264484e+00 3.785810e+00 -3.952085e+00 -1.169318e+01 -3.344678e+00 -1.815986e+01 4.539024e+00 -4.094428e-01 -3.347677e+00 3.530677e+00 -4.054358e+00 7.277716e+01 3.369300e-01 -9.221700e-01 1.857070e+00 -6.820451e-02 -2.442075e+00 -6.232419e-01 -7.480804e-01 1.863683e+00 -3.544012e-01 -4.372213e-01 7.936857e-01 -2.184584e-01 1.461413e+00 -3.062877e-01 8.410350e-01 -5.587533e-02 2.169131e-01 6.703978e-01 3.687339e-01 1.329920e+00 -6.462970e-01 -7.450663e-01 7.667314e-02 -5.898133e-02 1.922196e-01 -9.912035e-01
<VARIANCE> 39
 1.422850e+01 2.063004e+01 4.028162e+01 3.076678e+01 3.557391e+01 4.079613e+01 5.842710e+01 6.540434e+01 5.795587e+01 4.929299e+01 3.567628e+01 3.085014e+01 1.333035e+01 3.476048e+00 2.106003e+00 3.384485e+00 4.513002e+00 3.605106e+00 4.708353e+00 8.589468e+00 4.576923e+00 6.442247e+00 3.991031e+00 5.341157e+00 3.930908e+00 2.955942e+00 5.915784e-01 3.412343e-01 4.992214e-01 5.811099e-01 6.714172e-01 5.365175e-01 8.363976e-01 9.915191e-01 1.193007e+00 9.613914e-01 7.597748e-01 6.359701e-01 3.338827e-01
<GCONST> 1.304234e+02
<MIXTURE> 2 4.414271e-01
<MEAN> 39
 -5.391125e+00 3.909880e-01 4.026522e+00 -6.005499e+00 -1.234671e+01 -1.315832e+01 -7.053421e+00 -4.187629e+00 -7.055387e+00 -3.583623e+00 -3.964667e+00 7.631615e-01 6.862417e+01 2.699571e+00 -1.333335e+00 1.002371e+00 -1.425874e+00 -2.507574e+00 -1.404440e+00 -1.100924e+00 -3.725818e-01 -7.771040e-01 6.573197e-02 -4.358313e-01 9.020446e-02 1.630751e+00 -5.467488e-01 7.647239e-02 -2.828428e-01 2.602695e-01 5.576890e-01 8.695755e-01 3.409831e-01 2.033477e-01 2.750091e-01 2.712902e-01 2.352081e-01 -2.153988e-01 -4.518383e-01
<VARIANCE> 39
 3.469652e+01 3.875130e+01 5.396026e+01 5.284970e+01 4.230732e+01 7.177954e+01 4.653507e+01 4.469604e+01 4.768915e+01 3.320750e+01 4.140955e+01 3.247816e+01 2.123481e+01 6.413078e+00 3.401865e+00 4.296060e+00 4.212444e+00 4.607755e+00 6.452869e+00 6.956197e+00 5.430060e+00 4.706912e+00 3.665152e+00 4.553676e+00 3.808215e+00 2.399487e+00 8.394384e-01 6.126352e-01 4.622977e-01 5.648657e-01 6.889116e-01 8.442906e-01 7.008558e-01 8.316381e-01 7.088490e-01 5.406424e-01 6.024641e-01 4.961245e-01 4.190887e-01
<GCONST> 1.335752e+02
<MIXTURE> 3 3.981297e-01
<MEAN> 39
 -3.440755e+00 -2.895161e+00 4.132029e+00 -1.904388e+00 -1.252704e+01 -7.608163e+00 -1.053482e+01 9.317710e-01 -3.398757e+00 -4.523313e+00 6.553475e-01 -8.814348e-01 6.974807e+01 8.656052e-01 -1.103873e+00 1.329526e+00 -6.676354e-01 -2.370886e+00 -2.687282e-01 -7.058604e-01 7.299548e-01 -3.670941e-01 -1.872136e-01 1.002198e+00 -2.311395e-01 1.703320e+00 -3.091422e-01 4.162408e-01 -1.191556e-01 3.224894e-03 5.396770e-01 4.994553e-01 4.678841e-01 -3.040180e-01 -1.979560e-01 2.801362e-01 3.842844e-02 -1.934866e-01 -5.216842e-01
<VARIANCE> 39
 2.643059e+01 3.628896e+01 6.020128e+01 5.030575e+01 4.433378e+01 7.113634e+01 5.820063e+01 5.895166e+01 5.797359e+01 3.558857e+01 4.468262e+01 3.067307e+01 2.826361e+01 4.733979e+00 2.769612e+00 4.194779e+00 3.522675e+00 4.943897e+00 4.169332e+00 8.622819e+00 5.024697e+00 5.937092e+00 3.516561e+00 3.583419e+00 3.499497e+00 3.146486e+00 5.750918e-01 4.688516e-01 4.687464e-01 4.999107e-01 6.788745e-01 6.934225e-01 7.274728e-01 8.336213e-01 8.580692e-01 5.462539e-01 5.718343e-01 4.870143e-01 3.908793e-01
<GCONST> 1.327370e+02
<STATE> 3
<NUMMIXES> 3
<MIXTURE> 1 1.433202e-01
<MEAN> 39
 -3.699060e+00 -3.786266e+00 8.152275e+00 -3.385754e+00 -1.483933e+01 -4.185654e+00 -1.708502e+01 5.095585e+00 -4.893423e+00 -3.712891e+00 6.126555e+00 -2.991388e+00 7.319215e+01 5.075855e-01 5.458359e-01 1.052925e+00 5.231309e-01 -2.045639e-01 3.026427e-01 3.600293e-01 7.929176e-03 -9.295455e-01 3.984548e-01 2.923293e-01 -4.706485e-01 -4.295276e-01 -6.179901e-01 1.003098e+00 -6.187419e-01 4.246458e-01 1.362924e+00 2.236297e-01 1.424877e+00 -7.504131e-01 1.055430e-01 2.406014e-01 -6.271467e-01 2.836125e-01 -1.326863e+00
<VARIANCE> 39
 1.134193e+01 2.013526e+01 3.833828e+01 2.368338e+01 3.354342e+01 3.640085e+01 4.583416e+01 5.546621e+01 5.857200e+01 3.082027e+01 3.200516e+01 2.438721e+01 1.466068e+01 2.004962e+00 2.613393e+00 3.801416e+00 3.773864e+00 3.492517e+00 3.201645e+00 6.049599e+00 3.813542e+00 5.711944e+00 3.350365e+00 3.733612e+00 3.545186e+00 3.786158e+00 6.429681e-01 3.814280e-01 4.987191e-01 4.843467e-01 5.941163e-01 6.571074e-01 7.510746e-01 9.824365e-01 1.090560e+00 5.858210e-01 7.279898e-01 4.981839e-01 3.374165e-01
<GCONST> 1.258303e+02
<MIXTURE> 2 4.224148e-01
<MEAN> 39
 -3.535591e+00 -4.772278e+00 4.370539e+00 -8.295215e+00 -1.519417e+01 -1.288088e+01 -4.937533e+00 -2.028935e+00 -6.837038e+00 -2.559771e+00 -4.065813e+00 2.050875e-01 7.140115e+01 5.091104e-02 1.558344e-02 2.508143e-01 -3.099643e-01 -3.445646e-01 3.670065e-01 4.950274e-01 -3.183318e-01 -3.513525e-01 3.340409e-01 -1.166882e-01 -3.373531e-01 -4.395603e-02 -2.088336e-01 6.366181e-01 -2.539364e-01 5.099608e-01 6.680988e-01 5.164719e-01 -1.639879e-01 -3.178208e-01 8.124124e-02 1.154034e-02 6.966586e-02 -2.206073e-01 -6.368137e-01
<VARIANCE> 39
 2.203224e+01 2.935746e+01 5.138791e+01 6.710507e+01 4.215531e+01 6.840969e+01 6.082448e+01 6.150971e+01 6.626908e+01 4.530580e+01 5.213507e+01 3.879411e+01 1.758326e+01 9.480454e-01 1.420628e+00 2.827645e+00 2.446356e+00 2.483212e+00 2.998025e+00 3.252757e+00 3.368702e+00 3.703661e+00 2.989836e+00 2.387259e+00 2.178064e+00 9.158333e-01 4.682768e-01 3.773021e-01 3.980123e-01 4.977088e-01 6.010618e-01 7.161722e-01 6.271016e-01 8.330682e-01 6.927980e-01 6.077561e-01 6.060466e-01 4.753504e-01 2.667271e-01
<GCONST> 1.232981e+02
<MIXTURE> 3 4.342654e-01
<MEAN> 39
 -4.456511e+00 -2.850516e+00 9.544393e+00 -4.856655e+00 -1.619372e+01 -3.400098e+00 -1.241912e+01 4.660014e+00 -6.261447e+00 -3.907568e+00 6.667788e+00 -3.546067e+00 7.387373e+01 1.509146e-01 -1.131912e-01 2.776965e-02 -8.990286e-02 -1.392581e-02 7.233957e-02 3.462337e-02 2.575780e-01 6.349809e-02 1.178851e-01 1.629586e-01 -2.099510e-01 8.455715e-02 -6.912236e-02 3.992033e-01 -2.476849e-01 3.512531e-01 7.327484e-01 4.381907e-02 3.586720e-01 -4.014595e-01 -2.527681e-02 8.408193e-02 -4.948602e-01 1.155801e-01 -6.449236e-01
<VARIANCE> 39
 1.173878e+01 2.309374e+01 4.208404e+01 2.319043e+01 2.645989e+01 5.088136e+01 4.862033e+01 5.296343e+01 4.630483e+01 3.049013e+01 3.213351e+01 2.917379e+01 1.805639e+01 5.401483e-01 9.479343e-01 2.041153e+00 1.429391e+00 1.997212e+00 1.957742e+00 2.163405e+00 2.113902e+00 2.990686e+00 1.776214e+00 2.094409e+00 1.697426e+00 9.813838e-01 2.884764e-01 2.305761e-01 3.122823e-01 2.481804e-01 3.954756e-01 3.824642e-01 5.251502e-01 5.698773e-01 5.293154e-01 3.563769e-01 3.714500e-01 3.209234e-01 2.255502e-01
<GCONST> 1.087689e+02
<STATE> 4
<NUMMIXES> 3
<MIXTURE> 1 1.874961e-01
<MEAN> 39
 -2.381808e+00 -2.796709e+00 6.263863e+00 -4.494459e-01 -1.200646e+01 -7.433546e+00 -1.516745e+01 2.936264e+00 -3.548487e+00 -3.767287e+00 2.910367e+00 -7.369096e-01 6.974499e+01 -1.185843e+00 3.165543e+00 -1.757427e-01 1.960832e+00 2.684014e+00 2.652133e-01 2.565352e+00 -1.100540e+00 2.805311e-01 1.731854e-01 -1.273461e+00 6.003264e-01 -2.997790e+00 -1.005573e+00 5.520032e-01 -2.703007e-01 -8.829627e-03 6.957901e-01 4.617962e-01 8.545941e-01 -2.491049e-01 1.286359e-01 1.677983e-01 -4.334213e-02 7.766186e-02 -5.450249e-01
<VARIANCE> 39
 1.414777e+01 2.790591e+01 3.650229e+01 3.127507e+01 3.685716e+01 4.079152e+01 4.084453e+01 4.866529e+01 5.743686e+01 3.294842e+01 3.839045e+01 2.668103e+01 2.015247e+01 2.508634e+00 1.612492e+00 2.975523e+00 2.083793e+00 2.605469e+00 3.169791e+00 3.401827e+00 4.074221e+00 3.997034e+00 2.582088e+00 2.762464e+00 2.479721e+00 3.174113e+00 4.152385e-01 4.872649e-01 5.115742e-01 4.672966e-01 5.802222e-01 5.458815e-01 6.057397e-01 6.058558e-01 8.811001e-01 5.113979e-01 5.987166e-01 4.689261e-01 3.562257e-01
<GCONST> 1.221820e+02
<MIXTURE> 2 4.666258e-01
<MEAN> 39
 -3.490785e+00 -1.772275e+00 5.953687e+00 -7.169109e+00 -1.444781e+01 -8.191598e+00 -5.679288e+00 -4.019668e+00 -7.508803e+00 -1.927081e+00 -3.451013e+00 -2.445855e+00 6.938475e+01 3.032065e-01 7.899290e-01 -4.814810e-01 4.105997e-01 6.896203e-01 7.336704e-01 -1.938639e-01 -7.409402e-01 -9.236591e-02 3.432855e-01 -2.357412e-01 -4.416460e-01 -8.871366e-01 -2.763619e-02 2.959681e-01 -2.415513e-01 3.877262e-01 4.728661e-01 1.795339e-01 -1.839210e-01 -1.212151e-01 8.776931e-02 -6.809221e-02 1.172540e-01 4.862171e-02 -3.799873e-01
<VARIANCE> 39
 2.636065e+01 3.695855e+01 8.979854e+01 8.064080e+01 5.050796e+01 1.096558e+02 6.985002e+01 8.199075e+01 7.936447e+01 5.156836e+01 6.817983e+01 4.617815e+01 2.158359e+01 8.711320e-01 2.071527e+00 2.845066e+00 3.321617e+00 2.914776e+00 4.146693e+00 3.269385e+00 4.884555e+00 4.013208e+00 3.709873e+00 2.862916e+00 2.528425e+00 1.660824e+00 2.647356e-01 3.152079e-01 5.070691e-01 5.419906e-01 6.589081e-01 7.295192e-01 6.885880e-01 8.889779e-01 8.920910e-01 6.099028e-01 7.079380e-01 4.807029e-01 2.473609e-01
<GCONST> 1.293670e+02
<MIXTURE> 3 3.458780e-01
<MEAN> 39
 -2.673943e+00 -2.044819e+00 5.708107e+00 -3.069975e+00 -1.355261e+01 -7.544416e+00 -9.977603e+00 1.575929e-01 -5.476937e+00 -2.829974e+00 8.907193e-01 -2.810494e+00 6.931359e+01 3.370915e-02 1.588314e+00 -2.305157e-02 1.017740e+00 1.496672e+00 8.010863e-01 6.114699e-01 -1.026720e+00 -4.501178e-01 3.556215e-01 -3.120859e-01 -3.062938e-01 -1.900130e+00 -3.335816e-01 3.803808e-01 -2.153465e-01 1.523983e-01 6.806233e-01 2.857057e-01 2.998107e-01 -2.506249e-01 4.030936e-02 2.795773e-02 -9.173550e-02 1.110359e-01 -4.729124e-01
<VARIANCE> 39
 1.886259e+01 3.394123e+01 7.160391e+01 5.471458e+01 4.582913e+01 9.842879e+01 6.463107e+01 7.660503e+01 8.250266e+01 4.977794e+01 6.130063e+01 4.551041e+01 2.717128e+01 1.662707e+00 2.352063e+00 3.291040e+00 3.445320e+00 3.268363e+00 3.730111e+00 4.406537e+00 4.513761e+00 5.571805e+00 3.591709e+00 3.364488e+00 2.855034e+00 2.656909e+00 4.515052e-01 4.073717e-01 6.343493e-01 5.087982e-01 7.669438e-01 8.101035e-01 7.111462e-01 9.696090e-01 1.136279e+00 7.075086e-01 7.554784e-01 6.229320e-01 3.625916e-01
<GCONST> 1.327508e+02
<TRANSP> 5
 0.000000e+00 1.000000e+00 0.000000e+00 0.000000e+00 0.000000e+00
 0.000000e+00 3.761285e-01 6.238714e-01 0.000000e+00 0.000000e+00
 0.000000e+00 0.000000e+00 5.914207e-01 4.085793e-01 0.000000e+00
 0.000000e+00 0.000000e+00 0.000000e+00 4.034143e-01 5.965858e-01
 0.000000e+00 0.000000e+00 0.000000e+00 0.000000e+00 0.000000e+00
<ENDHMM>
~h "iy"
<BEGINHMM>
<NUMSTATES> 5
<STATE> 2
<NUMMIXES> 3
<MIXTURE> 1 1.685946e-01
<MEAN> 39
 -4.039289e+00 -3.359604e+00 7.654716e+00 4.254123e-01 -1.525314e+01 -7.295107e+00 -1.412150e+01 2.264320e+00 -4.920312e+00 -7.686817e+00 4.298561e+00 -8.675764e-01 7.117113e+01 -8.225944e-01 -1.252636e-01 3.550569e+00 -2.617216e-01 -3.663581e+00 1.328741e-01 1.457746e+00 2.301927e-01 -2.704267e+00 -3.179889e-01 1.345854e+00 -5.443782e-02 9.429082e-01 -4.177337e-02 7.779908e-01 -1.097106e-01 -4.384919e-01 7.347327e-01 8.627807e-01 5.980395e-01 -1.161332e+00 -4.608043e-01 6.467770e-01 -1.950052e-01 -3.361254e-01 -7.154980e-01
<VARIANCE> 39
 1.697775e+01 2.346108e+01 5.054204e+01 5.181640e+01 3.464294e+01 6.539622e+01 6.136014e+01 6.447224e+01 5.640187e+01 3.785093e+01 5.104039e+01 2.881265e+01 1.720555e+01 1.554693e+00 1.715150e+00 3.078524e+00 3.068941e+00 4.350306e+00 3.423939e+00 6.392691e+00 4.368838e+00 5.568655e+00 3.091486e+00 2.403673e+00 3.315080e+00 2.456868e+00 2.879865e-01 2.859226e-01 4.806661e-01 6.571602e-01 5.866133e-01 7.126631e-01 8.407103e-01 9.218608e-01 1.018585e+00 5.302613e-01 6.044298e-01 4.736709e-01 2.297247e-01
<GCONST> 1.263119e+02
<MIXTURE> 2 4.234177e-01
<MEAN> 39
 -6.716981e+00 2.355565e+00 1.140044e+01 -7.246823e+00 -1.646756e+01 -1.056203e+01 -5.696571e+00 -1.022871e+01 -1.309056e+01 -9.144688e-02 -4.603880e+00 -2.041394e+00 6.737177e+01 1.367090e+00 1.710515e-01 2.193333e+00 -1.726450e+00 -2.283366e+00 6.628745e-01 -1.077263e+00 -2.252877e+00 -1.184601e+00 9.076329e-01 -1.101699e+00 -6.093605e-01 7.816886e-01 -4.852761e-01 3.263275e-02 -6.144949e-01 2.563157e-01 8.153882e-01 5.047646e-01 1.251535e-02 5.267787e-01 6.800354e-01 -8.154422e-02 6.274751e-02 4.889880e-02 -3.155624e-01
<VARIANCE> 39
 2.889347e+01 3.486422e+01 3.620705e+01 6.153075e+01 3.063391e+01 7.802474e+01 4.150022e+01 4.291316e+01 4.362440e+01 3.796576e+01 4.251862e+01 3.202704e+01 1.922099e+01 5.844982e+00 2.689342e+00 3.660292e+00 4.232145e+00 4.423373e+00 6.091434e+00 5.188175e+00 4.651587e+00 4.725567e+00 4.568301e+00 3.717295e+00 3.260535e+00 1.847155e+00 7.021909e-01 5.048608e-01 3.816806e-01 5.469901e-01 5.853269e-01 7.205815e-01 9.259725e-01 7.349958e-01 5.427535e-01 5.911778e-01 5.428151e-01 4.576711e-01 2.936663e-01
<GCONST> 1.296969e+02
<MIXTURE> 3 4.079876e-01
<MEAN> 39
 -5.057532e+00 -2.040126e+00 1.306545e+01 -5.442707e-01 -1.872846e+01 -7.011253e+00 -8.566794e+00 -2.349523e+00 -1.123509e+01 -4.995386e+00 5.030530e+00 -2.315701e+00 7.035268e+01 -4.792500e-01 4.407260e-01 2.739347e+00 -1.100590e+00 -2.241414e+00 1.524927e+00 3.871454e-01 -1.599719e+00 -1.607213e+00 7.917327e-01 5.651229e-01 -1.091457e+00 5.809610e-01 7.571131e-04 4.444540e-01 -6.816558e-01 -3.122518e-02 1.127838e+00 3.338779e-01 -1.254124e-01 -2.658594e-01 6.104428e-01 2.886131e-01 -5.949199e-01 -1.196645e-01 -6.210122e-01
<VARIANCE> 39
 1.683535e+01 2.528502e+01 4.217049e+01 5.785413e+01 2.640511e+01 9.139012e+01 5.459008e+01 6.696949e+01 4.093715e+01 4.038218e+01 4.315970e+01 3.516072e+01 1.981837e+01 1.556216e+00 1.694524e+00 2.233681e+00 2.969065e+00 3.049072e+00 2.902885e+00 4.929245e+00 3.451709e+00 4.445684e+00 3.490173e+00 2.354253e+00 2.745658e+00 1.982366e+00 3.357545e-01 2.702840e-01 3.981387e-01 4.463050e-01 4.758514e-01 6.563116e-01 8.189157e-01 8.120166e-01 5.983081e-01 4.538533e-01 3.981749e-01 4.654398e-01 2.478186e-01
<GCONST> 1.223303e+02
<STATE> 3
<NUMMIXES> 3
<MIXTURE> 1 1.747044e-01
<MEAN> 39
 -6.765726e+00 1.558666e+00 1.978539e+01 -4.052595e+00 -1.778800e+01 1.495391e+00 -1.265144e+01 -4.472828e+00 -1.366277e+01 -3.776180e+00 4.253321e+00 -8.511280e+00 6.948415e+01 2.318951e-01 6.592744e-01 -2.696789e-01 8.040256e-01 7.555254e-01 -5.857547e-01 9.796774e-01 -2.521284e-01 -1.158231e-01 6.330966e-01 -4.591286e-01 1.871759e-01 -9.672579e-01 -9.274425e-02 3.402712e-01 -1.074450e+00 4.979933e-01 1.007857e+00 -4.741068e-01 4.841422e-01 2.494819e-01 6.988018e-01 4.634321e-02 -2.484522e-01 5.940507e-01 -6.012329e-01
<VARIANCE> 39
 1.192026e+01 2.253889e+01 4.521983e+01 3.820025e+01 2.677789e+01 5.358214e+01 3.520547e+01 5.829824e+01 4.292462e+01 3.387039e+01 4.320091e+01 2.760628e+01 1.543267e+01 1.221831e+00 2.005697e+00 2.782013e+00 2.311134e+00 2.202774e+00 3.516777e+00 3.085955e+00 3.646079e+00 2.851609e+00 2.609447e+00 2.251325e+00 2.246608e+00 1.613541e+00 3.302366e-01 2.921352e-01 4.307234e-01 4.019769e-01 5.106435e-01 5.177155e-01 6.129629e-01 6.404982e-01 6.798717e-01 4.911604e-01 4.860018e-01 4.204195e-01 2.607824e-01
<GCONST> 1.176680e+02
<MIXTURE> 2 4.401532e-01
<MEAN> 39
 -6.256549e+00 3.175344e+00 1.321546e+01 -1.064852e+01 -1.762217e+01 -7.208242e+00 -6.968654e+00 -1.328885e+01 -1.178746e+01 2.772581e+00 -7.903693e+00 -1.296161e+00 6.731659e+01 -4.286728e-02 2.553228e-01 6.055161e-02 7.589169e-02 -7.609034e-02 3.672131e-01 -6.290139e-02 -2.849821e-01 1.066064e-01 1.471262e-01 -2.391691e-01 -2.341175e-02 -2.171836e-01 4.731835e-02 -9.511715e-02 -4.063811e-01 4.695987e-01 2.566153e-01 -2.858615e-01 1.154884e-01 4.432662e-01 1.160858e-01 -3.227037e-01 3.236879e-01 2.217084e-02 -9.838957e-02
<VARIANCE> 39
 2.434920e+01 2.853879e+01 3.430513e+01 8.453657e+01 3.277480e+01 6.077604e+01 4.354246e+01 3.739276e+01 3.938807e+01 4.238698e+01 5.514622e+01 2.851571e+01 1.859528e+01 4.144580e-01 1.095986e+00 1.347331e+00 1.772930e+00 1.323331e+00 2.146991e+00 1.822037e+00 2.100505e+00 1.620639e+00 1.562594e+00 1.923089e+00 1.239271e+00 4.493579e-01 1.417827e-01 1.829783e-01 2.804524e-01 3.766755e-01 4.025703e-01 3.545694e-01 3.982075e-01 4.200696e-01 3.660388e-01 3.812138e-01 3.407989e-01 2.515028e-01 1.095420e-01
<GCONST> 1.060828e+02
<MIXTURE> 3 3.851426e-01
<MEAN> 39
 -6.954566e+00 2.723129e+00 1.915607e+01 -5.258014e+00 -1.777443e+01 2.070046e+00 -1.133518e+01 -6.230044e+00 -1.116162e+01 -3.652338e+00 3.630027e+00 -7.193671e+00 6.963963e+01 2.997068e-02 1.550999e-01 1.009100e-01 4.359969e-02 9.149167e-02 5.617226e-02 2.180836e-01 -2.576393e-01 7.110279e-03 2.447024e-01 -1.890162e-01 -1.377738e-01 -2.474856e-01 8.497210e-02 -6.615312e-02 -4.325172e-01 2.768778e-01 2.829936e-01 -3.601693e-01 1.536384e-01 2.447282e-01 9.340741e-02 3.964752e-04 -3.695954e-02 2.256907e-01 -1.301990e-01
<VARIANCE> 39
 1.213723e+01 2.379901e+01 3.483219e+01 4.343669e+01 2.696061e+01 6.452749e+01 4.265988e+01 6.283418e+01 3.551859e+01 4.013071e+01 4.233576e+01 3.248625e+01 2.158955e+01 2.698611e-01 7.773830e-01 1.360187e+00 1.083445e+00 1.027789e+00 1.594725e+00 1.202593e+00 1.806702e+00 1.415268e+00 1.159466e+00 1.239324e+00 1.089195e+00 5.156502e-01 8.055516e-02 1.207677e-01 2.131649e-01 1.873349e-01 3.355287e-01 2.618987e-01 3.001247e-01 3.172829e-01 3.483028e-01 2.609593e-01 2.401632e-01 2.144836e-01 1.136161e-01
<GCONST> 9.763465e+01
<STATE> 4
<NUMMIXES> 3
<MIXTURE> 1 1.451559e-01
<MEAN> 39
 -6.579646e+00 5.781060e+00 1.839439e+01 7.003217e-01 -1.339572e+01 -1.758894e+00 -7.628842e+00 -5.639884e+00 -1.335212e+01 -1.198474e+00 2.884291e+00 -6.142519e+00 6.466936e+01 -7.652131e-01 1.984454e+00 -2.975088e+00 2.118341e+00 3.333909e+00 -1.445742e+00 2.617430e+00 2.876272e-01 2.245786e+00 5.395958e-01 -1.089677e+00 2.180942e+00 -2.527864e+00 -6.161613e-01 -1.881698e-01 -8.215331e-01 -1.075530e-01 6.221666e-01 3.631628e-01 2.826319e-02 5.147343e-01 6.288934e-01 -3.142811e-01 3.113532e-02 2.365869e-01 -1.287418e-01
<VARIANCE> 39
 1.258148e+01 2.528130e+01 2.426352e+01 2.744775e+01 2.677646e+01 3.498674e+01 3.156914e+01 3.945745e+01 2.977575e+01 2.754687e+01 2.603170e+01 2.200809e+01 2.207495e+01 2.792746e+00 2.094651e+00 2.295661e+00 1.869059e+00 2.322769e+00 3.504386e+00 2.550232e+00 3.876166e+00 3.284157e+00 3.035337e+00 2.755011e+00 2.709783e+00 2.699466e+00 2.511681e-01 5.464445e-01 3.990215e-01 3.812085e-01 5.313612e-01 5.662970e-01 4.896598e-01 5.783966e-01 5.621976e-01 4.355149e-01 4.372472e-01 4.114707e-01 2.607240e-01
<GCONST> 1.161806e+02
<MIXTURE> 2 4.949327e-01
<MEAN> 39
 -5.085291e+00 8.656989e-01 7.484524e+00 -3.584627e+00 -1.534474e+01 -9.625368e+00 -5.191071e+00 -7.162354e+00 -9.517503e+00 -5.587686e-01 -3.033015e+00 -1.037720e+00 6.613126e+01 3.984161e-01 2.847227e-02 -1.973983e+00 9.336149e-01 1.596305e+00 -2.912105e-01 -2.087086e-01 1.228831e+00 1.128194e+00 -7.825586e-01 3.451296e-01 4.278441e-02 -5.810897e-01 -9.241604e-02 1.908662e-01 -1.842144e-01 -7.657889e-02 4.717518e-01 3.896355e-01 -1.615054e-01 1.636729e-02 2.193012e-01 -8.075578e-02 -1.367850e-02 -1.262856e-01 -1.309506e-01
<VARIANCE> 39
 3.025536e+01 3.927467e+01 5.457082e+01 9.060312e+01 6.021144e+01 7.746950e+01 5.630027e+01 7.675031e+01 6.029136e+01 5.052482e+01 6.498151e+01 3.356595e+01 3.990316e+01 1.546298e+00 2.660372e+00 3.195359e+00 4.215431e+00 4.254187e+00 4.216711e+00 4.029560e+00 4.564161e+00 4.340919e+00 4.060891e+00 3.404377e+00 2.241949e+00 2.217353e+00 2.870041e-01 3.910193e-01 4.814038e-01 6.450509e-01 7.684264e-01 7.494299e-01 6.568281e-01 9.276405e-01 7.346835e-01 6.686121e-01 6.483385e-01 4.322471e-01 3.347116e-01
<GCONST> 1.315085e+02
<MIXTURE> 3 3.599108e-01
<MEAN> 39
 -5.280617e+00 4.009024e+00 1.119572e+01 7.356753e-01 -1.430703e+01 -7.628980e+00 -5.759723e+00 -7.705587e+00 -1.018369e+01 -1.621276e+00 -7.577851e-01 -2.053783e+00 6.328729e+01 -5.353712e-01 1.070844e+00 -2.091102e+00 1.313732e+00 2.952046e+00 1.196620e-02 7.417606e-01 1.300661e+00 1.198861e+00 -5.173919e-01 2.356248e-01 2.671169e-01 -1.720297e+00 -4.357450e-01 -6.249386e-02 -3.409022e-01 -2.679076e-01 5.040833e-01 4.285225e-01 7.305781e-02 2.605195e-01 2.993138e-01 -8.448098e-03 -3.733568e-02 1.857642e-02 -2.904618e-02
<VARIANCE> 39
 2.412860e+01 3.489343e+01 3.629303e+01 6.579891e+01 5.188609e+01 5.990087e+01 4.682604e+01 6.214625e+01 3.843783e+01 4.621087e+01 4.909155e+01 2.968439e+01 3.576389e+01 3.005461e+00 3.462053e+00 3.064763e+00 4.016659e+00 4.194565e+00 4.602218e+00 3.899568e+00 5.226763e+00 4.091995e+00 4.057428e+00 3.561021e+00 2.454637e+00 2.707170e+00 3.637434e-01 5.541275e-01 5.052710e-01 4.987887e-01 8.235684e-01 6.154921e-01 6.080410e-01 8.263197e-01 5.951440e-01 5.947084e-01 5.164984e-01 3.849012e-01 3.324828e-01
<GCONST> 1.292506e+02
<TRANSP> 5
 0.000000e+00 1.000000e+00 0.000000e+00 0.000000e+00 0.000000e+00
 0.000000e+00 6.022000e-01 3.977999e-01 0.000000e+00 0.000000e+00
 0.000000e+00 0.000000e+00 7.985599e-01 2.014401e-01 0.000000e+00
 0.000000e+00 0.000000e+00 0.000000e+00 6.302221e-01 3.697779e-01
 0.000000e+00 0.000000e+00 0.000000e+00 0.000000e+00 0.000000e+00
<ENDHMM>
~h "jh"
<BEGINHMM>
<NUMSTATES> 5
<STATE> 2
<NUMMIXES> 3
<MIXTURE> 1 1.478705e-01
<MEAN> 39
 -3.391361e+00 8.413873e+00 8.872533e+00 5.717571e+00 -3.308560e+00 -7.220441e+00 -7.062508e+00 1.913144e+00 -2.408886e+00 -6.481171e+00 -2.763343e+00 -4.863660e-01 5.871230e+01 -1.902943e+00 2.410586e+00 -1.226095e-01 1.044267e+00 2.571271e+00 1.682101e+00 2.311683e+00 -1.117548e+00 2.229045e-01 3.363569e-01 -1.137054e+00 -7.502773e-01 -3.091922e+00 -1.112811e+00 -1.259010e+00 -6.338520e-01 -1.104437e+00 -2.887010e-01 9.107076e-01 -3.316642e-01 3.924813e-01 6.845190e-02 4.864167e-01 5.872236e-01 -2.468484e-01 1.333809e+00
<VARIANCE> 39
 2.207480e+01 2.019466e+01 2.260111e+01 2.937859e+01 2.432174e+01 3.244684e+01 2.939791e+01 2.768530e+01 2.606377e+01 1.893686e+01 1.861482e+01 1.760098e+01 2.031186e+01 3.441856e+00 3.737288e+00 3.309759e+00 3.464773e+00 2.591929e+00 3.880611e+00 3.393525e+00 3.631817e+00 3.438405e+00 2.574154e+00 2.801929e+00 2.451226e+00 3.452980e+00 5.708919e-01 4.988271e-01 3.539749e-01 4.003219e-01 4.403818e-01 6.065477e-01 6.580097e-01 5.120468e-01 5.450883e-01 4.320135e-01 4.729455e-01 4.107178e-01 5.270367e-01
<GCONST> 1.184702e+02
<MIXTURE> 2 4.533617e-01
<MEAN> 39
 -8.691344e+00 5.336824e+00 6.294856e+00 2.136864e+00 -2.942599e+00 -4.428331e-01 -3.701183e+00 -2.860583e+00 -3.270321e+00 -4.224160e+00 -3.296858e+00 -3.677130e+00 5.627633e+01 -3.736424e+00 -1.651150e+00 -1.036877e-01 -9.485532e-01 4.293787e-01 2.190891e+00 2.208605e-01 2.356359e-01 8.880290e-01 2.325964e-01 9.768724e-01 1.789725e-01 1.512213e+00 -7.556264e-01 -4.756187e-01 1.383097e-01 -4.706123e-01 -7.676795e-01 -3.836846e-01 -2.744109e-01 8.871228e-02 -3.809937e-02 2.255242e-02 3.904378e-01 3.866713e-01 1.261745e+00
<VARIANCE> 39
 2.914174e+01 3.926608e+01 2.838451e+01 2.621857e+01 4.311659e+01 3.479077e+01 3.068860e+01 3.343114e+01 2.665515e+01 2.403692e+01 2.288490e+01 1.762674e+01 3.349591e+01 5.862432e+00 5.689077e+00 3.532104e+00 3.671183e+00 4.730277e+00 3.913031e+00 3.768665e+00 3.329835e+00 3.713103e+00 2.733418e+00 2.850296e+00 2.477428e+00 4.799692e+00 7.101871e-01 9.171555e-01 5.360129e-01 5.002997e-01 7.889027e-01 7.599443e-01 6.850794e-01 5.798005e-01 5.808549e-01 5.297511e-01 4.467376e-01 4.126578e-01 5.761268e-01
<GCONST> 1.263100e+02
<MIXTURE> 3 3.987680e-01
<MEAN> 39
 -5.316241e+00 8.475283e+00 7.655936e+00 3.750997e+00 -3.894798e+00 -4.259855e+00 -5.246466e+00 -1.833054e+00 -3.421908e+00 -5.315786e+00 -4.024349e+00 -3.215580e+00 5.654766e+01 -2.781158e+00 2.190645e-01 -2.918495e-01 7.596654e-02 1.841525e+00 2.461463e+00 9.620335e-01 1.139119e-04 5.194474e-01 3.806819e-01 1.430347e-01 -5.407059e-01 -8.586622e-01 -1.041533e+00 -1.180690e+00 -2.464654e-01 -8.536251e-01 -5.474709e-01 2.269631e-01 -3.163108e-01 2.484950e-01 2.123737e-02 2.457027e-01 5.981379e-01 3.127334e-01 1.497009e+00
<VARIANCE> 39
 2.416180e+01 2.271040e+01 2.322334e+01 2.837995e+01 4.039708e+01 3.463078e+01 2.699264e+01 3.108583e+01 2.859727e+01 2.257196e+01 2.158170e+01 1.833419e+01 2.404622e+01 5.031383e+00 6.516040e+00 3.834521e+00 4.094831e+00 3.722061e+00 4.161933e+00 3.511729e+00 3.329175e+00 3.938624e+00 2.745200e+00 3.007999e+00 2.745031e+00 5.315518e+00 5.761334e-01 6.731660e-01 4.779756e-01 4.623205e-01 7.318355e-01 7.101701e-01 7.009013e-01 6.157479e-01 6.134251e-01 5.205812e-01 4.811761e-01 4.403901e-01 5.064628e-01
<GCONST> 1.243622e+02
<STATE> 3
<NUMMIXES> 3
<MIXTURE> 1 2.128937e-01
<MEAN> 39
 -2.086922e+01 3.974748e-01 3.383409e+00 -2.977144e+00 -1.078181e+00 4.234288e+00 -5.553267e+00 1.041143e+00 -1.819391e+00 -2.364496e+00 1.835238e+00 -1.290318e+00 6.422649e+01 -4.663633e+00 -9.309839e-01 -1.207264e-01 -1.432671e+00 -7.116908e-01 1.275741e+00 2.842235e-01 7.026938e-01 6.066548e-01 4.983160e-01 1.472695e+00 7.272127e-01 2.581659e+00 9.338351e-01 5.319313e-01 5.399969e-01 5.356918e-01 -7.548926e-01 -9.664864e-01 1.082929e-01 -1.288541e-01 -1.865546e-01 -2.974880e-01 -2.832402e-01 4.897438e-02 -2.140468e-01
<VARIANCE> 39
 3.444911e+01 6.121477e+01 2.967476e+01 2.087077e+01 3.493355e+01 3.023851e+01 3.243440e+01 3.408049e+01 2.582337e+01 2.002135e+01 1.794993e+01 1.511819e+01 2.333371e+01 5.815831e+00 3.146318e+00 2.840847e+00 2.681575e+00 2.939826e+00 3.162236e+00 2.791971e+00 2.379837e+00 2.802264e+00 2.226792e+00 1.851792e+00 1.792149e+00 3.576535e+00 9.357833e-01 9.494407e-01 5.293919e-01 4.383003e-01 7.680542e-01 8.023603e-01 6.798967e-01 5.318161e-01 5.112345e-01 4.559627e-01 3.993205e-01 3.719343e-01 4.651582e-01
<GCONST> 1.208882e+02
<MIXTURE> 2 4.193008e-01
<MEAN> 39
 -2.722709e+01 1.795655e+00 1.007444e+01 -8.904414e-01 -7.743137e+00 2.380239e+00 -2.035960e+00 -9.559063e-01 -5.610874e-01 -4.143165e+00 1.276914e+00 -1.068969e+00 6.758476e+01 1.755454e+00 2.164122e-01 9.476674e-01 5.365302e-01 -2.265447e+00 -2.680931e+00 -7.975067e-01 -5.339583e-01 -8.760844e-01 -5.722609e-01 1.578968e-01 3.204032e-01 9.047785e-01 2.572992e+00 -1.364134e-01 -3.443921e-01 5.820878e-03 -1.744272e-01 -9.418360e-01 -7.420903e-01 -1.618060e-01 -4.361101e-01 -8.852795e-02 -1.274378e-01 -4.833486e-02 -4.151831e-01
<VARIANCE> 39
 2.097404e+01 2.596990e+01 2.576657e+01 2.824612e+01 2.428213e+01 3.283991e+01 2.915627e+01 3.506213e+01 2.764877e+01 1.775003e+01 1.954792e+01 1.523376e+01 1.423764e+01 1.079417e+01 2.195023e+00 2.535245e+00 2.139321e+00 2.786105e+00 3.408665e+00 3.341193e+00 2.633816e+00 2.500777e+00 1.921067e+00 1.983652e+00 1.594806e+00 1.496088e+00 7.993301e-01 4.727225e-01 5.594302e-01 6.014954e-01 5.727042e-01 6.810904e-01 6.536992e-01 5.694526e-01 5.687563e-01 4.343843e-01 4.351196e-01 3.987955e-01 3.221009e-01
<GCONST> 1.168581e+02
<MIXTURE> 3 3.678055e-01
<MEAN> 39
 -2.360687e+01 1.035466e+00 5.641493e+00 -1.907447e+00 -4.155903e+00 3.909143e+00 -2.994892e+00 -4.917279e-03 -8.991763e-01 -3.360591e+00 1.287806e+00 -1.055124e+00 6.492701e+01 -2.535785e+00 -5.119521e-01 5.001777e-01 -3.141766e-01 -1.218215e+00 -1.170116e-01 3.410144e-01 1.746103e-01 3.702266e-01 -7.045255e-02 5.933450e-01 4.530386e-01 1.597358e+00 1.475622e+00 3.191828e-01 1.530164e-01 3.750402e-01 -3.619042e-01 -9.670278e-01 -2.924890e-01 -1.233976e-01 -2.955928e-01 -1.033476e-01 -1.975372e-01 -2.275384e-02 -3.572934e-01
<VARIANCE> 39
 4.868430e+01 4.687278e+01 3.413591e+01 2.541092e+01 3.384328e+01 3.395413e+01 3.161588e+01 4.140735e+01 2.911989e+01 2.112740e+01 2.133343e+01 1.714037e+01 2.823466e+01 8.144962e+00 2.700413e+00 2.871872e+00 2.631454e+00 3.122939e+00 3.083276e+00 2.998745e+00 2.577424e+00 2.455377e+00 1.954969e+00 1.928223e+00 1.633535e+00 4.223606e+00 1.365758e+00 7.029753e-01 5.130078e-01 5.367910e-01 7.328621e-01 9.042764e-01 7.236339e-01 5.392546e-01 5.429699e-01 4.618955e-01 4.406439e-01 3.959779e-01 5.120916e-01
<GCONST> 1.231623e+02
<STATE> 4
<NUMMIXES> 3
<MIXTURE> 1 1.828398e-01
<MEAN> 39
 -1.486535e+01 -1.939065e+00 5.194481e+00 6.453092e-02 -9.019053e+00 -2.874457e+00 -7.477438e+00 3.789500e+00 -1.311388e+00 -3.066344e+00 3.818919e+00 -7.777211e-02 6.582666e+01 2.456120e+00 -2.339882e-01 -6.599023e-01 -5.577236e-03 6.674401e-01 -4.664214e-01 -6.992673e-01 5.095313e-01 4.673052e-01 4.902279e-01 -9.062350e-03 -3.838267e-01 -8.804882e-01 -7.832915e-03 4.301226e-01 -1.535727e-01 -1.325395e-01 5.774796e-01 5.065135e-01 3.494802e-01 -2.718407e-01 1.894251e-02 1.378899e-01 -3.214474e-01 -1.889379e-01 -3.828129e-01
<VARIANCE> 39
 1.050975e+02 4.079824e+01 5.147372e+01 3.449562e+01 4.821481e+01 4.860461e+01 6.307174e+01 4.077354e+01 4.638930e+01 2.753154e+01 3.697068e+01 2.732769e+01 5.170053e+01 5.100614e+00 3.490382e+00 3.138989e+00 3.504147e+00 3.717846e+00 3.297652e+00 4.625324e+00 4.657116e+00 3.854982e+00 2.594428e+00 2.403896e+00 1.969644e+00 6.433549e+00 1.370099e+00 6.143933e-01 4.988132e-01 5.019686e-01 6.246314e-01 7.510239e-01 9.037288e-01 8.036526e-01 7.793090e-01 5.088671e-01 7.061242e-01 4.834755e-01 6.402064e-01
<GCONST> 1.326436e+02
<MIXTURE> 2 4.543983e-01
<MEAN> 39
 -1.379548e+01 3.436286e+00 1.128351e+01 -1.723443e+00 -1.552166e+01 -8.820422e+00 -7.484194e+00 -6.537457e+00 -5.770751e+00 -6.176952e+00 6.892850e-01 -7.039269e-01 6.961982e+01 5.906413e+00 -1.208917e+00 -6.164115e-01 -8.124374e-01 -2.168900e+00 -3.624364e+00 -1.622270e+00 -3.566573e-01 -1.478720e+00 -1.511327e-01 6.203169e-02 5.480008e-01 6.028255e-01 8.548434e-02 -6.099688e-01 -5.933270e-01 -3.631556e-01 8.662169e-01 6.395746e-01 1.802462e-01 6.215140e-01 4.035207e-01 3.137159e-01 -1.527884e-01 -7.942993e-02 -1.768769e-01
<VARIANCE> 39
 4.497469e+01 1.858978e+01 1.822157e+01 3.831834e+01 2.594552e+01 3.360976e+01 2.598189e+01 3.026442e+01 2.706646e+01 1.723710e+01 1.751090e+01 1.565424e+01 1.265426e+01 3.301678e+00 2.213460e+00 3.787238e+00 3.417509e+00 3.069191e+00 3.319366e+00 3.714947e+00 3.741819e+00 3.270983e+00 2.682286e+00 3.084526e+00 2.412534e+00 1.008852e+00 1.508426e+00 3.161891e-01 3.727507e-01 3.521780e-01 4.332413e-01 5.777989e-01 5.516126e-01 5.098537e-01 4.449128e-01 4.120234e-01 3.526696e-01 3.447316e-01 1.793117e-01
<GCONST> 1.154331e+02
<MIXTURE> 3 3.627616e-01
<MEAN> 39
 -7.422901e+00 -9.712744e-01 9.346072e+00 4.342540e-01 -1.470179e+01 -8.235272e+00 -1.007241e+01 -1.552100e+00 -5.230413e+00 -5.558131e+00 4.156050e+00 6.284181e-01 7.001121e+01 4.329462e+00 -1.963315e+00 -5.249229e-01 -7.309955e-01 -8.443662e-01 -1.688305e+00 -2.242937e+00 9.811054e-01 1.806568e-01 4.230220e-02 5.211841e-01 -1.288403e-01 1.374219e+00 -8.947008e-01 -3.335747e-02 -3.946929e-01 -3.705137e-01 9.267139e-01 9.871172e-01 3.523362e-01 4.448617e-01 5.699692e-01 3.024935e-01 -3.996776e-01 -3.793182e-01 -1.608123e-01
<VARIANCE> 39
 4.058275e+01 3.128672e+01 3.107072e+01 3.638862e+01 2.778065e+01 4.189757e+01 3.192368e+01 4.014401e+01 4.376515e+01 1.840767e+01 2.815229e+01 1.900797e+01 1.939281e+01 4.598754e+00 2.135364e+00 4.242915e+00 2.839830e+00 3.783261e+00 3.217962e+00 5.544098e+00 4.173615e+00 4.409763e+00 3.447173e+00 2.858533e+00 2.530152e+00 1.544882e+00 1.135944e+00 3.459626e-01 3.898127e-01 4.005931e-01 4.426994e-01 5.465332e-01 7.218374e-01 5.480774e-01 5.228172e-01 4.068509e-01 4.958269e-01 3.652402e-01 1.923874e-01
<GCONST> 1.215158e+02
<TRANSP> 5
 0.000000e+00 1.000000e+00 0.000000e+00 0.000000e+00 0.000000e+00
 0.000000e+00 6.727380e-01 3.272620e-01 0.000000e+00 0.000000e+00
 0.000000e+00 0.000000e+00 7.707395e-01 2.292605e-01 0.000000e+00
 0.000000e+00 0.000000e+00 0.000000e+00 5.778454e-01 4.221547e-01
 0.000000e+00 0.000000e+00 0.000000e+00 0.000000e+00 0.000000e+00
<ENDHMM>
~h "ng"
<BEGINHMM>
<NUMSTATES> 5
<STATE> 2
<NUMMIXES> 3
<MIXTURE> 1 1.957157e-01
<MEAN> 39
 -7.784598e-01 2.844345e+00 1.129826e+01 -7.460192e+00 -8.875576e+00 6.167098e+00 -3.189652e+00 -1.770242e-01 -1.771380e+01 3.532382e+00 3.482022e+00 -1.007484e+01 6.722736e+01 1.458992e+00 9.988046e-01 -1.746980e+00 1.591916e+00 2.653154e+00 -2.221452e+00 2.085161e+00 -1.866694e+00 -1.737468e+00 9.591972e-01 -1.386034e+00 9.885238e-01 -1.686203e+00 -2.424273e-01 -2.720825e-03 -1.813304e-01 3.911202e-01 -3.573592e-01 -4.825256e-01 3.953766e-02 4.751727e-02 7.918776e-01 -4.937567e-01 -1.289594e-01 4.821178e-01 1.996098e-01
<VARIANCE> 39
 6.205644e+00 1.146294e+01 1.679540e+01 1.413500e+01 2.460613e+01 3.087718e+01 2.099201e+01 2.237493e+01 2.679020e+01 2.228947e+01 1.583229e+01 1.687248e+01 9.091808e+00 3.933583e-01 8.934041e-01 1.226277e+00 1.076736e+00 2.373406e+00 1.716654e+00 1.371350e+00 3.163226e+00 2.209476e+00 1.592577e+00 1.772854e+00 1.920620e+00 4.567941e-01 8.856215e-02 9.812502e-02 2.446971e-01 1.957589e-01 4.717220e-01 5.168741e-01 3.654666e-01 3.762212e-01 5.421698e-01 3.344072e-01 2.312471e-01 2.820374e-01 6.588094e-02
<GCONST> 9.385086e+01
<MIXTURE> 2 4.370195e-01
<MEAN> 39
 -3.041013e+00 -6.113552e-01 4.947023e+00 -9.831002e+00 -1.528314e+01 -3.846838e+00 -1.774195e-01 -9.617407e+00 -1.293086e+01 2.045634e+00 -6.882295e+00 -4.375894e+00 6.752339e+01 7.624511e-01 1.761451e+00 -9.101632e-01 1.341956e+00 7.796113e-01 1.039284e+00 -3.986261e-01 -2.427280e+00 -7.755488e-03 8.512084e-01 -8.548930e-01 4.814744e-01 -1.699681e+00 1.969118e-01 -8.806463e-02 -5.037916e-01 6.114326e-01 4.315627e-01 -3.426455e-01 -4.908689e-01 3.195191e-01 6.274694e-01 -7.007322e-01 2.238915e-01 2.868213e-01 -1.673395e-01
<VARIANCE> 39
 2.317854e+01 2.795261e+01 4.369778e+01 1.077094e+02 4.335096e+01 4.975518e+01 6.048502e+01 5.975346e+01 4.865287e+01 4.401747e+01 7.923295e+01 3.501847e+01 1.791049e+01 8.812829e-01 1.372389e+00 3.321169e+00 3.506683e+00 3.404278e+00 3.953250e+00 3.972450e+00 4.185324e+00 4.427583e+00 3.956823e+00 3.226571e+00 2.261514e+00 8.753680e-01 1.748271e-01 2.329629e-01 3.916089e-01 8.039386e-01 5.879995e-01 6.500754e-01 6.494529e-01 6.712009e-01 7.023771e-01 6.404182e-01 7.812380e-01 4.248135e-01 1.364918e-01
<GCONST> 1.236911e+02
<MIXTURE> 3 3.672653e-01
<MEAN> 39
 -3.127387e+00 7.914264e-01 1.195311e+01 -7.728050e+00 -1.505674e+01 6.034575e+00 -4.684991e+00 5.550665e-01 -1.258452e+01 5.086184e-03 4.719798e+00 -9.691091e+00 6.927035e+01 8.703388e-01 1.158216e+00 -4.026541e-01 5.257298e-01 1.467072e+00 6.912708e-03 1.192469e+00 -1.797939e+00 -1.556185e+00 1.196569e+00 -9.879529e-01 1.652927e-01 -1.611842e+00 1.614072e-01 4.788018e-02 -5.823542e-01 4.935099e-01 5.979322e-01 -7.374340e-01 9.788682e-02 -1.147662e-01 2.524147e-01 -2.247897e-01 -3.328578e-01 5.402845e-01 -1.748981e-01
<VARIANCE> 39
 1.295506e+01 1.646240e+01 5.302854e+01 3.433391e+01 3.213795e+01 5.216397e+01 3.611566e+01 4.771467e+01 3.131563e+01 2.677040e+01 2.903462e+01 2.222961e+01 1.849311e+01 6.299464e-01 1.144702e+00 2.584669e+00 1.833898e+00 3.437037e+00 3.028059e+00 2.599286e+00 3.426436e+00 2.983644e+00 2.516457e+00 1.829790e+00 1.896101e+00 6.975337e-01 1.005572e-01 1.306135e-01 3.043115e-01 2.784327e-01 4.793522e-01 5.313036e-01 4.135101e-01 4.626901e-01 6.617538e-01 3.198347e-01 3.836554e-01 3.795869e-01 1.020757e-01
<GCONST> 1.086161e+02
<STATE> 3
<NUMMIXES> 3
<MIXTURE> 1 2.231790e-01
<MEAN> 39
 1.426256e+00 5.348034e+00 7.310219e+00 -2.570957e+00 -6.333313e+00 -3.077886e-01 2.874195e+00 -4.388883e+00 -1.892354e+01 4.363386e+00 1.146768e-01 -6.945633e+00 6.379881e+01 8.711781e-02 1.101979e+00 -7.662548e-01 1.326638e+00 9.632393e-01 -9.400471e-01 6.604719e-01 -1.078475e+00 8.187280e-01 -5.083311e-01 -1.262527e+00 1.341198e+00 -1.076230e+00 -5.959173e-01 -2.465823e-01 2.256998e-01 -7.305628e-02 -3.459446e-01 4.567668e-01 -7.767118e-01 7.376303e-01 9.612654e-01 -5.819717e-01 2.336547e-01 -7.761542e-03 2.587846e-01
<VARIANCE> 39
 5.564805e+00 1.459144e+01 1.213943e+01 1.565115e+01 1.897652e+01 2.083187e+01 1.800295e+01 3.059640e+01 2.284985e+01 2.474132e+01 2.151200e+01 1.976341e+01 1.055294e+01 7.584375e-01 1.284427e+00 1.672553e+00 1.434161e+00 3.067827e+00 2.056583e+00 2.715482e+00 3.185466e+00 3.104474e+00 2.281029e+00 1.717956e+00 2.062185e+00 8.878681e-01 1.472677e-01 2.344662e-01 3.119099e-01 2.868207e-01 6.739619e-01 3.940154e-01 3.926919e-01 7.478241e-01 4.629959e-01 4.078473e-01 3.656045e-01 3.548551e-01 1.448092e-01
<GCONST> 1.023376e+02
<MIXTURE> 2 4.494053e-01
<MEAN> 39
 1.128402e+00 3.369167e+00 -7.199146e-01 -5.632957e+00 -1.272567e+01 -1.012426e+00 -5.038938e+00 -1.527184e+01 -8.676737e+00 -1.067298e+00 -8.581567e+00 -6.299191e-01 6.333992e+01 2.003370e-01 5.700834e-01 -3.069966e-01 9.993812e-01 4.343388e-01 4.823216e-02 -4.249966e-01 -1.317497e-01 4.605835e-01 -6.684988e-01 4.087753e-01 1.260250e-01 -7.081981e-01 -3.864367e-01 -1.620307e-01 2.757633e-01 -2.193137e-01 1.870518e-01 -2.941990e-01 2.573408e-01 6.311865e-01 -1.281763e-01 2.120475e-02 1.710439e-01 -1.951933e-01 1.922123e-01
<VARIANCE> 39
 2.175014e+01 1.927781e+01 2.532946e+01 4.114894e+01 2.645937e+01 3.641017e+01 4.066499e+01 4.335666e+01 2.651406e+01 3.845230e+01 4.526322e+01 2.810561e+01 1.209283e+01 9.231994e-01 1.235914e+00 2.058314e+00 2.797871e+00 2.433062e+00 2.768253e+00 2.960113e+00 3.084066e+00 2.429695e+00 2.563688e+00 2.043474e+00 1.621048e+00 8.466675e-01 1.826943e-01 2.153936e-01 3.691450e-01 4.739605e-01 5.480024e-01 4.860343e-01 4.938075e-01 6.616595e-01 4.336234e-01 5.037810e-01 4.343180e-01 3.285555e-01 1.100806e-01
<GCONST> 1.113456e+02
<MIXTURE> 3 3.274148e-01
<MEAN> 39
 1.441291e+00 3.416254e+00 3.375401e+00 3.556720e-01 -1.066815e+01 -1.197644e+00 -7.192343e-03 -1.166648e+01 -1.122272e+01 8.053282e-01 -1.462941e+00 -1.950509e+00 6.262711e+01 -7.982451e-03 7.396814e-01 -9.890427e-02 4.546369e-01 5.698557e-01 -2.319576e-01 -1.439455e-01 -2.271516e-01 1.960923e-01 -2.149366e-01 -2.949516e-01 2.628922e-01 -6.716798e-01 -2.561447e-01 -1.041206e-01 3.228606e-02 -2.496983e-01 1.478508e-01 3.617117e-02 -2.265673e-01 5.905106e-01 2.427688e-01 -2.273495e-01 6.208901e-02 -2.059716e-01 1.304166e-01
<VARIANCE> 39
 1.161561e+01 2.296546e+01 2.405517e+01 6.459704e+01 2.655228e+01 4.539260e+01 2.971065e+01 4.713514e+01 3.200861e+01 2.833359e+01 3.911152e+01 2.367935e+01 1.613763e+01 4.951162e-01 1.140042e+00 1.542790e+00 1.523963e+00 2.194249e+00 2.110955e+00 2.395677e+00 3.116554e+00 2.357437e+00 1.860816e+00 1.539493e+00 1.721866e+00 6.763080e-01 1.254446e-01 1.925616e-01 3.277724e-01 3.117799e-01 4.689823e-01 3.829534e-01 4.867916e-01 5.771182e-01 4.938827e-01 3.634776e-01 3.248008e-01 3.291901e-01 1.050502e-01
<GCONST> 1.060648e+02
<STATE> 4
<NUMMIXES> 3
<MIXTURE> 1 1.604569e-01
<MEAN> 39
 -2.455166e+00 9.509061e+00 6.128915e+00 2.235981e+00 -2.733257e+00 -1.789356e+00 -6.158523e-01 -4.557148e+00 -9.962436e+00 -2.053199e+00 -2.286381e+00 -2.674078e+00 5.774803e+01 -2.155222e+00 4.226122e-01 -4.539815e-01 1.518299e+00 2.330176e+00 3.984636e-01 -7.459892e-02 1.359938e+00 2.467652e+00 -1.079978e+00 -2.538735e-01 8.178193e-01 -1.706510e+00 -5.445542e-01 -9.267123e-01 -2.644640e-01 -3.014897e-01 -3.179646e-01 2.963337e-01 1.254483e-02 4.613641e-01 2.171561e-01 2.850332e-01 3.243758e-01 -1.887024e-01 3.791412e-01
<VARIANCE> 39
 1.662373e+01 1.483419e+01 2.025836e+01 2.094388e+01 2.399973e+01 2.472454e+01 2.766805e+01 3.131312e+01 3.426638e+01 2.361902e+01 1.897828e+01 2.064506e+01 1.875326e+01 1.523546e+00 2.463553e+00 2.133020e+00 2.868811e+00 2.633821e+00 3.111885e+00 3.830102e+00 5.016430e+00 3.997556e+00 3.581928e+00 3.019673e+00 2.629046e+00 1.643991e+00 3.059438e-01 4.043640e-01 2.799120e-01 3.650174e-01 5.367196e-01 4.631458e-01 5.775548e-01 5.520655e-01 5.764208e-01 5.274956e-01 3.810185e-01 4.674231e-01 2.654817e-01
<GCONST> 1.142596e+02
<MIXTURE> 2 4.677764e-01
<MEAN> 39
 -4.343012e+00 1.694266e+00 1.831876e+00 -2.673959e+00 -8.850196e+00 -1.861233e+00 -3.170361e+00 -4.391739e+00 -7.456374e+00 -1.781312e+00 -2.516996e+00 -3.428483e+00 6.372040e+01 -7.415259e-01 -3.842037e-01 -1.613268e-01 -2.095643e-01 5.553294e-01 -3.190449e-01 -1.409718e-01 1.500427e+00 7.417858e-01 -3.480287e-01 2.742201e-01 -3.405613e-01 3.303564e-01 -1.141778e-01 -1.518081e-01 -5.423703e-02 -7.768635e-02 1.315169e-01 7.107339e-02 -2.479507e-03 1.504703e-01 1.546577e-01 1.555709e-02 7.394233e-02 -4.335243e-03 1.127107e-01
<VARIANCE> 39
 4.762028e+01 3.938345e+01 4.075797e+01 6.262277e+01 5.848353e+01 5.656651e+01 5.508279e+01 1.003226e+02 5.571669e+01 3.786071e+01 5.333630e+01 3.364245e+01 4.158495e+01 2.346025e+00 2.943300e+00 2.981668e+00 3.757008e+00 5.571113e+00 3.776441e+00 4.829271e+00 5.945673e+00 4.366003e+00 3.237771e+00 2.798688e+00 2.556067e+00 2.675834e+00 5.018543e-01 5.739659e-01 4.809171e-01 7.051465e-01 8.367025e-01 6.928295e-01 8.516486e-01 1.168423e+00 8.330653e-01 6.100057e-01 5.999967e-01 4.765776e-01 5.102542e-01
<GCONST> 1.335291e+02
<MIXTURE> 3 3.717668e-01
<MEAN> 39
 -4.205735e+00 5.365998e+00 2.552883e+00 6.520992e-01 -5.428064e+00 -1.648625e+00 -1.186273e+00 -5.679824e+00 -8.578405e+00 -2.281594e+00 -2.527666e+00 -2.630630e+00 5.956290e+01 -1.486533e+00 9.692241e-02 -2.107973e-01 5.581403e-01 1.547668e+00 -4.714847e-02 -2.702186e-01 1.535098e+00 1.142815e+00 -4.368215e-01 1.633789e-01 -1.080564e-01 -5.643395e-01 -3.513615e-01 -5.177879e-01 -1.633977e-01 -2.215251e-01 -1.112714e-01 7.515273e-02 -1.053588e-01 3.782855e-01 3.215191e-01 1.558984e-01 1.913977e-01 -3.494461e-02 3.724344e-01
<VARIANCE> 39
 4.551605e+01 3.141041e+01 2.935390e+01 3.836988e+01 4.609649e+01 4.025420e+01 3.527739e+01 6.601575e+01 4.800570e+01 3.309169e+01 3.593945e+01 2.607472e+01 3.345068e+01 2.665416e+00 2.911945e+00 2.541256e+00 3.646599e+00 5.480807e+00 3.301801e+00 4.286676e+00 5.372535e+00 4.027501e+00 3.130473e+00 2.956216e+00 2.753040e+00 2.206802e+00 5.314527e-01 5.300648e-01 4.034638e-01 4.621691e-01 8.115989e-01 5.536098e-01 7.162865e-01 9.155806e-01 7.244447e-01 5.742046e-01 5.120636e-01 4.943382e-01 3.345602e-01
<GCONST> 1.271881e+02
<TRANSP> 5
 0.000000e+00 1.000000e+00 0.000000e+00 0.000000e+00 0.000000e+00
 0.000000e+00 5.844252e-01 4.155749e-01 0.000000e+00 0.000000e+00
 0.000000e+00 0.000000e+00 7.458676e-01 2.541324e-01 0.000000e+00
 0.000000e+00 0.000000e+00 0.000000e+00 6.239232e-01 3.760768e-01
 0.000000e+00 0.000000e+00 0.000000e+00 0.000000e+00 0.000000e+00
<ENDHMM>
~h "ow"
<BEGINHMM>
<NUMSTATES> 5
<STATE> 2
<NUMMIXES> 3
<MIXTURE> 1 1.684228e-01
<MEAN> 39
 -2.358241e-01 -3.315043e+00 -4.447733e+00 -9.002865e+00 -8.629198e+00 2.443489e+00 -1.640869e+01 -4.456114e+00 1.767833e+00 2.791667e+00 3.171331e+00 -5.255639e+00 7.159701e+01 3.160853e+00 -1.662721e+00 1.801769e-02 -1.989359e+00 -2.290100e+00 1.135713e+00 -1.824719e+00 -7.105895e-01 5.007671e-01 1.183536e+00 1.464294e+00 -1.183820e+00 2.520228e+00 -1.233145e+00 4.082209e-01 -5.497334e-02 4.104528e-01 7.446271e-01 2.503346e-02 1.218345e+00 5.569781e-01 -3.180358e-01 -2.107459e-01 -4.101014e-02 4.286720e-01 -6.819629e-01
<VARIANCE> 39
 1.455040e+01 1.577933e+01 2.230331e+01 3.046218e+01 1.999795e+01 6.437762e+01 4.893402e+01 4.554089e+01 3.399646e+01 3.116734e+01 4.602841e+01 2.512568e+01 1.877006e+01 4.617351e+00 2.346007e+00 2.507423e+00 3.699515e+00 3.601802e+00 4.809663e+00 5.769626e+00 5.017707e+00 4.188431e+00 3.389451e+00 3.758080e+00 3.623300e+00 2.052911e+00 4.764092e-01 4.145547e-01 4.223900e-01 4.562510e-01 4.006569e-01 5.954111e-01 6.662184e-01 5.803130e-01 6.562684e-01 5.347615e-01 7.551337e-01 5.360954e-01 3.086270e-01
<GCONST> 1.234874e+02
<MIXTURE> 2 4.205557e-01
<MEAN> 39
 1.631027e-01 -4.442325e+00 -7.266390e+00 -1.177152e+01 -8.222466e+00 -3.891103e+00 -9.418055e+00 -2.297641e+00 -1.901616e+00 -1.885712e+00 -4.729621e+00 -3.660542e+00 7.100242e+01 6.593878e-01 -6.407357e-01 -1.009726e+00 -1.464901e+00 -8.463651e-02 9.632643e-01 -2.064745e-01 -9.273300e-02 3.610054e-01 2.750300e-01 -1.756573e-01 -7.189003e-01 6.857060e-01 -3.976798e-01 3.862898e-01 2.078520e-01 3.915855e-01 2.538483e-01 2.856831e-01 1.259833e-01 -1.966838e-01 -2.507062e-01 7.481411e-03 2.577446e-01 6.784739e-02 -4.734761e-01
<VARIANCE> 39
 1.711772e+01 3.472186e+01 3.735905e+01 4.838036e+01 4.621376e+01 1.107685e+02 6.307821e+01 6.178664e+01 5.825450e+01 6.099993e+01 8.086660e+01 4.087134e+01 1.754937e+01 1.565253e+00 2.066905e+00 2.469135e+00 2.678415e+00 3.840519e+00 3.901586e+00 3.657233e+00 4.237175e+00 4.105810e+00 3.452623e+00 3.563662e+00 3.036379e+00 1.270221e+00 4.309075e-01 3.705088e-01 3.351535e-01 4.613434e-01 5.702716e-01 7.317889e-01 6.491443e-01 9.598787e-01 8.145220e-01 6.447014e-01 7.958096e-01 5.221619e-01 1.751104e-01
<GCONST> 1.269869e+02
<MIXTURE> 3 4.110216e-01
<MEAN> 39
 4.948273e-01 -5.510160e+00 -5.673526e+00 -8.392209e+00 -9.217413e+00 2.483811e+00 -1.207092e+01 -1.255936e+00 1.498928e+00 4.001977e+00 3.267628e+00 -7.461889e+00 7.330207e+01 4.298803e-01 -3.528672e-01 -5.924554e-01 -1.192787e+00 -2.729194e-01 1.195370e+00 5.003600e-01 -2.773196e-01 -4.051579e-01 5.730449e-01 8.719565e-01 -3.947866e-01 4.178080e-01 -2.851190e-01 4.681342e-01 1.654023e-01 2.214445e-01 2.784085e-01 -1.269067e-02 2.805299e-01 -1.206311e-01 -5.285138e-01 -5.004128e-01 -8.095237e-02 5.485171e-01 -5.931740e-01
<VARIANCE> 39
 1.444279e+01 1.872451e+01 2.764715e+01 3.524053e+01 2.549526e+01 7.837667e+01 6.078001e+01 6.373919e+01 4.323386e+01 4.132225e+01 5.830525e+01 4.024781e+01 1.847692e+01 7.654384e-01 1.386133e+00 2.134187e+00 1.693619e+00 2.063184e+00 3.414613e+00 2.914543e+00 3.462610e+00 4.448451e+00 3.262601e+00 3.684042e+00 3.558861e+00 1.163006e+00 2.869941e-01 2.320372e-01 2.988034e-01 3.422888e-01 4.845396e-01 5.383959e-01 5.764013e-01 7.503058e-01 6.979983e-01 5.974636e-01 7.163042e-01 5.744756e-01 2.081324e-01
<GCONST> 1.186908e+02
<STATE> 3
<NUMMIXES> 3
<MIXTURE> 1 1.619578e-01
<MEAN> 39
 1.594528e+00 -3.631946e+00 -3.525282e+00 -1.088584e+01 -7.867324e+00 6.341303e+00 -1.424818e+01 1.617191e+00 -1.341188e+00 3.553866e+00 7.104535e+00 -6.831151e+00 7.404592e+01 2.395051e-01 5.573806e-01 1.208415e-01 -3.707906e-01 -3.500219e-03 6.435950e-01 -2.921433e-01 -5.323289e-01 -1.209166e+00 -3.537362e-01 8.220321e-01 9.860724e-01 -4.187244e-01 -1.030079e-02 2.045429e-01 7.521732e-02 1.220881e-01 6.033808e-02 -1.307538e-02 -6.140038e-02 -1.112792e-01 -1.099646e-01 -3.306279e-01 -1.617034e-01 2.874110e-01 -1.575375e-01
<VARIANCE> 39
 7.844776e+00 1.721541e+01 1.298904e+01 2.416811e+01 1.259664e+01 5.064701e+01 4.604974e+01 2.952790e+01 3.152727e+01 5.422374e+01 3.477111e+01 4.176831e+01 1.136428e+01 2.014049e-01 4.771244e-01 6.143253e-01 7.408135e-01 6.396418e-01 1.338933e+00 1.385549e+00 1.623921e+00 2.203369e+00 2.391723e+00 2.156392e+00 2.493315e+00 1.768006e-01 3.165969e-02 1.040615e-01 9.050900e-02 1.286483e-01 1.330927e-01 2.527778e-01 1.957340e-01 2.772904e-01 3.378491e-01 4.051189e-01 4.141111e-01 3.974122e-01 4.288862e-02
<GCONST> 8.888197e+01
<MIXTURE> 2 4.411696e-01
<MEAN> 39
 1.716608e+00 -1.133278e+00 -9.754259e+00 -1.608705e+01 -8.835772e+00 -4.209244e-02 -8.592987e+00 -5.255637e+00 -4.173195e+00 -2.239292e+00 -2.122043e+00 -2.845921e+00 6.912354e+01 3.214320e-02 6.854274e-01 2.200055e-01 -1.246743e-01 -2.014363e-01 6.097608e-02 -2.388050e-01 -1.230359e-01 -2.216564e-01 -3.194172e-01 -9.594866e-02 2.143636e-01 -3.978777e-01 -9.056868e-02 1.088936e-01 1.876834e-01 3.083681e-01 6.255701e-02 -1.763885e-01 -7.114075e-02 -1.713778e-02 3.776268e-02 -6.172660e-03 -6.227001e-02 2.980609e-03 -1.191340e-01
<VARIANCE> 39
 1.471093e+01 4.139812e+01 2.622635e+01 5.546637e+01 4.731361e+01 9.270460e+01 8.236068e+01 4.538447e+01 6.274001e+01 6.201541e+01 6.723539e+01 4.128806e+01 1.805248e+01 2.895513e-01 9.166331e-01 8.276247e-01 1.567492e+00 1.399594e+00 2.238578e+00 2.189049e+00 2.354643e+00 2.341354e+00 2.414038e+00 2.301601e+00 1.912139e+00 3.484679e-01 6.173519e-02 1.722433e-01 1.622457e-01 2.330564e-01 2.541710e-01 3.506711e-01 3.626909e-01 3.671778e-01 3.863582e-01 4.115728e-01 4.162960e-01 3.627570e-01 7.086565e-02
<GCONST> 1.063191e+02
<MIXTURE> 3 3.968717e-01
<MEAN> 39
 2.421149e+00 -2.162563e+00 -6.243670e+00 -1.343059e+01 -1.037086e+01 6.031597e+00 -9.630506e+00 -2.464540e+00 -2.337747e+00 -1.664982e+00 4.201545e+00 -2.060500e+00 7.092049e+01 4.282635e-02 6.550902e-01 2.745209e-01 -2.039496e-01 -4.022377e-02 1.472261e-01 -3.509790e-01 -1.397743e-01 -2.313732e-01 -4.692782e-01 -4.868367e-02 3.674254e-01 -3.773603e-01 -5.902101e-02 1.156669e-01 7.029469e-02 1.986983e-01 1.373945e-01 -1.447288e-01 -6.525177e-02 -8.377388e-02 4.749975e-02 4.409505e-02 -1.650164e-01 -8.865698e-02 -1.028757e-01
<VARIANCE> 39
 9.921587e+00 3.392563e+01 2.303527e+01 4.683051e+01 3.727349e+01 7.812769e+01 7.420885e+01 5.470375e+01 4.267294e+01 6.124101e+01 6.275005e+01 4.193172e+01 1.629004e+01 1.907133e-01 6.422927e-01 6.091577e-01 9.631252e-01 9.204208e-01 1.426373e+00 1.486105e+00 1.661239e+00 1.852525e+00 2.052839e+00 1.778225e+00 1.851948e+00 2.257928e-01 3.553734e-02 1.290612e-01 9.528835e-02 1.515868e-01 1.638027e-01 2.412035e-01 2.305858e-01 2.759017e-01 2.985957e-01 3.416859e-01 3.236423e-01 3.227890e-01 5.216905e-02
<GCONST> 9.577891e+01
<STATE> 4
<NUMMIXES> 3
<MIXTURE> 1 1.360036e-01
<MEAN> 39
 -5.360445e-01 2.951422e+00 -2.903372e-01 -7.467169e+00 -5.241618e+00 5.553026e+00 -2.128697e+01 -6.728525e+00 -2.244681e+00 6.798657e-01 4.439114e+00 -3.049140e+00 6.831293e+01 -2.564958e+00 2.298318e+00 8.947837e-01 3.225047e+00 2.559707e+00 -2.588993e+00 2.463857e+00 6.863309e-01 4.866911e-01 -3.635045e-01 -1.807516e+00 4.175788e-01 -1.524085e+00 -1.115287e+00 2.139736e-01 -1.736211e-01 2.915453e-01 3.394086e-01 -3.575867e-01 1.161798e+00 7.771531e-01 -5.012210e-02 -2.846385e-02 -2.519183e-02 3.247625e-01 -1.807508e-01
<VARIANCE> 39
 1.336724e+01 2.438476e+01 2.053439e+01 5.390087e+01 3.027058e+01 5.770966e+01 6.923876e+01 4.927827e+01 3.995060e+01 4.798499e+01 3.991336e+01 2.890397e+01 1.629912e+01 3.167189e+00 2.968401e+00 1.565379e+00 4.441198e+00 3.508893e+00 3.472720e+00 4.610112e+00 5.017646e+00 4.523664e+00 4.145304e+00 3.223128e+00 2.830076e+00 2.300241e+00 3.020101e-01 5.639364e-01 2.538137e-01 7.885212e-01 4.414270e-01 6.598291e-01 7.003486e-01 7.115349e-01 7.622070e-01 6.201735e-01 5.026459e-01 4.566633e-01 2.083735e-01
<GCONST> 1.241723e+02
<MIXTURE> 2 4.851724e-01
<MEAN> 39
 1.313952e+00 1.353045e+00 -6.748837e+00 -1.231003e+01 -9.505990e+00 7.177316e-01 -1.083923e+01 -5.256057e+00 -4.943022e+00 -2.044786e+00 3.071520e-02 -2.337185e+00 6.741383e+01 -4.090948e-01 8.063877e-01 1.019197e+00 1.299423e+00 3.639879e-01 -4.723442e-01 -1.860243e-01 -4.716483e-01 -1.000740e-01 -1.996402e-01 -4.843656e-01 -8.610983e-02 -8.804384e-01 -3.185508e-01 5.956881e-02 2.851548e-01 5.032318e-01 3.075344e-01 -1.418365e-01 2.560334e-01 6.988857e-02 4.686454e-02 -1.093815e-02 -5.770901e-02 -8.651657e-02 -1.612994e-01
<VARIANCE> 39
 1.756145e+01 4.371581e+01 3.616994e+01 6.103613e+01 4.639697e+01 9.370086e+01 9.324532e+01 5.941325e+01 6.246729e+01 6.183010e+01 7.788870e+01 4.342248e+01 2.841964e+01 8.377164e-01 2.625860e+00 1.943715e+00 3.296954e+00 2.692381e+00 3.472488e+00 3.600556e+00 3.842409e+00 3.948557e+00 4.247944e+00 3.602190e+00 3.126238e+00 1.354117e+00 2.160122e-01 4.189607e-01 3.294961e-01 5.211580e-01 5.291864e-01 6.251423e-01 7.544662e-01 6.644716e-01 7.874875e-01 7.764146e-01 7.580610e-01 5.795200e-01 2.416895e-01
<GCONST> 1.271069e+02
<MIXTURE> 3 3.788233e-01
<MEAN> 39
 1.758631e+00 1.869794e+00 -4.005798e+00 -9.539322e+00 -8.546132e+00 4.580756e+00 -1.390464e+01 -5.467834e+00 -5.549589e+00 -5.403808e-01 4.202854e+00 -1.584722e+00 6.746946e+01 -7.521749e-01 1.461468e+00 1.169107e+00 2.097395e+00 1.406033e+00 -8.151165e-01 8.975753e-01 -3.535141e-01 -1.724128e-01 -3.739035e-01 -1.166245e+00 -2.006018e-01 -1.853945e+00 -5.407042e-01 4.544472e-02 1.813081e-01 5.048846e-01 3.908674e-01 -4.065376e-01 6.101280e-01 3.125140e-01 2.699079e-01 -1.593988e-02 -2.348477e-01 -7.423976e-02 -2.591466e-01
<VARIANCE> 39
 1.197963e+01 3.923898e+01 2.644287e+01 6.786018e+01 4.046558e+01 8.209393e+01 8.664609e+01 7.274809e+01 6.566092e+01 6.109750e+01 6.372644e+01 3.934180e+01 2.832549e+01 1.385024e+00 3.474674e+00 1.848185e+00 4.214272e+00 3.728262e+00 3.960040e+00 5.345423e+00 4.223086e+00 4.987467e+00 4.551586e+00 3.899571e+00 3.035525e+00 2.543849e+00 2.696392e-01 5.582454e-01 2.917534e-01 7.608358e-01 6.640673e-01 6.940523e-01 8.103073e-01 8.856251e-01 9.927820e-01 8.395163e-01 7.259339e-01 6.273532e-01 3.235720e-01
<GCONST> 1.310053e+02
<TRANSP> 5
 0.000000e+00 1.000000e+00 0.000000e+00 0.000000e+00 0.000000e+00
 0.000000e+00 6.810591e-01 3.189409e-01 0.000000e+00 0.000000e+00
 0.000000e+00 0.000000e+00 8.472854e-01 1.527146e-01 0.000000e+00
 0.000000e+00 0.000000e+00 0.000000e+00 6.751539e-01 3.248461e-01
 0.000000e+00 0.000000e+00 0.000000e+00 0.000000e+00 0.000000e+00
<ENDHMM>
~h "oy"
<BEGINHMM>
<NUMSTATES> 5
<STATE> 2
<NUMMIXES> 3
<MIXTURE> 1 1.759275e-01
<MEAN> 39
 3.634417e+00 -1.531607e+00 -2.854757e+00 -1.772288e+01 -1.240008e+01 8.386089e+00 -9.561557e+00 3.090150e+00 -4.394958e-01 -7.339600e+00 2.642626e+00 9.166899e-01 7.110200e+01 -2.293870e-03 -5.406928e-01 -1.441148e-01 2.039707e-01 -2.737299e-02 1.949148e-01 2.585155e-01 2.415601e-01 -5.076708e-01 2.248498e-01 2.628939e-01 1.207353e-01 2.274810e-01 -1.194398e-01 3.396924e-02 -1.197188e-01 3.131669e-01 3.557027e-01 -3.842730e-02 -4.847096e-02 -4.070976e-01 -3.538806e-01 4.138081e-01 2.566403e-01 -1.661024e-01 -6.543157e-02
<VARIANCE> 39
 7.444696e+00 1.866579e+01 1.323497e+01 3.552515e+01 2.350253e+01 3.869883e+01 2.445308e+01 3.517455e+01 3.382458e+01 2.861509e+01 2.676458e+01 4.971819e+01 9.833658e+00 2.143639e-01 7.912751e-01 8.688867e-01 8.282174e-01 1.270016e+00 1.196504e+00 1.036580e+00 1.136647e+00 2.562129e+00 1.960047e+00 2.303294e+00 1.336375e+00 3.106855e-01 5.266568e-02 1.755466e-01 1.318194e-01 1.392463e-01 1.907779e-01 2.328631e-01 3.082531e-01 2.037564e-01 4.218282e-01 5.873797e-01 4.051196e-01 5.525113e-01 8.637837e-02
<GCONST> 9.283305e+01
<MIXTURE> 2 3.799357e-01
<MEAN> 39
 1.793849e+00 2.831837e+00 -8.377545e+00 -1.294149e+01 -1.277956e+01 2.123772e+00 -4.477038e+00 -4.519771e+00 -5.172779e+00 -5.351061e+00 -3.013480e+00 -2.864959e+00 6.619684e+01 1.680687e+00 -8.064400e-01 -1.024406e+00 -1.863198e+00 -1.026005e+00 1.094475e+00 -7.729931e-01 -8.194687e-01 -7.557707e-01 -2.818447e-01 6.074959e-02 -1.262269e-01 1.575280e+00 -8.457426e-01 -5.034655e-01 2.909645e-01 6.926401e-01 6.608188e-01 -3.452078e-03 -8.701663e-02 3.085499e-01 3.268904e-01 3.418130e-01 1.709999e-01 1.126105e-01 -1.469735e-01
<VARIANCE> 39
 1.362355e+01 3.118326e+01 2.259215e+01 4.318584e+01 4.182974e+01 7.434091e+01 6.758769e+01 4.726892e+01 5.580534e+01 5.705599e+01 5.582599e+01 3.583352e+01 1.626669e+01 2.775008e+00 3.084353e+00 2.189981e+00 6.007827e+00 6.741186e+00 4.536283e+00 3.716762e+00 3.735483e+00 5.360944e+00 4.888039e+00 4.114089e+00 3.225976e+00 1.814801e+00 3.328797e-01 4.690004e-01 4.196227e-01 5.698703e-01 8.635277e-01 8.460836e-01 8.267337e-01 7.571164e-01 9.620981e-01 9.034476e-01 6.334829e-01 6.030258e-01 1.841424e-01
<GCONST> 1.295375e+02
<MIXTURE> 3 4.441370e-01
<MEAN> 39
 3.129828e+00 -6.594767e-01 -8.858463e+00 -1.521431e+01 -1.253712e+01 4.488765e+00 -6.038284e+00 -3.458758e+00 -6.159118e+00 -4.816070e+00 -3.242563e-01 4.955950e-01 6.865271e+01 -1.143727e-02 -8.112988e-01 -3.651385e-01 -1.243243e-02 1.753234e-01 7.604498e-01 -6.920334e-03 -2.520438e-01 -3.434502e-01 6.246804e-01 5.700921e-01 -1.505904e-01 4.476070e-01 -2.304392e-01 -1.244659e-01 1.317956e-01 5.059836e-01 4.307766e-01 -3.422734e-01 -3.258495e-01 -1.529014e-01 2.888296e-01 4.594106e-01 -1.430971e-01 -4.058586e-01 -1.032752e-01
<VARIANCE> 39
 1.005881e+01 2.448503e+01 2.665294e+01 4.651331e+01 3.960001e+01 7.261124e+01 6.236357e+01 4.923129e+01 5.545276e+01 4.595416e+01 5.647292e+01 4.835823e+01 1.301631e+01 3.194660e-01 1.489181e+00 7.359140e-01 1.685039e+00 2.169258e+00 1.814973e+00 2.387955e+00 2.441287e+00 2.528847e+00 3.181860e+00 2.574272e+00 2.436048e+00 5.078731e-01 1.339241e-01 2.222216e-01 1.617738e-01 2.838998e-01 3.824036e-01 4.700212e-01 4.788998e-01 4.235686e-01 6.396521e-01 5.300483e-01 5.099277e-01 5.048832e-01 1.283286e-01
<GCONST> 1.100724e+02
<STATE> 3
<NUMMIXES> 3
<MIXTURE> 1 1.443485e-01
<MEAN> 39
 2.879513e+00 -5.386697e+00 -5.945990e+00 -1.314005e+01 -9.980930e+00 9.650227e+00 -9.798154e+00 -1.859025e+00 -6.090447e+00 -5.916295e-01 8.301832e+00 -8.742359e-01 7.330984e+01 -5.813500e-01 -1.150811e+00 -2.118438e-02 1.953275e+00 1.367687e+00 -7.623096e-01 -2.418900e+00 -9.633679e-01 8.942611e-01 3.975695e+00 4.683887e-01 -3.308809e+00 6.404824e-01 -1.959548e-01 1.726601e-01 5.776428e-01 4.231516e-01 -3.200634e-01 -1.042847e+00 -4.458874e-01 8.934877e-01 9.597530e-01 -2.125900e-01 -1.120087e+00 -5.284198e-01 -7.148378e-02
<VARIANCE> 39
 6.794975e+00 1.508049e+01 1.816072e+01 2.245171e+01 1.890690e+01 4.411826e+01 4.896186e+01 3.749318e+01 3.167566e+01 4.608877e+01 4.079129e+01 3.799519e+01 6.796165e+00 1.745040e-01 5.858039e-01 8.330572e-01 1.044356e+00 1.624029e+00 1.830650e+00 1.754264e+00 2.991026e+00 2.156742e+00 2.961130e+00 3.851378e+00 3.534420e+00 1.190433e-01 2.838916e-02 9.549338e-02 1.272656e-01 1.327256e-01 2.041451e-01 3.477949e-01 4.741853e-01 3.773543e-01 4.580747e-01 9.810950e-01 3.722476e-01 8.107219e-01 2.874942e-02
<GCONST> 9.586758e+01
<MIXTURE> 2 4.180118e-01
<MEAN> 39
 9.883776e-01 -4.772640e+00 -1.182615e+01 -1.249656e+01 -6.690204e+00 3.909020e+00 -1.079035e+01 -7.661260e+00 -5.539391e+00 6.849549e-01 -2.319867e+00 -5.251328e+00 6.956207e+01 -6.606386e-01 -1.648806e+00 1.152850e+00 1.822551e+00 6.587163e-01 -2.219513e+00 -1.939742e+00 5.364184e-01 2.251246e+00 1.577998e+00 -1.799347e+00 -1.599095e+00 6.207734e-01 -2.352045e-01 3.119394e-01 8.283523e-01 2.431910e-01 -8.067212e-01 -1.047961e+00 6.544617e-01 9.977724e-01 5.565187e-02 -6.525421e-01 -4.978970e-01 3.069060e-01 -1.911323e-01
<VARIANCE> 39
 1.153837e+01 3.006881e+01 2.275911e+01 4.329988e+01 2.671001e+01 7.289829e+01 5.601849e+01 3.039181e+01 4.812858e+01 4.735012e+01 5.516784e+01 3.663120e+01 1.151437e+01 3.992513e-01 1.125597e+00 1.830539e+00 2.527752e+00 2.620406e+00 4.733078e+00 3.547436e+00 4.013971e+00 1.991162e+00 2.909537e+00 2.639848e+00 2.556602e+00 4.353372e-01 8.756369e-02 2.319560e-01 3.186775e-01 4.337535e-01 6.777461e-01 5.427173e-01 8.755282e-01 4.605536e-01 9.273065e-01 4.945801e-01 6.223077e-01 5.773377e-01 8.300374e-02
<GCONST> 1.138843e+02
<MIXTURE> 3 4.376399e-01
<MEAN> 39
 1.777932e+00 -6.536094e+00 -8.353185e+00 -8.967709e+00 -8.109818e+00 2.564720e+00 -1.226468e+01 -4.467655e+00 -2.531822e-01 5.545532e+00 1.497269e-04 -8.182974e+00 7.132869e+01 -6.722879e-01 -1.012132e+00 1.459948e+00 2.113844e+00 -4.371464e-02 -3.211701e+00 -1.513534e+00 2.154338e+00 1.953643e+00 5.047374e-01 -2.121199e+00 -1.489713e+00 3.805957e-01 -1.695276e-01 3.296026e-01 7.173257e-01 -5.590603e-02 -7.704199e-01 -6.454622e-01 7.835532e-01 7.860829e-01 -5.545186e-01 -1.213075e+00 6.490380e-03 9.545063e-01 -1.189606e-01
<VARIANCE> 39
 1.092686e+01 2.418125e+01 3.037687e+01 3.630397e+01 3.315545e+01 9.003472e+01 6.556464e+01 4.401637e+01 4.752367e+01 3.963132e+01 7.305884e+01 3.446253e+01 1.408667e+01 3.420494e-01 8.440657e-01 1.483379e+00 1.382997e+00 1.808473e+00 3.249654e+00 2.661792e+00 3.487927e+00 1.929158e+00 4.506960e+00 2.190077e+00 3.555416e+00 1.984734e-01 5.369684e-02 1.456894e-01 2.189266e-01 2.874044e-01 4.114890e-01 4.992287e-01 7.001248e-01 5.228727e-01 8.797802e-01 6.070607e-01 8.424069e-01 7.936578e-01 4.655706e-02
<GCONST> 1.100184e+02
<STATE> 4
<NUMMIXES> 3
<MIXTURE> 1 1.901861e-01
<MEAN> 39
 -1.193125e+00 -8.053253e+00 3.022099e-02 -4.883646e+00 -1.136685e+01 -4.063828e+00 -1.577410e+01 7.977661e+00 -5.378529e-01 6.714917e-01 -2.676420e+00 -7.547456e+00 7.346621e+01 -1.040341e+00 4.620406e-02 3.317549e+00 1.088133e+00 -2.404638e+00 -3.092440e+00 2.054392e+00 2.299400e+00 -2.062552e+00 -2.063350e+00 6.852614e-01 1.899045e+00 4.066487e-02 8.132310e-02 5.748239e-01 1.593003e-01 -6.165309e-01 -2.612123e-01 8.163248e-01 1.019405e+00 -1.216400e+00 -1.178110e+00 -6.740838e-02 1.079654e+00 5.486963e-01 -3.266071e-01
<VARIANCE> 39
 9.433265e+00 1.823047e+01 2.734887e+01 2.210337e+01 2.265319e+01 5.101899e+01 4.542847e+01 4.286567e+01 3.486320e+01 3.468006e+01 6.374478e+01 2.435979e+01 8.799717e+00 2.880834e-01 7.680086e-01 1.442622e+00 1.462884e+00 1.736608e+00 2.547559e+00 2.420511e+00 3.399817e+00 3.331290e+00 2.065505e+00 3.785058e+00 2.121820e+00 3.073753e-01 6.358874e-02 1.810739e-01 2.671814e-01 2.548108e-01 5.064042e-01 3.600485e-01 6.581833e-01 5.611951e-01 6.499953e-01 6.409442e-01 4.731264e-01 5.767338e-01 8.207226e-02
<GCONST> 1.056177e+02
<MIXTURE> 2 4.960416e-01
<MEAN> 39
 -4.295101e+00 -4.240160e+00 6.740955e+00 -8.223514e+00 -1.768187e+01 -1.102099e+01 -4.240103e+00 -1.384266e+00 -8.394969e+00 -3.224901e-01 -2.095162e+00 -1.309909e+00 6.979013e+01 -4.365013e-01 1.767005e+00 1.226757e+00 2.963030e-01 4.678476e-02 1.119668e-01 8.153532e-01 -1.765572e+00 -8.381851e-01 2.370950e-01 6.041104e-01 4.155930e-01 -1.287228e+00 5.633652e-02 3.556994e-01 -7.797143e-01 3.764894e-01 1.062667e+00 4.089808e-01 -4.172372e-01 -1.762751e-01 5.756788e-01 -2.993253e-02 -3.348631e-01 -2.249533e-01 -4.580682e-01
<VARIANCE> 39
 1.569477e+01 3.094064e+01 4.262889e+01 5.621130e+01 2.689152e+01 5.770334e+01 3.972758e+01 6.687499e+01 4.534890e+01 2.903652e+01 5.553607e+01 2.998437e+01 1.910999e+01 8.106847e-01 1.663167e+00 3.299980e+00 3.456460e+00 4.339826e+00 1.996336e+00 3.451087e+00 2.999403e+00 3.645521e+00 3.166748e+00 3.028560e+00 1.712945e+00 1.463126e+00 2.772304e-01 3.020075e-01 4.277294e-01 6.394706e-01 6.903297e-01 4.964252e-01 6.561556e-01 1.098871e+00 6.172107e-01 6.403071e-01 6.105617e-01 3.895956e-01 2.268336e-01
<GCONST> 1.211069e+02
<MIXTURE> 3 3.137725e-01
<MEAN> 39
 -1.285790e+00 -7.635373e+00 -2.701187e+00 -4.890778e+00 -1.233909e+01 -1.074010e+01 -8.444729e+00 2.051121e+00 -3.681539e-01 -1.311421e+00 -6.575466e+00 -3.856102e+00 7.074467e+01 -9.565921e-01 4.904866e-01 2.762025e+00 5.432917e-01 -2.127824e+00 -2.036686e+00 1.765924e+00 8.961078e-01 -1.656730e+00 -9.936990e-01 8.486006e-01 1.355186e+00 -1.689636e-01 6.581681e-03 6.149147e-01 -3.696400e-02 -5.125663e-01 1.482112e-01 9.277977e-01 3.086408e-01 -8.801923e-01 -6.882641e-01 2.860515e-01 6.649281e-01 5.150641e-02 -3.231437e-01
<VARIANCE> 39
 1.446643e+01 3.595184e+01 4.004447e+01 4.574992e+01 3.552642e+01 5.261303e+01 3.845008e+01 3.589688e+01 5.283313e+01 3.811231e+01 7.084412e+01 2.476700e+01 1.549042e+01 4.249179e-01 1.041811e+00 2.330287e+00 2.106546e+00 2.778752e+00 3.423607e+00 3.496101e+00 3.915682e+00 3.725280e+00 2.260075e+00 3.672027e+00 1.557325e+00 5.130547e-01 9.243876e-02 2.435843e-01 3.519494e-01 3.634292e-01 7.090027e-01 4.111901e-01 7.170734e-01 6.546597e-01 7.364025e-01 5.078335e-01 6.818562e-01 4.350770e-01 1.389354e-01
<GCONST> 1.148667e+02
<TRANSP> 5
 0.000000e+00 1.000000e+00 0.000000e+00 0.000000e+00 0.000000e+00
 0.000000e+00 8.316884e-01 1.683116e-01 0.000000e+00 0.000000e+00
 0.000000e+00 0.000000e+00 7.084208e-01 2.915792e-01 0.000000e+00
 0.000000e+00 0.000000e+00 0.000000e+00 8.159162e-01 1.840837e-01
 0.000000e+00 0.000000e+00 0.000000e+00 0.000000e+00 0.000000e+00
<ENDHMM>
~h "sh"
<BEGINHMM>
<NUMSTATES> 5
<STATE> 2
<NUMMIXES> 3
<MIXTURE> 1 2.499019e-01
<MEAN> 39
 -8.636841e+00 3.273948e+00 1.187251e+01 -2.057084e+00 -1.544943e+01 -7.094627e+00 -8.125471e+00 -4.612375e+00 -7.896039e+00 -5.052421e+00 2.829826e-02 -3.418664e-01 6.857121e+01 -5.444946e+00 1.826042e+00 8.267900e-01 2.387641e+00 2.180422e+00 2.521460e+00 1.678368e+00 5.728154e-01 1.780002e+00 -2.201789e-01 4.588487e-02 2.371958e-01 -1.654589e-01 -1.147179e+00 -8.866936e-01 -4.762433e-01 -3.290487e-01 4.830036e-01 5.825282e-01 2.529816e-01 6.133520e-01 4.715330e-01 3.507954e-01 2.273829e-01 -3.323472e-02 2.938884e-01
<VARIANCE> 39
 2.935554e+01 2.417725e+01 2.915427e+01 4.546668e+01 2.370842e+01 4.049752e+01 2.633304e+01 5.419997e+01 3.029488e+01 2.868079e+01 3.106074e+01 2.250786e+01 1.459479e+01 1.840686e+00 2.152905e+00 3.628220e+00 2.389238e+00 2.472030e+00 3.755585e+00 4.515860e+00 4.037076e+00 3.538102e+00 3.369772e+00 3.382568e+00 3.499979e+00 8.760993e-01 3.755154e-01 2.837876e-01 2.525773e-01 3.788933e-01 4.036198e-01 3.657684e-01 5.091322e-01 4.622894e-01 3.603703e-01 4.381124e-01 3.416691e-01 3.393090e-01 7.810034e-02
<GCONST> 1.145500e+02
<MIXTURE> 2 5.077639e-01
<MEAN> 39
 -2.333100e+01 3.747853e-01 9.341804e+00 2.003876e+00 -5.723567e+00 2.378135e+00 -2.655746e+00 1.268523e+00 -1.035220e+00 -3.300620e+00 1.710052e+00 -4.340591e-01 6.749924e+01 -4.052189e+00 -1.129876e+00 -3.794866e-01 -3.259096e-01 5.071600e-01 1.496963e+00 1.200872e+00 6.994157e-01 1.119059e+00 3.136285e-01 4.458484e-01 2.437393e-01 4.120699e-01 1.045330e+00 -3.237529e-01 -3.555218e-01 -4.600419e-01 -5.806894e-01 -5.629041e-01 -3.510733e-01 -2.593239e-01 -2.852736e-01 -1.978257e-02 -3.356966e-02 -5.803008e-02 -4.185212e-02
<VARIANCE> 39
 4.544912e+01 3.431754e+01 3.823719e+01 4.184701e+01 3.028103e+01 3.587822e+01 3.017133e+01 3.457981e+01 3.276840e+01 2.425686e+01 2.380861e+01 2.148861e+01 2.965239e+01 4.975620e+00 2.365395e+00 3.161799e+00 2.229212e+00 3.228406e+00 3.433407e+00 3.063140e+00 3.218645e+00 3.239701e+00 2.377634e+00 2.180571e+00 1.879920e+00 1.380421e+00 5.428921e-01 5.597665e-01 4.458921e-01 6.249916e-01 5.390741e-01 6.139998e-01 7.063591e-01 5.753781e-01 5.380317e-01 4.496365e-01 4.399320e-01 4.650010e-01 2.738922e-01
<GCONST> 1.207646e+02
<MIXTURE> 3 2.423338e-01
<MEAN> 39
 -1.596061e+01 3.282544e+00 1.180190e+01 1.757281e+00 -9.798024e+00 -3.546369e+00 -6.506974e+00 -3.746390e+00 -4.397782e+00 -5.819123e+00 -7.934017e-01 -1.479590e+00 6.817486e+01 -5.538261e+00 -6.156682e-02 5.965140e-01 1.070608e+00 1.944833e+00 2.635228e+00 1.810223e+00 1.357224e+00 1.664136e+00 5.363474e-01 6.920342e-01 1.166608e-01 1.502773e-01 4.905797e-02 -8.787941e-01 -6.970091e-01 -6.684008e-01 -1.775830e-01 -2.440764e-02 1.198821e-01 2.034753e-01 1.495298e-01 3.810054e-01 9.748813e-02 1.112462e-01 9.651957e-02
<VARIANCE> 39
 6.573518e+01 2.656734e+01 3.801372e+01 4.347928e+01 3.078843e+01 4.429885e+01 2.998768e+01 4.275359e+01 3.459091e+01 2.730335e+01 2.675654e+01 2.444220e+01 2.391740e+01 4.659531e+00 2.993860e+00 3.711923e+00 3.017689e+00 3.241277e+00 4.879484e+00 3.632976e+00 4.710471e+00 3.906425e+00 3.111945e+00 2.707615e+00 2.674622e+00 1.581844e+00 8.989295e-01 4.134912e-01 3.761328e-01 4.750247e-01 5.606849e-01 6.205603e-01 6.251848e-01 6.686787e-01 4.982816e-01 5.005833e-01 4.203120e-01 4.698512e-01 2.004539e-01
<GCONST> 1.237665e+02
<STATE> 3
<NUMMIXES> 3
<MIXTURE> 1 1.666050e-01
<MEAN> 39
 -1.792343e+01 -2.402678e+00 2.921282e+00 -8.666961e-01 -3.092225e+00 9.615691e-01 5.416366e-01 3.127759e+00 -7.557936e-01 -1.949890e+00 1.873457e+00 1.751737e-01 5.944246e+01 -3.585412e-01 -3.169215e-02 1.549593e-01 -2.712995e-02 -7.086305e-02 1.293285e-01 9.784061e-02 -2.528499e-02 1.315734e-01 3.687942e-02 1.304820e-01 3.271157e-02 1.561164e-01 5.901763e-02 7.116493e-03 3.578351e-02 -8.247480e-03 -5.596234e-02 -2.085659e-02 -5.371499e-03 -3.517222e-03 -1.664313e-03 1.986741e-02 2.144409e-02 7.325513e-03 6.398284e-02
<VARIANCE> 39
 4.925976e+01 3.756693e+01 3.518169e+01 2.060892e+01 2.561124e+01 2.357066e+01 2.527790e+01 2.397466e+01 2.379739e+01 2.116764e+01 2.284038e+01 1.640503e+01 5.493756e+01 2.443432e+00 1.543769e+00 1.511775e+00 1.213079e+00 1.586527e+00 1.372145e+00 1.593405e+00 1.781039e+00 1.799447e+00 1.697876e+00 1.755898e+00 1.375090e+00 2.488097e+00 3.865528e-01 2.249760e-01 3.041323e-01 2.237831e-01 2.964159e-01 2.748849e-01 3.168388e-01 3.280097e-01 3.594775e-01 3.212656e-01 3.089692e-01 2.767443e-01 3.406304e-01
<GCONST> 1.058202e+02
<MIXTURE> 2 4.234779e-01
<MEAN> 39
 -2.988703e+01 -3.282230e+00 8.042887e+00 -4.638290e-02 -8.580802e+00 3.038274e+00 -4.962443e-01 1.497472e+00 1.276471e+00 -2.304815e+00 3.022914e+00 4.771630e-01 6.893516e+01 1.709715e-01 -4.923062e-01 -6.505021e-01 -2.745960e-01 -4.815304e-01 -3.245576e-01 1.911966e-01 2.071700e-01 2.232395e-01 -9.061191e-02 -1.299434e-01 -8.538969e-03 -3.320504e-01 1.464294e+00 3.417370e-01 1.261359e-02 -8.897673e-02 -2.494649e-01 -5.851454e-01 -5.619836e-01 -3.133895e-01 -4.367228e-01 -2.618737e-01 -2.621538e-01 -1.714999e-01 -1.447196e-01
<VARIANCE> 39
 1.049777e+01 2.170683e+01 1.382126e+01 2.556365e+01 2.044170e+01 3.155034e+01 2.131728e+01 2.415665e+01 2.580714e+01 2.025385e+01 2.025648e+01 1.505420e+01 1.174862e+01 4.174602e+00 1.405603e+00 1.286739e+00 1.653944e+00 1.506142e+00 2.212125e+00 1.794780e+00 1.761683e+00 2.016965e+00 1.829911e+00 1.671810e+00 1.460055e+00 5.171090e-01 3.046135e-01 2.226076e-01 2.777503e-01 3.076698e-01 3.778523e-01 4.347806e-01 4.151187e-01 4.180373e-01 4.090407e-01 3.930425e-01 3.777435e-01 3.106374e-01 9.851818e-02
<GCONST> 1.015513e+02
<MIXTURE> 3 4.099161e-01
<MEAN> 39
 -2.914322e+01 -3.195179e+00 7.226523e+00 -1.363765e+00 -8.358762e+00 2.339541e+00 -4.015822e-01 9.572915e-01 3.597314e-01 -3.234184e+00 3.266286e+00 -1.834866e-01 6.833896e+01 -5.961665e-02 -3.145177e-01 -2.410750e-01 -3.420050e-02 -3.041527e-01 -1.408075e-01 3.299380e-01 2.891433e-02 2.383153e-01 7.761884e-02 9.099875e-02 4.970051e-02 -8.870624e-02 7.148585e-01 1.584860e-01 3.499886e-02 1.521793e-01 -1.292884e-03 -1.777796e-01 -1.198858e-01 3.542590e-02 -9.516096e-02 -1.603553e-02 -9.359348e-02 -5.253218e-03 -1.682415e-01
<VARIANCE> 39
 2.017689e+01 2.531635e+01 1.624416e+01 2.443237e+01 2.132705e+01 3.402482e+01 2.406375e+01 2.589614e+01 2.321026e+01 1.978227e+01 2.089029e+01 1.424009e+01 1.540838e+01 1.026875e+00 7.328509e-01 7.655485e-01 1.054074e+00 1.192735e+00 1.385955e+00 1.419121e+00 1.457262e+00 1.503268e+00 1.510597e+00 1.364508e+00 1.295215e+00 3.841411e-01 2.711498e-01 1.536278e-01 1.786711e-01 1.943012e-01 2.351056e-01 2.869330e-01 2.906778e-01 2.943582e-01 2.962495e-01 2.955629e-01 2.626642e-01 2.564238e-01 7.505546e-02
<GCONST> 9.322530e+01
<STATE> 4
<NUMMIXES> 3
<MIXTURE> 1 2.210144e-01
<MEAN> 39
 -1.487734e+01 -1.121584e-01 6.082785e+00 2.860861e-01 -1.443360e+01 -1.559481e+00 -3.238622e+00 2.566620e+00 -3.506696e+00 -4.727803e+00 3.018234e+00 -3.924039e-01 6.590668e+01 6.093913e+00 1.282383e-01 9.510311e-01 -5.534878e-01 -7.564794e-01 -1.437688e+00 -2.778482e+00 5.803899e-01 -9.459516e-01 -7.005756e-01 2.094047e-01 -7.790647e-01 9.372038e-01 -1.410813e-01 -4.716933e-01 3.163098e-01 -3.249625e-01 4.167051e-01 4.098633e-01 -3.789368e-01 3.936227e-01 8.056830e-02 1.869683e-02 1.854058e-01 -1.846378e-01 5.438636e-01
<VARIANCE> 39
 6.452470e+01 1.653719e+01 1.600233e+01 1.728629e+01 1.735847e+01 2.419101e+01 3.049216e+01 1.999421e+01 2.199091e+01 1.577797e+01 1.381134e+01 1.209489e+01 1.921403e+01 1.449702e+00 1.626461e+00 2.156977e+00 2.082326e+00 1.961314e+00 2.287956e+00 3.137558e+00 2.946585e+00 2.931909e+00 2.155947e+00 2.115803e+00 1.636835e+00 1.926246e+00 1.076646e+00 2.464561e-01 2.995343e-01 2.871315e-01 3.107334e-01 3.225442e-01 6.181842e-01 3.669902e-01 4.106654e-01 3.105238e-01 3.045490e-01 2.695382e-01 2.243358e-01
<GCONST> 1.068578e+02
<MIXTURE> 2 3.867075e-01
<MEAN> 39
 -2.185749e+01 -1.530483e+00 7.889415e+00 -1.595457e+00 -9.919356e+00 -1.680692e+00 -2.621298e+00 -1.287310e+00 6.522568e-02 -5.200533e+00 -7.235093e-01 -1.076722e+00 6.689583e+01 6.531657e+00 9.176096e-01 -5.755029e-01 -1.296306e+00 -1.497807e+00 -2.788464e+00 -2.450149e+00 -1.733608e+00 -2.061677e+00 -1.229873e+00 -1.559655e+00 -4.333488e-01 -2.990722e-01 8.398367e-01 -1.512067e-01 -2.754426e-01 -4.679464e-01 -1.052582e-01 -2.414476e-01 -2.954284e-01 -2.148633e-01 -3.093186e-01 2.083464e-01 -1.461049e-01 1.377293e-01 3.063962e-01
<VARIANCE> 39
 6.080300e+01 2.406261e+01 1.844958e+01 2.990332e+01 2.821404e+01 4.073000e+01 3.623806e+01 3.078952e+01 3.477847e+01 2.995804e+01 2.319267e+01 1.660791e+01 1.371925e+01 2.919004e+00 1.954070e+00 2.797188e+00 3.277839e+00 3.045572e+00 4.119291e+00 2.989726e+00 3.335699e+00 3.558655e+00 2.938955e+00 2.752959e+00 2.615765e+00 7.381809e-01 1.128013e+00 3.355774e-01 2.941292e-01 5.392631e-01 5.181724e-01 7.559903e-01 7.727706e-01 6.808996e-01 6.262552e-01 5.868351e-01 5.235226e-01 4.629365e-01 1.257257e-01
<GCONST> 1.187842e+02
<MIXTURE> 3 3.922783e-01
<MEAN> 39
 -2.163785e+01 -3.662239e+00 4.319007e+00 2.049631e+00 -8.236988e+00 -8.071859e-01 -2.184975e+00 2.450707e+00 1.583363e+00 -2.360363e+00 1.700277e+00 -1.399718e-01 6.414172e+01 4.825276e+00 8.038466e-01 -4.510529e-01 -4.122426e-01 -3.778527e-01 -9.646497e-01 -1.987667e+00 -1.089180e+00 -6.573700e-01 -1.922968e-01 -3.754340e-01 -6.204445e-01 -3.540383e-01 9.938210e-01 6.776196e-02 2.005285e-01 -4.368939e-01 -1.692348e-01 1.445055e-01 -5.443767e-01 -4.370967e-01 -3.936263e-01 -5.895193e-02 1.366674e-01 -1.706136e-01 4.866226e-01
<VARIANCE> 39
 4.567381e+01 2.770939e+01 3.889215e+01 3.126036e+01 3.289113e+01 3.355601e+01 3.325948e+01 3.113247e+01 3.357568e+01 2.436215e+01 2.293903e+01 1.956499e+01 2.586361e+01 4.833692e+00 2.375394e+00 3.474793e+00 3.718036e+00 3.477143e+00 3.724022e+00 3.651193e+00 3.563328e+00 3.707110e+00 2.651639e+00 2.417983e+00 2.223426e+00 2.689136e+00 7.546472e-01 4.082399e-01 4.740993e-01 7.018076e-01 5.057039e-01 6.699347e-01 7.078291e-01 7.118321e-01 7.885430e-01 5.187552e-01 6.032026e-01 4.911947e-01 3.197112e-01
<GCONST> 1.237255e+02
<TRANSP> 5
 0.000000e+00 1.000000e+00 0.000000e+00 0.000000e+00 0.000000e+00
 0.000000e+00 6.967523e-01 3.032477e-01 0.000000e+00 0.000000e+00
 0.000000e+00 0.000000e+00 8.504466e-01 1.495534e-01 0.000000e+00
 0.000000e+00 0.000000e+00 0.000000e+00 6.005986e-01 3.994015e-01
 0.000000e+00 0.000000e+00 0.000000e+00 0.000000e+00 0.000000e+00
<ENDHMM>
~h "sp"
<BEGINHMM>
<NUMSTATES> 3
<STATE> 2
~s "silst"
<TRANSP> 3
 0.000000e+00 7.000000e-01 3.000000e-01
 0.000000e+00 9.000000e-01 9.999999e-02
 0.000000e+00 0.000000e+00 0.000000e+00
<ENDHMM>
~h "th"
<BEGINHMM>
<NUMSTATES> 5
<STATE> 2
<NUMMIXES> 3
<MIXTURE> 1 1.817878e-01
<MEAN> 39
 -8.388931e+00 6.712070e+00 -4.507057e-01 -9.815097e-03 -4.387414e+00 -5.276750e+00 -5.653155e+00 -3.191434e+00 -7.097642e-01 -4.907788e+00 -5.209444e+00 -9.527440e-01 6.502795e+01 -3.388014e+00 2.268302e+00 2.565617e-01 2.675554e+00 2.103568e+00 2.514381e+00 2.605686e+00 4.223259e-01 5.967042e-01 7.239251e-01 1.204445e+00 7.519119e-01 -2.787874e+00 -5.888699e-02 -9.910216e-01 -5.144547e-01 -3.345368e-01 -1.365313e-01 -6.461272e-02 -2.701010e-02 6.662820e-01 -5.375051e-02 4.973353e-01 5.023882e-01 -1.155085e-01 -1.770434e-01
<VARIANCE> 39
 2.892280e+01 2.159350e+01 3.120177e+01 3.779059e+01 2.475974e+01 8.024996e+01 4.369873e+01 4.205435e+01 5.106853e+01 3.522593e+01 3.282808e+01 3.207686e+01 1.852697e+01 2.085231e+00 3.253051e+00 3.597251e+00 3.878182e+00 2.692271e+00 8.358044e+00 4.402699e+00 4.118654e+00 5.447685e+00 3.670255e+00 4.655110e+00 3.850555e+00 2.169295e+00 4.925015e-01 4.244502e-01 5.555740e-01 5.581748e-01 5.643582e-01 7.247856e-01 6.980818e-01 7.492642e-01 7.753799e-01 6.533511e-01 4.890223e-01 5.210985e-01 3.234080e-01
<GCONST> 1.274343e+02
<MIXTURE> 2 4.626545e-01
<MEAN> 39
 -1.327961e+01 5.984525e+00 -1.195030e+00 2.524503e+00 -1.726214e+00 3.588312e-01 -2.413287e-01 -6.727150e-01 -1.846331e+00 -1.680151e+00 -7.276059e-01 -1.210387e+00 5.688945e+01 -2.075324e+00 -1.078513e+00 -6.540710e-01 5.394695e-01 4.491107e-01 7.052165e-01 6.708877e-01 1.305296e+00 8.818779e-01 7.641725e-01 7.735075e-01 4.560483e-01 -1.028914e+00 5.216544e-01 -5.335985e-01 -2.181165e-01 -7.055228e-01 -5.688825e-01 -4.876592e-01 -5.311877e-01 -1.898204e-01 7.789578e-03 -1.205843e-01 -7.177766e-02 6.153158e-02 8.376243e-01
<VARIANCE> 39
 3.213947e+01 2.225395e+01 2.680590e+01 2.699182e+01 2.757872e+01 3.112836e+01 3.109077e+01 2.911674e+01 3.201755e+01 2.533897e+01 2.523499e+01 2.175943e+01 2.815829e+01 3.186491e+00 2.193828e+00 3.191201e+00 3.606942e+00 2.754772e+00 3.288629e+00 3.580874e+00 3.803091e+00 3.349262e+00 2.784734e+00 3.282295e+00 2.535631e+00 2.894523e+00 5.194436e-01 5.497717e-01 6.158199e-01 7.192507e-01 6.626869e-01 7.320408e-01 7.819346e-01 6.306798e-01 6.222484e-01 5.328650e-01 6.216738e-01 5.215328e-01 6.288224e-01
<GCONST> 1.231678e+02
<MIXTURE> 3 3.555576e-01
<MEAN> 39
 -1.081461e+01 7.784194e+00 -1.466043e+00 2.390047e+00 -2.205962e+00 -6.565111e-01 -1.730517e+00 -1.269567e+00 -1.173008e+00 -2.068873e+00 -8.073224e-01 -1.503931e+00 5.925520e+01 -2.806479e+00 -7.214250e-03 2.596443e-01 1.889450e+00 1.380898e+00 9.290941e-01 1.437643e+00 1.268289e+00 5.336903e-01 1.078464e+00 4.643448e-01 3.871540e-01 -2.237813e+00 1.951933e-01 -9.304547e-01 -3.632416e-01 -7.804585e-01 -4.466769e-01 -1.711634e-01 -4.019699e-01 5.509344e-02 8.526932e-02 -4.726056e-03 8.269849e-02 3.539962e-02 5.627620e-01
<VARIANCE> 39
 3.655639e+01 2.331520e+01 2.605025e+01 3.424191e+01 2.593830e+01 4.612044e+01 3.385865e+01 3.784322e+01 3.857649e+01 3.248071e+01 2.689779e+01 2.294816e+01 2.609631e+01 4.014554e+00 2.718774e+00 3.807794e+00 6.698747e+00 2.913547e+00 5.035198e+00 4.549418e+00 4.331875e+00 4.310058e+00 3.399442e+00 4.040790e+00 2.777391e+00 2.616466e+00 4.605474e-01 5.925962e-01 4.539662e-01 6.768128e-01 5.538614e-01 6.417380e-01 7.480975e-01 5.665767e-01 6.226216e-01 4.733530e-01 5.047191e-01 4.928685e-01 4.878896e-01
<GCONST> 1.259398e+02
<STATE> 3
<NUMMIXES> 3
<MIXTURE> 1 1.621966e-01
<MEAN> 39
 -1.472772e+01 -2.758233e+00 -1.227863e+00 7.532757e-01 -5.293511e-01 -8.019528e-01 7.607237e-02 3.725721e+00 5.098768e-01 -2.176757e+00 5.576385e-01 1.227232e+00 5.575512e+01 1.777476e-01 5.941709e-01 3.046803e-01 4.214262e-01 5.587260e-01 6.273579e-01 4.791772e-01 8.679090e-02 3.115174e-01 3.469082e-01 3.329709e-02 -4.052444e-02 -7.669888e-01 -1.103826e-03 1.248143e-01 1.023029e-01 3.762531e-02 1.526868e-02 1.069205e-01 5.082070e-02 -2.409997e-02 1.773385e-02 8.537063e-02 5.956179e-02 -6.631087e-02 2.645887e-04
<VARIANCE> 39
 1.271041e+01 3.986174e+01 1.936242e+01 1.642504e+01 1.579631e+01 2.692956e+01 2.690103e+01 1.983630e+01 2.057483e+01 2.115212e+01 1.695701e+01 1.705534e+01 3.569268e+01 7.189225e-01 1.365422e+00 9.733821e-01 9.845248e-01 1.143722e+00 1.571317e+00 1.588304e+00 1.595108e+00 1.561942e+00 1.602742e+00 1.493488e+00 1.384010e+00 1.024634e+00 1.054497e-01 2.047793e-01 2.059227e-01 2.149388e-01 2.452246e-01 3.205175e-01 3.678383e-01 3.472487e-01 3.138287e-01 3.630846e-01 3.266405e-01 3.274276e-01 1.631424e-01
<GCONST> 9.666578e+01
<MIXTURE> 2 4.440378e-01
<MEAN> 39
 -1.613531e+01 3.484559e+00 -2.291423e+00 2.626867e+00 -1.188565e+00 1.334883e+00 -1.333709e-01 1.589008e+00 4.581790e-01 -2.246981e-01 1.068694e+00 3.431937e-02 5.530696e+01 -6.216428e-01 -1.298645e+00 -8.670393e-01 -6.813859e-01 -6.954663e-01 -4.660955e-01 -3.302084e-01 1.246234e-01 1.080403e-01 -3.789953e-02 2.332729e-01 3.494387e-01 1.268484e+00 6.050732e-01 -1.761903e-01 4.687636e-02 -3.744119e-01 -4.014652e-01 -5.213548e-01 -3.601739e-01 -1.991884e-01 -9.529868e-02 -2.083629e-01 -2.484349e-01 -5.002629e-02 7.983671e-01
<VARIANCE> 39
 2.218394e+01 2.319081e+01 1.938684e+01 1.998687e+01 1.959484e+01 2.170949e+01 2.042538e+01 1.791035e+01 1.899265e+01 1.641859e+01 1.519314e+01 1.399173e+01 2.997466e+01 2.490995e+00 2.293445e+00 2.145555e+00 2.360447e+00 2.222446e+00 2.115616e+00 2.597628e+00 2.527632e+00 2.499566e+00 2.067154e+00 2.001017e+00 1.943647e+00 4.006961e+00 6.305086e-01 4.499075e-01 5.013386e-01 5.107402e-01 5.257424e-01 5.975792e-01 5.943534e-01 5.614063e-01 5.164635e-01 4.292117e-01 5.268408e-01 4.437982e-01 7.016702e-01
<GCONST> 1.133288e+02
<MIXTURE> 3 3.937656e-01
<MEAN> 39
 -1.627959e+01 -6.264670e-01 -1.198904e+00 7.890612e-01 -1.018116e+00 -1.398935e-01 4.479353e-01 3.474823e+00 7.581010e-01 -9.582850e-01 1.336470e+00 5.539364e-01 5.616220e+01 -1.671917e-01 -1.951797e-01 -3.468229e-02 -4.208247e-02 -4.986398e-02 -2.619959e-02 -7.527411e-02 -2.208701e-02 -6.513904e-02 -9.226404e-03 9.565122e-03 -1.975013e-02 -7.742593e-02 1.253786e-01 1.343301e-02 -1.855683e-02 -2.770270e-02 -4.926787e-02 -6.113150e-02 -8.207794e-02 -9.834733e-02 -5.419881e-02 -6.159863e-02 -5.417475e-02 -2.460783e-02 1.828139e-01
<VARIANCE> 39
 2.173434e+01 4.586468e+01 1.897903e+01 2.148263e+01 1.706407e+01 2.503152e+01 2.188230e+01 1.955843e+01 1.976171e+01 1.850720e+01 1.441411e+01 1.397908e+01 4.244649e+01 7.450979e-01 1.043482e+00 9.292236e-01 1.019100e+00 1.076219e+00 1.306670e+00 1.374300e+00 1.599847e+00 1.552566e+00 1.560881e+00 1.449138e+00 1.385283e+00 1.073255e+00 1.932752e-01 2.188793e-01 2.205750e-01 2.178093e-01 2.480165e-01 2.826408e-01 3.066050e-01 3.357052e-01 3.393546e-01 3.175070e-01 2.791144e-01 2.805384e-01 2.877919e-01
<GCONST> 9.698912e+01
<STATE> 4
<NUMMIXES> 3
<MIXTURE> 1 2.166431e-01
<MEAN> 39
 -1.729714e+01 -1.520113e+00 -6.066542e+00 2.112562e+00 -1.599741e+00 -4.128543e+00 -3.318159e+00 1.545926e+00 2.639897e+00 1.341327e+00 1.441614e+00 2.410190e+00 6.315894e+01 8.065842e-01 -1.193351e-01 9.893240e-01 6.119985e-01 1.185803e+00 -2.222213e-01 7.509398e-01 7.711782e-01 3.504274e-01 6.199443e-01 -7.314767e-02 3.692982e-01 -1.093788e+00 5.374730e-01 5.716923e-01 5.875936e-01 -6.824836e-03 9.505823e-03 4.616504e-01 3.364995e-01 -8.401154e-02 -3.962959e-01 -1.832693e-01 -9.804352e-02 -3.753142e-01 -9.703058e-01
<VARIANCE> 39
 2.582492e+01 3.018784e+01 2.898216e+01 4.635025e+01 4.588788e+01 4.060215e+01 3.316051e+01 3.007280e+01 3.497726e+01 3.374915e+01 2.192619e+01 2.136823e+01 2.123250e+01 2.383868e+00 3.275447e+00 2.768037e+00 3.148309e+00 4.190651e+00 3.168606e+00 3.384679e+00 3.198056e+00 3.182393e+00 2.466208e+00 2.124826e+00 2.339700e+00 5.007555e+00 6.435339e-01 5.565481e-01 5.691890e-01 1.286700e+00 1.079371e+00 7.295945e-01 9.005793e-01 8.195432e-01 8.639323e-01 6.724796e-01 5.205504e-01 5.750658e-01 5.747967e-01
<GCONST> 1.265320e+02
<MIXTURE> 2 4.089639e-01
<MEAN> 39
 -1.319950e+01 -3.674605e-01 -2.440088e+00 6.840194e-01 -4.619797e+00 -3.430514e+00 -2.135825e+00 4.034332e-01 -1.584924e-01 -1.945016e+00 -8.805938e-01 -3.681803e-01 6.156581e+01 3.489931e+00 -8.871189e-01 -2.749676e-01 -1.310357e+00 -1.767245e+00 -2.710367e+00 -2.372272e+00 -9.178892e-01 -4.271892e-01 -9.300691e-01 -1.325489e+00 -5.358090e-01 2.624881e+00 6.656930e-01 -4.621951e-02 2.889602e-02 -3.539704e-01 -1.539255e-01 -3.064312e-01 -3.873959e-01 -1.295580e-02 -1.398159e-01 -5.671136e-03 -1.087255e-01 -7.137451e-02 2.637859e-01
<VARIANCE> 39
 3.873922e+01 3.317152e+01 2.695093e+01 3.590321e+01 2.961224e+01 4.591969e+01 3.051555e+01 2.517822e+01 2.668817e+01 2.292046e+01 2.740188e+01 2.192065e+01 3.478364e+01 3.590465e+00 3.602114e+00 3.948549e+00 5.027717e+00 5.175441e+00 5.644202e+00 4.787238e+00 4.399384e+00 5.195289e+00 2.738745e+00 3.929245e+00 3.057159e+00 5.035383e+00 8.031688e-01 5.270827e-01 8.393857e-01 8.072413e-01 8.143806e-01 1.102797e+00 8.498156e-01 7.078059e-01 7.637473e-01 5.467988e-01 6.931168e-01 5.167180e-01 7.896370e-01
<GCONST> 1.306604e+02
<MIXTURE> 3 3.743934e-01
<MEAN> 39
 -1.607183e+01 -2.377460e+00 -3.524123e+00 -9.591400e-01 -5.935127e+00 -2.042343e+00 -1.938258e+00 2.043418e+00 1.661498e+00 3.120615e-01 1.234635e+00 1.713349e-01 6.363633e+01 1.260738e+00 -9.993376e-01 3.975671e-01 2.034417e-01 -3.767681e-01 -8.968337e-01 -8.440529e-01 -1.867990e-01 2.814664e-01 6.021900e-02 -1.926732e-01 -4.629815e-01 1.099465e+00 7.982816e-01 4.184487e-01 2.151933e-01 2.878100e-01 4.295018e-01 -5.590880e-02 -3.334784e-01 -3.034998e-01 -2.596163e-01 -2.260794e-01 -1.789561e-01 -1.098815e-01 -4.492192e-01
<VARIANCE> 39
 4.313346e+01 4.079421e+01 3.700533e+01 3.041239e+01 3.220681e+01 3.522358e+01 3.617407e+01 3.123776e+01 3.103677e+01 2.743361e+01 2.521313e+01 2.548498e+01 2.927365e+01 5.196110e+00 3.418905e+00 3.622851e+00 5.394153e+00 4.616679e+00 3.452437e+00 4.281902e+00 4.079390e+00 3.670163e+00 2.432511e+00 2.506758e+00 2.844381e+00 5.812445e+00 8.624965e-01 5.839422e-01 1.035752e+00 8.557212e-01 7.462526e-01 7.377287e-01 1.090994e+00 8.323350e-01 6.820596e-01 5.511460e-01 5.142699e-01 6.019256e-01 6.579452e-01
<GCONST> 1.301518e+02
<TRANSP> 5
 0.000000e+00 1.000000e+00 0.000000e+00 0.000000e+00 0.000000e+00
 0.000000e+00 5.945538e-01 4.054461e-01 0.000000e+00 0.000000e+00
 0.000000e+00 0.000000e+00 8.215065e-01 1.784935e-01 0.000000e+00
 0.000000e+00 0.000000e+00 0.000000e+00 6.732970e-01 3.267029e-01
 0.000000e+00 0.000000e+00 0.000000e+00 0.000000e+00 0.000000e+00
<ENDHMM>
~h "uh"
<BEGINHMM>
<NUMSTATES> 5
<STATE> 2
<NUMMIXES> 3
<MIXTURE> 1 1.745680e-01
<MEAN> 39
 1.285360e+00 -1.086019e+00 -3.112125e+00 -7.049675e+00 -9.402286e+00 7.160480e+00 -1.967995e+01 -3.176984e+00 -4.067183e+00 3.136596e+00 6.670819e+00 -2.742543e+00 7.168327e+01 1.130171e+00 -8.442494e-01 1.057359e+00 -9.441559e-01 -1.371291e+00 -5.725546e-02 -2.780280e+00 5.595063e-01 3.682271e-01 1.008075e+00 6.845946e-01 -1.572697e+00 2.135935e+00 -9.428001e-01 -4.195915e-02 1.256174e-01 7.725081e-01 5.219746e-01 -6.491133e-01 9.581051e-01 4.868814e-01 5.259215e-01 -2.728428e-01 -5.834184e-01 1.441006e-01 -7.631744e-01
<VARIANCE> 39
 9.764639e+00 1.402166e+01 2.287710e+01 3.970571e+01 1.260720e+01 4.238925e+01 3.476866e+01 3.537978e+01 1.921049e+01 3.262653e+01 2.871947e+01 4.013262e+01 1.047145e+01 2.993915e+00 1.456905e+00 1.648753e+00 3.410645e+00 2.496365e+00 4.886126e+00 3.152130e+00 2.566065e+00 2.533050e+00 2.805030e+00 2.289742e+00 2.916670e+00 1.588501e+00 3.739049e-01 5.519208e-01 3.097777e-01 4.161824e-01 3.792199e-01 6.881851e-01 7.480816e-01 4.503106e-01 3.747378e-01 7.644727e-01 4.589335e-01 9.605750e-01 3.092111e-01
<GCONST> 1.154563e+02
<MIXTURE> 2 4.586451e-01
<MEAN> 39
 -2.546931e-01 -3.669901e-01 -4.611259e+00 -7.372454e+00 -9.670306e+00 -6.934597e+00 -1.287372e+01 -6.398516e+00 -7.433367e+00 -4.144028e+00 -3.160672e+00 -3.743223e+00 6.822073e+01 2.339806e+00 3.295721e-02 -7.582496e-01 -1.818731e+00 -1.083995e+00 -5.365345e-01 -1.404477e+00 -2.753267e-01 -7.180185e-01 -2.181461e-02 -5.856664e-01 -8.954273e-02 1.104283e+00 -8.909523e-01 -3.401016e-01 8.510505e-02 2.963543e-01 2.579643e-01 4.099492e-01 4.533214e-01 4.835954e-01 3.748815e-01 2.446514e-01 3.565647e-01 1.773522e-01 -1.371492e-01
<VARIANCE> 39
 3.218750e+01 4.114062e+01 4.733862e+01 6.156878e+01 4.832919e+01 1.041645e+02 5.558657e+01 5.096301e+01 7.026649e+01 5.418800e+01 6.143590e+01 3.621944e+01 1.775759e+01 5.705096e+00 3.060653e+00 3.419542e+00 4.637534e+00 6.082701e+00 5.772558e+00 7.448115e+00 6.501677e+00 5.682315e+00 4.162839e+00 5.136324e+00 4.137887e+00 1.802798e+00 6.656415e-01 4.732455e-01 4.142581e-01 7.135473e-01 6.095631e-01 1.140995e+00 9.474411e-01 9.128839e-01 8.300522e-01 7.655356e-01 7.264709e-01 5.272337e-01 1.895840e-01
<GCONST> 1.360590e+02
<MIXTURE> 3 3.667869e-01
<MEAN> 39
 1.284477e+00 -7.028855e-01 -5.668806e+00 -8.115405e+00 -1.044721e+01 9.012355e-01 -1.705100e+01 -6.014474e+00 -3.872858e+00 1.138183e+00 4.246487e+00 -5.152792e+00 7.074955e+01 -7.912213e-02 -1.173880e+00 4.358890e-01 8.613766e-01 -8.046465e-01 -1.069048e+00 -8.583986e-01 7.081305e-01 1.588796e+00 4.001409e-01 -4.484403e-01 -4.856308e-01 8.775363e-01 -2.745774e-01 3.415083e-01 4.050577e-01 3.995802e-01 2.143389e-01 -2.206777e-01 8.348310e-01 3.664652e-01 -1.565221e-01 -7.206312e-01 -5.172117e-01 4.075643e-01 -7.098732e-01
<VARIANCE> 39
 1.283413e+01 4.233070e+01 3.312289e+01 5.192093e+01 3.877472e+01 7.897547e+01 7.292434e+01 6.428546e+01 6.455659e+01 6.065102e+01 7.398159e+01 4.498987e+01 1.848477e+01 1.164222e+00 1.744254e+00 2.951290e+00 5.796409e+00 3.664182e+00 5.494451e+00 3.824436e+00 5.133728e+00 5.530055e+00 3.816910e+00 5.149485e+00 3.699226e+00 1.109185e+00 3.341449e-01 5.991426e-01 3.625550e-01 4.882019e-01 6.350923e-01 8.327223e-01 1.370478e+00 8.066109e-01 1.004421e+00 1.111748e+00 1.028670e+00 8.426311e-01 4.388378e-01
<GCONST> 1.320990e+02
<STATE> 3
<NUMMIXES> 3
<MIXTURE> 1 1.784858e-01
<MEAN> 39
 -1.334829e+00 -3.723146e+00 2.127644e+00 -2.736861e+00 -1.215839e+01 5.301878e-02 -2.433608e+01 3.240212e+00 7.108161e-01 1.172239e+00 3.705102e+00 -6.207439e+00 7.363817e+01 -2.967632e-01 8.166624e-01 1.934456e+00 2.003311e+00 1.708703e-01 -2.008048e+00 1.623101e+00 5.230629e-01 6.706548e-01 -2.064713e+00 -1.567739e+00 1.390455e+00 -1.568434e+00 -1.149997e-01 1.188093e+00 -1.197379e-01 2.408550e-01 1.048582e+00 8.907653e-02 1.722307e+00 -8.141466e-01 -4.889865e-01 -3.836004e-01 -3.831412e-01 7.357717e-01 -1.513572e+00
<VARIANCE> 39
 8.796622e+00 1.253055e+01 1.792884e+01 1.909205e+01 2.225816e+01 2.917494e+01 2.271783e+01 2.958914e+01 3.110843e+01 3.225605e+01 1.910350e+01 2.008478e+01 9.758783e+00 6.656043e-01 1.939010e+00 2.068346e+00 2.353388e+00 3.697897e+00 3.752428e+00 3.844880e+00 3.470707e+00 3.451265e+00 3.125668e+00 3.231834e+00 2.222256e+00 2.023418e+00 3.467061e-01 3.416920e-01 2.157139e-01 3.576423e-01 4.846116e-01 5.539314e-01 6.771966e-01 5.552994e-01 7.934547e-01 7.926688e-01 5.815879e-01 5.529214e-01 3.418527e-01
<GCONST> 1.127950e+02
<MIXTURE> 2 5.075716e-01
<MEAN> 39
 6.168540e-01 -3.714710e+00 -6.438294e+00 -1.059718e+01 -9.817927e+00 -5.446463e+00 -1.341305e+01 -2.919369e+00 -3.413353e+00 -1.215215e+00 -4.970199e+00 -2.915718e+00 7.114639e+01 -1.014716e-01 -2.867263e-01 4.524221e-01 4.438382e-01 -3.879339e-01 -6.068472e-01 3.698907e-02 6.308381e-01 7.384959e-02 -4.949211e-01 -2.128458e-01 6.827907e-01 -6.118624e-02 -2.225548e-01 4.523384e-01 3.348490e-01 4.574388e-01 2.900515e-01 2.419476e-01 2.498417e-01 -2.385279e-01 -1.379609e-01 -1.617797e-01 3.661630e-01 6.861150e-02 -5.591100e-01
<VARIANCE> 39
 1.640384e+01 3.561002e+01 3.080852e+01 5.857009e+01 4.339159e+01 1.219465e+02 6.021902e+01 5.358216e+01 6.409598e+01 5.905618e+01 9.457514e+01 3.940666e+01 1.723319e+01 5.489098e-01 1.454217e+00 2.643592e+00 2.656393e+00 3.208158e+00 3.255943e+00 2.830463e+00 3.004816e+00 3.564323e+00 3.259068e+00 3.538970e+00 2.751727e+00 7.281776e-01 3.556574e-01 3.277346e-01 3.243700e-01 4.997251e-01 4.566839e-01 7.688515e-01 6.395949e-01 6.200867e-01 8.141773e-01 5.485190e-01 7.609667e-01 5.792586e-01 2.663048e-01
<GCONST> 1.232406e+02
<MIXTURE> 3 3.139427e-01
<MEAN> 39
 3.188482e-02 -4.391285e+00 -2.833007e+00 -6.110792e+00 -1.092836e+01 -1.239961e+00 -1.764100e+01 -1.889900e+00 4.340834e-01 2.154305e+00 1.728547e+00 -4.574505e+00 7.232536e+01 -1.556223e-01 -4.221725e-02 9.013099e-01 8.692555e-01 -3.906332e-01 -7.380213e-01 8.750656e-02 4.833572e-01 5.033242e-01 -6.679381e-01 -6.132973e-01 4.446062e-01 -4.207719e-01 -2.258368e-01 6.939336e-01 1.703653e-01 2.945170e-01 5.396460e-01 1.136336e-01 7.545024e-01 -1.202831e-01 -3.953020e-01 -4.312439e-01 -1.483821e-01 3.596537e-01 -8.713760e-01
<VARIANCE> 39
 1.241790e+01 2.222294e+01 3.524497e+01 5.334629e+01 3.863075e+01 9.201267e+01 5.908560e+01 7.104714e+01 4.692383e+01 5.093619e+01 5.572276e+01 3.816614e+01 2.055666e+01 6.464905e-01 1.464319e+00 2.915971e+00 3.389623e+00 2.898668e+00 4.286541e+00 3.067937e+00 3.581591e+00 3.028709e+00 3.654877e+00 3.959244e+00 3.110516e+00 1.270021e+00 3.293796e-01 3.594999e-01 2.896421e-01 4.095495e-01 5.910119e-01 6.621376e-01 8.243763e-01 8.367154e-01 7.375632e-01 5.939835e-01 6.321726e-01 7.227802e-01 4.177643e-01
<GCONST> 1.240699e+02
<STATE> 4
<NUMMIXES> 3
<MIXTURE> 1 1.484765e-01
<MEAN> 39
 -7.826386e-01 2.278785e+00 -1.971685e-01 -4.796547e+00 -5.166059e+00 -5.680165e-01 -1.966953e+01 -3.441873e+00 -2.271959e+00 9.574814e-01 5.378819e-01 -3.092990e+00 6.616158e+01 -1.443241e+00 2.949512e+00 1.638097e+00 3.180988e+00 2.192904e+00 -1.501512e+00 3.640761e+00 -3.929518e-01 3.816180e-01 -9.162521e-01 -9.239612e-01 1.296474e+00 -4.079914e+00 -7.024885e-01 -2.409743e-01 -1.558258e-01 6.550573e-02 6.141749e-02 3.063619e-01 1.196908e+00 8.045133e-02 9.414708e-02 7.448355e-02 3.992064e-01 1.181527e-01 -3.596410e-01
<VARIANCE> 39
 1.095744e+01 3.028283e+01 4.799788e+01 6.743983e+01 3.279205e+01 6.535689e+01 4.155303e+01 5.962117e+01 5.786565e+01 3.810334e+01 4.443136e+01 2.337779e+01 2.373584e+01 2.033811e+00 1.577208e+00 1.853600e+00 2.355707e+00 2.371364e+00 3.841177e+00 4.092989e+00 3.866071e+00 2.975665e+00 4.978000e+00 5.658658e+00 2.639304e+00 2.277012e+00 3.375955e-01 5.693659e-01 4.907904e-01 5.907617e-01 5.717725e-01 1.159138e+00 7.393635e-01 9.440619e-01 1.430182e+00 6.476273e-01 6.644390e-01 5.137480e-01 3.466123e-01
<GCONST> 1.268237e+02
<MIXTURE> 2 4.757698e-01
<MEAN> 39
 -6.494144e-02 -2.286350e+00 -1.708671e+00 -6.147367e+00 -1.239133e+01 -7.955878e+00 -1.276709e+01 -3.731400e+00 -5.457069e+00 -4.671235e+00 -2.966276e+00 1.364139e+00 6.913778e+01 -2.225986e-01 1.229864e+00 8.674189e-01 1.222456e+00 8.495350e-01 4.454761e-01 6.027988e-01 -4.957573e-01 7.316277e-02 -5.494235e-01 2.387499e-01 -1.800344e-01 -1.513905e+00 -2.861662e-01 4.209435e-01 -2.453469e-03 2.643643e-01 5.936221e-01 3.697396e-01 2.600813e-01 -5.418260e-02 1.622974e-01 1.477166e-01 6.746496e-02 -5.481506e-01 -4.884942e-01
<VARIANCE> 39
 2.354423e+01 3.481901e+01 9.658015e+01 6.347021e+01 5.836629e+01 1.056201e+02 5.926192e+01 5.665811e+01 5.903374e+01 5.535577e+01 9.617937e+01 4.630714e+01 1.747898e+01 1.294576e+00 3.343291e+00 5.030148e+00 4.051822e+00 3.338099e+00 3.894738e+00 4.477333e+00 3.571431e+00 4.750773e+00 4.482527e+00 3.971285e+00 3.645740e+00 3.011689e+00 3.598611e-01 4.404747e-01 5.710781e-01 6.655035e-01 7.536932e-01 8.904547e-01 6.780650e-01 6.611591e-01 8.610973e-01 7.492583e-01 7.543617e-01 8.558610e-01 3.926380e-01
<GCONST> 1.341365e+02
<MIXTURE> 3 3.757541e-01
<MEAN> 39
 -1.066361e+00 -2.931155e+00 3.261016e+00 9.671276e-01 -1.403661e+01 -5.591646e+00 -1.550757e+01 -3.913974e+00 -8.259654e-02 -2.691925e+00 -1.488227e+00 -1.186772e-01 6.833727e+01 -2.894045e-01 2.826210e+00 1.587247e+00 2.193879e+00 2.242386e+00 -6.538278e-01 2.755183e+00 -2.366323e-01 -1.598850e-01 -1.054036e+00 -1.373240e+00 8.375090e-02 -3.815073e+00 -3.090229e-01 6.544714e-01 -4.316401e-01 -3.627499e-01 9.853774e-01 5.254576e-01 5.240465e-01 -4.632322e-02 -3.662832e-01 3.112870e-01 1.997355e-01 -4.039638e-01 -6.682128e-01
<VARIANCE> 39
 1.122865e+01 3.117933e+01 5.155817e+01 5.320696e+01 4.083739e+01 5.092418e+01 4.205134e+01 7.620882e+01 4.370966e+01 4.082832e+01 4.753819e+01 2.590868e+01 2.361794e+01 1.140180e+00 2.431782e+00 2.200822e+00 2.156534e+00 3.708850e+00 4.909338e+00 4.527005e+00 4.866906e+00 3.809574e+00 3.393997e+00 4.599018e+00 4.502662e+00 1.793041e+00 2.061376e-01 6.623920e-01 5.524781e-01 6.651747e-01 7.228414e-01 6.690949e-01 6.980610e-01 7.786803e-01 8.927020e-01 6.721373e-01 6.524567e-01 5.636321e-01 4.545090e-01
<GCONST> 1.270473e+02
<TRANSP> 5
 0.000000e+00 1.000000e+00 0.000000e+00 0.000000e+00 0.000000e+00
 0.000000e+00 5.555664e-01 4.444337e-01 0.000000e+00 0.000000e+00
 0.000000e+00 0.000000e+00 5.626963e-01 4.373037e-01 0.000000e+00
 0.000000e+00 0.000000e+00 0.000000e+00 4.101231e-01 5.898769e-01
 0.000000e+00 0.000000e+00 0.000000e+00 0.000000e+00 0.000000e+00
<ENDHMM>
~h "uw"
<BEGINHMM>
<NUMSTATES> 5
<STATE> 2
<NUMMIXES> 3
<MIXTURE> 1 1.813850e-01
<MEAN> 39
 -2.503498e+00 -1.447803e+00 9.884446e+00 -2.064099e-01 -1.252679e+01 -4.050459e-01 -1.733585e+01 2.578891e+00 -9.247065e+00 -6.696340e+00 6.343134e+00 -4.379562e+00 7.091254e+01 6.643357e-01 -4.208160e-01 2.015305e-01 -3.320813e-03 -6.517965e-01 4.434504e-01 -1.888366e+00 4.519992e-01 -1.143048e-01 -4.990447e-03 8.156329e-01 -9.677410e-01 7.389514e-01 -4.070806e-01 5.311933e-01 -4.671191e-01 1.302307e-01 7.482856e-01 2.838756e-02 9.209577e-01 -4.436206e-01 -3.606428e-03 4.558126e-01 -4.712662e-01 1.496048e-01 -7.112204e-01
<VARIANCE> 39
 1.746243e+01 1.775991e+01 7.605937e+01 3.237782e+01 4.819707e+01 3.669574e+01 5.453287e+01 5.305054e+01 7.059091e+01 3.094876e+01 2.165323e+01 2.080769e+01 1.278192e+01 2.197624e+00 1.561164e+00 3.387883e+00 1.818771e+00 5.093836e+00 2.460695e+00 3.969680e+00 4.012907e+00 4.066017e+00 2.643668e+00 3.012884e+00 2.499798e+00 1.770084e+00 6.676850e-01 2.910942e-01 5.431374e-01 3.845748e-01 7.250779e-01 4.753000e-01 6.822815e-01 7.144330e-01 9.597182e-01 4.786777e-01 3.817269e-01 4.192594e-01 1.867220e-01
<GCONST> 1.210555e+02
<MIXTURE> 2 4.221092e-01
<MEAN> 39
 -5.083847e+00 2.276152e-01 5.538857e+00 -4.391896e+00 -1.548797e+01 -1.138335e+01 -1.152909e+01 -6.642225e+00 -1.232596e+01 -5.712852e+00 -3.940161e+00 -1.373966e+00 6.775735e+01 3.224970e+00 -2.255433e-01 -3.076497e-02 -5.065519e-01 -1.397109e+00 -1.176621e+00 -2.024066e+00 -1.200522e+00 -8.485224e-01 -4.395349e-01 -1.072491e+00 -6.162956e-03 5.578856e-01 -8.590627e-01 2.165358e-02 -4.801034e-01 -3.221310e-02 8.694309e-01 8.726394e-01 2.898536e-01 4.887535e-01 7.270487e-01 3.535101e-01 2.567021e-01 5.965426e-02 -2.898192e-01
<VARIANCE> 39
 3.348229e+01 3.706222e+01 5.889699e+01 7.153707e+01 5.060282e+01 5.695958e+01 3.971835e+01 3.569631e+01 4.251147e+01 4.024727e+01 4.263874e+01 3.396815e+01 1.928478e+01 6.464292e+00 3.623887e+00 4.047034e+00 5.375865e+00 7.104262e+00 5.719598e+00 5.876327e+00 6.845488e+00 5.871593e+00 4.213523e+00 4.180981e+00 3.851664e+00 1.386220e+00 7.749497e-01 6.061133e-01 4.841272e-01 6.807036e-01 8.074485e-01 6.709700e-01 7.874330e-01 9.923832e-01 6.949938e-01 6.278449e-01 5.894593e-01 5.406386e-01 2.866357e-01
<GCONST> 1.340516e+02
<MIXTURE> 3 3.965056e-01
<MEAN> 39
 -2.870215e+00 -2.211261e+00 7.938692e+00 3.218326e+00 -1.545575e+01 -7.695214e+00 -1.333276e+01 -3.201718e+00 -8.077702e+00 -8.542892e+00 1.731514e+00 -1.371869e+00 6.958337e+01 1.282945e+00 -3.122101e-01 -8.509467e-01 1.694091e-01 1.240306e-01 1.052574e-01 -1.959492e+00 -2.313665e-01 6.315708e-01 -4.217189e-02 -2.220566e-01 -4.073512e-01 3.613334e-01 -5.351217e-01 4.608771e-01 -3.575997e-01 -3.666649e-01 7.978517e-01 6.026070e-01 4.473897e-01 -1.888951e-01 6.382823e-02 6.267160e-01 -1.599994e-01 -1.901442e-01 -5.467896e-01
<VARIANCE> 39
 1.706600e+01 2.606234e+01 5.740056e+01 6.828372e+01 3.483901e+01 5.941950e+01 4.761811e+01 5.562368e+01 6.549063e+01 5.075867e+01 4.219408e+01 3.941932e+01 1.955372e+01 2.562956e+00 1.565026e+00 3.863546e+00 2.601569e+00 5.423146e+00 3.038748e+00 4.043119e+00 4.119773e+00 3.870792e+00 3.788927e+00 2.441562e+00 2.904718e+00 1.503663e+00 6.394598e-01 3.479537e-01 5.094063e-01 5.747270e-01 6.751699e-01 6.075149e-01 6.627536e-01 9.400512e-01 9.265082e-01 6.515598e-01 4.849863e-01 5.109684e-01 2.225983e-01
<GCONST> 1.269308e+02
<STATE> 3
<NUMMIXES> 3
<MIXTURE> 1 1.636213e-01
<MEAN> 39
 -3.908533e-01 2.494212e-01 3.733170e+00 -4.903955e-01 -7.893786e+00 -3.396305e-01 -2.193583e+01 -5.049309e+00 -8.259271e+00 -2.505360e+00 2.827040e+00 -7.114695e+00 6.820625e+01 5.633948e-01 1.628143e+00 -1.183213e+00 -9.513413e-01 1.568741e+00 1.375265e+00 1.030270e+00 -1.784960e+00 -5.985883e-01 1.267090e+00 7.532035e-02 4.713005e-01 -1.244218e+00 -7.074753e-01 4.542942e-01 1.578323e-01 1.025303e-01 2.843001e-02 -1.915400e-01 1.564320e+00 4.096317e-01 -2.636877e-02 -3.482084e-01 -1.232445e-01 6.777596e-01 -5.467831e-01
<VARIANCE> 39
 1.224084e+01 2.384947e+01 4.765170e+01 4.318602e+01 3.504792e+01 7.527156e+01 4.867615e+01 5.939132e+01 4.755689e+01 4.970705e+01 4.011644e+01 3.606121e+01 1.386852e+01 1.752013e+00 1.662907e+00 3.293255e+00 4.336027e+00 3.911010e+00 4.867637e+00 4.289580e+00 4.266168e+00 5.300351e+00 4.078773e+00 3.114161e+00 3.525597e+00 1.793738e+00 4.346659e-01 4.085877e-01 4.628432e-01 5.269535e-01 9.371105e-01 7.771632e-01 6.083140e-01 9.444811e-01 8.857816e-01 8.279551e-01 5.677534e-01 5.057749e-01 2.787997e-01
<GCONST> 1.272949e+02
<MIXTURE> 2 4.046245e-01
<MEAN> 39
 -1.208316e+00 -1.065177e+00 1.979606e+00 -3.362203e+00 -1.305717e+01 -9.306005e+00 -1.512935e+01 -5.336424e+00 -8.494885e+00 -4.533774e+00 -5.584116e+00 -1.175449e+00 6.824031e+01 2.289377e-01 4.848899e-01 -6.950244e-01 -7.648492e-02 7.301747e-01 6.672648e-01 -6.539272e-01 -6.384288e-01 5.543357e-01 2.870807e-01 -3.193693e-01 -2.816269e-01 -3.874921e-01 -2.521946e-01 2.366213e-01 1.232601e-01 3.446870e-02 2.194420e-01 2.206088e-01 4.033580e-01 -1.170158e-01 -1.014773e-01 2.494137e-02 2.472577e-01 -3.648534e-02 -1.779762e-01
<VARIANCE> 39
 1.706172e+01 3.410625e+01 5.519562e+01 8.558889e+01 4.086625e+01 7.166845e+01 7.645156e+01 5.015482e+01 5.070889e+01 5.256204e+01 6.134587e+01 4.952040e+01 1.840501e+01 5.345408e-01 9.412556e-01 1.883343e+00 1.824483e+00 2.551945e+00 2.591749e+00 2.585150e+00 2.922893e+00 2.431357e+00 3.012602e+00 2.095807e+00 1.981064e+00 4.162162e-01 2.236921e-01 2.749998e-01 2.777733e-01 3.023235e-01 4.896594e-01 4.203168e-01 5.823308e-01 5.892430e-01 5.173807e-01 4.660272e-01 4.532596e-01 3.983748e-01 1.032337e-01
<GCONST> 1.152340e+02
<MIXTURE> 3 4.317546e-01
<MEAN> 39
 -4.796186e-01 9.173307e-01 4.307883e+00 -7.453491e-01 -1.002444e+01 3.322729e-01 -1.861884e+01 -5.195507e+00 -8.616276e+00 -4.001741e+00 2.936335e+00 -5.079343e+00 6.901271e+01 1.149397e-01 3.838442e-01 -2.749214e-01 -1.748572e-01 5.014660e-01 5.066607e-01 -9.326478e-02 -6.083279e-01 -2.232981e-02 3.503701e-01 -2.386840e-01 1.213017e-02 -3.713207e-01 -1.473252e-01 1.063232e-01 9.251160e-02 6.106300e-02 8.855481e-02 -1.299774e-01 4.211751e-01 4.523540e-02 1.523674e-03 -8.383788e-02 -9.684354e-02 2.168390e-01 -1.238350e-01
<VARIANCE> 39
 1.502194e+01 2.456350e+01 6.651846e+01 5.208572e+01 3.421558e+01 7.972240e+01 8.031850e+01 6.771465e+01 4.177224e+01 4.675426e+01 4.430077e+01 4.040898e+01 1.678668e+01 3.343544e-01 6.250895e-01 1.314267e+00 1.205096e+00 1.539890e+00 1.718952e+00 2.059133e+00 2.023888e+00 2.179830e+00 1.997173e+00 1.543780e+00 1.545795e+00 2.929247e-01 9.822707e-02 1.473880e-01 1.973543e-01 1.919011e-01 2.940539e-01 3.050901e-01 4.072123e-01 3.809525e-01 3.588751e-01 3.349225e-01 2.691958e-01 2.746060e-01 8.117653e-02
<GCONST> 1.035289e+02
<STATE> 4
<NUMMIXES> 3
<MIXTURE> 1 1.623316e-01
<MEAN> 39
 -2.799695e+00 1.939199e+00 7.264067e+00 3.142056e+00 -7.972110e+00 -4.612601e+00 -1.780244e+01 -4.175233e+00 -5.534337e+00 -5.223507e+00 -4.450994e-01 -2.701694e+00 6.641773e+01 -1.955686e+00 2.534865e+00 -2.287804e-01 1.090805e+00 2.397003e+00 -1.083992e+00 3.059115e+00 6.374789e-01 1.067882e+00 5.463866e-01 -9.430497e-01 1.265206e+00 -2.003853e+00 -9.158966e-01 2.279009e-01 -2.421401e-01 -1.709401e-01 3.991586e-01 2.683815e-01 8.037715e-01 4.603692e-01 -1.027084e-01 8.025770e-02 2.138221e-01 4.349515e-02 -2.884254e-01
<VARIANCE> 39
 1.701910e+01 2.512381e+01 3.607422e+01 3.729165e+01 5.483438e+01 5.879551e+01 4.958216e+01 4.227550e+01 4.132786e+01 4.109715e+01 3.264298e+01 3.428149e+01 2.054957e+01 2.343065e+00 2.336933e+00 2.591338e+00 3.477721e+00 3.785139e+00 5.081835e+00 4.480062e+00 5.209010e+00 4.001975e+00 3.843435e+00 2.543572e+00 3.359080e+00 3.479737e+00 3.072028e-01 5.167214e-01 3.725331e-01 4.194525e-01 8.158657e-01 5.319848e-01 6.934228e-01 5.567411e-01 5.222637e-01 6.431458e-01 4.095347e-01 5.684379e-01 2.526904e-01
<GCONST> 1.248702e+02
<MIXTURE> 2 5.210228e-01
<MEAN> 39
 1.677427e+00 4.349037e+00 -4.600950e+00 -8.921679e+00 -8.336590e+00 7.512543e-01 -1.246722e+01 -1.040555e+01 -1.241719e+01 -1.881549e+00 5.607313e-01 -2.002409e+00 6.479678e+01 -3.353849e-02 5.706093e-02 -1.231083e-01 -2.716618e-01 4.473177e-02 1.272339e-01 9.589242e-01 4.142334e-01 3.885353e-01 -3.717623e-01 -1.061449e-01 3.711230e-01 -2.096381e-01 -3.105231e-01 -3.188770e-01 3.270095e-01 4.841679e-01 -6.269731e-03 -4.972675e-01 -3.124616e-02 5.358849e-01 5.220880e-01 -1.050375e-01 -2.276712e-01 -1.005904e-01 9.235969e-02
<VARIANCE> 39
 1.546989e+01 3.826212e+01 3.583720e+01 6.068655e+01 3.586322e+01 7.612376e+01 7.336267e+01 5.137181e+01 5.301909e+01 5.712287e+01 7.095653e+01 3.808085e+01 1.895891e+01 6.819087e-01 2.978864e+00 1.718580e+00 3.448790e+00 2.472569e+00 4.036639e+00 5.401285e+00 4.175601e+00 5.181142e+00 4.772503e+00 3.914309e+00 3.228096e+00 1.442266e+00 1.439808e-01 3.455605e-01 3.177532e-01 3.869493e-01 5.123186e-01 6.068159e-01 8.622628e-01 7.865558e-01 7.685370e-01 9.179165e-01 6.993067e-01 5.607804e-01 1.819249e-01
<GCONST> 1.251247e+02
<MIXTURE> 3 3.166457e-01
<MEAN> 39
 -1.330567e+00 3.044031e+00 1.396661e+00 -1.260072e+00 -9.067232e+00 -5.034161e+00 -1.282701e+01 -8.446781e+00 -7.757661e+00 -4.090873e+00 -1.928210e+00 -1.083017e+00 6.429380e+01 -1.013566e+00 1.107554e+00 3.382979e-01 7.650441e-01 1.275475e+00 -1.574362e-01 1.654066e+00 7.134977e-01 7.136121e-01 -1.884430e-01 -4.387873e-01 2.094486e-02 -1.256531e+00 -5.700908e-01 3.306669e-02 1.469582e-01 9.014830e-02 2.373121e-01 3.311244e-02 3.275322e-01 4.613790e-01 3.994060e-02 2.928213e-02 1.174257e-01 -1.045751e-01 -8.855136e-02
<VARIANCE> 39
 2.455711e+01 4.161965e+01 4.696941e+01 6.757321e+01 5.529322e+01 9.382510e+01 6.593288e+01 5.180219e+01 5.599966e+01 5.006976e+01 6.675887e+01 4.206618e+01 2.698718e+01 2.092981e+00 3.815522e+00 2.426971e+00 3.597300e+00 4.191002e+00 5.065973e+00 5.672496e+00 5.015970e+00 5.018078e+00 3.979619e+00 3.676996e+00 3.474747e+00 2.845875e+00 4.280752e-01 5.381243e-01 3.909598e-01 5.347351e-01 6.768310e-01 6.659160e-01 8.659523e-01 7.179708e-01 8.906341e-01 7.180408e-01 6.358951e-01 5.771535e-01 2.669587e-01
<GCONST> 1.326946e+02
<TRANSP> 5
 0.000000e+00 1.000000e+00 0.000000e+00 0.000000e+00 0.000000e+00
 0.000000e+00 5.263541e-01 4.736459e-01 0.000000e+00 0.000000e+00
 0.000000e+00 0.000000e+00 7.314225e-01 2.685775e-01 0.000000e+00
 0.000000e+00 0.000000e+00 0.000000e+00 5.952256e-01 4.047744e-01
 0.000000e+00 0.000000e+00 0.000000e+00 0.000000e+00 0.000000e+00
<ENDHMM>
~h "zh"
<BEGINHMM>
<NUMSTATES> 5
<STATE> 2
<NUMMIXES> 3
<MIXTURE> 1 2.547190e-01
<MEAN> 39
 -8.434757e+00 2.672114e+00 1.377049e+01 -2.689560e+00 -1.263464e+01 -3.469020e+00 -1.039990e+01 3.126078e+00 -4.413170e+00 -4.533438e+00 5.143847e+00 1.999223e+00 7.357014e+01 -3.805083e+00 3.150718e+00 7.076212e-01 1.743298e+00 1.350565e+00 2.618320e+00 1.564232e+00 -1.314111e+00 1.258353e+00 -2.764936e-02 -1.168490e+00 6.758773e-01 -1.305827e+00 -1.052513e+00 -5.207473e-01 -4.742254e-01 -1.212916e-01 4.541513e-01 7.873046e-01 8.194969e-01 4.513919e-01 2.972053e-01 1.817473e-01 -2.732216e-01 -5.855348e-01 1.949959e-01
<VARIANCE> 39
 1.854408e+01 3.360463e+01 1.163869e+01 1.256659e+01 1.409295e+01 1.708043e+01 1.292229e+01 2.362100e+01 2.533599e+01 1.010823e+01 1.003053e+01 8.620906e+00 1.187918e+01 2.584125e+00 9.658424e-01 1.218822e+00 6.813039e-01 1.663368e+00 2.957350e+00 2.668956e+00 1.590536e+00 1.815836e+00 9.699655e-01 1.896530e+00 1.602101e+00 2.698610e-01 2.681978e-01 7.931601e-01 1.595633e-01 1.608240e-01 2.056220e-01 3.554110e-01 3.521924e-01 2.206697e-01 2.626369e-01 1.826200e-01 2.797458e-01 1.969601e-01 5.320249e-02
<GCONST> 9.166652e+01
<MIXTURE> 2 3.988794e-01
<MEAN> 39
 -6.689629e+00 -1.496221e+00 8.450893e+00 -3.006589e+00 -1.662105e+01 -1.158502e+01 -1.056885e+01 -8.451080e+00 -8.169216e+00 -7.846738e+00 -3.482107e+00 -1.899819e+00 7.101809e+01 -2.649210e+00 1.824584e+00 1.080333e+00 1.745403e+00 -1.011859e-01 8.846433e-01 4.643946e-01 -2.825662e-01 3.308441e-01 -5.879023e-01 3.419481e-01 -1.800607e-01 5.678063e-02 -7.858724e-01 3.060980e-02 -1.643286e-02 7.971063e-02 4.587876e-01 4.699650e-01 1.649224e-01 2.991255e-01 9.187718e-02 3.651204e-01 1.660682e-03 -2.099522e-01 1.536845e-01
<VARIANCE> 39
 4.547379e+01 3.606486e+01 3.877865e+01 6.151983e+01 3.620505e+01 3.728536e+01 3.169426e+01 6.067589e+01 3.017606e+01 3.303362e+01 3.024050e+01 3.922032e+01 2.656028e+01 3.519668e+00 2.241862e+00 1.902885e+00 3.131382e+00 3.070010e+00 2.931944e+00 3.272788e+00 3.941086e+00 1.775216e+00 2.748980e+00 1.673238e+00 2.461857e+00 6.070153e-01 6.841527e-01 6.858531e-01 2.568849e-01 3.323465e-01 3.747556e-01 3.979931e-01 3.967159e-01 6.225044e-01 3.006001e-01 3.809344e-01 2.929105e-01 4.920982e-01 1.229121e-01
<GCONST> 1.172763e+02
<MIXTURE> 3 3.464017e-01
<MEAN> 39
 -1.005087e+01 1.488684e+00 1.057483e+01 6.279387e+00 -1.295950e+01 -7.825996e+00 -8.396444e+00 -3.460248e+00 -3.218090e+00 -5.841116e+00 2.712139e-01 4.562514e-01 6.958211e+01 -4.653292e+00 1.850350e+00 1.660333e+00 1.252103e+00 9.478899e-01 1.754788e+00 2.107903e+00 5.959598e-01 1.468056e-01 2.313192e-01 5.603876e-01 -3.491461e-01 -2.745581e-01 -4.794586e-01 -6.398419e-01 -3.257629e-01 -4.348729e-01 5.186890e-01 7.532978e-01 1.717951e-01 3.557160e-01 2.535980e-01 1.942655e-01 -1.270681e-01 -2.915999e-01 3.886056e-02
<VARIANCE> 39
 4.583934e+01 2.751067e+01 1.974826e+01 6.388506e+01 2.596877e+01 2.526308e+01 2.620134e+01 3.107801e+01 4.450249e+01 3.316914e+01 2.060083e+01 1.802826e+01 2.474533e+01 3.043474e+00 2.894554e+00 2.568822e+00 2.926145e+00 3.063322e+00 4.310414e+00 4.816349e+00 4.516986e+00 2.063127e+00 3.150298e+00 2.125082e+00 4.401114e+00 1.416873e+00 5.673089e-01 5.167309e-01 2.377902e-01 4.514687e-01 4.121083e-01 5.997401e-01 6.148425e-01 5.855316e-01 3.171807e-01 3.436168e-01 3.966127e-01 3.368880e-01 9.826165e-02
<GCONST> 1.174504e+02
<STATE> 3
<NUMMIXES> 3
<MIXTURE> 1 2.300615e-01
<MEAN> 39
 -1.968298e+01 6.152350e+00 1.450478e+01 2.715139e+00 -9.491250e+00 5.746377e-01 -5.869978e+00 -3.215851e+00 -3.162854e+00 -5.304589e+00 -3.013883e-01 -1.468794e+00 7.026549e+01 -4.282949e+00 -4.571384e-01 6.178480e-02 7.147076e-01 1.985374e+00 3.072965e+00 2.048318e+00 7.893291e-01 8.730559e-01 4.161423e-01 -9.714825e-02 -5.444731e-01 -1.574595e-01 7.875396e-01 -1.256781e+00 -7.236870e-01 -4.149078e-01 -3.276581e-01 -4.692599e-01 -1.512106e-01 2.854224e-01 -5.406201e-02 1.274850e-01 2.218619e-01 -4.289005e-03 1.107101e-01
<VARIANCE> 39
 2.964110e+01 2.667495e+01 2.484013e+01 4.164006e+01 2.972948e+01 4.992669e+01 3.031990e+01 4.385207e+01 3.299951e+01 2.306500e+01 2.001202e+01 1.605381e+01 2.169014e+01 3.497921e+00 1.770302e+00 1.371404e+00 1.994537e+00 1.949790e+00 2.485723e+00 1.464097e+00 2.450875e+00 1.824784e+00 1.424423e+00 2.046942e+00 1.875461e+00 4.812492e-01 3.100237e-01 3.600135e-01 2.868724e-01 3.130593e-01 3.354549e-01 5.650678e-01 4.403131e-01 4.337720e-01 4.192860e-01 3.393697e-01 3.663773e-01 3.870686e-01 1.073072e-01
<GCONST> 1.084689e+02
<MIXTURE> 2 4.500392e-01
<MEAN> 39
 -2.717613e+01 -2.299060e+00 9.676705e+00 4.566585e+00 -8.412388e+00 3.221541e+00 -1.432524e-01 1.052430e+00 -9.732997e-01 -3.861006e+00 1.155893e+00 -2.360098e+00 7.023470e+01 8.471563e-01 -9.210445e-01 -1.182190e+00 -1.650067e-01 -1.155165e+00 -1.348628e+00 4.533395e-02 -5.089790e-02 -2.009437e-01 1.711862e-01 1.811080e-01 -1.015353e-01 -1.992831e-01 2.008585e+00 4.602667e-01 -1.463244e-01 -1.790312e-01 -5.007414e-01 -1.164142e+00 -9.750979e-01 -3.880675e-01 -2.902233e-01 -2.059374e-01 1.289743e-02 2.501084e-01 2.955369e-02
<VARIANCE> 39
 1.305693e+01 2.661529e+01 2.232112e+01 3.967048e+01 2.270374e+01 3.517120e+01 2.245491e+01 3.467194e+01 2.995456e+01 2.356904e+01 2.876079e+01 1.923983e+01 2.388362e+01 4.959395e+00 1.772499e+00 1.461267e+00 2.366063e+00 1.943803e+00 3.867477e+00 2.140137e+00 2.684708e+00 2.066125e+00 1.767855e+00 1.872427e+00 1.282832e+00 1.860507e-01 2.646661e-01 3.405221e-01 3.776850e-01 5.077668e-01 5.383935e-01 5.047024e-01 4.111099e-01 6.491654e-01 3.870161e-01 4.115905e-01 3.864298e-01 3.769707e-01 7.776257e-02
<GCONST> 1.083737e+02
<MIXTURE> 3 3.198994e-01
<MEAN> 39
 -2.589382e+01 3.787792e+00 7.922904e+00 3.398548e+00 -5.563150e+00 2.298442e+00 -1.711529e+00 3.088690e-01 -8.793492e-01 -3.761940e+00 2.233707e+00 4.552831e-01 6.919070e+01 -1.941502e+00 -1.487359e+00 -8.225484e-01 -5.454859e-02 3.848198e-01 8.337083e-01 1.285584e+00 7.398886e-01 3.500248e-01 3.791167e-01 3.388788e-01 -1.503155e-01 -8.589318e-02 1.286145e+00 -3.232285e-01 -2.668269e-01 -2.269238e-01 -6.711321e-01 -9.235181e-01 -4.250700e-01 -1.251292e-01 -2.766311e-01 -8.780137e-02 -3.423093e-02 -2.949828e-02 2.975833e-02
<VARIANCE> 39
 3.907324e+01 3.964411e+01 9.179667e+01 3.774099e+01 2.478779e+01 6.277713e+01 2.221348e+01 2.591696e+01 2.241614e+01 2.205825e+01 1.528030e+01 1.684037e+01 1.532654e+01 3.537234e+00 1.390140e+00 1.683621e+00 1.614035e+00 1.982726e+00 3.400286e+00 1.684787e+00 2.535634e+00 1.972820e+00 1.327715e+00 1.522690e+00 1.690005e+00 2.131009e-01 3.536398e-01 3.649827e-01 3.776630e-01 3.512363e-01 4.646587e-01 6.221188e-01 4.346544e-01 3.923004e-01 3.451234e-01 3.082147e-01 3.363968e-01 3.367353e-01 5.697557e-02
<GCONST> 1.073155e+02
<STATE> 4
<NUMMIXES> 3
<MIXTURE> 1 2.074188e-01
<MEAN> 39
 -1.946537e+01 -2.482479e+00 5.524819e+00 3.410666e+00 -1.236425e+01 -9.858767e-01 -8.825521e-01 3.359849e+00 -1.101860e+00 -3.428193e+00 3.691998e+00 -3.385657e-02 6.992404e+01 5.701832e+00 2.563277e-01 -6.816456e-01 6.627882e-02 -2.813671e-01 -2.990625e+00 -2.685581e+00 6.267608e-01 -5.948452e-01 -9.314718e-01 8.974829e-01 1.561648e-01 2.089862e-01 9.126537e-01 -1.245090e-01 4.620756e-01 -3.814466e-01 8.475690e-01 1.865004e-01 -1.172994e+00 2.371687e-01 8.933645e-03 -5.843850e-01 1.209814e-01 -4.676964e-02 3.226095e-01
<VARIANCE> 39
 5.196603e+01 4.188662e+01 1.256171e+01 3.231918e+01 1.118058e+01 2.178018e+01 2.645016e+01 2.054930e+01 1.165483e+01 1.293922e+01 1.526864e+01 1.395583e+01 1.565918e+01 1.620468e+00 2.237673e+00 1.839626e+00 1.890407e+00 2.315712e+00 2.957352e+00 3.752936e+00 2.345927e+00 1.974197e+00 1.884350e+00 1.202060e+00 1.332934e+00 8.260747e-01 1.244809e+00 4.698774e-01 2.033555e-01 2.484189e-01 1.480796e-01 4.555289e-01 9.694739e-01 6.093063e-01 3.472699e-01 3.490775e-01 2.577341e-01 2.789368e-01 6.986643e-02
<GCONST> 1.043706e+02
<MIXTURE> 2 4.387392e-01
<MEAN> 39
 -1.598980e+01 6.236413e-01 7.362886e+00 1.069395e+00 -1.382728e+01 -6.842045e+00 -6.137821e+00 -4.087209e+00 -5.191754e+00 -5.205585e+00 -1.062377e+00 -2.696456e+00 7.041527e+01 5.041782e+00 -5.966061e-01 -1.587728e+00 -1.618406e+00 -1.063792e+00 -2.111902e+00 -1.678240e+00 -8.459597e-01 -4.157317e-01 3.119834e-01 -1.053060e-01 3.726395e-01 -1.489981e-01 4.839014e-01 -2.810479e-01 -6.967897e-02 -2.063641e-01 4.202419e-01 2.723323e-01 -1.270885e-01 5.503856e-02 2.056212e-02 1.180492e-01 -9.762189e-02 1.306006e-01 8.787711e-03
<VARIANCE> 39
 6.821800e+01 2.460448e+01 4.253635e+01 6.049031e+01 5.821090e+01 5.103545e+01 3.874295e+01 6.153226e+01 3.790809e+01 2.663502e+01 2.644066e+01 1.822661e+01 2.058138e+01 5.958470e+00 3.244752e+00 3.220469e+00 2.718363e+00 3.688283e+00 5.030375e+00 2.973931e+00 7.196119e+00 2.562250e+00 2.221713e+00 2.947171e+00 2.439192e+00 7.941697e-01 1.261864e+00 3.587518e-01 3.184595e-01 6.387089e-01 5.477258e-01 8.846727e-01 5.561692e-01 1.328714e+00 5.617682e-01 3.425351e-01 6.453131e-01 3.508173e-01 9.804410e-02
<GCONST> 1.245771e+02
<MIXTURE> 3 3.538421e-01
<MEAN> 39
 -1.058293e+01 -2.372212e+00 5.360210e+00 6.432837e+00 -1.345427e+01 -8.721735e+00 -6.258798e+00 1.175475e+00 -3.591319e+00 -5.478385e+00 4.931510e+00 2.086242e-01 6.860952e+01 6.512178e+00 -7.629768e-01 -1.453375e+00 -3.821631e-01 7.694212e-01 -3.367414e+00 -4.100119e+00 4.231396e-01 2.241318e-01 -2.051941e+00 4.740973e-02 1.231596e+00 5.431701e-01 -2.054233e-01 -5.067181e-01 1.230430e-01 -3.427218e-01 8.461543e-01 6.578122e-01 -4.048981e-01 2.106051e-01 6.860735e-01 -8.872116e-02 -2.793562e-01 5.268021e-02 1.731367e-01
<VARIANCE> 39
 7.435180e+01 1.575091e+01 2.243962e+01 2.867498e+01 2.319093e+01 4.401111e+01 4.062260e+01 1.763700e+01 1.934420e+01 2.199254e+01 1.165885e+01 1.690105e+01 2.757350e+01 2.542005e+00 2.551972e+00 1.969977e+00 2.146885e+00 3.771479e+00 3.043549e+00 5.568786e+00 4.135629e+00 2.335525e+00 3.144112e+00 1.639957e+00 1.903746e+00 6.648282e-01 1.745852e+00 2.675998e-01 2.672837e-01 3.045257e-01 3.910051e-01 4.216593e-01 8.591431e-01 5.950288e-01 2.974177e-01 4.821619e-01 2.750123e-01 3.326797e-01 7.340872e-02
<GCONST> 1.122905e+02
<TRANSP> 5
 0.000000e+00 1.000000e+00 0.000000e+00 0.000000e+00 0.000000e+00
 0.000000e+00 6.607184e-01 3.392816e-01 0.000000e+00 0.000000e+00
 0.000000e+00 0.000000e+00 7.983059e-01 2.016941e-01 0.000000e+00
 0.000000e+00 0.000000e+00 0.000000e+00 5.959875e-01 4.040125e-01
 0.000000e+00 0.000000e+00 0.000000e+00 0.000000e+00 0.000000e+00
<ENDHMM>
~h "sil"
<BEGINHMM>
<NUMSTATES> 5
<STATE> 2
<NUMMIXES> 3
<MIXTURE> 1 5.666269e-02
<MEAN> 39
 -1.445139e+01 4.488446e+00 1.146800e+00 6.069316e+00 7.569023e+00 9.168105e+00 7.361128e+00 4.871679e+00 4.931990e+00 7.249362e+00 9.633699e+00 8.785814e+00 3.223875e+01 -3.029383e-03 5.695535e-03 6.119851e-03 3.511794e-03 1.790138e-02 1.088348e-02 -6.119482e-03 1.196186e-02 -1.544719e-02 5.783990e-03 8.053809e-03 -1.941599e-02 -3.829639e-03 1.056365e-02 4.525405e-04 -2.583990e-03 -2.384996e-02 -4.214955e-02 -5.607846e-02 -5.544158e-02 -4.515092e-02 -3.159519e-02 -4.546007e-02 -4.490656e-02 -1.903826e-02 8.297016e-03
<VARIANCE> 39
 1.038906e+00 1.496431e+00 2.168249e+00 3.731916e+00 6.998160e+00 9.100440e+00 8.225732e+00 7.372835e+00 7.455360e+00 1.438183e+01 2.357069e+01 2.694492e+01 8.044746e+01 4.859972e-02 1.219779e-01 1.962500e-01 3.421817e-01 3.966561e-01 4.881415e-01 6.551355e-01 7.710526e-01 7.284456e-01 7.700580e-01 7.238251e-01 7.566829e-01 3.764693e-02 9.297494e-03 2.392913e-02 3.896806e-02 6.687031e-02 8.505157e-02 1.131275e-01 1.497751e-01 1.647245e-01 1.480240e-01 1.683133e-01 1.592969e-01 1.595438e-01 6.111041e-03
<GCONST> 4.820251e+01
<MIXTURE> 2 3.390352e-01
<MEAN> 39
 -1.247330e+01 1.535445e+00 -1.253233e+00 1.292363e+00 8.456585e-02 -3.760183e-01 4.226238e-01 1.280740e+00 6.638901e-01 -2.181626e-01 -2.113625e-03 -3.135922e-01 5.203364e+01 -4.254858e-02 8.816610e-02 -4.652300e-02 3.281059e-02 8.040577e-02 1.388994e-01 6.995462e-03 -1.304257e-01 -3.227649e-02 -4.208094e-02 -7.041258e-02 -1.016668e-01 -2.114696e-01 4.611453e-02 1.382637e-03 3.916372e-02 -4.794796e-02 -2.664124e-02 -4.467450e-02 -6.972051e-02 -1.971196e-02 -3.377752e-02 -3.260111e-02 -2.116063e-02 -3.063748e-02 1.292960e-01
<VARIANCE> 39
 1.828094e+01 1.830491e+01 1.665119e+01 1.747972e+01 2.125819e+01 2.243600e+01 2.117051e+01 2.245461e+01 2.169135e+01 2.107268e+01 1.827750e+01 1.696569e+01 2.790453e+01 7.026808e-01 9.046600e-01 1.029449e+00 1.287402e+00 1.672548e+00 1.778077e+00 1.791934e+00 1.908373e+00 1.991710e+00 1.862474e+00 1.692163e+00 1.443775e+00 7.503423e-01 1.183590e-01 1.328449e-01 1.608552e-01 2.079511e-01 2.562391e-01 3.114973e-01 3.175348e-01 3.336626e-01 3.437088e-01 3.370640e-01 2.970480e-01 2.772774e-01 9.097908e-02
<GCONST> 9.537852e+01
<MIXTURE> 3 6.043023e-01
<MEAN> 39
 -1.289223e+01 3.191626e+00 -6.745189e-03 2.492495e+00 1.726398e+00 1.627623e+00 1.244650e+00 1.036770e+00 9.723425e-01 1.428255e-02 3.677132e-01 -2.504579e-01 4.855239e+01 -2.235480e-02 3.222837e-02 4.391393e-02 2.311674e-02 2.317116e-03 2.728168e-02 1.116269e-02 1.801113e-02 2.373595e-02 4.901064e-02 4.570460e-02 1.866925e-02 -3.442405e-02 7.242551e-03 -9.682423e-03 -6.522098e-03 -1.004448e-02 -1.799809e-02 -2.231978e-02 -2.326500e-03 5.276779e-03 -2.027721e-03 -3.858171e-03 3.544828e-03 6.723160e-03 2.452158e-02
<VARIANCE> 39
 4.256400e+00 3.711901e+00 5.731755e+00 7.136514e+00 8.723947e+00 9.816586e+00 1.043469e+01 1.111036e+01 1.179747e+01 1.180731e+01 1.206124e+01 1.073559e+01 6.229420e+00 9.810091e-02 2.074192e-01 3.586351e-01 5.376012e-01 7.389659e-01 9.191468e-01 1.005600e+00 1.151162e+00 1.254171e+00 1.223894e+00 1.180055e+00 1.040334e+00 4.308617e-02 2.050793e-02 4.056090e-02 6.991173e-02 1.055320e-01 1.480459e-01 1.817659e-01 1.977480e-01 2.264451e-01 2.533546e-01 2.408394e-01 2.343359e-01 2.082174e-01 9.872619e-03
<GCONST> 6.153159e+01
<STATE> 3
~s "silst"
<STATE> 4
<NUMMIXES> 3
<MIXTURE> 1 1.479448e-01
<MEAN> 39
 -1.016884e+01 5.092541e+00 1.692110e+00 2.242723e+00 -1.631733e+00 -3.644364e+00 -4.420258e+00 1.199664e-01 -7.096105e-01 -1.878665e+00 -2.467503e-01 -1.036131e+00 5.915355e+01 -2.125290e+00 9.709055e-01 -3.658949e-01 9.276686e-01 1.551916e+00 8.425799e-01 1.665381e+00 2.166039e-01 1.846027e-01 3.494762e-01 1.361316e-02 5.390922e-01 -1.393440e+00 -9.860296e-02 -5.889633e-01 -2.210824e-01 -4.377618e-01 -2.522491e-01 1.628687e-01 -4.497673e-02 1.129074e-01 -4.506882e-02 3.092453e-02 1.659425e-01 -7.732566e-02 3.820807e-01
<VARIANCE> 39
 7.660355e+01 4.171581e+01 4.368905e+01 2.881424e+01 3.797754e+01 4.714361e+01 6.475005e+01 4.248099e+01 4.139947e+01 2.995916e+01 2.313229e+01 2.653201e+01 6.650840e+01 5.668785e+00 5.701760e+00 4.435863e+00 3.773359e+00 4.308460e+00 4.300174e+00 5.188474e+00 4.694708e+00 4.552577e+00 2.902553e+00 3.040120e+00 2.676407e+00 4.344214e+00 8.916823e-01 8.491775e-01 5.291564e-01 5.968450e-01 7.818184e-01 7.041396e-01 9.844607e-01 7.111337e-01 6.557873e-01 4.933803e-01 4.823075e-01 4.615399e-01 7.978877e-01
<GCONST> 1.333458e+02
<MIXTURE> 2 4.289383e-01
<MEAN> 39
 -4.891906e+00 -2.216315e+00 -3.398102e-01 -6.066902e+00 -7.962369e+00 -3.753391e+00 -6.888217e+00 -1.726636e+00 -4.165190e+00 -3.267469e+00 -2.782005e-01 -3.961421e+00 6.732196e+01 7.866435e-01 -3.402831e-01 1.210476e-01 -5.296856e-01 -7.452784e-01 -4.555300e-01 -7.352756e-01 -4.969259e-02 -9.967156e-02 -2.268140e-01 -1.073278e-01 -3.309726e-01 1.029950e+00 -1.486944e-01 1.602772e-01 4.829946e-02 2.150140e-01 1.767042e-01 9.490727e-02 1.442466e-01 7.705217e-02 8.570240e-02 1.545532e-02 3.221811e-02 3.212299e-02 -2.372870e-01
<VARIANCE> 39
 5.922663e+01 5.461586e+01 9.562652e+01 6.780189e+01 6.475855e+01 1.007321e+02 6.954031e+01 7.349309e+01 7.301292e+01 4.696443e+01 6.930700e+01 3.986666e+01 4.961459e+01 4.401947e+00 3.816909e+00 4.201972e+00 5.077818e+00 5.167693e+00 4.734499e+00 5.509548e+00 5.291500e+00 5.751406e+00 3.760750e+00 4.372641e+00 3.316015e+00 4.972071e+00 6.003476e-01 5.792994e-01 5.670475e-01 6.748874e-01 7.950558e-01 7.656082e-01 9.131435e-01 8.963692e-01 9.088531e-01 6.767522e-01 7.709170e-01 5.704170e-01 5.106279e-01
<GCONST> 1.409373e+02
<MIXTURE> 3 4.231158e-01
<MEAN> 39
 -6.507049e+00 -1.302871e+00 5.195436e-01 -2.848668e+00 -5.716695e+00 -1.371818e+00 -5.226503e+00 7.482431e-01 -2.032006e+00 -2.801904e+00 1.603279e+00 -3.417367e+00 6.435925e+01 -6.196444e-02 1.798486e-01 1.390144e-03 2.085927e-01 1.792883e-01 -6.313972e-03 1.309671e-01 -1.161540e-01 -5.297668e-02 3.459465e-03 -3.612676e-02 9.096001e-02 -2.467330e-01 -1.762965e-02 9.203232e-02 -6.342176e-04 6.469347e-02 5.129443e-02 -3.893791e-02 3.855518e-02 -3.922876e-02 -2.768709e-03 1.264966e-02 -4.857669e-02 4.109005e-02 -8.904677e-02
<VARIANCE> 39
 8.325938e+01 5.815972e+01 8.439030e+01 5.242796e+01 5.898283e+01 6.582921e+01 8.166694e+01 6.081264e+01 6.852832e+01 3.785217e+01 3.904956e+01 3.430607e+01 8.316480e+01 1.620393e+00 2.133773e+00 2.118409e+00 2.013212e+00 2.317546e+00 2.367469e+00 2.909100e+00 2.996706e+00 3.252814e+00 2.203170e+00 2.344516e+00 1.946123e+00 1.669122e+00 4.186098e-01 3.975398e-01 3.559787e-01 3.809692e-01 4.887695e-01 4.598175e-01 6.795899e-01 5.903805e-01 6.443825e-01 4.285282e-01 4.273702e-01 3.883591e-01 3.382091e-01
<GCONST> 1.250081e+02
<TRANSP> 5
 0.000000e+00 1.000000e+00 0.000000e+00 0.000000e+00 0.000000e+00
 0.000000e+00 8.924757e-01 4.502562e-02 6.249867e-02 0.000000e+00
 0.000000e+00 0.000000e+00 7.723966e-01 2.276033e-01 0.000000e+00
 0.000000e+00 2.565159e-02 0.000000e+00 8.580998e-01 1.162486e-01
 0.000000e+00 0.000000e+00 0.000000e+00 0.000000e+00 0.000000e+00
<ENDHMM>
