~o
<STREAMINFO> 1 39
<VECSIZE> 39<NULLD><MFCC_D_A_0><DIAGC>
~s "silst"
<NUMMIXES> 3
<MIXTURE> 1 2.243074e-01
<MEAN> 39
<VARIANCE> 39
<GCONST> 1.081589e+02
<MIXTURE> 2 3.774393e-01
<MEAN> 39
<VARIANCE> 39
<GCONST> 1.165217e+02
<MIXTURE> 3 3.982528e-01
<MEAN> 39
<VARIANCE> 39
<GCONST> 1.071458e+02
~h "a"
<BEGINHMM>
<NUMSTATES> 5
<STATE> 2
<NUMMIXES> 3
<MIXTURE> 1 1.700133e-01
<MEAN> 39
<VARIANCE> 39
<GCONST> 8.928732e+01
<MIXTURE> 2 3.530330e-01
<MEAN> 39
<VARIANCE> 39
<GCONST> 1.207273e+02
<MIXTURE> 3 4.769532e-01
<MEAN> 39
<VARIANCE> 39
<GCONST> 9.237383e+01
<STATE> 3
<NUMMIXES> 3
<MIXTURE> 1 2.842904e-01
<MEAN> 39
<VARIANCE> 39
<GCONST> 1.033115e+02
<MIXTURE> 2 3.363882e-01
<MEAN> 39
<VARIANCE> 39
<GCONST> 1.264345e+02
<MIXTURE> 3 3.793217e-01
<MEAN> 39
<VARIANCE> 39
<GCONST> 1.119587e+02
<STATE> 4
<NUMMIXES> 3
<MIXTURE> 1 2.396481e-01
<MEAN> 39
<VARIANCE> 39
<GCONST> 1.227872e+02
<MIXTURE> 2 4.436584e-01
<MEAN> 39
<VARIANCE> 39
<GCONST> 1.306540e+02
<MIXTURE> 3 3.166936e-01
<MEAN> 39
<VARIANCE> 39
<GCONST> 1.271604e+02
<TRANSP> 5
 0.000000e+00 1.000000e+00 0.000000e+00 0.000000e+00 0.000000e+00
 0.000000e+00 8.380987e-01 1.619013e-01 0.000000e+00 0.000000e+00
 0.000000e+00 0.000000e+00 5.827603e-01 4.172397e-01 0.000000e+00
 0.000000e+00 0.000000e+00 0.000000e+00 4.506640e-01 5.493360e-01
 0.000000e+00 0.000000e+00 0.000000e+00 0.000000e+00 0.000000e+00
<ENDHMM>
~h "fill"
<BEGINHMM>
<NUMSTATES> 7
<STATE> 2
<NUMMIXES> 5
<MIXTURE> 1 1.700133e-01
<MEAN> 39
<VARIANCE> 39
<GCONST> 8.928732e+01
<MIXTURE> 2 3.530330e-01
<MEAN> 39
<VARIANCE> 39
<GCONST> 1.207273e+02
<MIXTURE> 3 4.769532e-01
<MEAN> 39
<VARIANCE> 39
<GCONST> 9.237383e+01
<STATE> 3
<NUMMIXES> 3
<MIXTURE> 1 2.842904e-01
<MEAN> 39
<VARIANCE> 39
<GCONST> 1.033115e+02
<MIXTURE> 2 3.363882e-01
<MEAN> 39
<VARIANCE> 39
<GCONST> 1.264345e+02
<MIXTURE> 3 3.793217e-01
<MEAN> 39
<VARIANCE> 39
<GCONST> 1.119587e+02
<STATE> 4
<NUMMIXES> 3
<MIXTURE> 1 2.396481e-01
<MEAN> 39
<VARIANCE> 39
<GCONST> 1.227872e+02
<MIXTURE> 2 4.436584e-01
<MEAN> 39
<VARIANCE> 39
<GCONST> 1.306540e+02
<MIXTURE> 3 3.166936e-01
<MEAN> 39
<VARIANCE> 39
<GCONST> 1.271604e+02
<TRANSP> 5
 0.000000e+00 1.000000e+00 0.000000e+00 0.000000e+00 0.000000e+00
 0.000000e+00 8.380987e-01 1.619013e-01 0.000000e+00 0.000000e+00
 0.000000e+00 0.000000e+00 5.827603e-01 4.172397e-01 0.000000e+00
 0.000000e+00 0.000000e+00 0.000000e+00 4.506640e-01 5.493360e-01
 0.000000e+00 0.000000e+00 0.000000e+00 0.000000e+00 0.000000e+00
<ENDHMM>
~h "b"
<BEGINHMM>
<NUMSTATES> 5
<STATE> 2
<NUMMIXES> 3
<MIXTURE> 1 1.253265e-01
<MEAN> 39
<VARIANCE> 39
<GCONST> 1.297752e+02
<MIXTURE> 2 3.823067e-01
<MEAN> 39
<VARIANCE> 39
<GCONST> 1.346548e+02
<MIXTURE> 3 4.923671e-01
<MEAN> 39
<VARIANCE> 39
<GCONST> 1.180498e+02
<STATE> 3
<NUMMIXES> 3
<MIXTURE> 1 2.182174e-01
<MEAN> 39
<VARIANCE> 39
<GCONST> 1.028026e+02
<MIXTURE> 2 3.678237e-01
<MEAN> 39
<VARIANCE> 39
<GCONST> 1.352662e+02
<MIXTURE> 3 4.139589e-01
<MEAN> 39
<VARIANCE> 39
<GCONST> 1.168437e+02
<STATE> 4
<NUMMIXES> 3
<MIXTURE> 1 1.767890e-01
<MEAN> 39
<VARIANCE> 39
<GCONST> 1.382708e+02
<MIXTURE> 2 3.887340e-01
<MEAN> 39
<VARIANCE> 39
<GCONST> 1.391755e+02
<MIXTURE> 3 4.344783e-01
<MEAN> 39
<VARIANCE> 39
<GCONST> 1.250000e+02
<TRANSP> 5
 0.000000e+00 1.000000e+00 0.000000e+00 0.000000e+00 0.000000e+00
 0.000000e+00 3.434718e-01 6.565283e-01 0.000000e+00 0.000000e+00
 0.000000e+00 0.000000e+00 4.379044e-01 5.620956e-01 0.000000e+00
 0.000000e+00 0.000000e+00 0.000000e+00 7.142438e-01 2.857562e-01
 0.000000e+00 0.000000e+00 0.000000e+00 0.000000e+00 0.000000e+00
<ENDHMM>
~h "c"
<BEGINHMM>
<NUMSTATES> 5
<STATE> 2
<NUMMIXES> 3
<MIXTURE> 1 2.217951e-01
<MEAN> 39
<VARIANCE> 39
<GCONST> 1.227594e+02
<MIXTURE> 2 4.477762e-01
<MEAN> 39
<VARIANCE> 39
<GCONST> 1.170387e+02
<MIXTURE> 3 3.304286e-01
<MEAN> 39
<VARIANCE> 39
<GCONST> 1.214202e+02
<STATE> 3
<NUMMIXES> 3
<MIXTURE> 1 1.496567e-01
<MEAN> 39
<VARIANCE> 39
<GCONST> 8.749120e+01
<MIXTURE> 2 4.748111e-01
<MEAN> 39
<VARIANCE> 39
<GCONST> 1.055084e+02
<MIXTURE> 3 3.755320e-01
<MEAN> 39
<VARIANCE> 39
<GCONST> 8.718125e+01
<STATE> 4
<NUMMIXES> 3
<MIXTURE> 1 2.597674e-01
<MEAN> 39
<VARIANCE> 39
<GCONST> 1.386660e+02
<MIXTURE> 2 3.605001e-01
<MEAN> 39
<VARIANCE> 39
<GCONST> 1.201000e+02
<MIXTURE> 3 3.797323e-01
<MEAN> 39
<VARIANCE> 39
<GCONST> 1.171152e+02
<TRANSP> 5
 0.000000e+00 1.000000e+00 0.000000e+00 0.000000e+00 0.000000e+00
 0.000000e+00 6.533906e-01 3.466094e-01 0.000000e+00 0.000000e+00
 0.000000e+00 0.000000e+00 8.346560e-01 1.653440e-01 0.000000e+00
 0.000000e+00 0.000000e+00 0.000000e+00 7.043283e-01 2.956718e-01
 0.000000e+00 0.000000e+00 0.000000e+00 0.000000e+00 0.000000e+00
<ENDHMM>
